<?xml version="1.0"?>
<MethodSetup Method="MLP::MLPBNN">
  <GeneralInfo>
    <Info name="TMVA Release" value="4.2.1 [262657]"/>
    <Info name="ROOT Release" value="6.18/00 [397824]"/>
    <Info name="Creator" value="jxiang"/>
    <Info name="Date" value="Mon Sep  9 20:58:48 2019"/>
    <Info name="Host" value="Linux buildvm-30.phx2.fedoraproject.org 5.0.6-200.fc29.x86_64 #1 SMP Wed Apr 3 15:09:51 UTC 2019 x86_64 x86_64 x86_64 GNU/Linux"/>
    <Info name="Dir" value="/eos/home-j/jxiang/Train_Calibrated_JVT/jvt_tbdnn_gittest/Check_ROC/MLP_V4"/>
    <Info name="Training events" value="80000"/>
    <Info name="TrainingTime" value="3.14824305e+03"/>
    <Info name="AnalysisType" value="Classification"/>
  </GeneralInfo>
  <Options>
    <Option name="NCycles" modified="Yes">600</Option>
    <Option name="HiddenLayers" modified="Yes">N+10,N+5</Option>
    <Option name="NeuronType" modified="Yes">tanh</Option>
    <Option name="RandomSeed" modified="No">1</Option>
    <Option name="EstimatorType" modified="No">CE</Option>
    <Option name="NeuronInputType" modified="No">sum</Option>
    <Option name="V" modified="Yes">False</Option>
    <Option name="VerbosityLevel" modified="No">Default</Option>
    <Option name="VarTransform" modified="Yes">N</Option>
    <Option name="H" modified="Yes">True</Option>
    <Option name="CreateMVAPdfs" modified="No">False</Option>
    <Option name="IgnoreNegWeightsInTraining" modified="No">False</Option>
    <Option name="TrainingMethod" modified="Yes">BFGS</Option>
    <Option name="LearningRate" modified="No">2.000000e-02</Option>
    <Option name="DecayRate" modified="No">1.000000e-02</Option>
    <Option name="TestRate" modified="Yes">5</Option>
    <Option name="EpochMonitoring" modified="No">False</Option>
    <Option name="Sampling" modified="No">1.000000e+00</Option>
    <Option name="SamplingEpoch" modified="No">1.000000e+00</Option>
    <Option name="SamplingImportance" modified="No">1.000000e+00</Option>
    <Option name="SamplingTraining" modified="No">True</Option>
    <Option name="SamplingTesting" modified="No">False</Option>
    <Option name="ResetStep" modified="No">50</Option>
    <Option name="Tau" modified="No">3.000000e+00</Option>
    <Option name="BPMode" modified="No">sequential</Option>
    <Option name="BatchSize" modified="No">-1</Option>
    <Option name="ConvergenceImprove" modified="No">1.000000e-30</Option>
    <Option name="ConvergenceTests" modified="No">-1</Option>
    <Option name="UseRegulator" modified="Yes">True</Option>
    <Option name="UpdateLimit" modified="No">10000</Option>
    <Option name="CalculateErrors" modified="No">False</Option>
    <Option name="WeightRange" modified="No">1.000000e+00</Option>
  </Options>
  <Variables NVar="4">
    <Variable VarIndex="0" Expression="jvfcorr" Label="jvfcorr" Title="jvfcorr" Unit="units" Internal="jvfcorr" Type="F" Min="-1.00000000e+00" Max="1.00000000e+00"/>
    <Variable VarIndex="1" Expression="RpT_" Label="RpT_" Title="RpT_" Unit="units" Internal="RpT_" Type="F" Min="-1.00000000e+00" Max="2.02866125e+00"/>
    <Variable VarIndex="2" Expression="eta_" Label="eta_" Title="eta_" Unit="units" Internal="eta_" Type="F" Min="-2.49996424e+00" Max="2.49999070e+00"/>
    <Variable VarIndex="3" Expression="pt_" Label="pt_" Title="pt_" Unit="units" Internal="pt_" Type="F" Min="2.00006934e+04" Max="1.19999852e+05"/>
  </Variables>
  <Spectators NSpec="0"/>
  <Classes NClass="2">
    <Class Name="Signal" Index="0"/>
    <Class Name="Background" Index="1"/>
  </Classes>
  <Transformations NTransformations="1">
    <Transform Name="Normalize">
      <Selection>
        <Input NInputs="4">
          <Input Type="Variable" Label="jvfcorr" Expression="jvfcorr"/>
          <Input Type="Variable" Label="RpT_" Expression="RpT_"/>
          <Input Type="Variable" Label="eta_" Expression="eta_"/>
          <Input Type="Variable" Label="pt_" Expression="pt_"/>
        </Input>
        <Output NOutputs="4">
          <Output Type="Variable" Label="jvfcorr" Expression="jvfcorr"/>
          <Output Type="Variable" Label="RpT_" Expression="RpT_"/>
          <Output Type="Variable" Label="eta_" Expression="eta_"/>
          <Output Type="Variable" Label="pt_" Expression="pt_"/>
        </Output>
      </Selection>
      <Class ClassIndex="0">
        <Ranges>
          <Range Index="0" Min="-1.0000000000000000e+00" Max="1.0000000000000000e+00"/>
          <Range Index="1" Min="-1.0000000000000000e+00" Max="2.0286612510681152e+00"/>
          <Range Index="2" Min="-2.4999403953552246e+00" Max="2.4999608993530273e+00"/>
          <Range Index="3" Min="2.0000890625000000e+04" Max="1.1999985156250000e+05"/>
        </Ranges>
      </Class>
      <Class ClassIndex="1">
        <Ranges>
          <Range Index="0" Min="-1.0000000000000000e+00" Max="1.0000000000000000e+00"/>
          <Range Index="1" Min="0.0000000000000000e+00" Max="1.3647530078887939e+00"/>
          <Range Index="2" Min="-2.4999642372131348e+00" Max="2.4999907016754150e+00"/>
          <Range Index="3" Min="2.0000693359375000e+04" Max="1.1617850000000000e+05"/>
        </Ranges>
      </Class>
      <Class ClassIndex="2">
        <Ranges>
          <Range Index="0" Min="-1.0000000000000000e+00" Max="1.0000000000000000e+00"/>
          <Range Index="1" Min="-1.0000000000000000e+00" Max="2.0286612510681152e+00"/>
          <Range Index="2" Min="-2.4999642372131348e+00" Max="2.4999907016754150e+00"/>
          <Range Index="3" Min="2.0000693359375000e+04" Max="1.1999985156250000e+05"/>
        </Ranges>
      </Class>
    </Transform>
  </Transformations>
  <MVAPdfs/>
  <Weights>
    <Layout NLayers="4">
      <Layer Index="0" NNeurons="5">
        <Neuron NSynapses="14">
          4.1069176184181799e-01 1.5635113574843893e+00 5.8593956558433236e-01 1.6018899159459232e+00 -1.2802723123649047e+00 -1.7254614935792973e+00 1.9579269112380457e-01 2.0623120838050504e+00 -2.1384324824220911e+00 -1.0649718262471792e+00 -9.9875436362933934e-01 -3.6601824367764529e-01 2.3878339754728275e-02 2.8452963813389515e-01 
        </Neuron>
        <Neuron NSynapses="14">
          -7.8159867379937631e-01 5.1348849287697051e-01 3.4126785518585151e-01 8.2043870151233622e-01 2.9586923716272590e-01 1.0781830713813223e+00 -1.3240136549442016e+00 1.2112904960296904e+00 1.2651178276930320e-02 1.3937892978202387e-01 -5.8194863936348917e-01 -6.8650906959454305e-01 7.0042668233108074e-01 -2.8674494315931622e+00 
        </Neuron>
        <Neuron NSynapses="14">
          -4.2805360390227931e-01 6.7331315640882772e-01 1.7544540504023780e+00 -4.1487885430921620e-02 2.4241146228327546e-02 -2.3569092988242771e-01 3.8597362524582657e-01 -4.7658590240053167e-01 -4.1721679823432549e-02 1.7167802478799439e+00 -9.0198164605421738e-02 1.6795804817972617e+00 1.2284743674892507e-01 -6.2399051093715671e-02 
        </Neuron>
        <Neuron NSynapses="14">
          1.4747957567484486e+00 1.1105446690813474e+00 -5.8952502483775227e-01 -1.8762757095483100e+00 4.6258726229994007e-01 -3.1813925350568328e-01 1.0253522911229453e+00 2.0553549656602561e+00 7.6585010291039468e-01 2.8784542995801293e-01 -9.1564481608718196e-01 7.3782224981520206e-01 -1.9441422019584047e+00 -5.3522630525932124e-01 
        </Neuron>
        <Neuron NSynapses="14">
          -5.8906687335093366e-01 -1.4997283188041530e+00 2.0633062816129137e+00 1.8413355542079362e+00 -1.7131791250091155e+00 -4.1744663062990867e-01 -6.2991246566704795e-01 -1.1921007026484083e+00 8.3388291399143633e-01 -1.0906262293383873e+00 2.0972490187826365e-01 -7.5658872932634025e-01 1.5625012267559524e+00 -1.4010676643226805e+00 
        </Neuron>
      </Layer>
      <Layer Index="1" NNeurons="15">
        <Neuron NSynapses="9">
          -5.8637299011416610e-01 -1.0770092966894802e+00 -1.2644022440325584e+00 7.3024706179533272e-01 3.9263072657575632e-01 -4.9500934118403089e-01 -1.9094661891041838e+00 -1.0476024568734159e+00 8.3383151256726828e-01 
        </Neuron>
        <Neuron NSynapses="9">
          4.5190338655791179e-01 1.2118757753834792e+00 3.7011198928564859e-01 1.2260662795878563e+00 -1.4451649230813710e+00 -5.0181911517919930e-01 8.7208085987784201e-01 6.1973116434355457e-01 -1.0535305643798072e+00 
        </Neuron>
        <Neuron NSynapses="9">
          -1.3930418675215264e+00 -1.3449621632710052e+00 -5.3327773567403403e-01 1.4751441609929283e-01 1.3762111434194169e+00 -1.0164938948215341e+00 -8.6410685027064438e-01 1.3157038882355205e+00 -6.7985029659459473e-01 
        </Neuron>
        <Neuron NSynapses="9">
          -1.3320233312804175e+00 -1.4424085080061775e+00 -6.5966432707604150e-01 -1.2381365913403577e+00 -1.5289239965673671e+00 9.5764805633537198e-01 1.3770862249049309e+00 -8.7429271754444982e-01 1.3675471606752527e+00 
        </Neuron>
        <Neuron NSynapses="9">
          -7.3506674932124894e-01 -8.1792241916732256e-01 1.5776894132485356e-01 1.0405449931977037e-01 -1.8743746387501456e+00 -1.0731504426960885e-01 5.1070748326331523e-02 1.2201946123866074e-01 -1.2224287482474576e+00 
        </Neuron>
        <Neuron NSynapses="9">
          1.4810840765213784e+00 3.2245487173121506e-01 -8.9831664199861161e-01 3.8856597894984612e-01 -1.0670305412986005e+00 -1.8177196305628085e+00 -2.9663285455451632e-01 -5.6690528237886983e-01 1.5418268482881354e+00 
        </Neuron>
        <Neuron NSynapses="9">
          7.4899807800437235e-01 1.2506584190975401e-01 -1.8541822168278732e+00 6.0809453118135282e-01 -1.4322232888111575e+00 9.8717223811300225e-01 4.1908175504568157e-01 -1.3508923390641383e+00 4.7503989086409010e-01 
        </Neuron>
        <Neuron NSynapses="9">
          -1.2659093200211140e+00 -1.5149781805618631e-01 3.2301199676747389e-01 2.4921347716046869e+00 -1.4131563167531718e+00 4.1253468997669879e-02 1.6082434517058264e+00 1.0523766675797372e+00 1.3023041763398394e-01 
        </Neuron>
        <Neuron NSynapses="9">
          -1.2208491242186044e+00 2.7852852051240812e-01 4.5278599340803483e-01 1.3379248388570777e+00 1.1682458677831504e+00 -4.4208517801044477e-02 -2.0120422172385091e-01 1.1343022936802138e-01 -1.0330772664135179e+00 
        </Neuron>
        <Neuron NSynapses="9">
          5.6422490163660832e-01 1.4853176565008417e+00 2.2362563243078781e-01 -4.5068011340243375e-01 -1.8774237300904710e-02 1.0988989225526771e+00 1.2629059548656059e+00 -5.7286582528359165e-01 -1.3969170519599898e+00 
        </Neuron>
        <Neuron NSynapses="9">
          1.2281785723391543e+00 6.7423952659176456e-01 -1.3866234523858427e+00 -1.1441783041575164e+00 7.7898617259656844e-01 -4.8618783657809361e-01 -6.8923203510853326e-01 1.3453207663752154e+00 -6.4399554078487453e-01 
        </Neuron>
        <Neuron NSynapses="9">
          -4.2455878570455091e-01 1.3829421790668011e+00 -3.2188095441371389e-01 -1.0867671815701679e-02 1.1704632819019434e+00 1.9623852534129171e+00 -1.0603525760321584e+00 7.0041539536331532e-01 -1.0119440662284696e-01 
        </Neuron>
        <Neuron NSynapses="9">
          3.9468447860507799e-01 -1.4287106765924229e+00 -8.2456804572765208e-01 5.0166654524863941e-01 1.5945288134988078e+00 -1.5148006211541598e+00 -2.0082523641843822e-01 3.5508392633795439e-03 3.5146021835337632e-01 
        </Neuron>
        <Neuron NSynapses="9">
          1.5102911204202292e+00 -3.9463135843801317e-01 -2.9283962281979692e+00 -1.3632254989408645e+00 6.5378527713379597e-01 2.0244041298279343e+00 2.6515755312948195e+00 4.8699783878706460e-01 -6.3701500371823294e-01 
        </Neuron>
        <Neuron NSynapses="9">
          -1.6818735074593179e+00 1.1189792657378055e+00 3.4321304348378340e-01 -9.9732278413315789e-01 -1.4282790665368286e-01 5.7035097501844711e-01 3.9519143332884332e-01 -1.6244237518600111e+00 1.3312406193766002e+00 
        </Neuron>
      </Layer>
      <Layer Index="2" NNeurons="10">
        <Neuron NSynapses="1">
          3.3203492669151435e-01 
        </Neuron>
        <Neuron NSynapses="1">
          -7.5481602655179614e-01 
        </Neuron>
        <Neuron NSynapses="1">
          3.7863041244412305e+00 
        </Neuron>
        <Neuron NSynapses="1">
          -1.0109260540225302e+00 
        </Neuron>
        <Neuron NSynapses="1">
          -1.5034076597778570e+00 
        </Neuron>
        <Neuron NSynapses="1">
          8.1228836803462445e-01 
        </Neuron>
        <Neuron NSynapses="1">
          2.5053874614190152e+00 
        </Neuron>
        <Neuron NSynapses="1">
          -2.1663089581015447e+00 
        </Neuron>
        <Neuron NSynapses="1">
          -2.6231484867648580e-01 
        </Neuron>
        <Neuron NSynapses="1">
          1.9470469014025713e+00 
        </Neuron>
      </Layer>
      <Layer Index="3" NNeurons="1">
        <Neuron NSynapses="0"/>
      </Layer>
    </Layout>
    <InverseHessian NElements="46225" NRows="215" NCols="215">
      <Row Index="0">
        1.6119846799464859e+00 -4.4065566268207684e-01 2.8787433866629342e-01 -3.6303380998073354e-01 -4.2309484475334678e+01 1.8287480241521464e-01 4.2051740930105497e-01 -6.1443043799012320e-01 -1.3781444171304107e+00 -9.4371027151325462e-02 -2.3188344866860794e-01 1.4298398398400092e-01 1.3303784246012829e+00 -9.0721603634333903e-02 5.2714856428468548e-01 3.8392630907187031e-02 -4.6107410564649226e-01 5.1489179802712726e-02 6.5818774874061717e+01 -1.5079779250354974e+00 -3.5404811560998825e-02 -1.1097456334967040e+00 1.5722955689481510e+00 2.0002416904927101e-02 -6.3953169702624235e-01 -9.8052120908717205e-02 -1.2363201041839289e+00 5.9946425879452803e-01 -8.9523906257427580e-02 -1.1569543341005879e-01 8.2006821409844566e-01 6.4266780765054732e-01 -7.0394361692804228e+00 -2.5100477266520499e-01 3.0806583325013643e-02 1.2753769430070963e-01 -5.9661293905454556e-02 2.3973875689685242e-01 -2.6496207429006987e-02 2.4251694783520530e-01 3.1270229710403841e-01 1.9008654634641502e-02 2.1572354870337390e-01 -2.0877160123578575e-01 -3.2668427752665034e-02 1.4803605123963484e+00 -1.6357906424873406e+01 3.4190410243199093e-01 4.6531365977928625e-02 -5.3545485590062680e-01 3.4380853193812710e-01 9.8031962613720880e-02 -3.7734270357404998e-01 4.9986718388746222e-02 -1.1134944393409172e+00 2.4930259044214816e-02 -1.0562103337352617e+00 3.5366259530485167e-01 -3.1850885183133082e-01 -2.8542788424957635e-02 -2.1718700609726007e+01 -1.3461687559330573e-01 -3.1976318434638518e-01 9.7839898948170537e-02 1.1839853959047562e+00 -2.1864972342818201e-01 -3.0288242405094656e-01 -2.5542870804802292e-01 -1.3519435887326898e+00 1.2546491891382588e-01 -3.8579265485393329e+01 -6.6225794924591597e+00 -7.3975020282629400e-01 -1.3047327612071351e+00 5.4004609038141660e-01 -1.5812876567428376e+00 -4.6387976281734788e-01 -1.1338535227940905e+00 -4.3758679849418456e+01 1.5205331108595431e+01 4.0508262021229466e+00 3.2510430188662631e-01 4.2801991099782055e-01 5.5131262463574127e-01 -5.2871028219469796e-01 2.5258195979025316e-01 -1.3729325188593933e-03 6.8520129129795038e+01 -5.8735783830703646e+01 2.0575319271051768e+01 4.9536192879358537e-01 -2.7395987008937728e-01 -3.2954554419947639e+00 -5.8734569145455691e+00 1.7975750063001792e+00 -2.7176960982703040e+00 1.2517866313342935e+01 1.7117405470476257e+00 4.0622202912685808e+00 -2.3449884747923271e+00 2.6368165983806859e+00 9.5328247333188241e+00 3.2655293149691196e+00 9.5209548313948700e-01 -2.0541677515720456e+00 -4.2716923414373753e+01 4.3315112222855191e+01 -1.3590759702402750e+01 -9.3544101452449819e+00 2.5579971850369304e+01 1.3389123666470205e+01 -1.1962070967973304e-02 8.6556284002485073e-01 -1.2127246302587636e+01 4.9511476646624288e+00 4.4129067483331719e+00 9.5287770142496910e+00 6.4987544717963763e-01 -1.6776377304031689e+00 5.8366753367263247e-01 -1.1149345768501462e-01 7.9771624042130818e-01 4.3009538620945476e-01 -4.4711321337869379e+01 2.5375269868606097e+01 1.0544678389180733e+00 6.1739841868594381e-02 7.4323262133711232e-01 -3.1263381540615659e-01 1.0989308712631889e+00 -6.4097457761492893e-01 1.3189412005636425e-01 -4.3015234126500474e+01 4.1341514403858227e+01 -8.3943706719121991e-01 1.0052219096617703e+00 -3.1348315219500988e-02 -5.7966829209700366e-01 1.1063725570360652e+00 1.5514491366062562e+00 1.0640207695860266e+00 -3.3715291738078371e+01 -2.0371192764878137e+00 -9.7541084991806737e-01 -7.1398663351241320e-01 -1.9921362439331396e+00 -3.8893453419438231e+00 1.0098734846861145e-01 -7.8521175982676150e-01 -2.6026815179748131e-01 6.3221434994760140e-01 2.6496273805999699e+00 -3.7826403936843533e+00 7.5870879373542408e-02 1.1720141913331217e+00 6.1082135941612314e-01 -7.5668276127923084e-01 7.2343477038643189e-02 -3.7534599102423960e-03 1.6780196503158471e+01 2.2792155263316207e+01 -1.3313400250909473e+00 5.1317035876745976e-01 4.1529176247589472e+00 3.2264231484255625e+00 7.1874601772045799e-01 2.5916238126462421e-01 -5.4255899657369833e-01 1.9764529410859495e+01 -1.3175843776088676e+01 2.0643514820455531e+00 -2.2905908378436146e-02 -7.0272922653771275e-01 -6.6722594735741803e-01 -2.1330368596546412e-01 3.6664763013516521e-01 -2.9437153649939096e-02 -5.0543921383582635e+00 1.1833838134716557e+02 -3.5678134553162986e+00 1.9257521147311940e-01 -5.1636149202330266e+00 -2.4054881773155175e+00 1.3302540865773986e+00 2.4104411716099722e-01 -6.9575420982939029e-01 -2.9008542338225638e+01 5.7302946036080293e+01 2.1250428230637755e+00 -2.4212827719427055e-01 -1.0459164335996944e+00 -1.4179458857237550e+00 1.2998141787945689e-02 8.5410461895621026e-01 -4.5396644216900893e-02 -1.5438846591985282e+01 1.9889974935261336e+01 -3.2081988338805076e+01 -7.4857535194937181e+00 2.7081963134089381e+01 6.3504119239231045e+00 6.4278833200680285e-01 -9.2590426900618983e-01 -6.2829288766925178e+00 1.1834501182524605e+01 -4.0382544586082012e+01 -7.2524616272299791e-01 -7.7939612229508834e-02 -2.1550801348066340e-01 -3.4890400767546353e-01 1.7323484878787176e-01 3.8158458575585974e-02 4.5348650510223748e-01 -1.3362097219041971e+01 -2.7176387628791634e+01 
      </Row>
      <Row Index="1">
        -4.4065565656555555e-01 1.1654322171567214e+01 -7.0704992101985620e-01 -4.9092235455012174e+00 1.8082373593709814e+01 1.7905401170133792e+00 -3.4755946900112622e-01 8.9922126071898068e-01 -3.4813235702314138e+00 2.2488405649911200e-01 -6.2428964078888816e-01 -5.4690937591141731e-01 2.5200410831763281e-01 2.7553662165434506e-01 -2.7788265419803326e-01 2.4571760593452150e+00 1.5985462548059308e+00 3.9362546756243479e+00 1.4246894011502809e+02 7.4755618383987139e+00 -2.0113765179901817e+00 3.1027171377829432e-01 5.0954834431610507e-01 -7.5964578535817751e-01 1.9392849943736659e+00 -4.7773863678668660e-01 -1.5818686062543579e+00 -1.8712232703547922e+00 -2.9279425761020585e-02 1.9535993961079676e+00 -3.4049469934471177e-01 -2.9153448001304300e-01 -2.1544731638655055e+01 2.3665061024777229e-01 -1.1808128342317502e-01 -3.1415365511611409e-01 -1.1904592203641973e-01 6.6417881384320587e-01 -1.3211556308217146e-02 3.4477003744520612e-01 -1.5957537302928981e-01 9.0807966885910370e-03 -6.0751501237087580e-01 2.7677689218869608e+00 2.8286853394136013e-01 -5.6274956126980715e+00 -3.3953540281262853e+01 -6.1426623850133200e-01 4.1403230681544723e-01 1.1041915954590453e+00 -3.0236176997044270e-02 1.3427479162854628e-01 2.4381953936902379e-01 -1.6519302304906650e-01 1.6239169148260262e+00 -3.5424333598742253e-01 -8.7251570194037953e-02 -9.4695373123736939e+00 3.6626303312988079e-01 7.9606621521946552e+00 4.2129554912082881e+01 -1.1565259563124988e+00 2.2624821616327323e-01 -4.4227275764353924e-01 1.9562678747946389e+00 -7.9848438673035205e-02 1.3424952184485592e+00 -2.2286291359049676e-01 -1.0567011389813306e+00 -7.4535499077929845e-01 5.3746706483435759e+01 -5.6023462971062665e+00 1.3666098670888352e-01 -1.1938842374315002e+00 -1.2950928671037389e+00 -3.2766162028299588e+00 -7.4761574877790404e-01 -2.6951936441503954e-01 -1.0441956865346449e+02 -1.0340949537750815e+02 7.2928992465846978e+00 -4.3042619983394665e+00 -8.0626814513861440e+00 5.1366168028630526e+00 2.0352982498124561e+00 -5.5793845627445258e+00 -3.9665401008777481e+00 -1.2861416984686372e+01 5.0253233896786291e+01 4.5245964712412388e+01 -1.7438559665382791e-01 3.1115437309796192e+00 -1.3888047516410764e+00 9.6033650654266829e+00 1.2088447587338322e+00 -6.8343660402045892e-01 -2.4287077737217388e+01 -1.5644455353065251e+02 -9.4178801426435932e+00 1.8138758042802881e+00 6.9294753468655896e+00 1.4270726079178617e+01 -3.8026247269258993e+00 -1.2226942322392382e+00 -2.2694420014691454e+00 -3.7436296739214654e+01 -2.1598128314500315e+02 -2.2374570413158896e+01 3.4260655530564414e+01 1.4546372349970432e+02 7.3323789176024334e+01 -7.3451187950746743e+01 5.9219030967120034e+01 1.9428176432022951e+01 -8.1005789620485757e+01 -2.4740736570006817e+01 -2.5767980115912321e+00 -3.5877428358705861e+00 -5.7086607200016033e+00 3.3383110400819568e+01 -6.4858051871474309e+00 -1.7224007433155197e-01 -9.4734986110347297e-01 1.9760408495826169e+00 -5.6605472004155502e+01 9.0595517619320702e+00 3.5654206576528225e+00 2.7500979712899647e+00 1.3118113243843492e+00 -5.4070166874646564e-01 1.2081677297505309e+00 3.0786721418339709e+00 -2.0895636743669339e+01 -8.1468924325165816e+01 4.1465781330020839e+00 -1.0006444669917438e+00 2.6021768498683207e-01 -3.0785428880254342e+00 1.1397501261228840e+00 -1.6868080015334455e+00 -1.2614586230653084e+00 1.8314292159488446e+00 5.2079290497454117e+01 4.7674550976818519e+00 -2.1054609514303055e+00 -7.0126458395111513e-01 -3.6347981784898291e+00 4.9898205041033317e-01 -1.0030574968939776e+00 -1.3166056970596043e+00 -2.0995125092159679e+00 -8.2009024614553240e+01 1.3704059987773005e+00 -2.7869434300929119e-01 3.1314366789064501e+00 -2.7154345476634680e+00 -7.8084803256076629e-01 -2.1722894261312486e-01 4.1946326613083340e-01 -2.3043026902718776e+01 -7.4717677594624391e+01 1.6554471439666980e+01 -4.2125269816179767e-01 -4.5647818653475127e+00 -1.3157954547697699e+01 -1.6660643603728301e-01 -2.1657403482589461e+00 -1.8885048029151077e+00 -1.3292803783062624e+02 5.5288258811557270e+01 -7.7657531333265339e+00 3.1207515700844701e-01 1.0894658073526660e+00 -2.6282683827408686e+00 -1.5880355986022396e+00 2.1390763920943648e-01 2.4634164309250961e-01 6.9798169569760844e+01 -1.2552527497288446e+02 -4.0284952679364316e-01 -2.7856606744812771e+00 1.7305823914331171e+00 2.5011216932389431e+00 -1.9484475997715478e+00 -2.5711582088124474e+00 1.5734088103931398e-01 -4.2057671837406318e+01 -3.0740906932165238e+01 -6.8326367741005605e+00 5.8513904900703373e-01 -8.4894329926142509e-01 1.6494203313200926e+00 -3.0628131481505654e+00 -2.6301949675808936e+00 5.4084484780940711e-01 1.0597782327975544e+02 -1.1975605889272902e+02 -5.6611488893658020e+01 2.9517756860007669e+01 1.2641380852211253e+02 8.3177005957397427e+01 -8.5654494070344668e+01 5.5412395875300120e+01 1.9313604348358183e+01 2.5073598789549578e+00 2.3445300429525652e+01 2.0381435502744374e+00 3.6628593868021359e-01 -3.4647935048092982e-01 -8.1478719874022310e-01 9.4806235242790082e-02 3.8255805888128835e-01 -9.2341646331186933e-01 -8.4740259580002348e+00 3.4145422923111120e+01 
      </Row>
      <Row Index="2">
        2.8787433933479423e-01 -7.0704991912469428e-01 1.3111408516658998e+00 -1.8089823505112879e+00 -1.9164502231242391e+01 2.5638270873590480e-01 -9.2156338574055169e-02 -7.1621214485204268e-02 8.8610914202864022e-01 -3.9123971628515480e-01 -1.5489590136789916e-01 -1.6182896741052144e-01 4.2796982258228461e-01 -1.6489884746074357e-01 1.8109357543015608e-01 1.4596729743251052e-01 -8.8819992590326546e-01 8.8052828967103192e-01 3.3952795375247362e+01 -1.0633801507972880e+00 -1.7134222303979235e-02 -1.1467469006569719e-01 -2.2571933760206265e-02 6.5364121382495810e-02 -4.9095606796543295e-01 -4.1345929751000793e-02 -5.0785879908138498e-01 6.1911063110341769e-01 3.2944340395495479e-02 -2.2848417647688474e-01 1.4679183453968796e+00 2.8100144096073149e-01 2.0787187128462339e+00 9.4981225509533293e-02 7.5471210705178107e-02 5.1522395311924624e-02 -4.9011964751332758e-02 3.0338968727240034e-01 1.3473502647469434e-02 3.9866441348101739e-01 2.9965172481018465e-01 1.1925729746128391e-02 1.8008499023916510e-01 -7.3169555521250096e-02 1.7690208656371634e-01 1.2848811565469480e+00 -6.5187672160167853e+00 1.2892192234357780e-01 9.9896973155342864e-02 -1.2186785347384682e-01 -7.0815422797663938e-03 2.2254704374455378e-01 -3.3376506372327830e-01 1.1137584696917714e-01 1.1568990178821945e+00 9.3574669594067850e-02 -7.6573733099609298e-02 8.0632087972760302e-01 -7.8092575402397635e-01 6.5792014922989794e-01 -3.0201473417147323e+01 -4.0542082288700199e-01 8.5446522576291095e-02 -7.1195990817144283e-02 -3.6598162153357755e-01 7.9367187605454581e-02 -4.5069398288797924e-01 1.3033874025726588e-02 -1.0741298719164352e+00 2.6237510421235344e-01 -1.4229239813172962e+01 -2.5685573669920103e-01 -3.3151227351647750e-01 2.4059514365350132e-01 2.6073038241202084e-01 -6.3893047278111958e-01 1.8358412303287563e-01 -9.2979306028392505e-01 -2.9279558846490943e+00 1.1436951729874089e+01 -2.6332676877122427e+00 3.8866755699757494e-01 1.1242951452647385e+00 -3.5865741826024211e-01 -3.2297962706413319e-01 3.9570348429308522e-01 -1.0467421565211338e-01 1.4830508319528533e+01 -2.3890851911716425e+01 2.8990374257421283e+01 1.5360590013614073e+00 -3.3642785588837154e-01 -3.3795838865879428e+00 -4.7574138289185752e+00 1.5742783474615916e+00 -5.0441721870352954e+00 5.0365904482992505e+00 -1.4908179007049355e+01 4.5362117584704933e+00 -2.1923370914172020e+00 -6.3616521345554382e+00 3.5197947609316902e+00 2.6769678355843314e+00 3.0802622693448103e+00 -6.0081775885299500e+00 -4.4807810009139466e+00 7.0275163922413071e+01 -1.1758711129184391e+01 5.5638004385863020e+00 -3.0405254489192515e+01 -4.3033090189694079e+00 -1.7392481615423847e+01 -7.1306474993967459e+00 1.6138947897580191e+00 2.2038376455679554e+01 3.3668348386154818e+01 1.5434918847759309e+00 -4.5623938196764446e-01 7.0193218024642579e-01 -1.8005654606755483e-01 1.6821575421330115e-01 6.1717111777874156e-01 -1.9745149158081646e-01 -1.8520820929161992e+01 7.5477549631144640e+00 -3.9149642563065088e+00 -2.5438536543669454e-02 -1.9787566576155724e-01 1.0136009277936829e-01 2.9182672263197595e-02 -5.3136475165022379e-01 5.4689612665273790e-01 1.8990894859814347e+00 3.8789428334342688e+01 -6.4511915535225128e-01 5.2448181894709223e-01 1.2207724771484607e-01 -9.5565615657457548e-01 2.7049642050639111e-01 3.9482988932154139e-01 2.6325567433553931e-01 3.4217313817718775e-01 -4.1146155544548115e+01 -2.2463062429239455e+00 3.0862384247911134e-01 5.4157044338757032e-01 -2.0238129698274698e+00 -2.2998985300877570e-01 -3.5417067458197454e-01 7.9235863929518466e-02 5.4799364787181704e+00 3.0246702721641938e+01 2.7455591558006609e-01 -9.0441431572193309e-02 -1.5041291382620248e-01 3.2415341028856570e-02 -8.2289728826151132e-01 -5.0160538014090572e-01 5.1269603871349434e-02 2.6081593684448405e+00 1.0629919669723198e+00 -4.5845004452986720e+00 9.4360601203942773e-01 3.3781421092699500e+00 -1.5025443137509704e+00 4.6207798326658459e-02 2.4583344106958069e-01 -4.2605104573824143e-01 6.7177367420704641e+00 -9.1192657251036771e+00 2.1446228333141715e+00 2.2160619354421540e-01 -6.0564511001222732e-02 -4.3267306010424889e-01 1.7689731400899439e-01 6.1615990772149387e-01 -2.3158917908670951e-01 -1.1633463873376931e+01 1.0309811445088337e+02 -4.2391096442468861e+00 3.7955904140894337e-02 9.2815947698993639e-01 1.7633737302845458e+00 -1.5796603812361623e+00 -5.4930927603375068e-01 1.2532097580033312e+00 1.2747779135678414e+01 3.5221894129449197e+01 -2.3024468985609503e-01 -6.1363741018053652e-01 -2.0453370910770874e-01 -1.4296351674921390e-01 4.3467648507972895e-01 8.7649504958717028e-01 -1.2657048159105141e-01 1.3783237061176521e+01 2.2932452395446973e+01 -4.4647659745692920e+01 5.7083946068140516e+00 -2.2156428067880952e+01 -9.3158413637259017e+00 -1.4772686264636313e+01 -1.0382611654019152e+01 1.1273228608967045e+01 1.4335843700483110e+01 2.9771504853311139e+00 4.1388937719808006e-02 -2.4039511995346990e-01 -6.1922352433700478e-02 7.4831592244780601e-02 -9.3730008325936476e-02 -1.6058349286381213e-01 6.4459798152626635e-01 -3.0675235657503124e+00 6.3658915080839344e+00 
      </Row>
      <Row Index="3">
        -3.6303388106286705e-01 -4.9092236001598870e+00 -1.8089823419309008e+00 2.8533287026874990e+02 2.0579295061658320e+02 6.5707959530398510e+00 1.2141339117290157e+00 -3.6090419127719758e-01 6.0540792767516232e+00 1.5540201651822638e+00 -1.8372216689693948e+00 2.4134772984605016e-01 1.1359917792957503e+01 6.1835105627747952e-02 -7.5782536194788364e-02 -4.7497958052489277e+00 2.2504323061189919e+00 8.5616738541744809e+01 -6.0812736025418985e+02 -2.3404624156688492e+01 -1.0388510621816232e+00 -2.2283919106240067e+00 2.4268617664917136e-01 -2.6091503648345693e+00 4.7063101571437271e-01 -1.9511718168845023e+00 -1.9649107299616077e+01 -5.7588760183802923e-01 -1.7285102033690338e+00 -2.6084080287827023e+00 -1.5193922864417904e+00 -1.5332388833912496e+01 5.7514394769809130e+00 4.2119337301155273e+00 -2.2589004641630326e+00 -6.7074028293395993e-01 3.9355816497098695e-01 -4.0415009167083848e+00 -2.6915096049246112e-01 -1.3440492852271233e+00 1.5042873691412892e+00 2.6470309819672316e-01 3.2049609348904806e-01 -2.1245847466735444e+00 -9.6813959416931972e-01 -1.5199649771181478e+02 -5.7332490226791954e+01 -3.9833293513578139e-01 1.0102612655634289e+00 -2.1962509214318442e+00 -1.2743991856082014e+01 -5.4098284217631720e-01 -1.4556223450313208e+00 -1.3268569583557960e-01 -9.5323368022486861e+00 5.2350463193481700e-01 8.5153003903822411e-02 3.9174228041414469e+00 2.3175821815687248e+00 -1.5905941883607246e+01 6.5173681673423772e+01 -3.3518718287712184e+00 7.8743077039483400e-01 -1.0180439497044307e+00 -1.2392803158029986e+01 7.1900030891337252e-01 3.9107093027146611e-01 -5.1224400447997809e-03 -9.0354615505389546e+00 -2.5913591117733858e-01 -2.2610808135882232e+02 -3.3852341713113162e+01 7.9002609986410031e+00 9.4175346306443561e+00 8.3187122477593221e+00 6.6827036089369738e+00 2.8261934583268662e+00 7.2003667535757945e+00 6.1668798544224194e+02 -6.5479637001485116e+01 9.3747357478974891e-01 2.6682155237345060e+00 1.8829895264164179e+01 -1.4206811867490615e+01 8.1932197935035376e+00 9.1161416394603449e+00 5.2992649180775366e+00 -1.6795418130530422e+03 -2.1084920515914988e+02 -8.9228956138991202e+02 -7.0776104482038349e-01 1.5256481899771323e+01 1.9180755039266604e+01 8.7787823179357503e+00 -5.4445579807754472e+00 8.9492031001368701e+00 -6.1737042179905347e+02 1.6671344275290564e+03 3.6693478079334255e+02 2.1342402845659558e+02 3.2223483236933691e+02 3.4250302920294166e+02 -2.3666133238530171e+02 -1.0565887473316528e+02 2.1866776950560069e+02 5.5389362640306445e+02 8.6054880430724904e+02 -6.3989180804665682e+02 8.5947420624817195e+00 -1.2451135550839153e+03 -3.0895748225522226e+02 -8.3926315741901348e+01 -3.4469401646446363e+00 -2.4919419026781927e+01 3.2919190622543192e+02 6.1246977621958052e+01 1.2475273567965061e+02 -1.6006560575323341e+01 1.0165896467450222e+02 -1.5446360432020163e+02 2.5856921646510628e+01 5.8235036957949173e+00 -9.0151297936155359e+00 5.5407062085506880e+00 1.2719766588839758e+02 4.3764238373614987e+01 -1.5274139801392579e+00 -8.7058395457047482e+00 2.1655059960189899e-01 1.4599100678152119e+00 -5.4230218010377786e+00 -3.0934077742374213e+00 -2.1048671802894077e+02 7.5917253897115486e+00 -3.8861784595913932e+01 -1.9493271490160673e+00 3.6215291920913734e-01 -1.0878997643935733e+01 4.7595199956225898e-01 2.4760696080100786e+00 -1.4654836595775182e+00 3.1125545676435479e+02 -7.7804150186523088e+01 5.2544973258193615e+00 9.0726707367585906e+00 3.1337550892543732e+01 7.5965963532303675e+01 -6.0609960256796418e+00 -4.3114291360707577e+00 6.5850244001644098e+00 -1.1498188005345868e+02 5.6180258199483319e+01 -1.6825598476947118e+01 2.8064293700483121e+00 3.6579768486023241e+00 3.6835955892036267e+00 5.5810245788270407e+00 5.9964915224180402e+00 1.2950872675292855e+00 2.8311193790559787e+02 -1.2432481917777832e+02 -2.5448696418652403e+01 2.4125144102344311e+00 1.1182967969250921e+01 1.6942978504910684e+00 1.4159809403919907e+01 8.9918996105219282e+00 -4.0943187206005288e-01 -9.8187424249571541e+02 -7.9628232095918023e+01 4.9955421581716990e+01 -3.1226134315725491e+00 2.0103894479786151e+00 3.4320222986786137e+00 -7.7310556462643421e-01 -2.9754437452783451e+00 -2.1431677477235369e+00 -6.0846678243243457e+02 -7.4125671316991134e+02 -1.0611004477408883e+02 -2.7131202487762870e+01 -9.8554228272331656e+01 -4.0311818992867686e+01 4.9423760272272546e+01 3.2793894750068539e+01 -4.5499793253951196e+01 6.2994988195976930e+01 7.5018228419738676e+01 6.0509960383461085e+01 -1.9817449477137625e-01 -1.5043676424939161e+01 -2.7240619157644431e+01 -3.4401946929933946e+00 -1.5612372272071201e-01 -1.1513062242367023e-01 -5.7239158763019213e+02 1.2594158333057203e+02 8.3652697204728725e+01 -1.7949605285959166e+02 -1.3522168385671478e+03 -7.0935447111668782e+02 1.3082812470043547e+02 8.5480004373612374e+01 -2.0367821772884443e+02 -1.9099548950330791e+02 -1.0788019079831429e+02 -5.8125482137855045e-01 -5.4162065019738415e-01 7.4916880494194489e+00 4.2727128071501408e+00 5.5673350908785046e-01 -8.8107935094960443e-01 -3.1299920565068908e+00 2.7974442074825902e+02 -3.8611388403142786e+02 
      </Row>
      <Row Index="4">
        -4.2309484951211715e+01 1.8082372828725990e+01 -1.9164503905471314e+01 2.0579299348997301e+02 6.0020795941629214e+04 2.1172333000729196e+02 -3.3033793612736780e+01 6.6990493467877428e+01 -2.1548144276327508e+02 -8.3642071928327137e+00 3.6080152126355785e+01 -2.6248006341927499e+00 -1.3061359500565180e+02 5.3941403105081172e+00 -4.3755554698094890e+01 -4.8206221223927415e+01 2.6018879941116108e+01 8.0572047851383570e+02 -3.0843495314901014e+04 -2.8697125792360299e+02 7.2219023344962451e+01 4.3358502016585042e+01 1.6511914734412480e+02 -1.8518609915215769e+01 2.2483326111515481e+01 -7.0533987638301259e+00 1.5508895204121748e+02 -3.3830448078969162e+01 -7.6525842922325769e+00 4.0178798838013456e+00 -2.4806194382390416e+01 -1.7280868534940634e+01 -4.2452069478331778e+03 1.3905273688977906e+02 -2.6227752877296567e+01 -6.4529879234908600e+00 -6.7301914541361887e+00 -3.3598113634882019e+01 3.2052951862704453e+00 -3.6906206742009555e+00 1.6803949774613109e+01 -4.3213036035657026e+00 -1.1164775697194731e+01 -2.1806972233540872e+01 -4.4011663735063378e+00 -8.0683502358927865e+02 -1.6357702793443561e+04 3.7628581873151956e+02 -2.2365301242967856e+01 2.5285161104816218e+01 6.1981493987177572e+01 -1.1711924799755671e+01 2.9559496427764216e+01 -1.7024518133832034e-01 -2.8033552178191002e+02 -2.4035681188273101e+00 1.9798092982996572e+01 -3.1840376423505287e+01 4.2227484860172893e+01 4.6593641912158250e+02 9.2638533718728395e+03 1.8429935305986507e+02 4.8425208119224621e+01 -4.1123901596032347e+01 2.1662250795558703e+02 4.4787716882086691e+01 1.3256335477739910e+01 1.7659330354471052e+01 2.6224267478322207e+02 -1.9493592752041209e+01 -4.1943440366927198e+03 1.5410939643696393e+03 9.5645039644361361e+01 5.0791585679905232e+01 3.0556590663734823e+01 2.5677452480431768e+01 5.7592858103990103e+01 7.3357007246790346e+01 1.7317682210330338e+04 8.9425472300293802e+02 -1.2587286858959797e+03 3.0830780933377632e+01 7.9257831377503480e+00 1.6502021761372453e+02 -5.7403519018183957e+01 -3.6169117635860751e+01 1.0356316936548168e+01 -2.4194873557703235e+04 -3.5109640664403109e+03 4.5490623842113055e+03 -3.0467946771485110e+01 5.9073529801808832e+01 -5.5341957984000310e+01 1.3767123811817544e+02 -9.5049569182021514e+01 1.7564265836471969e+02 -1.0275662371786435e+04 4.7919240499031293e+03 -2.3273238776812896e+03 7.3577624621496159e+02 1.0384100817447484e+03 2.8435361285831650e+03 -5.1271376112577138e+02 -1.7757656191610595e+03 2.5939631311663861e+03 2.3952118956993392e+04 -2.9254416216846759e+04 -6.8501856240688256e+04 1.1957118563342894e+04 8.9837543922628538e+03 -5.4684101829035029e+01 4.3774567807312396e+03 1.7766582012353490e+02 9.2316069792425114e+03 -4.0688360138089483e+03 2.4516043106503566e+03 1.8876329318511737e+03 -5.8918282884199266e+02 -4.2112871445062888e+02 4.7211925120695116e+02 -3.6174249909400027e+02 -1.3970663621745408e+02 -4.2691827822600271e+02 2.2818666681657660e+03 3.4374199099936959e+03 4.6510040482001858e+02 -1.8668911598015185e+02 -1.2900348897670453e+01 -1.7988171437953926e+00 2.0228548482635182e+02 -1.0397379673846778e+01 -1.2794868149138372e+02 2.0387142587884988e+04 1.3961046162755351e+03 -3.3777617811897056e+02 -4.5681442566846655e+01 5.2027536972639822e+01 1.7617596187149883e+02 -1.7429840503405472e+01 -7.8498162706013190e+01 -4.6926383449375606e+01 1.7922454853435600e+04 -1.1874377150167159e+03 1.0576684481883160e+03 -1.6871754946977541e+02 -2.6611104851172422e+02 2.3693061863009334e+03 8.2617184803456254e+01 1.2042871149538747e+01 -1.2407845856464063e+02 8.1792655044726291e+02 6.4882703964509701e+03 7.7532253591193569e+02 1.4764531198480929e+01 -8.5381803050790850e+01 1.5710911699917102e+02 5.7899479872446136e+01 -1.1406592230199001e+02 2.2894978098927481e+01 -1.0294010021829140e+03 1.9958594031187849e+03 2.1797473325959049e+02 -1.0411180219275421e+02 1.0740524337390764e+02 6.0473762818820160e+02 2.8448780716052628e+01 -4.8933709277463940e+01 2.7050046219412813e+01 4.5066421451973074e+03 -2.9180544321878697e+03 -2.3518996290219252e+02 -1.5963572248283405e+01 7.3034647946558707e+01 -6.0904533309805835e+01 -2.3970430899408505e+01 4.4542119941006256e+01 -1.5172398952050933e+01 -5.6580268277430778e+03 -8.1442322680270909e+03 5.9740975400776790e+02 1.6574716337527724e+02 3.4423954918576555e+01 -4.9100709652000393e+02 3.3372061456100147e+02 1.3353636751421308e+02 -3.7705505968571856e+02 6.3963795441709844e+03 2.7439597001394914e+03 -1.3745427964055707e+03 5.9760307441502384e+01 5.4664437245012696e+00 -1.5055004918373845e+02 -6.6508254973824322e+01 -3.0793917483965288e+01 6.5039106667717084e+00 6.3096968630747224e+03 -1.1095089065564405e+04 -6.6967023770608968e+04 1.0248429675979809e+04 7.1038379687304241e+03 1.6911482542304002e+03 4.3265850605279102e+03 1.6744290734298145e+03 6.1744683416550697e+03 -1.1908833272717224e+04 -4.7074839132870939e+03 3.0507610192067602e+02 -1.0577113854512932e+01 -1.9796528279986489e+00 -2.7565019930046709e+01 -2.3293543312922004e+01 -4.0492252434512057e+00 9.5363638980586829e-01 4.8279649289178233e+03 -9.2058306486979236e+03 
      </Row>
      <Row Index="5">
        1.8287480541873158e-01 1.7905401302179247e+00 2.5638270101786764e-01 6.5707960074667540e+00 2.1172333463527548e+02 3.0834371882068812e+01 -7.7612641464691501e-01 -1.1490892339274031e-01 3.2983906552741171e+00 -1.1956719960321500e+00 -1.9192457530629836e+00 -3.3764183872902664e-01 -7.6789556425055727e-01 6.6285885789709775e-01 -2.3383670431770298e+00 5.0583246773600798e-01 3.7405672046612609e-01 1.7315339013820399e+01 1.4465148821017328e+02 -2.7282984294255265e+01 8.5996734646464479e-01 6.0864648947118993e-01 5.1363958013274331e+00 1.5091001561244100e+00 2.4675253767330041e-02 9.8211367353299461e-01 3.3656095716879748e+00 -6.3248410456598814e-01 -2.2359435715552015e-01 -9.5432513706703123e-02 -2.4507161238893507e-01 6.1173867637425383e-02 -7.0016619516148637e+01 5.5018559849368893e+00 1.1273985627213666e-01 4.0564097975469782e-01 -5.2625606761183519e-01 -5.2910925372657125e-02 -2.4048184034842862e-01 -2.8495885943381338e-01 5.6143347573528091e-01 1.8639022770995481e-01 1.2989180290080822e+00 -2.7967233716317907e-01 3.1532440417265006e-01 -1.1483702915881771e+01 -3.1038568269500672e+02 9.5800864955846521e+00 1.4868596870025930e-01 7.4077467588201787e-02 -4.5869581118417102e+00 -1.2372271274846147e-01 -1.8673029531382022e+00 -3.5421465456914153e-01 -5.2081387093650786e+00 4.2510611318062375e-01 -1.7227572715507850e-01 -1.1184720285292173e+00 8.0460649382223370e-01 7.5754324061552740e+00 1.0617449983973624e+02 -1.0616010138858616e+01 1.3993530281270725e+00 5.1519870126062117e-01 -1.7915154700762821e+00 1.3771887733126464e+00 1.3901974306335774e-01 7.1107606035599003e-01 2.7352955437117288e+00 -5.0084409757340276e-01 2.9927860001863156e+01 8.6824495967946191e-01 2.8197192062903524e+00 -9.8132546052156611e-01 -2.2730557635048854e+00 -1.6100932841524200e+00 3.6424290639752490e+00 3.2824610647228907e+00 -1.2891696183194182e+02 1.1286422027987534e+02 -4.7779847909725802e+01 1.1422811917611206e+00 -1.8920652575744323e+00 -2.0265622533479473e+00 7.1488397919146047e+00 1.3265321378535777e-01 4.1756639155092090e-02 3.3653463080165366e+01 3.6405310981125666e+01 9.7863136031062314e+00 -5.1317223507822707e-01 2.6641294820009538e+00 3.9023771690267970e+00 -5.1453574803241606e+00 -1.4885577764523277e+00 3.7970153757102887e+00 -1.1763536457628965e+02 5.8984401504331004e+02 7.4985114240152612e+01 7.9590718054134904e+00 2.4261827099963114e+01 1.0801141650250753e+02 -2.3085603937773559e+01 -1.7981395626618486e+01 -2.1540175299722339e+01 1.2711012736536202e+02 1.1794576449739611e+02 -2.3259244745123200e+02 1.4122662598131484e+02 6.7419195395625039e+01 1.0399224820225315e+02 -3.7895198607287291e+01 4.6936974190877038e+01 5.8472872459667784e+01 -2.2617217824928503e+01 1.4488444425107957e+02 5.3813087090898399e+01 -4.0424992310113680e+01 -9.1397746555885355e+00 1.4493079991586610e+01 -5.1619529171368285e+01 -7.0915275991104529e+00 -2.0267620228142366e+01 -1.0914064698453635e+02 3.0805263293756397e+01 -2.8159369349620178e+01 1.3413187633478447e+00 -6.1332521438255938e-01 -4.7278161101732099e+00 1.1230679785357665e+01 -4.0080250227636327e-01 1.7337160595183434e+00 1.5359697981526136e+02 3.0307974836032542e+01 4.8897078025884042e+00 5.8770427513097134e-02 4.4408124367138804e+00 -2.2771859564760319e+00 3.5298470574383956e-01 1.7730864400028246e-01 5.7395008831611971e-01 2.7419389121433483e+01 -4.2312759569990163e+01 6.1148845453350487e-01 2.9878802911862019e+00 3.9715297941180552e+00 9.7644131690732916e+00 2.8655975950903851e+00 -2.3838608727721695e+00 1.1662608361711899e+00 1.4581272772132434e+02 -4.3321833669165237e+01 2.7334937438142404e+01 -9.8213403304425206e-01 6.2483080468580665e-01 -1.5008733498436122e+00 6.0437837144109272e+00 -7.2085834112392444e-01 6.0946546878327190e-01 -6.8484827332837028e+01 8.7835773781910248e+01 -7.6770758430937022e+01 6.2473107408947079e+00 4.8466616871825821e+00 -1.0116137586403608e+00 1.8326247308010895e+01 6.6762039412083309e+00 1.5020725975842903e+00 1.0671253500430566e+02 7.7157989551759067e+00 -1.4504413464094128e+01 2.7726617806494969e-01 2.5849352524592915e+00 7.1454984021647416e-01 -5.4800874260171213e+00 5.3712183870251007e-01 -3.6750220792425725e-01 -9.6389601028188807e+01 -3.4718675547487358e+01 -1.7936388189379613e+01 5.7555951734567028e+00 -7.8711241576403985e+00 -1.1583828443007189e+01 9.7528817448421705e+00 2.2000953001364740e+00 1.8369270977388965e+01 -1.3398278797964505e+02 -4.5668993271256868e+00 1.3282087111676091e+01 -2.0044227575112075e+00 2.2067216498855435e+00 1.3252403798026637e+00 -4.5852805346802885e+00 -2.0921229648629245e+00 -8.8387648710971889e-01 1.2050178969159026e+02 -3.9344219917144949e+02 -2.3937146508442083e+02 9.4065235238101508e+01 4.1128737929249588e+01 3.3509057300322070e+01 -5.5899222168868882e+01 5.6237451226684556e+01 4.4136837730821625e+01 -5.4404106512349927e+01 4.0336997517508479e+01 8.5734914777314697e-01 -5.8174743969440101e-01 5.1305639447416063e-01 1.0405102607877117e+00 -9.9745164045489432e-01 1.1610039851740335e+00 5.3340159961283307e-01 1.8468933331184232e+01 2.2791139464332822e+01 
      </Row>
      <Row Index="6">
        4.2051740817803607e-01 -3.4755947523366121e-01 -9.2156339786196403e-02 1.2141339784793672e+00 -3.3033794090816855e+01 -7.7612642126295872e-01 1.5122607628217248e+00 -4.4092325495476314e-01 -1.6696394994305805e+00 2.0437597729250134e-01 7.0593068781743984e-02 1.1541764973814699e-01 3.1806688168531061e-01 3.7567436426395789e-02 5.2792053567095232e-01 -3.3070882780768407e-01 -3.2557367449187585e-01 -1.4175397450492073e+00 7.8383967331733388e+01 -8.4806244793104069e-01 -1.8166366463588973e-01 -5.4504641840631418e-01 1.9005409590117719e+00 -3.2830633723031993e-02 -7.0571627154036565e-01 2.2866738991852459e-02 -7.2451791039248559e-01 -1.3918000503901931e-01 1.9834112661516818e-02 4.5470293136652948e-02 3.1956282763526578e-02 -1.0601631635492095e+00 2.3022730994454950e+00 2.3628107089131406e-02 -2.0461495512502891e-02 5.7769867974706381e-02 -1.6635506008893497e-01 -1.2088497730298531e-01 1.6462752909598595e-03 -5.7873571358733236e-02 -9.0440875274318211e-02 -4.7169492787840335e-02 4.8344740916277273e-02 -3.5753635951510837e-01 -2.4100047921814019e-01 -8.1544414194764686e-02 -1.7721412054380830e+00 2.7169072210549661e-01 1.0010971154898476e-01 -2.1443006537677903e-01 4.6781230040500688e-01 -8.1892359563131983e-02 -1.3396451881124091e-01 -2.2963573648577651e-02 -1.1946361303946504e+00 -1.1174442029297443e-01 -1.4713209322949336e-01 1.5206485372867129e-01 -2.6193115015905233e-01 -2.9402385556516522e+00 -2.4130814011810529e+01 7.0996207768853892e-01 -1.0614932514515076e+00 1.4732676252283594e-01 1.1696448334112122e+00 -1.1321113892125376e-01 -2.1567548637417433e-01 -1.1985752027137163e-01 -3.7195057446176172e-01 -1.6949661842738317e-01 -3.9956756605236777e+01 -4.2252643768675480e+00 -1.6919259133708431e-01 3.8348252458938059e-01 -2.2112785169849758e-01 -5.8632431875658919e-02 -8.9661041641262851e-01 -6.0641014785315839e-01 -5.3743578919300298e+01 5.9370826308596349e+00 5.4044574146307314e+00 5.4363889840631530e-01 8.9543905528803092e-01 4.9773360218819107e-01 -6.7808786068204729e-01 -3.7584499039760022e-02 1.0399796452587795e-01 6.4472216667677230e+01 -3.7186170695501978e+01 -1.3946376831833172e+01 -1.8226420933041879e-01 4.1825218357022331e-01 -1.5901335952780413e+00 6.5955125788684044e-01 5.8755700998322435e-01 -4.1876960727609458e-01 4.2878817645062213e+01 -5.0251071425803289e+01 3.3118811764568150e+00 3.0111039254937255e-01 3.9871750197510796e+00 1.4863909589109531e+01 -5.5305669948709180e-01 -5.6737340045863487e+00 -9.6577979706253159e-01 -1.1192430448175363e+01 -3.1313007813393639e+01 -2.5634355994880877e+01 -9.6977117484316739e+00 -3.4313578318919681e+01 -1.7074840985903872e+01 2.6110866883033882e+01 -3.8053919963588623e-01 -1.0369071094006024e+01 2.9849938658785277e+01 1.6481478065532595e+00 2.5143587746651694e+00 2.5467629038390176e+00 3.8656987257502990e+00 -9.9788304499075799e+00 1.5821871433996679e+00 -7.2971928330242963e-02 2.0177778146807963e+00 -3.8658825509209906e+00 1.8885478911145736e+01 -1.0892171874858037e+00 -1.2068384037810231e-01 8.6042056454941629e-01 3.6864954767215047e-01 4.2567803935061588e-01 3.6809457466668727e-01 2.7660563725515913e-01 -3.1189846695098346e+01 5.0738471314127139e+01 3.0708254450783068e-01 3.0741936542193149e-01 -5.1374417098933867e-02 1.4301541664446429e+00 2.1565559559147929e-01 9.2897730673211243e-01 5.6355299486101873e-01 -5.6100903620027466e+01 -8.3811619782249669e-01 8.5386428566223105e-01 -8.8015258931711438e-01 -2.3205370292802172e+00 -3.9604861975832244e+00 3.2304141702209294e-01 3.6371245493508597e-01 -4.2162016178572786e-01 -1.4666069907270119e+01 -5.6438237280111263e+00 -2.9448982643579136e+00 1.6888138847773013e-01 6.0209100957984241e-01 -3.2600811074860747e-01 5.3299799039308482e-02 6.6552937501709375e-01 -4.7000832063625320e-02 -9.4779284703756392e+00 1.6732883226691271e+01 5.1330125714072139e-01 -7.1636485386239279e-01 5.5831079282981442e+00 3.8495619980307296e+00 2.8210798680441962e-04 -2.0428821602619052e-02 -6.4739677599442724e-01 9.2947825868661198e+00 -9.2170704017980221e+00 3.3811649362188527e+00 -3.6146053059364430e-01 -3.7361502587010870e-01 8.9011794461282129e-02 -3.0870226464588862e-01 -4.2168121151012183e-01 -5.2616756610646576e-02 1.4308950616473695e+01 3.4272838654081426e+01 2.2521448557007848e+00 6.1132381920943402e-01 -3.9915738581166362e+00 -2.6209476557000269e+00 2.0840352998102176e+00 5.7282020727945493e-01 -1.0027745524929133e+00 -6.9007473719842565e+01 2.9751494601619278e+01 1.8951663498641604e+00 8.7382453298556739e-01 -1.6646576365981005e+00 -1.2902789502866054e+00 -1.6879550476819094e-01 1.6509226675454985e-02 -7.3107442871409106e-02 -3.6795521273570451e+01 7.8946076462100677e+01 -1.7944600264114577e+01 -7.8067480281304764e+00 -2.9703093923047348e+01 -4.1641964961636440e+01 2.5845375524745531e+01 4.9817866806580549e+00 -6.2388873973498340e+00 1.4120000163826489e+01 -3.9232058233368747e+01 -3.3997830943413054e-01 -1.9017849031172318e-02 -8.9843067621154488e-02 -2.6778096493782416e-01 3.4931301062166642e-01 -1.6544006021966104e-01 -2.2118965255240444e-01 -1.0064328660488329e+01 -2.9406107452245575e+01 
      </Row>
      <Row Index="7">
        -6.1443044208818653e-01 8.9922125901096372e-01 -7.1621216841090476e-02 -3.6090413031644175e-01 6.6990493398921785e+01 -1.1490892845135381e-01 -4.4092325758194856e-01 5.7461769459465861e+00 2.0381279044448450e+00 2.8644562265687884e-01 3.7027604853913798e-01 -3.3834957773174701e-01 -2.6238412243564979e-01 1.3545583024226690e-01 -2.6719268214370309e+00 8.1355943304678147e-01 8.9661872183420255e-01 1.5600397682443263e+00 -4.1866398178344362e+01 1.3372850844161580e-01 -3.8436615704158253e-02 1.8986202860629080e+00 -1.8412869185765477e+00 -1.9237872898964101e-01 5.5222630464883238e-01 1.5535213204387048e-02 2.1225445497757001e+00 -8.0532258410938595e-01 -3.5913313324645382e-02 6.6157701764627940e-03 -5.4757684945508978e-01 2.1196967223543306e-01 5.9105452847095714e+00 2.2792877976657736e-01 -9.1678505784265979e-02 -7.5463518404972973e-01 1.4921191121625202e-01 -6.7301669770828410e-01 2.9705000328238522e-02 -6.7390939690199658e-02 1.6147447184164132e-01 -3.6516093654836698e-02 -1.3313097713677291e-01 8.0548986669356482e-01 1.9949664173594706e-01 -5.6421908272795669e+00 -8.9349998268420556e+00 1.8141320671460850e-01 -1.5545517816334284e-01 2.7500698966278896e+00 -3.7616526054801525e-01 -1.0436979979784594e-01 3.7996083400878988e-01 -1.7017387896096339e-01 2.7040967648105763e-01 6.2026368084401415e-02 -2.7062790483150101e-01 -8.9035872991551313e-01 4.6691160959156852e-01 2.9391768988657376e+00 6.6698260386852990e+00 -8.4426942643869074e-02 2.6932323211350795e-01 -3.4290576086899529e+00 -1.3813337407620176e+00 6.0148050924832386e-01 7.0650090389940398e-02 2.8786140954804040e-01 3.3065618487282755e-01 -3.1675411088186312e-01 -6.3765700168172863e+00 3.1900294813203445e-01 1.7510257736519828e+00 9.4616465614681355e-01 -3.9527353956161164e+00 -2.9598934290414813e-01 3.1480603095448303e+00 2.3417204378362042e+00 1.5941226188261655e+01 8.9405873630353824e+01 -7.0158263336981497e+00 -3.3912887837310979e-01 -2.8059336969130793e+00 -3.7832461831931141e-01 4.5018086743948782e-01 -8.6561474394461024e-01 -2.4811517952403228e-01 2.9427635549194875e+01 -2.5857004881056138e+00 2.0718822146928262e+00 -3.1961243350402413e-01 3.2395448301671514e-01 7.1347539173794206e-01 3.1827563655744053e+00 -1.3361109046772910e+00 2.2006275258344670e+00 -1.4076417513226659e+01 -7.5331646212669028e+01 2.0129161388118071e+00 2.7650241039639618e+00 1.5857601291820089e+00 9.4917912738551387e+00 -2.6959850165611661e+00 -1.1228881670959005e+01 1.3375305222429812e+01 -1.5109391756358914e+01 2.6484033904953897e+01 -1.5105754935098020e+01 1.7450154959508108e+01 3.1628100989257860e+01 2.2408321943930716e+01 -1.8517704279285446e+01 -1.6502680934340944e+01 2.0510394460908639e+01 -1.3508907009580490e+01 4.2695634533294911e+00 -1.0128749479739513e+01 -3.4894499919741540e-01 1.2879091908729293e+01 -1.1106303043882880e+01 -7.9986056952741080e-02 1.2317308521877102e+00 2.3930800377808259e-01 1.3780663865574226e+01 3.0963785585986209e+01 -7.4714688726099443e-01 -4.5771559216971447e-01 -8.5283507871625530e-01 -9.5596978041374980e-01 4.4492036496432119e-01 4.7491624936969790e-01 -6.0703672426242550e-01 5.1646452396271485e+01 1.7026861143314218e+02 2.3418193078162322e+00 -1.8452726424585355e+00 -3.1126870942320100e+00 -2.4680566829979522e+00 -4.5290584632630138e-01 -5.5638532988634317e+00 -3.3128386588570402e+00 4.2659486569687843e+01 -1.5881358567082291e+01 5.7984091909460682e-02 4.2479861374990380e-01 7.7224543124888783e+00 8.0627494893580778e+00 -1.9994282240594016e-01 -5.5057694576037830e-01 -4.5782174895547201e-01 2.9414433579943381e+01 5.3229155982951731e+01 5.8831255590156495e+00 -2.7688611691093296e-02 -1.0961151450455526e+00 -8.8688509825004558e-01 2.5136088492087634e+00 2.5579940693771985e-01 1.7874171792938154e-02 -3.1088935091072411e+01 7.7506856238562662e+01 -3.9242569014064577e+00 -1.5547629062901245e+00 -2.0311941706833764e+01 -1.6403890357134610e+01 -1.3752280924092168e+00 -1.9611626460166336e+00 -1.0194284619891680e+00 7.6412534202942311e+01 -2.9047894811402081e+01 -3.4997469092565563e+00 1.7671879907134150e-01 4.5011471112343882e-01 -5.2232334016408033e-01 -1.1720567597334888e+00 -1.4306221945238917e-01 2.2158464624856944e-01 3.0576239635736172e+01 2.2328042246278756e+02 6.0421083167609058e-01 7.7086785819979808e-01 7.9732646844271793e+00 7.3619019976833944e-01 -1.2108996679483806e+00 -1.1545461042935901e-01 -1.7112234803213200e+00 4.2492942592215684e+01 -1.0080317001838921e+00 -2.1166125141487409e+00 9.3148737300739093e-01 2.0856660160911118e+00 6.1075110985868513e+00 1.9993554879466208e-01 -9.6144374587496473e-01 4.7084344566492881e-01 2.6120725340873701e+01 1.4753340730347190e+02 -2.5098749934792636e+01 1.3715432053780951e+01 2.8604021716160929e+01 3.9450753489708763e+00 -1.6707148542522077e+01 -4.2615210853791314e+00 6.2227160128611647e+00 2.9333124951497780e+00 -2.0578375219115717e+01 3.8804203012683147e-01 2.2747081493363908e-02 4.2938396920653488e-01 -5.9473345225413121e-01 -4.1567288857786500e-01 4.6292470878610104e-01 6.5619688477555227e-01 4.4381003918341460e+00 -2.2917660558991461e+01 
      </Row>
      <Row Index="8">
        -1.3781444133435918e+00 -3.4813235648477123e+00 8.8610914739128954e-01 6.0540791740791917e+00 -2.1548144044802362e+02 3.2983906846775652e+00 -1.6696394987370535e+00 2.0381279079328714e+00 2.4735295351314733e+01 -7.7928544264951150e-01 -4.9841254545093194e-02 -6.7650768785803883e-01 -7.3701035344394699e+00 -1.6437588137088066e+00 -2.1988251948273638e+00 1.1046604211280009e+00 4.9625234689242209e-01 -1.4675883642340641e+00 4.5723691040518858e+01 -8.1283439112876028e+00 1.2690255589841701e+00 1.4620520531695016e+00 -1.3370261627316623e+01 7.8565541029820163e-01 6.8334807727368135e-02 4.6585097162125000e-01 6.6564649219009713e+00 1.7851416953827286e+00 1.6397980295769746e-01 -6.5178489516787730e-01 1.0324822739552189e-01 2.4842943136869318e+00 8.4190090556523600e+00 1.7764245485058612e+00 1.2116392467036970e-01 -8.7733258350618612e-02 4.7921435014863345e-01 1.3982495606180934e-01 -6.1480471874963007e-02 4.4139640782477219e-01 9.3794570428527324e-01 6.5624717114482816e-03 1.0308829910667182e-01 8.0789338447086489e-01 6.4376994031524803e-01 1.2397699294943775e+01 -2.4689825720569356e+01 4.2568924821021463e+00 3.1011904227197407e-01 1.6141181651942433e+00 -6.6641152806971009e+00 3.1247103093331924e-02 -7.2232323520003860e-01 6.4397768056820584e-02 2.7286903820349906e-01 8.7046038796510705e-01 5.0888573297220940e-01 3.5312471983310783e+00 1.0231648747917712e+00 -6.2419148919944556e+00 -4.8468859180697983e+01 9.5171514688553538e-01 1.4824773519093752e+00 -7.4189675716147996e-01 -1.7248890254563403e+01 1.2801545355966004e+00 -6.3115314020868063e-01 8.0321939478327509e-01 4.9159326861253634e+00 2.1405569479131299e+00 1.2996060196533747e+01 2.8088956647401080e+00 3.5968139423258627e-01 -1.0772124233283507e+00 -4.4138690031527403e+00 1.9325084532817685e+00 1.8688487300163665e+00 1.7386342242342345e+00 5.0095892846633788e+01 4.4027771159695064e+01 -3.1697637947952799e+01 1.4772342187641407e+00 -2.0987123055179229e+00 -6.8396416993825824e+00 1.2893799868159128e+00 4.5448404361601691e-01 1.1204007729461116e+00 -2.4237570172731633e+01 -6.2333566528353515e+01 -1.7975074864002554e+01 -9.2087084393068536e-02 -6.5297854602430316e-01 6.2641922193151984e+00 -1.7349962706548077e+00 -2.3779576245267404e+00 4.2500885471075112e+00 -6.1485420767896585e+01 1.5131907024808174e+02 3.9190973119177499e+01 -1.4169330615978366e+01 -2.5436199931329906e+01 -5.3979656924739121e+00 3.9218399035949543e+00 2.0149781331403446e+01 -3.1080726479831327e+01 4.8197764357415721e+01 2.6457595936126552e+02 1.8439011816806740e+02 -4.3778832274636230e+01 -2.6436515033910365e+02 -1.5650184510572683e+02 1.5489750973398517e+02 8.6634897312928647e+00 -4.0753471185576750e+01 9.9207486354800494e+01 1.7081371941832757e+02 1.8538741103100691e+01 -9.2910018176036857e+00 4.6594774700742008e+00 -1.3390679721888540e+01 -1.2249975064876526e+01 9.0301440266777089e-01 -5.9106203465564997e+00 8.9369630729577025e+01 -8.7582695046739722e-01 -3.0050467384956690e+01 -2.0524719021371078e+00 -5.5864756848730188e+00 -3.3589099571400105e+00 -2.5460740699642828e+00 -9.4586411577502538e-01 -1.4997712963364491e+00 4.8557157408910765e+00 -2.7697371759362966e+02 -1.5236293200198165e+00 -4.3745017943785358e-01 2.0973827751389873e-01 -7.1592503024272087e+00 -1.8717334205961436e+00 -3.2178928665517548e+00 -1.3529207386429039e+00 3.9267891913469839e+00 -1.4511572337064956e+02 -3.4162304051700465e+00 1.1573085017051673e+01 1.9559084269444497e+01 2.9366970434380728e+00 -1.3600918564673745e+00 -4.5210609640498252e+00 4.1762768512071675e+00 3.1082000255227875e+01 6.9801159296598968e+01 6.0175741448361855e+00 -4.6092029588017058e-01 -2.1468147166757010e+00 4.1187849783362473e-01 6.0249930317071865e-01 -2.3105008530425981e+00 -1.0029097152773855e-01 -1.0272934428127870e+02 -2.7622122502502783e+01 -5.4581757711303148e+01 2.5656140665452960e+00 -1.8176177104065744e+01 -3.8099062138207977e+01 -1.5884442788733388e+00 -1.3648051355575246e+00 6.5815371889776264e-01 -1.2601672403590612e+01 -2.2682697506214868e+01 2.4227927191993981e+00 4.9497731796333122e-01 2.1605424372810762e+00 -5.1724277969803301e-01 -1.0285082026452204e+00 1.2639918060262252e+00 3.7032432717488373e-01 1.9225712278514257e+02 3.0462703139191296e+00 -1.8203146626122361e+01 5.7712428713633237e+00 8.3437961271508438e+00 -1.9895098271092539e+00 3.6621782200861404e+00 -1.6877784456348222e+00 6.8177872625376814e+00 8.3431969097925091e+01 1.2297529969666357e+02 9.4123169603538006e+00 -3.3845294910399972e+00 2.5257494219051106e+00 9.9521829729202320e+00 3.8615014103858067e+00 2.9797925141240258e+00 -4.8577724408302658e-02 2.0472682362884640e+01 -7.4804785673641732e+01 1.7973520612574276e+02 -3.6688997489170276e+01 -2.4018217662148251e+02 -1.8345138541216360e+02 1.3530662167876648e+02 -1.1249368108692344e+01 -2.1713823945807459e+01 -2.5491274057244027e+01 3.0618239020964992e+00 -1.5630207298806562e+00 -4.5111429488924415e-01 1.2423365870645677e+00 5.7728393066332173e-01 -5.3509119671576633e-01 1.3148042384336461e-01 2.4563735361025563e+00 1.7224121133539164e+01 -1.3572826787871151e+01 
      </Row>
      <Row Index="9">
        -9.4371030276448900e-02 2.2488405950444973e-01 -3.9123971595248880e-01 1.5540201354810108e+00 -8.3642076228563838e+00 -1.1956719930157091e+00 2.0437597364897289e-01 2.8644562096776038e-01 -7.7928544198102045e-01 4.0953394217943968e+00 1.3739146186255802e-01 -7.5831061508843889e-01 1.9997582350450063e-01 9.3112203024353177e-02 -1.1719246980866775e-01 6.7182221914385387e-01 1.3747617494047540e-01 1.8020832288494966e+00 -3.4537982393340876e+01 4.2333465794991387e-01 -4.6251298706324953e-02 3.6732419953210235e-02 -2.5373352010325062e-01 -2.2261156760935616e+00 5.4563785545134656e-02 1.9828664083556966e+00 6.7140259913713707e-01 8.6912773256846362e-02 5.5080895965929017e-03 -2.5948442358760104e-01 -7.5369107056037976e-01 -5.9871350659266387e-01 5.9645150374524007e+00 -3.4225478828153355e-02 -5.7033773472409920e-02 -1.3163000848089787e-01 1.0800856632328103e-01 -3.9186752298288718e+00 2.4893530512820117e-02 -1.3803852067456674e+00 -4.0170658346647364e-01 -6.0077048085394304e-02 2.0768787240474561e-02 -8.4179708240046183e-02 -7.4330096586105135e-02 -2.6884934168274959e+00 3.5870140470029369e+01 -5.8533050831553768e-01 -1.7964933539867370e-01 3.7800252583374544e-01 3.4011453557708327e-01 3.6391872769866257e-01 8.9397085539787341e-02 -1.2181366940095879e+00 -6.2273073591583017e-01 1.3568822271516736e-02 7.1990832341776778e-02 -4.1684679233718047e-01 -8.0107633187404784e-02 -5.6255171236775747e-01 -1.0324283022506510e+01 1.7988102406475442e-01 -1.4167141471521760e-01 -1.1328130357093891e-01 4.1277876937961333e-01 5.4306699321206220e-01 -2.1372650149691180e-01 1.9842362149864798e-01 9.2384956531061668e-01 -5.2298705835531645e-02 -1.1147637660136960e+01 1.2977639313273386e+01 8.0098198968884704e-02 3.8990008544099708e-01 -1.0596822839551976e+00 1.0723788784931287e+00 -5.2365122762203931e-01 9.2945568724424255e-01 -1.0872340604394427e+02 5.2418330272855506e+01 9.0815781082263269e-01 5.1336903243497223e-01 1.8677440509285825e-01 -7.4687342144534341e-01 -6.7919572350415469e-01 2.7313309112135697e-01 -2.8396275345126931e-01 1.6514303050201089e+01 1.7952400535998859e+01 -2.2561315581422523e+00 -7.0463636917349615e-01 5.1207250952694655e-02 3.4439305366471840e-01 1.3278388235820209e+00 -7.9821717569981132e-01 1.7337973812881220e+00 -1.6112300888260904e+01 2.6898755714354174e+01 -8.7640557366918070e+00 4.5972289972513565e+00 5.9504179677933440e+00 -8.1275058098505326e+00 -4.3010632095241386e+00 -1.7035792873871802e+00 7.3189172703681242e+00 -1.5457746154536759e+01 -2.2437796502298553e+01 -8.4789062814507510e-01 -4.9811641241542670e-01 -9.6645092848630156e+00 8.3820405924050334e-01 -3.3325196989939421e+01 -1.7077393153301937e+01 5.6437147690080174e+00 -7.4032409069699753e+01 -1.6723914981551442e+01 -9.5322915200807010e+00 1.7570381979008862e+00 2.9617475616383251e+00 -8.1177679255540056e+00 6.5205839186923882e+00 2.1963726794874214e-01 9.1795237641052818e-01 1.1313441964833156e+02 -4.5404895622387418e+00 1.1081109772681470e+00 8.3804774392445935e-02 -4.0536224662343745e-02 1.3804452237022578e+00 4.9653534234403229e-01 1.1400208596429442e+00 -3.9104994563285667e-01 -1.0128802979773077e+01 6.8384836942979291e+01 3.5327301952643713e+00 -9.2427033347281778e-02 -2.7362013230202322e+00 -2.2749549969012017e-01 -2.1887262035384752e-01 -3.2667757743494752e-01 -6.0958476621395818e-01 -6.4524114357756758e+01 1.1835343627973813e+01 -4.0290322267549943e+00 -4.3715095866564896e-01 -7.7575816149408183e-01 -9.0651478458998735e-02 -3.8267320687978423e-01 4.6203991854379822e-01 -2.0204711109053761e-01 8.1843438193113265e+00 3.5133930854737550e+01 5.7475997491088329e+00 1.9731964880226660e+00 -8.7780225441658999e-01 -4.1773879038553670e+00 3.4718684953768886e+00 7.8605161841691604e+00 -5.0179777447919873e+00 -4.4237208613118781e+01 3.7352360042237089e+00 1.1114800871684354e+01 -3.7388190754343914e-01 -4.1221019619505412e+00 -4.6102001810579329e+00 -1.7341178162126147e+00 -2.7459275709761111e-01 -4.9674487305347648e-01 -9.5848720327369037e+01 -1.1286030420758864e+01 -1.2927483705170740e+01 -1.4393408573222828e+00 -1.6712180501270801e-01 2.2153071699559113e+00 1.6248822707158621e+00 -4.8315864119309095e+00 3.4041778938269518e+00 1.2106729379194552e+02 -4.8890514676351245e+01 2.0649288860368149e+01 -4.8807964425587080e-01 -8.1045529947978789e-01 1.9060154887112164e+00 -1.2439467010334546e+00 3.4470597965091843e-01 2.9001604528511056e+00 -8.1272567117387723e+01 -2.7663368827337763e+01 -2.0938482096937516e+00 2.4504888262849964e-01 1.1591523179209187e-01 7.4722963015910060e-01 9.7964027991768687e-01 6.8415214775662042e-03 5.3556290193121310e-02 4.2015138610890347e+01 1.0859661241580022e+02 6.6126714546819443e+00 -1.4568289964462244e+00 -1.4123900231048214e+01 -5.7733136967519130e+00 -1.8264688558287908e+01 -1.0735667203585679e+01 -7.0767827707754760e+00 -2.2349389050422133e+01 1.1927013716825099e+01 -2.1052411322997333e+00 8.3054256078554545e-02 -1.6813891516310214e-01 -3.5468009159530672e-01 -1.6185069055932197e-01 -1.6066808270610911e-01 -3.7262157125491058e-01 -2.3352770651530834e+00 1.1769342283487644e+01 
      </Row>
      <Row Index="10">
        -2.3188344988823661e-01 -6.2428964255780306e-01 -1.5489590308294346e-01 -1.8372215964057830e+00 3.6080152480205811e+01 -1.9192457543740247e+00 7.0593068750353635e-02 3.7027605013670506e-01 -4.9841259025228929e-02 1.3739146308401801e-01 1.2116203037381490e+00 -8.3220334947270644e-02 2.3750558539317884e-01 8.2982728297368802e-02 -2.0621282831943250e-01 2.3376325677594532e-03 -1.0363815057450289e-01 1.1508635189022411e+00 -1.8098263790539836e+01 -1.1531670327429794e-01 1.6019301480281822e-01 2.8362257909536459e-01 -7.9247613595241984e-01 -1.8969944397282762e-01 1.6545769893995319e-01 5.3593864352627744e-02 6.9511151256302872e-01 5.1764013246357243e-01 6.4083185999507700e-02 -1.6039653916521956e-02 -4.4191000039031419e-01 2.4577464618387423e-01 3.9123994589387636e+00 -2.3034110433528968e-01 -7.4718409712639577e-03 -1.7596997059983852e-01 1.2839233101759473e-01 -1.8994237933243296e-01 7.9505146169425167e-02 -7.7441262362162019e-02 -1.5706889362738657e-01 -3.3738022036225890e-02 -2.4161940572722687e-01 9.1399358931005245e-02 7.2877136856889735e-02 9.6080410447204267e-01 -4.8464577128254565e+00 4.8896360926687260e-01 -2.3777108512618930e-01 3.2585164711194309e-01 9.3268257310669689e-01 -5.0625689852124629e-02 9.4162357485789161e-01 -3.5082968195545162e-02 -3.5151938614588391e-01 9.5078738589968737e-02 7.3233832425237497e-02 6.0096566970905219e-01 -1.4225993645902113e-01 -8.2997147089342849e-01 1.3493273188373962e+00 -3.4989886383201929e-01 -2.2020860994637825e-01 -1.1609391602575210e-01 1.7468632414148538e-01 6.5685355703582193e-02 -4.1161794786588241e-02 1.5538715757669097e-01 5.0634934440636303e-01 7.8259269383765054e-02 -1.1072785964840280e+01 -2.7233877813166352e-01 -2.7532589448204137e-01 2.4305411829568668e-01 -1.3086730875394323e+00 2.0102024575633715e-01 -3.9752343460145612e-02 -1.4760832387226808e-01 5.9037414242685671e+00 4.6866235706303982e+01 5.0595625611309929e+00 -3.5312721012834419e-02 -5.4421284471101250e-01 -5.4239243281347171e-01 -6.7062761875289634e-01 -1.5966071643219537e-01 3.9650930600997164e-01 -1.6790144641328755e+01 -1.2352900092973163e+01 -1.0293739656526375e+00 -4.2459477978875715e-01 -6.1633385874904367e-01 1.2636201171401951e+00 -3.6082722575855009e-01 -4.7241487151200345e-01 8.3559335391588208e-01 1.9715389449117197e+01 1.7979154179810781e+01 -8.0329207526049995e+00 -2.4682406868338400e-01 -2.4789327351236028e+00 -9.5792582481435273e-01 2.5784452178750441e+00 -5.4861793227766742e-01 5.9192093903417922e+00 1.1943651332763956e+01 -2.3850488561449115e+01 -5.7743080237313052e+01 6.8531590711153054e+00 9.2250228871853892e+00 1.3842380311414878e+01 2.2523423919380978e+01 7.1814975887250645e+00 1.1773283122888060e+01 -9.3458479467745406e+00 -4.0148086250170948e+01 1.5514260528335158e+00 1.0555402091101873e+00 1.4584247205473755e+00 -3.9280590343490278e+00 -8.8612423576622068e-01 -8.6311161953640547e-01 -8.8787139078712718e-01 3.8767516071043801e+01 2.6214218789637279e+01 2.3289584373499288e+00 -1.1795385722531810e+00 -9.1636379469085497e-02 -7.4550459385382262e-01 -1.1909117702783567e-01 2.5038852601327477e-01 -9.7528714726893295e-01 2.3522471146684552e+01 6.9852238862986681e+01 -4.4716392236226143e-02 -3.2885420174332247e-01 -9.9128507884165717e-01 4.3744833915862369e-02 -5.7114964411759894e-01 -9.2763994534996463e-01 -2.2551922471461008e-01 1.6794632756345045e+01 1.9729660028570894e+01 6.0105328214736342e-01 -2.2151413033902634e-01 -4.7709997794265746e-01 2.1820650034118310e+00 1.3902321572833909e-02 4.6634199073912808e-01 7.9731611042648531e-02 -1.0416619346094127e+01 2.0328861686491269e+01 -1.3699264423757829e+00 3.6732893555910112e-02 -7.9145596295746579e-03 -6.5895612883412502e-02 4.2986797271833488e-01 7.9634686459318704e-02 -7.6842973813604942e-02 -1.3151419983736046e+01 7.5586197160478619e+01 8.8984598933706103e+00 -3.0380038397375646e+00 -4.2066142619155809e+00 -6.7555843714122012e+00 -2.5511099616234483e+00 -1.4508927922620669e+00 1.2965810111334026e+00 -1.4222943354967356e+01 -1.7669023316472803e+01 2.5454265209216560e+00 2.4559090423166410e-02 -1.9067726668031215e-01 1.5509724961870075e-01 1.6949571711353328e-01 -1.6653469532446610e-01 1.0764194318947813e-01 2.6937050820061501e+01 1.6276188546680572e+01 3.1284751224081622e+00 3.8721131105183515e-01 3.4794368577487784e+00 1.7463527452532805e+00 -1.1664253224107348e+00 -2.0424095593626523e-01 -2.6346730165068619e+00 1.3515685563719352e+01 -1.6109314583297419e+01 -4.9753312439667692e+00 3.6669672488711175e-01 3.2045302875085346e-01 2.3425026931247412e+00 1.1538142919957444e+00 5.4168401122390986e-01 2.6468343657288240e-01 1.7587939019888076e+01 4.5577495506669322e+01 -5.0473945029188513e+01 7.2176730911530598e+00 8.8408585611036763e+00 6.7595709050996327e+00 2.0545624589607627e+01 7.7996074646264564e+00 5.7884852212450095e+00 -1.3514246751443565e+01 -1.3586544606427150e+01 7.1815481980295370e-01 -1.2549401646015923e-01 -1.3358739283247156e-02 -2.0321394458122299e-01 -1.5246424694974214e-01 2.7543758385181451e-02 6.3281437513546734e-01 3.0987303253732876e+00 -1.5242612613736732e+01 
      </Row>
      <Row Index="11">
        1.4298398515081140e-01 -5.4690937989441646e-01 -1.6182896809571962e-01 2.4134775962647836e-01 -2.6248014321118944e+00 -3.3764184695070859e-01 1.1541765131140257e-01 -3.3834957816057987e-01 -6.7650768391933480e-01 -7.5831061450663262e-01 -8.3220335139919333e-02 1.2087930594846756e+00 -1.2060620516338789e-02 3.4483668115839951e-02 7.0205376884106496e-02 -3.8708387987616577e-01 -1.9381757191831941e-01 -3.0568532078160979e+00 -4.2536334883031213e+00 2.4253475326947183e-01 5.9300921245577620e-02 -4.3033271802552103e-01 7.3720653313115359e-01 2.9618144098633931e-01 -1.2454835226256977e-01 -1.1343738180449530e+00 -8.9509673810314783e-01 -1.2880536827781142e-01 8.6353286609746394e-02 2.5008230480847260e-01 -3.7676845089443506e-01 2.6471216088095467e-01 3.4929149487948336e-01 -3.5440337767688451e-01 4.0810317855536446e-02 1.5760639173094995e-01 -1.1174850231430319e-01 1.1091889620981312e+00 -5.1542009730039522e-02 -1.5412815434985033e-01 -7.9335716240854004e-02 1.5829351214065816e-02 -9.7580254004106415e-02 -2.9358027977267442e-01 -8.9547013533779266e-03 1.0934605161087516e+00 9.8372297395762889e+00 -5.4950836583767877e-02 3.1802533757792018e-02 -4.4034310250187741e-01 2.3232358171697537e-01 -1.1901159595824957e-01 -2.1650586014889010e-02 4.5201612357837978e-01 -2.8839412885319160e-01 -5.6184367666302311e-02 -1.0712948323291621e-01 4.4715983875282322e-01 -1.8007571588552568e-02 -1.1248478471227781e+00 -4.4977754883252707e+00 3.8614981919967334e-01 -3.5734894069926817e-02 1.1791549448121880e-01 5.2468306072221305e-01 -1.2928733238342804e+00 -1.6211135779230473e-02 -6.8246586865776393e-01 -4.7620659809515686e-02 -1.0679199631690475e-01 -1.3402357571487766e+01 -5.2658877945832732e+00 -2.2224989708028664e-01 -3.8468215822835827e-03 -9.9702618836658985e-03 -3.6318460736731784e-02 -5.2700026348694062e-01 -5.5998006809285439e-01 5.0229643709803256e+01 -2.8021400147203252e+01 1.3784737325638374e+00 1.2416413824909056e-01 -1.6116176811826999e-01 5.1120803702679041e-01 -7.3000312895199349e-01 1.0860644367409056e-01 -1.1684730828802295e-01 -2.4628077084948046e+01 -1.9609794939620890e+01 -6.5575781308767827e+00 -4.2006379495070550e-01 2.7054206887030041e-01 1.1574422172119612e+00 1.0664234297503117e+00 -6.7345269185088319e-01 9.6142989826096503e-01 -2.9722892975551360e+00 -3.9881973042677918e+00 7.9269234012702583e-02 -9.6226464109459076e-01 -1.0553305582466943e+00 -2.0057317393063898e+00 3.6994554138965979e-01 3.7002726891997090e-01 -3.1053311385273998e+00 3.5560185919696096e+01 1.7269813216222573e+01 -1.3557209167505146e+01 -5.2317146121414950e+00 -7.0067501768462819e+00 -4.1080894007816458e+00 1.5469928650003633e+01 4.6199518470188738e-01 -7.3719232917101740e+00 -1.8908808455366383e+01 6.2611954403489198e+00 4.8180081578753651e+00 1.1274415391128010e+00 1.2498882007253214e+00 -4.5731743025310321e+00 7.5753227145521596e-01 3.0530734548035710e-01 5.7701609087046979e-01 -3.3017868210359282e+01 8.3500532739213931e+00 8.6417373642156825e+00 5.5739860795444374e-01 1.3192343521248986e-01 -5.4320050533892583e-01 -9.3776072222275886e-01 4.5466143932129727e-01 -1.2370683710361347e-01 -2.5762191812692201e+01 2.3662402007440942e+01 -2.8147643021445496e+00 1.5050153655739096e-01 7.8195477457465379e-01 5.1404632236452541e-01 5.4308321522734271e-01 7.6934942751826574e-01 5.6572337876981738e-01 6.5500623127362765e+00 -9.7823419930285418e+00 4.9856256891288453e-01 -2.4457666394650796e-01 -9.3078433814582695e-01 2.2044025212635349e-01 4.7882009897264577e-01 2.0363231459372311e-01 7.3853050603877562e-02 -2.8846251971467041e+01 -2.1273132938404576e+01 -3.3446518602098156e+00 -2.4655722798949048e-01 4.3883679082602622e-01 2.2701914510054428e+00 4.1982040422600031e-01 -1.6506403751957994e+00 1.0018924185786471e+00 6.6438492593126739e+01 -6.3674932173870991e+00 -5.4367331486371651e-01 2.8158372553836453e-01 1.1614981598288070e+00 3.5651720976154189e+00 5.0394797213621290e-01 6.2826099401306545e-01 1.8057906426943127e-01 3.4055674544516933e+01 2.6077327441864782e+00 -1.9103005905031125e+00 -5.7199870888873794e-03 -3.9550139295436337e-01 -5.4777213149314219e-01 -1.5627194375855280e-01 1.0152216897817095e+00 -6.5572281879018535e-01 -1.3603390122625029e+02 6.4155745403533615e+00 -4.4512637709264791e+00 4.3078146210473733e-03 -1.4979102652836496e+00 -1.0714353009000845e+00 1.4955643538489722e+00 7.1768094426562540e-02 -2.1433498729682485e+00 -1.7959399849692481e+01 1.4893954128041514e+01 2.2528153866639533e+00 2.3343911698793857e-01 -5.6570650987708127e-01 -9.5096040555038808e-01 -8.7986606802334644e-01 -4.7273073638337382e-02 -5.6332890388998552e-02 -8.5516174282662362e+01 2.5190519607614220e+01 -1.3976746980964379e+00 -2.7886397141352295e+00 -4.1939782141577737e+00 -4.1308164640346874e+00 1.3781105379332576e+01 9.5806708831440801e-01 -2.3764986615665640e+00 8.2716282185388081e+00 -1.6079390986247176e+01 -4.8410306771001732e-01 2.5631687860269636e-01 3.1948802018707714e-02 -8.0475974710735462e-02 3.9345417494227386e-01 1.2429400953953826e-02 2.1934647971048093e-01 1.7173627768068522e+00 -1.7857992887137140e+01 
      </Row>
      <Row Index="12">
        1.3303784118705400e+00 2.5200411943321077e-01 4.2796982761024560e-01 1.1359917658115592e+01 -1.3061359384729653e+02 -7.6789552359911661e-01 3.1806686952776198e-01 -2.6238412269871292e-01 -7.3701035421107433e+00 1.9997582357377475e-01 2.3750558289683021e-01 -1.2060624521104976e-02 1.6222765559046870e+01 1.2657150588097674e-01 -1.5689795088860878e-01 2.9641956183983176e-01 -2.1484691367772732e-01 2.6438366813255421e+00 2.3411204711206466e+01 1.3364303089524647e+00 -5.1382855376047953e-01 -2.2130302596438978e-01 -1.4597927247561817e+00 -1.9822401394477740e-01 -4.3143498152606714e-02 -2.1083985885542922e-01 -7.5274719891265516e+00 6.3248630238404402e-01 -3.2340267695733294e-01 -9.5010843461319894e-01 1.0182345264317201e+00 -1.2479042796093702e+00 2.9431587688634018e+01 -1.0791208268558026e+00 7.9654380536715405e-02 -9.5266465324154448e-02 2.4194543338562632e-01 -4.5517249667771087e-01 -3.2334183799666766e-02 1.1012153243456456e-01 -1.3252308038574281e+00 3.8410828659924949e-02 8.5042455993362398e-01 -1.2098236073285096e+00 1.9850229655435168e-02 -1.9702047910861502e+01 1.7406386544239453e+01 -3.6164667729138742e+00 -2.6741601821355931e-01 -6.3449310210788656e-01 1.5813095895508631e+00 1.6013601353529194e-02 4.2373329539439653e-01 -3.1848504359957236e-01 2.3537898892152422e+00 -1.8931802167880435e-01 -4.4963788978822561e-01 -3.5549021379793766e-01 -3.0972470195699831e-01 6.3342390614830162e+00 -1.0924398642961066e+02 -3.7125927567132209e+00 -3.8624749248156992e-01 -1.6546971424322168e-01 3.8803846488984548e+00 -2.9962502646935851e-01 -1.3108996847139875e-01 -3.6146143698676964e-01 -1.0766273617774786e+01 -6.6338659354483465e-02 1.1551679897064869e+01 -2.9392524361298051e+01 1.5127073527525199e+00 1.1069461704459187e+00 2.8313494210669887e-01 -5.7613854483795564e+00 2.1628254278865011e+00 3.3511129110576365e-01 -2.9114517063377050e+01 3.4727294445470591e+01 2.9069795350704993e+01 6.0463429614329423e-01 3.0776275221817491e+00 -8.6822882020112502e-01 1.0169895691357951e+00 1.2028037044856692e+00 6.5884124907642305e-01 -8.1287256169092927e+00 2.7304825116996977e+01 2.6534088151828087e+01 1.1913796616987224e+00 1.2458589909119695e+00 -6.7866741797750041e-01 -9.3954540051911462e+00 1.8948781016636747e+00 -3.7170881805131235e+00 2.1693763064809218e+01 -1.3289019804650522e+02 3.5817868387311201e+01 2.4805411612841034e+01 6.7029191903357477e+00 1.5144589744702577e+01 -2.8814977139661382e+00 -9.8955333310112437e-01 2.5556956431392518e+01 -7.7637687388659401e+01 1.0161314938802184e+02 1.3336959550426036e+02 7.6856258168427276e+00 -1.4106299653291762e+02 -9.6269170107716945e+01 -1.9640915028564143e+02 -1.3928024843404817e+01 1.6137668947885579e+01 -2.7105262330540654e+01 -5.1904137977090045e+01 -7.4933548091315165e+00 4.6586639082823638e+00 1.9883461410761043e+01 -1.3989808918922343e+01 5.5238472325310113e+00 1.1411755917172506e+00 1.6973881627398986e+00 -1.1603307686629408e+02 6.6275803275210645e+00 1.4470701160256160e+01 1.3150996697016377e+00 -1.0449295460039245e+00 -3.3187884620839467e+00 4.7594623743839373e+00 5.4328053187747904e-01 1.8037747815630771e+00 -9.2479651914909283e+01 1.6819972206679842e+02 2.4945362204208399e+00 8.3452878972613009e-01 -2.1659788853837147e+00 1.3170109747022956e+00 3.1569508888677427e+00 8.3551996498842507e-01 6.5597481181452588e-02 -4.5532911269327386e+01 2.8707377043434136e+01 5.5592640577107977e-01 -4.2710301518178948e+00 4.2989959873257817e+00 1.8937048226428035e+00 -4.3742079266514511e-01 3.1181110296206271e-01 -1.5887149908497429e+00 -1.5408381948525912e+01 -4.1563097607874219e+01 -1.1354474645827368e+01 1.7580160910361764e-01 4.6748416303402918e-01 -1.9966728871324633e+00 1.1874157772820082e-01 2.3166223598742386e+00 -1.5249622077108516e-01 1.4932047355902768e+02 6.6010185645563141e+01 2.0115190438555729e+01 1.0498556361639517e+00 4.8506633818051714e-01 1.1657790202024454e+01 2.5015291089915470e+00 7.4260038442501519e-01 1.1876746584180959e+00 -4.9731367585657409e+01 1.1536448286320365e+01 7.2649151176564715e+00 1.0241334155576287e-01 1.9125681831608676e-02 3.0213603614368933e+00 -3.3600210871017377e-01 -4.3015901595154826e-01 -1.9651007892924754e-01 -1.5036321730409020e+02 2.0879328218030909e+02 -1.1171870444384087e+01 -5.5939552508932646e+00 1.7204240871456591e+00 1.5818608183602889e+01 -1.1258245593043046e+01 1.5534427011593781e+00 -5.4033428144958435e+00 -6.7000878889942655e+01 -2.0531505510869465e+01 1.0150757202068155e+01 -4.9404268292858849e-01 3.0867874079476543e-01 -4.2495287972717950e+00 -7.7772135039586487e-01 6.5048121252988000e-01 -2.7441080380706684e-01 -1.0565284576402000e+01 1.2947714080558001e+02 6.7443416344297745e+01 -8.5239146784256654e+00 -1.2300243290041684e+02 -1.4036748751599191e+02 -1.6744480077715170e+02 -9.9408496949306269e+00 1.9333709250857738e+00 -1.6525389246321083e+01 1.2098442916567080e+00 -8.5630757701150806e-01 1.3712666257248429e-03 9.3672103096127279e-02 1.0521674053517693e+00 -2.2884799298505643e-01 -1.7044516239144158e-01 2.5676002711432488e-01 -1.4205131828831005e+01 1.3701341161870811e+01 
      </Row>
      <Row Index="13">
        -9.0721604969418099e-02 2.7553662635972576e-01 -1.6489884680608088e-01 6.1835059883605936e-02 5.3941410422280001e+00 6.6285886595034627e-01 3.7567435118759644e-02 1.3545582952137458e-01 -1.6437588162470014e+00 9.3112201233213926e-02 8.2982728113361506e-02 3.4483668926966117e-02 1.2657149686086261e-01 8.2295264115295041e-01 -5.4789289776383823e-02 -3.1246680255534215e-01 9.0166547642238332e-02 3.6404500434094422e-01 4.0462342065858422e+01 -5.9156180154337289e-02 1.5470856891054041e-01 -1.8846637939731997e-01 2.0718980613866562e+00 8.7478526229675529e-02 4.0423085672543152e-01 1.2873462812315120e-01 9.0301861693206628e-02 -1.4685717977899970e+00 -9.7382722709937423e-03 -5.2522766686450950e-02 -1.5588787095122017e-01 -2.1607374663110207e-01 2.6105944131099439e+00 2.2646015856622165e-01 -6.1976891107329790e-02 -3.9950248595235868e-02 -9.2638941739423136e-03 -3.5762123403202412e-01 3.9122853382534205e-02 -1.4847450213391375e-01 -2.2162873817153300e-01 -1.3453627353417701e-02 9.8742764573343147e-02 -6.7772626940429334e-02 -9.6240893381498702e-02 -4.3885780266101897e-02 1.2476753324201693e+01 -4.3497517949616898e-01 -1.3653730839356479e-01 1.1128646846342470e-01 7.1960994212210305e-01 -9.9676706031502443e-02 2.8784648616549646e-01 -3.0685208133035682e-02 -4.6170821974445758e-01 -4.0303872026360661e-02 1.5634743801050532e-01 -2.9981943586103998e-01 -2.6213386299130729e-02 1.4683468325440116e-01 9.9610640166060129e+00 -8.2193764729729779e-01 5.6646772881404073e-03 -9.2189450880530655e-02 1.4322721264701632e+00 9.9312331583645164e-02 1.5076646235606700e-01 1.0795048570314650e-01 2.2458045433918411e-01 -9.9727170626687678e-01 1.5267809295629879e+01 2.8928399371852400e+00 3.3221062177012084e-01 -1.6470389123869442e-01 2.0993708302552250e-01 4.8761083032051772e-01 2.2768501727929338e-01 -5.7173949787731021e-02 -9.2667592988008778e+00 5.6362431090547975e+00 -3.2275233485805002e+00 -3.2138722261295938e-02 -3.7371554301982926e-03 4.8313797246260037e-01 1.2924479581998827e-02 1.7514497542586255e-01 -8.5363795620530647e-02 3.1615632186422204e+01 3.4201357941547521e+01 -2.7012840944225482e+00 2.5181544977571912e-03 -1.0441136267402151e-01 6.6950658886637526e-01 5.5436671260896686e-02 2.2815293278561333e-01 -1.2077882458430095e-01 -8.8263534695428802e-01 9.3002266014242025e+01 -2.3294066888987182e+00 1.0945269022712367e+00 6.0816177973630881e-01 -5.8352269574563564e-01 -1.3766321347358541e+00 1.2830399671428876e+00 5.5576914085672939e+00 -3.5275495454988445e+01 2.6546247678771998e+01 3.1671749577347761e+00 9.8244111665462519e+00 1.2818698244759045e+01 1.5468920940126980e+01 -2.7577175032176857e+01 -3.0334541458145550e+00 1.3044633851692803e+01 -1.6609648834820185e+01 -4.0709769501189271e+01 -5.8414274878455350e+00 -1.3864810682097473e+00 4.0045927121866232e-01 -2.4238110556424188e+00 1.0556026367324329e+00 -2.8064152390654534e-01 -6.0327392262859703e-01 -2.5448060895938475e+01 -9.6745979129404667e+00 -5.4083867085266923e-01 -2.4104824113195000e-01 2.6384841887115112e-01 -6.9512428447828611e-01 9.7761386244193382e-01 2.8684863647528575e-01 -1.6348574543777838e-01 1.0302593443021463e+01 7.2864211594383505e+01 1.6566358761998485e+00 -2.3633356977639713e-01 -7.0725450938103263e-01 7.4920882427180457e-01 -2.6614484605206523e-01 -6.0797207647587448e-02 -4.0462528193011188e-02 3.9444123571198304e+00 2.9467437443050549e+01 -2.0014672845562629e+00 -6.3536375707690063e-01 -1.0835662293086443e+00 -6.5671397775761253e-01 -4.6769153969032237e-02 9.1691851703970839e-01 -1.9241134901609527e-01 1.7761597964571692e+01 -1.2944801974744760e+01 3.1750195382429491e+00 1.3932719370099406e-02 4.5342789218469570e-02 7.5322805204706661e-02 1.3736568585967079e+00 3.3463443524018011e-01 1.0843764102592238e-01 -3.1081934261558795e+00 9.9825799624260014e+00 -6.6873209526664690e-01 -1.5236565828653887e+00 -1.2336598275191872e+00 2.2226697872529915e+00 1.1591224955600046e+00 1.5130727083181752e+00 3.3106216811952735e-02 2.8990946411288519e+01 7.4643083026535351e+00 -1.1983923331508062e+00 8.8390004752176704e-03 -2.9142996792030895e-01 3.1819506541328274e-01 -3.8795103172944617e-01 -6.0222244047236792e-02 -1.5441287592465452e-01 -2.8415852156846906e+01 -4.9172171864722074e+01 3.3328909149820309e+00 5.3293084088172044e-02 -3.3703071035147669e-01 -5.8774243256808023e-01 4.1418904146485414e-01 5.7892058356915843e-01 -1.6025194107092706e+00 2.1877637188487071e+01 -4.7160852936346600e+01 -7.4681982187112916e-02 1.7141445407171871e+00 6.7110733498837705e-01 3.1553362507188731e-01 -1.4338735144540351e+00 -2.0826234016572287e+00 2.1401635525375409e-01 8.1158586067385432e+00 9.8585382109828572e+00 2.7431925995092499e+00 7.3300247224777380e+00 1.2255666008612469e+01 1.4333662324439743e+01 -2.4404395416257621e+01 -4.4627435676233338e+00 8.4186480597000060e+00 6.7425338152515906e+00 2.2142601587585588e+01 -9.1015131498334068e-02 1.2903394099919296e-01 -5.6092056683046176e-02 7.0621071960178416e-02 -9.0600562410880686e-02 4.0220797647622630e-01 -5.1723631070439069e-01 -1.5249598189587568e+00 2.3308519157179241e+01 
      </Row>
      <Row Index="14">
        5.2714856654114062e-01 -2.7788265268598716e-01 1.8109357672182091e-01 -7.5782547330987882e-02 -4.3755553808458032e+01 -2.3383670350084467e+00 5.2792053733261179e-01 -2.6719268189120977e+00 -2.1988251979786289e+00 -1.1719246993248608e-01 -2.0621282627182189e-01 7.0205376140956760e-02 -1.5689794806790480e-01 -5.4789289391077710e-02 3.9321181333710982e+00 -1.2045918926158612e+00 -1.5100827974025151e+00 -1.6364592757285092e+00 3.5079466133192426e+01 1.6303612808583152e+00 7.8094419216710856e-02 -1.0626545893281722e+00 1.6355274683479135e+00 -2.3644977196887440e-01 -6.0444407067249972e-01 -5.1731884664545535e-02 -4.4794819587436709e+00 -6.5430428019985186e-03 1.8534212865352381e-01 2.6146545977610103e-01 7.9329917461744937e-01 -1.5078738567266564e-01 -1.2534112505751192e+00 -6.6195759264950615e-01 -7.2893231600014957e-02 2.0036743211647826e-01 -1.4388056351922060e-01 9.5489165921338381e-01 3.7131816761125334e-02 4.3404076864773039e-01 1.5190882752174231e-01 -1.9660936490712769e-02 -2.4408821629744737e-01 2.5702609299716644e-01 -3.5471682186986669e-01 2.5741266668905283e+00 1.5876029018581637e+01 -7.2755701117042559e-01 2.7047432249937366e-02 -1.2528181529009459e+00 1.0587584724760273e+00 5.5990303938781905e-02 -1.9450841151233456e-01 2.3879700628233277e-01 3.0507767196746536e+00 -2.8931752088299567e-01 2.4272946446159688e-01 -1.3161354522496969e-02 -9.4722623339347234e-01 -1.4984096172372392e+00 -2.2984352015077675e+01 3.0227700703946869e-01 -5.2357625069064950e-01 1.2654454747123633e+00 1.8547873387281733e+00 -6.3832279057847496e-01 2.2684933985104583e-01 -2.9187213107887722e-01 -3.2046746070937484e+00 9.6893714214534299e-03 -3.2223899632617631e+01 -5.3874408710459676e+00 -2.8515488972089877e+00 1.1712537844642740e-01 4.7071205059886836e+00 -2.8198889495151738e+00 -3.7903721648798427e+00 -3.2634797240873947e+00 2.3022661248134213e+00 -8.1255638717915957e+01 9.6841226136983245e+00 -5.0112588546921832e-01 2.5995158960535014e+00 2.2604673522343433e+00 -1.0325071411573743e+00 5.5400158814443534e-01 4.8136755428646572e-01 -1.0954691615587372e+01 -2.4635833049871643e+00 1.0074128245999789e+01 5.2736898294863688e-01 3.9749764955810640e-01 -5.3762045764968027e+00 -5.4425412113467084e+00 2.0996913802694626e+00 -4.3460571418162681e+00 -1.1586216165427459e+00 -2.8852347376135583e+01 -7.7710435113262850e+00 -2.1724162563815361e+00 -6.1460091394727057e+00 -4.0193794458609631e+00 3.4011676504447284e+00 6.2139434123022621e+00 -5.7679015027338654e+00 2.9342554219645695e+01 -4.7323108443117178e+01 -1.2302756785843414e+01 -1.2482970204312338e+01 -6.7723582778442960e+01 -3.6792177245994125e+01 1.9073273510535952e+01 2.0156172363015418e+01 -9.6512878569300522e+00 2.5535190597392670e+01 -4.9733019387349415e+01 4.9544925786366791e+00 3.1284369556729854e+00 -1.4716271205069784e+00 4.3660977531058105e+00 2.4552992844405885e+00 -1.2910379606125280e+00 1.0334836550479245e+00 -1.5534433650928992e+01 -3.7076536732085835e+01 2.1285173642043786e+00 -1.0494336829678961e+00 1.2947643897291905e+00 4.1447096598295303e+00 5.1545990310245915e-01 -6.0358170916862774e-01 1.0814800213938658e-01 -6.1869165140800632e+01 -1.7362008297404426e+01 -2.2331699097569113e+00 1.0660665222354135e+00 2.5800387010723713e-01 1.5102079340084320e+00 7.3341944479225840e-01 3.3915041413479790e+00 2.2763902687314124e+00 -3.3924254633195105e+01 4.6900186410066368e+01 3.7268721878333755e-01 -1.0101728022385863e+00 -5.1169072144571430e+00 -7.2833205325868953e+00 4.8121378569368489e-02 9.0674883962994679e-01 1.1717827639863330e-01 -2.3571347312160732e+01 -3.0816015581744832e+01 -5.9599218488946235e+00 -1.8916845350543093e-01 1.2903321784660082e+00 1.0646748735203597e+00 -2.8881331729285118e+00 -7.8624589040598236e-01 6.2478706011275598e-01 7.8312788764873975e+00 -9.8694933813209232e+01 7.2615463459811398e+00 -6.6733738371594864e-01 1.5058261463240543e+01 1.4577158160496932e+01 -7.0301119710206961e-01 -3.6908796047289705e-01 -4.6149285861541040e-01 -1.9604065250072381e+01 1.6534901969114458e+01 4.0829364664129173e+00 1.1594109077902387e-01 -1.3055853887947744e+00 -1.3373056952713214e+00 6.7113630955351888e-02 9.5104478781339485e-02 -7.8236732519502994e-01 2.5687398623741963e+01 -1.8913327532555741e+01 -4.6512233191153909e+00 -3.6961714660269633e+00 -3.1156165163735685e+00 2.0171700230071510e+00 -2.1448179006287731e+00 -2.7060364249909563e-01 -2.8032472434318656e-01 -5.8147144999816781e+01 9.4032481562935573e+00 1.2704037381717155e+00 5.2543511382156960e-01 -4.9157092123901702e-01 -6.9532340702957818e+00 8.6524898917502924e-02 -2.2404425137609379e-01 -1.5839495866699524e-01 -5.3887815344412459e+01 -9.1351111396522128e+01 -1.3535755818430516e+01 -6.6473012730218475e+00 -5.2333254948591538e+01 -2.8167335161608154e+01 2.1191330980361702e+01 1.0435784908952336e+01 5.4777933721330818e-01 -6.6258298249683776e+00 4.5721656588115529e+00 6.7723695320827471e-01 2.7436673319248683e-01 -6.4604719801828026e-01 -1.1678682619306763e-01 5.8709615569396278e-01 -3.7024143237909241e-01 -1.0885101395205652e+00 -4.7993551605966918e+00 8.2373581765113926e+00 
      </Row>
      <Row Index="15">
        3.8392635497691688e-02 2.4571760634377493e+00 1.4596729819218104e-01 -4.7497958791112751e+00 -4.8206219692650052e+01 5.0583246899371659e-01 -3.3070882468941620e-01 8.1355943248180829e-01 1.1046604225018426e+00 6.7182221512453999e-01 2.3376349474398105e-03 -3.8708387708515141e-01 2.9641954947216659e-01 -3.1246680600246796e-01 -1.2045918908801407e+00 6.6498223507453176e+00 1.6716762971431140e-01 8.8551289736744643e+00 5.0817869925070838e+01 -4.8238285176734530e-01 5.6580258433740860e-01 -2.1093551305417385e-01 1.2496229580303546e-01 -7.1824577950468205e-02 -9.9311978865492045e-01 7.0683730145872326e-01 2.5098246830868648e-01 1.9159492415088286e+00 7.4553369015290805e-02 3.8665735424812908e-01 -1.2397450617454790e-01 1.0047114999174342e+00 7.3057785702457325e+00 -2.0606273479395404e-01 7.9832630719498990e-02 -6.6026811347332057e-02 1.9962712320359643e-01 -5.5324737741156582e-01 -1.2318965374559557e-01 -3.2202880529585309e-01 4.6201381897316995e-01 6.5333279788025320e-02 -1.2931061328881452e-01 8.2414106893379580e-01 6.1936066145384039e-01 1.7116446920094850e+00 1.2544263403187282e+01 3.7481894765110557e-01 5.5654454785394580e-01 3.8057143234312751e-01 -5.6301222778542808e-03 2.5978132640507867e-01 -3.0361554299184251e-01 -5.3963357919344146e-01 1.0897342144544708e+00 2.7039996758599166e-01 -3.0039372669969877e-01 -1.0070269427607363e+00 4.9929135043033535e-01 7.2704351336460888e+00 -2.6900060506301994e+01 -1.7246344577956696e-01 8.1472142222941790e-01 -5.1494829355629845e-01 -5.3225803004685412e-01 5.4067322030479226e-01 -6.5391654905471186e-01 1.1203493092061137e-01 -1.2150831794238612e+00 8.9189413212665891e-01 3.2551467246326098e+01 -3.5163577564306543e+00 5.5338980422503403e-02 2.4690450126166230e-01 -1.5223209101746988e+00 -3.0364280374734758e+00 1.9530525269150806e-01 4.5000830783802570e-01 -4.3537862932288213e+01 8.4633598684282589e+01 -3.4952884677132880e+00 -4.4537471937906531e-01 -3.4045006703571108e+00 2.1507478863532015e-01 1.2677145574412811e+00 -3.0371899685345540e+00 -2.3351150311920552e+00 4.8686864454524027e+01 1.2489538672619329e+01 4.2879697824444030e+01 -5.1841237693439923e-01 -5.4297882525587848e-01 2.9220151812293240e+00 1.2345073307085828e+00 -7.7201995330619755e-01 1.2527694972851195e+00 -3.0586035947616324e+01 -6.9145025309313155e+00 -1.7624684297574440e+00 -5.8739332943277391e+00 2.9996332278151794e-02 2.5886281782418852e+00 3.9741284109969381e+00 7.2265594690697643e+00 -1.2748111771727181e+01 -3.3669999122442377e+01 9.1864447082619961e+01 6.3165001344593172e+01 2.9472132933180717e-01 1.4289852046289070e+02 8.3945435298186695e+01 -2.5251367296704952e+01 -2.8610853859934210e+01 -7.8829897945499567e+00 -3.1043354034432127e+01 2.8876418100825305e+01 -8.6025163073240680e+00 1.4937410656291084e-01 -1.9272007561855865e+01 1.6850813036021357e+01 -3.6192851480515675e+00 2.6047118478834932e+00 2.1270826427180749e+00 1.9510402161329882e+01 2.4697063173990408e-01 -3.9350652879279076e+00 1.4726768686281297e+00 3.2918242507603992e+00 -3.8987683844078411e+00 1.2346446135852065e+00 2.1440489438607679e+00 2.4726725740986284e+00 -4.6088624993496111e+01 -6.4238196133689954e+01 8.2343917320613302e-01 -1.6417629097302516e-01 1.8951507923270992e+00 -4.7606327687867145e+00 1.0676267481713697e+00 -1.0448190543003890e+00 -7.9784944541301794e-01 -7.8020496504189794e+00 -2.5280923827032289e+01 -3.1748333008588892e-01 3.2101747835025241e-01 -1.4710823175183805e+00 -9.1352810276909047e-01 8.2777972626949015e-01 -9.7451464042654523e-01 -4.3928989641081839e-01 1.5484050582104327e+01 4.0980061958023541e+01 2.1635517295762838e+00 1.0685892733542457e-01 2.5021701822081988e-01 -3.6234852050458595e+00 1.0081705750213263e+00 4.2131348129627910e-01 -1.9896356023430477e+00 -2.9287823597706460e+01 3.8103400734157702e+01 -5.5905618012652258e+00 7.1031912784680307e-01 4.0536437494482751e+00 -2.3297904127971542e+01 8.6551630711860977e-02 -1.7735330775466478e+00 -1.1179585009408797e+00 -3.7183948367517928e+01 -5.3389491885873213e+00 -3.7586594838402618e+00 -1.7349069972334680e-01 1.0633509092768991e+00 6.3223655946003310e-01 -5.2828211243583445e-01 -3.1345352086886669e-01 1.6671188149117455e+00 9.2658615040472199e+01 2.3881003149031483e+02 -5.4147361669936673e+00 1.1723155983258551e+00 9.6071863071143460e-01 6.5191091683759161e-01 -1.2451133998843282e+00 -1.3188053627892891e+00 4.7061587895311803e+00 9.1809358353031527e+00 2.7100615626241051e+01 -4.3655857121694748e+00 -2.0397823680452101e+00 -1.3759084927301188e+00 2.0230785458229192e+00 2.1886426922488340e+00 2.4893800622065370e+00 -1.0315442514430664e-01 3.6623479913796039e+01 -1.6210341753792432e+02 1.5251388953195658e+01 6.1209024732034898e+00 1.2229557481916825e+02 8.0055528323788650e+01 -3.1828682888356148e+01 -3.2775365200234241e+01 6.5841154131395019e-01 1.9460655017760018e+01 2.2141399433133667e+01 2.6051880364562852e-01 -5.9911967140918421e-01 2.3012789730227867e-01 -3.9078626911954867e-01 -3.3215462657494471e-01 1.2313068197091387e-01 4.1821976558628648e-01 -8.7433244768645046e+00 3.2401099612290537e+01 
      </Row>
      <Row Index="16">
        -4.6107410720740133e-01 1.5985462564808244e+00 -8.8819992584373120e-01 2.2504322803876420e+00 2.6018879329597105e+01 3.7405672027263354e-01 -3.2557367605736859e-01 8.9661871942797344e-01 4.9625235029291986e-01 1.3747617355877609e-01 -1.0363815166679051e-01 -1.9381757163500501e-01 -2.1484691698159145e-01 9.0166547900271385e-02 -1.5100827966639900e+00 1.6716763140645918e-01 3.6570260830659009e+00 -1.0052023768256135e+00 -1.6156221150158700e+01 -5.7957095140841575e-02 -3.2664244859867031e-01 3.0592384978124987e-01 -1.4312113075383313e+00 1.9905157155850026e-01 5.6251827962126155e-01 -2.4230676964631639e-01 5.2714004925632496e-01 -5.2295767761307699e-01 -2.2832297922593354e-02 -1.8955070647834393e-01 -5.1833084484338010e-01 -6.0610039511487424e-01 -4.5705610656721403e+00 4.6941956956682268e-01 2.5052042776464589e-01 -1.0503075405164425e-01 8.5638779725083589e-02 -4.1589114616698164e-01 7.8589095718816296e-02 -2.7099244423019062e-02 -3.3072372097278679e-01 2.3204275002120418e-03 -1.9829273945193532e-01 2.7067956678211885e-01 -1.9583267698332418e-01 -1.8010247765815439e+00 -1.7055500761599873e+01 -4.2967942300836071e-01 -1.4852273691173237e-01 7.5028873675035568e-01 -5.7771329178649033e-01 -2.3769341446295861e-01 8.2689353959252310e-02 -5.5411954807318531e-02 -1.0172435391231276e+00 4.0815417547803025e-02 -1.1176500632550807e-01 -1.2361825721983650e+00 1.6902733904060889e+00 8.2899421824676800e-01 2.9651331201056248e+01 -6.7281408210031701e-01 2.4453028789373568e-03 -3.4094280821500839e-01 -8.1666221685408469e-01 4.3624252010326781e-01 4.9628109263752274e-02 1.7375450170383525e-01 7.3539768596992250e-01 -2.4453934518056397e-01 3.1768765111514863e+01 1.8672596756819679e+00 -2.2810919895370985e-02 3.9497499958699822e-01 -1.9107963760808602e+00 7.9711680662947448e-01 6.1673650952876713e-01 1.0746997641197331e+00 6.4984620648420819e+00 7.1042422960232443e+00 -3.1833655058297960e+00 -1.6543704096805839e-01 -3.1474630258734848e-01 -9.3230830764194650e-01 1.0565302201332749e+00 -8.5487643077125253e-01 -6.0300221864352177e-01 3.2140839829840218e+00 2.8702716664565084e+01 -1.8763907595632450e+01 -3.7458345644269342e-01 7.0676164544778874e-01 3.8790575143082942e+00 1.2810333931470897e+01 -8.7362094874062834e-01 3.7087587697596662e+00 -7.8739095904299859e+01 2.2952763557485781e+01 2.3100221682929689e+00 1.9915367658039567e+00 7.6335389916021104e+00 6.3176607247411845e+00 -4.7099948086806327e+00 6.3338369816397266e-01 6.5825405781157640e+00 -3.9907247968025203e+01 -5.4874928829755163e+00 1.4726129908465413e+01 2.5321108938757373e+00 5.0058427062965961e+01 2.3839641467581941e+01 -2.4785202612143870e+01 -1.0535215816982401e+01 6.6176213937560746e+00 -5.6179579957946487e+01 4.4981321711305043e+01 -8.7987232153169725e-01 -1.2789348572732893e+00 -9.2846576057105779e-02 -6.8599052323730323e+00 -1.3229579426516578e+00 3.8731308199223669e-01 -8.4247173149339827e-01 -1.8589440646696985e+01 2.1254184062896755e+00 1.3523284553495039e+00 7.8946798511927208e-01 -1.2269609122128315e+00 -5.4298374392504845e-01 2.7550245006181284e-01 1.1226073983138818e-01 -5.4372658567205345e-01 -2.0438095786986857e+01 -1.0742940305124763e+02 1.0268314517111827e+00 -5.3192373605751664e-01 -2.8733338192779634e-01 -1.5772773024193898e-01 -4.0983836554655007e-01 -1.4595631664161948e+00 -1.3905975726225754e+00 7.9233963708171018e+00 -2.7185587242213092e+01 1.4210811110845261e+00 1.7470003897212025e-01 1.5425707385582967e+00 3.5733548901370238e+00 2.1783644178768252e-01 -6.4793860405547299e-02 -3.6780837362832219e-02 2.8678227326277050e+01 -7.6489177004725812e+00 1.3702337162987135e+00 9.9587147287026889e-02 4.8498529365740328e-01 3.9151608107024138e-01 2.0341335246899206e+00 3.4858866473549188e-02 2.4567528280875928e-01 -4.4769407345715377e+00 3.4392609514917138e-01 -1.5722926941617690e+00 2.3010673147573102e-01 -4.1073664388275226e+00 -5.1112944253179577e+00 1.0529219045779248e-01 -1.3253300468069884e-01 -8.6401924050643653e-01 -1.8959212632071107e+01 1.2750930894105750e+00 -2.7025647346998483e+00 2.7162022234999755e-01 3.2670900710087947e-01 -1.3623859712842229e-01 -1.2457502401321285e+00 1.6443551962273320e-01 2.7398830239356275e-01 4.1547210302622560e+01 -1.1923571913942060e+02 2.9713540380313344e+00 -2.9884315510948861e-01 -1.1992799641907110e+00 -2.1599847419834779e+00 1.8911162781184387e+00 -5.0359361381158718e-01 -4.4543852499992660e+00 4.8487448550343217e+01 -2.8326421215469736e+01 1.3851344577157039e+00 1.9943985067697659e-01 -5.8187987837342248e-01 1.7936324171427325e+00 -2.7266873428128946e-01 -6.0286955983436175e-01 3.0663267605504330e-01 1.7872954516973799e+01 1.6253403946806770e+01 3.2414069677245266e+01 -2.5877611444469051e-01 4.0507687888658502e+01 1.1902501572229445e+01 -3.3795622614845513e+01 -1.0444178946180736e+01 -8.0197202845298854e-02 -1.3455168367113401e+01 1.0819609069542899e+00 -4.1418332708478273e-01 -8.5776896850546791e-03 3.3179629713164616e-01 -2.1803447799142983e-01 -3.7729929799223372e-01 2.8263785700262400e-01 -4.7770306712340727e-01 -1.4824877700470962e+00 2.6905249027666809e+00 
      </Row>
      <Row Index="17">
        5.1489122197788229e-02 3.9362547113770097e+00 8.8052824591679080e-01 8.5616739056185679e+01 8.0572047743179940e+02 1.7315338982700343e+01 -1.4175397799602696e+00 1.5600397626739522e+00 -1.4675884463464581e+00 1.8020832465386989e+00 1.1508634915598097e+00 -3.0568531938510737e+00 2.6438366051604127e+00 3.6404500666161205e-01 -1.6364593169639918e+00 8.8551289984395041e+00 -1.0052023402460086e+00 3.5722523053059791e+02 -1.5346825652460956e+02 -2.9063834797614572e+01 4.1514253729421879e+00 1.8331603125731448e+00 1.7672614602938101e+01 4.1219094338166844e+00 -1.5319861585388097e+00 6.0248920469973948e+00 2.1378659410795759e+01 8.6489918560699195e+00 3.9073499137903345e-01 -1.1251419789708734e+00 1.9248824064231655e+00 -7.1716807128065279e+00 -6.0894794103675409e+01 6.6388131147807599e+00 -6.4668733027896150e-02 -3.7802774131888667e-01 1.0147594255355639e+00 -5.6365055712481800e+00 -1.3258540287217221e-02 -2.1505689331993935e-01 -8.5015564406272737e-01 2.4182326316593705e-01 -2.0616606520068292e-01 2.2793462039519889e+00 -6.9091738632488631e-01 -1.3949735516057336e+02 -3.0162731799742822e+01 5.5692714780746115e+00 -7.3476190906759098e-01 3.7287681086554475e-01 -4.7165730305508839e+00 -2.8846939846411196e-01 -1.0057850113530100e+00 -1.2964383014539893e+00 1.8758604289777114e+01 2.9360626464630566e+00 -1.0216141256864599e+00 1.6323902373019727e+00 2.7455809020145447e+00 1.2300234238444762e+02 -1.2754291474417626e+02 -1.0718821710573367e+01 1.3503349401820595e+00 -1.2031671953795675e+00 3.8685627782999328e+00 6.6028942933538293e+00 -1.3654999777959418e+00 3.4180367524417847e+00 -9.8577638270040646e-01 2.9541704022092166e+00 -2.9063866331285072e+02 4.1911911511657877e+01 -3.5407713507769820e+00 -1.1893345584679262e+00 -6.0701611281931491e+00 -1.5855070995067324e+01 6.9267471021683846e-01 4.3474139166647223e+00 6.5230167596117639e+00 3.9888905643858686e+02 5.0091177330102127e+01 -5.9122199459504077e-01 5.6999645535256604e-02 -5.2872107045350276e+00 3.0531476285721340e+00 -7.9012981145968997e-01 5.4778465979664404e-02 -1.8195534941383272e+02 -2.2057019262940150e+02 -3.5355149698808998e+02 -3.2442484829473184e-01 -1.4082287832755139e+01 8.5923809494646743e+00 -5.4972155202779696e+01 -1.0821197915727971e+00 8.7280943450387358e+00 -1.5218439814733301e+02 3.6187534830899972e+02 1.3568368376268467e+02 1.3696153281753740e+02 1.8501750854552529e+02 3.3008796075856287e+02 -1.7543136011695302e+02 -1.8607438579753659e+02 1.1935185583498951e+02 -4.3793115261078924e+02 -4.2039657101721787e+02 -1.3499057557603630e+03 4.6244299192310524e+02 2.6571455130194227e+02 8.5673279447799951e+02 -5.4645960532531308e+02 -1.4465706780851104e+02 3.4568953524712856e+02 -4.9457893383699911e+02 2.6393584931481985e+02 -4.8020379523275132e+01 -3.3544156197131187e+01 -6.2433036822694490e+01 -2.5787090163707163e+01 -1.0448483522704535e+01 3.6111178220508862e+00 -2.0166373308643511e+01 -1.6914485231796050e+02 1.7966652940780901e+02 -3.2278097662267726e+01 -9.2068169379124143e+00 1.9560468128699402e+01 9.4555770808548871e+00 1.7245155566671805e+01 1.2141185904246266e+00 1.3208677420977533e+00 3.6397246384336017e+02 1.3399343816035883e+02 -3.3449480351986750e+01 -5.1158647879519681e-01 6.8290516387798768e+00 3.6951050067653544e+00 5.3240310498696424e+00 -1.8583501711313986e+00 -1.1723316810026658e+00 6.9977835958070727e+01 -2.2900312574834518e+02 3.3351309646712588e+00 5.6508523925893606e-01 2.4186722476167688e+01 3.6377124621037126e+01 1.8107367053704009e+00 -2.9917517628957011e+00 -3.9923701728807570e-01 3.0750837362520042e+02 4.1367923505498976e+02 1.0774332208244232e+01 -1.3907182276648431e+00 -2.9317238565245596e-02 -1.0191565296162526e+01 1.4571262933221782e+01 5.3072025348543956e+00 -2.8681373943979409e+00 -1.0808487239524336e+01 2.0968588459452835e+02 1.1865275539656284e+02 -6.4483466939655489e+00 3.0393045505833996e+01 -6.2189604856266982e+01 5.4669304095719840e+00 4.9807380672991126e+00 4.1190574359901619e+00 -2.9142755932413093e+02 -2.0238161164342273e+02 -1.7027403257015770e+01 1.5349057207854819e+00 -1.3985080798025822e+00 -5.3578705599306371e+00 -6.7609362049617951e+00 -2.5912128911759913e+00 1.7929605016554877e+00 4.8221579871263134e+02 2.6207528631612786e+02 -3.4354169779380781e+00 -2.4411081326182689e+01 5.0318806286681514e+01 9.7950349821177056e+00 -8.4137258154085810e+00 1.8750594181476650e+01 3.7750062980748396e+01 1.3821402955255024e+02 2.5244578974281103e+02 -2.6338510353806180e+02 -7.7951743195642891e+00 1.4935113852164850e+00 1.4346352440659256e+01 1.0349488840314621e+01 7.1050525281229469e+00 5.0070153620006586e-01 1.8623229535673124e+03 -3.5433620503891825e+02 -1.2079105078148505e+03 3.0441794007053306e+02 2.5130336405641124e+01 4.8984923169813101e+02 -3.0208966492244531e+02 2.8745935041442721e+01 1.5952651817793591e+02 -7.3912133560752409e+00 -1.0281009845126080e+02 4.0032552749508916e+00 -4.6185088230523093e+00 -2.6453424345881480e+00 -1.1300236188476772e+01 -2.0143623644429631e+00 5.1483317158153463e-02 8.3595854153372784e-02 -1.3591997533020578e+01 -7.6424552616518625e+01 
      </Row>
      <Row Index="18">
        6.5818775631652983e+01 1.4246893990026174e+02 3.3952795782525179e+01 -6.0812736631333246e+02 -3.0843495193493669e+04 1.4465148863120652e+02 7.8383967841122043e+01 -4.1866397609516298e+01 4.5723690757772680e+01 -3.4537982450413892e+01 -1.8098263409256198e+01 -4.2536335617249925e+00 2.3411204921242479e+01 4.0462342000868546e+01 3.5079466076185781e+01 5.0817869990282823e+01 -1.6156221484633210e+01 -1.5346825388617705e+02 8.1383242496012856e+04 2.0850238798369847e+02 1.9244070899674046e+01 -3.6640524444313819e+01 3.1417588538449843e+02 1.1022817505116463e+02 -2.8469195545552957e+01 3.4164195693261185e+01 3.4376497849163343e+02 -4.7871241581754091e+01 1.3212566783116086e+01 -4.5042136605152336e+00 6.2817528320147176e+01 -4.3502239941545476e+01 3.8456746356019841e+02 3.0617999638286218e+01 4.5653856690841323e+01 7.8249860814423116e+00 4.5827864880087752e+00 1.1532829481600956e+01 1.3664807781472872e+00 1.4447142156552852e+01 1.5924465722515861e+00 7.3615229743341803e-01 -1.0943153060638213e+01 9.1554586279167083e-01 2.2761342666107364e+01 9.4270506944120757e+02 -1.7431641213135333e+03 -4.9073728146631360e+01 -8.3590164841465935e+00 -1.7250107504313334e+01 5.7934883898160194e+01 -2.1696260603222768e+01 -1.5190495436793574e+01 5.3974481124426807e+00 -2.9475630998922730e+02 2.5015505280590511e-01 -3.1337185607816160e+01 -1.0170207576603927e+02 -3.2134482501813025e+01 -3.0072587126179133e+02 6.2115540174667503e+03 -2.4569695054173965e+02 -6.5658597644473360e+01 3.3569915391240997e+01 4.5838141567793485e+01 -8.5650380509075177e+00 -4.4169546450321988e+00 2.1484545441075475e+01 2.0575534885721432e+01 -3.9097036715069521e+01 3.1287872399524858e+03 -1.5137521785547283e+03 -1.4612945758929897e+02 -4.5575095670967130e+01 -3.7252226743934443e+02 -9.6053153109698798e+01 -2.4502428558148978e+01 -1.6644031064782268e+02 -2.3340366219629206e+04 -2.8252258327045729e+02 -3.2339522760741039e+02 -2.2820950635900509e+01 -4.0012050010671373e+01 6.8249196017743088e+01 7.0312779212217549e+01 -5.1792492541827414e+01 -4.6244900008135701e+01 2.6808733384615251e+04 3.2283032994757750e+03 4.8735013356431691e+03 4.0854541808495505e+01 -2.3532357611215781e+02 1.9292903254541855e+02 -6.8654615100184594e+02 1.4604918944694356e+02 -2.8321055025286904e+02 6.5700314184115223e+03 -1.0600001450844811e+04 2.4765298977070129e+03 -1.0553077947719910e+03 -5.1853584312729777e+02 5.4129241988068843e+03 1.0547899867956901e+03 6.4225500998777682e+02 -1.6914034753556120e+03 -1.1397437608214665e+04 -4.0821556613465473e+03 1.9919179218115616e+04 -2.5923281219197811e+03 7.7893821705910595e+03 1.9624417627976123e+04 -3.7154092793040422e+02 5.8410446574903381e+03 -2.2776780860774816e+03 1.4238254558482367e+03 -6.8542200866552457e+02 8.7806716132762836e+02 -3.1870395361819499e+02 -1.9097492480952856e+03 5.0744737134104771e+03 -8.2957577853701275e+02 -1.4098186734178879e+02 -1.2565877731641194e+02 -4.3325662665817581e+03 -6.3476418780125805e+03 -1.8110847687279502e+03 1.1072620602271840e+02 3.1881307118170133e+02 -7.7476961429477524e+02 1.4589729782456169e+02 8.1843346892216232e+01 9.8240359936278793e+01 -8.9045708692746393e+03 -4.3280853233273992e+03 5.9950346783999294e+02 5.3553453481766056e+01 6.6828437462521777e+01 1.3399665836894059e+02 3.0528299052524147e+01 6.2767713134706142e+01 5.8474055075455475e+01 -1.2970138307494359e+04 4.1518932596970899e+03 -6.2519384357565775e+02 4.3384153975662329e+01 -7.5521788202138850e+01 -1.5950509832723826e+03 -2.4251119358672646e+01 -8.9114326620510496e+01 3.2603288066516875e+01 2.0875986895478260e+02 -1.0215230410691682e+04 2.1891658562433440e+02 -3.7251217326835885e+01 3.6862193334162882e+01 -1.1850154768867986e+02 1.4758328285232119e+02 8.3752640758144139e+01 -2.8760951402168601e+01 -7.0309377230073796e+03 -3.0628543211350598e+03 -2.5591751185355070e+03 -7.1132278387158408e+01 7.0335526021604824e+02 -2.2055344163281843e+03 1.4941017381281861e+02 9.5548020137009971e+01 -6.5041965267908548e+00 3.6928645946010220e+03 4.4310990706944140e+03 1.5627875601409497e+02 5.5412029987525827e+01 -1.1005805383028103e+02 7.9987849885245581e+01 -1.4318089955265390e+02 2.5011427292418560e+01 1.7672377192437473e+01 7.7976385105510653e+03 -3.5620236459864291e+03 -6.1806974590974085e+02 2.9577044974375053e+02 -1.6670453922865681e+02 -5.6369510374488232e+02 3.2172036504726634e+02 -3.4390848983405135e+01 5.1047351550096209e-01 -1.4016405595769589e+04 3.9764985232180916e+03 3.2793806471512818e+02 6.5889493770760780e+01 -2.8298366830872334e+02 7.8815042332369319e+02 -9.1053561107168207e+01 -5.8746607819044399e+01 5.9504101665793954e+00 -2.2691112966531141e+03 -8.1818014708784431e+03 1.2043207754761081e+04 -2.0483851254840347e+03 6.9483329605695499e+03 1.6160108765435682e+04 -1.8628253797688503e+03 4.9843915742341715e+03 -4.2673325743038970e+02 7.8180622687805444e+03 3.1045030490740073e+03 -3.9500011600382877e+01 -4.7646106232252350e+01 1.1861094412620737e+01 -2.5261708781687986e-01 -2.8111147851273017e+00 -3.6855010033312603e+01 4.9469444526956067e+01 -3.7811022308484562e+03 6.8854306815229838e+03 
      </Row>
      <Row Index="19">
        -1.5079779075338455e+00 7.4755618358247027e+00 -1.0633801355101855e+00 -2.3404624502131355e+01 -2.8697126094142232e+02 -2.7282984293436037e+01 -8.4806244184049850e-01 1.3372850016080662e-01 -8.1283438718288519e+00 4.2333464711522706e-01 -1.1531669895549607e-01 2.4253475129508359e-01 1.3364303117550098e+00 -5.9156182344979574e-02 1.6303612979458744e+00 -4.8238284468996029e-01 -5.7957106312537421e-02 -2.9063834971484511e+01 2.0850239041312923e+02 7.1119752035048705e+01 -2.1859960213301828e+00 8.7352916966921867e-01 6.4040915272364742e+00 -9.4910034262684528e-01 7.2392833440741171e+00 -7.5956889574707276e-01 1.5253829862348400e+00 -5.1191267735807449e+00 -1.5029148173599571e-02 1.6981663729495722e+00 -9.3244698409758087e-01 2.4470164854448470e-01 6.3039357854460114e+01 -5.5787355748703167e+00 9.1752192812888614e-02 -5.3822002973272975e-01 2.4365418114658027e-01 1.1092866410979152e+00 1.5381793859561824e-01 6.1018123527733599e-03 3.3253850264869086e-02 2.0815118477627226e-02 -2.0880026167335206e+00 2.6280660125580493e+00 9.3516803341246924e-01 2.1836506716832982e+01 3.8336731981186580e+02 -8.6109981871362429e+00 5.4742470540338273e-01 -2.2516252026107905e-01 3.6332813665288777e+00 1.9422489867569226e-01 2.1042036100143831e+00 2.8364205365208806e-01 4.9176476042168860e+00 -1.1045294957519813e+00 7.6463408513199482e-01 -7.0466087303577361e+00 -1.7389831234821709e+00 -2.8680722559346350e+00 7.3069896059364439e+01 2.2926911840150403e+01 -3.4118871670218998e-01 -2.6335393662031559e-01 7.3373020077150457e+00 -1.8979692440029350e+00 3.2056255006507945e+00 -7.0143001967074892e-01 -3.3508162090578386e-01 -1.4223831071293809e+00 2.2602909122705901e+02 4.2837478647971494e+00 -1.5643398693961110e+00 -1.8887546061309877e+00 -6.2004964408970409e-02 3.5116888079990627e+00 -2.9648215189424731e+00 -6.8429211114278177e-01 2.8954516103644643e+01 -3.4332091833313194e+02 4.0520056706281395e+01 -4.5697254926054516e+00 -5.9809574965436241e+00 6.1951831934811707e+00 -2.4005377224161402e+00 -3.8400454578159833e+00 -4.3486587897975530e+00 2.9879839167092541e+01 2.1954528660955310e+02 7.3508660607501170e+01 1.1110201330533758e+00 -4.1213194222360432e+00 -7.4240110414660487e-01 5.2502928393238202e+00 1.2617098624591190e+00 -7.2771353515491954e+00 1.8125395250824920e+02 -8.5491792322705965e+02 -9.7276503825247076e+01 -1.6660207379383635e+01 -4.5602251698080934e+01 -1.6400727406791356e+02 4.1200066663799355e+01 4.0776818574788635e+01 -1.3803748440749260e+01 -1.7628093921901902e+02 -6.2910579950528972e+02 5.2327068423072683e+02 -1.4200117706395818e+02 -9.0426217655093524e+00 -8.6872820843510240e+01 5.3864386283668551e+01 2.8969990282869500e+01 -9.0179305569364473e+01 2.1136111900419792e+01 -2.1931420815447947e+02 -9.0624158308120059e+01 3.7560553146054119e+01 -5.3065001302342836e+00 1.2192788545958291e+02 3.8156053171524754e+01 7.4485157621428053e+00 2.6475966055443482e+01 1.6898086642137903e+02 -2.2556029566790841e+02 1.4512675570942868e+01 4.4547216176427913e+00 2.7804543989315027e+00 1.3656048266221887e+00 -1.5046921299758951e+01 5.9714813282599000e-01 3.6969699472588968e+00 -5.5687068270331466e+01 -5.3192285074066729e+02 -1.2928120821255966e+00 -1.0068311095035107e+00 -7.0788089717217595e+00 5.5463356270009783e+00 -7.4671745027821146e-01 -1.2865378565035250e+00 -2.6194711296407265e+00 -2.3731790378083360e+01 2.0631503018958068e+02 -6.2434987255379615e-01 -5.1848990218418738e+00 -6.3337481240787383e+00 -1.4584402005942167e+01 -3.2824309759364962e+00 5.3098956214566428e-01 -4.2031695620600900e+00 -1.2698969795997145e+02 -1.6639073704396685e+02 -1.4267441958802010e+01 1.1842297605334462e-01 -2.8807258938607916e-02 -8.2763653232641055e-01 -8.2619346271180909e+00 -7.9615308544750185e-02 -1.0341727965334178e+00 -3.8033748404079248e+01 -2.7705932180636751e+02 7.2829996552211199e+01 -1.5060275782605999e+00 -1.2770052714577893e+01 -6.0603652593065434e+00 -1.2837227775765840e+01 -6.3749795715664677e+00 -1.7754093626625278e+00 -1.0479016238173790e+02 1.4531430094368625e+02 4.9263382796259769e+00 5.0670561709020534e-01 -1.6707904742450697e+00 7.1170670645046386e-01 6.3040923026530393e+00 -1.7222879345870479e-01 7.8749079932387422e-01 6.7462873726709404e+01 -5.0081659984011651e+02 8.5718253970721694e+00 -6.8205397171090585e+00 4.2011963969719446e+00 9.3283648300887805e+00 -1.1015368718673614e+01 -5.3984034293663283e+00 -7.1342519877421395e+00 1.4235590788008557e+02 -1.3529332423663436e+02 -2.0130167373000862e+01 1.1582249438197174e+00 -4.9780369224650128e-01 7.6808004649335411e+00 -4.5413815548608909e+00 -4.3889799526996756e+00 4.9866116552798145e-01 -1.1510856261940315e+01 -2.2695128995002608e+02 4.4585774138041711e+02 -8.8735960400073935e+01 2.5112800861146020e+01 1.6736986410897418e+02 3.9671165048664164e+01 -6.1123780457481054e+00 -4.3409587412250744e+01 1.8140701768196004e+02 1.2794084513863116e+02 2.4021735457156916e+00 1.4313715648531797e+00 -1.3538871971223916e+00 5.3585444795507953e-01 1.0870417543469966e+00 -1.6753767808227416e+00 -2.4332920600681973e+00 -1.4417083606448465e+01 1.4198276842069544e+02 
      </Row>
      <Row Index="20">
        -3.5404812270612214e-02 -2.0113765140245552e+00 -1.7134223369864622e-02 -1.0388510709965999e+00 7.2219024059839683e+01 8.5996735002655567e-01 -1.8166366464176117e-01 -3.8436616457950823e-02 1.2690255549560157e+00 -4.6251300275684096e-02 1.6019301466638428e-01 5.9300922791816674e-02 -5.1382856205714811e-01 1.5470856784725232e-01 7.8094418826676282e-02 5.6580258502508662e-01 -3.2664244840134787e-01 4.1514253778801065e+00 1.9244070895421039e+01 -2.1859960206098226e+00 3.2787892615390106e+00 4.3618743617720740e-01 2.9222610656906487e+00 4.8719013038831482e-01 -1.1844084451687515e+00 3.4265562204623590e-01 3.0458639248507446e-02 2.9483765850750981e-01 1.0229046264155549e-01 -3.5562110419723325e-01 -1.7821726700969620e-01 -3.9952476264103753e-03 4.0318948582879672e+00 2.5248855748389687e-01 -1.5699448258191901e-03 5.5614804218881903e-02 1.1574352375306023e-01 -2.9170177874285286e-01 -3.2905612125274014e-02 -1.3413674547756316e-01 -2.5907885380968126e-01 -6.3233306018641820e-03 3.1162489799084085e-02 -2.2462138941520077e-01 7.7084735449808386e-03 3.0780947084264416e+00 -3.2179212878794885e+01 9.1611824043251378e-01 -3.1373219146884512e-01 1.9236673737086929e-01 4.9849277049117158e-01 -1.6007191783376787e-01 -2.0795771735787497e-01 1.6027827353379518e-02 -4.0753245577218955e-01 1.3731826076207840e-01 -1.5002050225241259e-02 1.7340679723576633e+00 1.0669107149768230e-01 -5.3099671474195276e-01 3.1946190750614427e+00 5.1372308057082716e-01 5.3507109637451677e-01 1.1463983023115792e-01 5.4087299360210628e-01 2.3315132286344953e-01 -6.4849679132382709e-01 2.7281121438208344e-01 -7.9260690573477066e-02 1.5806984800565149e-01 1.8011125849276759e+01 -1.3046733902622520e-01 -6.3955777003112091e-01 1.1621747289703706e+00 1.7470602285357018e-02 -8.3076131975730383e-02 5.7196598363228685e-02 -1.2947207052704768e-01 3.9630836349671071e+01 2.8930408754143336e+01 -5.5204290809304144e+00 1.2760261147267526e+00 1.3557912764518676e+00 8.9647279062523921e-01 2.0578986933764729e-01 3.5303131272373134e-01 9.8400115965928270e-01 -1.2933352160393213e+01 1.8958823792189488e+01 1.4632206337903277e+01 -4.1173304151923817e-01 -6.8169309529953992e-01 2.5393632122699112e+00 -5.0155107164114359e+00 -4.2150182419497750e-01 1.4157515559051994e+00 -3.3590608435678121e+01 7.4405392029608322e+01 2.0246019156388684e-01 -2.2802639989836786e+00 -4.9029993107059120e+00 1.4273037397886799e+01 5.1564225647527162e-01 9.7240743941259455e-01 3.1847204380933727e+00 7.2902553833114396e+01 3.2564570148317358e+01 -1.1144956821564776e+02 1.3518635324079769e+01 -2.4880309498317899e+01 7.8114881864226660e+01 1.1756530554027940e+01 -1.8423764586848570e+01 1.2468292932830947e+01 -2.4888099661333642e+00 3.8301889102041304e+00 4.8632779450749126e+00 -1.2464685130545021e+00 -4.6227066828253447e+00 -1.0266603100440404e+01 -4.9520115055691560e-01 1.6913355889825654e-01 -1.9985786362759766e-01 1.0890816758747743e+01 9.2420745948867378e+00 -7.8600429776262217e+00 -2.7015263457106196e+00 5.7747917362729506e-01 -4.4372667268315329e+00 2.7305685931389299e+00 5.0050672024972109e-01 -1.5826461477179985e+00 3.3318860574798116e+01 -4.2531956261875038e+01 -1.4573046072483287e-01 1.8202613210742283e-01 -2.0245289432327340e-01 1.5292504247992711e+00 -4.4143775946081010e-01 -2.3040047660206997e-01 1.1216935079247697e-01 1.7922421407372440e+00 -5.7988745744136727e+00 2.7129884967398459e+00 5.9368018703162417e-01 -1.2983862762008300e+00 1.7485529250409839e+00 2.6022777942681602e-01 3.4273342231445558e-01 1.0275860815833339e-01 -9.9548349424522158e+00 3.5005750324476011e+01 4.5026729086305295e-01 -6.7620726049581359e-02 -6.6453740768777969e-01 1.1726791496071769e+00 1.3466346037395600e+00 -7.1431706895638536e-01 -1.2773814645099857e-02 -1.5604351917178235e+01 4.2159203341717927e+01 -1.1028606417871863e+01 -3.5636407143620286e-01 5.0884576993197825e+00 2.2284840999514062e+00 1.4117690153380507e+00 -2.5174401215117360e-02 -8.7859336684592879e-02 5.7576512625089151e+01 -1.1198452070683629e+01 2.9768352144740433e+00 6.9948425376941181e-02 -2.2484024968604771e-01 9.3404984879257191e-01 -1.2775571007676900e+00 3.8956716361472843e-01 5.7104389901425467e-02 1.6648867166582789e+01 5.9211608373872018e+01 -1.3240445648987702e+00 3.8142272129892740e-01 9.5799679397112314e-02 -3.1832946008111884e+00 2.2068733131918457e+00 2.9144717149671651e-01 -2.2177145229441813e+00 -2.7764501454192548e+01 9.7506696592749904e+00 -1.9058202267357236e+00 -4.9877032290558962e-03 3.9942860973290284e-01 2.0786464533341209e-01 4.1776237879058442e-01 3.9423527651478352e-01 -3.6260513761055935e-01 -1.9286578261568096e+01 -1.4572891149065521e+02 -1.2195056747393373e+02 1.3952724114504770e+01 -2.2471512184642229e+01 5.7340922158999561e+01 1.5250254451941359e+01 -1.8805412307943769e+01 9.4622365312084202e+00 -2.4114587911640456e+01 1.4269288914775112e+01 1.2389269989142182e-01 -2.7514853940056483e-01 2.0155445590006443e-01 -1.7884041034531700e-01 1.0130974806521154e-01 3.8813439533813443e-01 1.0464974333713428e-01 6.9080401585875819e+00 8.1861909831315423e+00 
      </Row>
      <Row Index="21">
        -1.1097456334814251e+00 3.1027171510131124e-01 -1.1467469048620449e-01 -2.2283918988958931e+00 4.3358501548245044e+01 6.0864648685438127e-01 -5.4504641893056116e-01 1.8986202846107152e+00 1.4620520524573273e+00 3.6732419613072442e-02 2.8362257809358793e-01 -4.3033271760711517e-01 -2.2130302846705224e-01 -1.8846637979395817e-01 -1.0626545890139061e+00 -2.1093551173128147e-01 3.0592384947763723e-01 1.8331602896062615e+00 -3.6640524158413072e+01 8.7352917995452983e-01 4.3618743560361406e-01 3.4544845650967475e+00 -2.0152148971636104e+00 -1.2767294211332297e-02 1.0970933083804835e-01 2.6204255713180874e-01 2.7526787638255712e+00 4.0816797645652952e-01 -1.9469736843625556e-02 -6.7084991353739021e-01 -3.7364417630671287e-01 -1.3504687725663531e-01 -9.4842549470773563e-01 3.8026338390082204e-01 6.1603341293793940e-02 -6.5853333255956303e-01 2.9816825581254140e-02 -2.6698995793107461e-01 2.1359199364850333e-02 7.5619419828518121e-03 -1.3532770567030816e-01 -2.2609657204186583e-02 -1.4445690653982923e-01 4.2209294721688079e-01 7.7994989676459181e-02 -1.0080008881421350e+00 -1.3445794136271083e+01 3.8014923427205893e-01 -3.2977620523785189e-01 1.7325607740990336e+00 -3.1737792020408145e-01 -1.3080991875813272e-01 3.0350078892342569e-01 -1.2567137386682284e-01 3.6703573720139682e-01 -2.3804669385401329e-02 4.2834664984725790e-01 -8.3474683939970262e-02 -3.3338816078072576e-02 9.3576692960837349e-01 1.6733569662934912e+01 3.8166710249958458e-01 3.0005658310541694e-01 -4.3369208983665553e-01 -1.2456324051208054e+00 3.9809884541107354e-01 2.2238608642855506e-01 3.4842576520244001e-01 1.2334973144905561e+00 3.4189079683240975e-01 2.5623838084814249e+01 2.0568630964586561e+00 6.7790738926952776e-01 2.0366299645241668e+00 -2.9924397486535668e+00 1.9963012797098212e-01 2.7570077411043972e+00 1.9428535768880337e+00 1.8861923824541911e+01 2.0306889930767021e+01 -3.8344888294569071e+00 -8.2048515365092389e-03 8.4690474483792855e-02 -2.3570705131505747e+00 -1.3622913301377171e-01 6.6073393746278464e-01 1.1536102464277345e+00 -2.0804503988553392e+01 3.0490831600616026e+01 6.7439018935356696e+00 6.9842206022945941e-02 6.8500178253078836e-01 1.5360799653354613e+00 1.8234304019234435e+00 -5.7915620348093433e-01 1.4018421578663709e+00 2.3285962745864197e+01 -4.3698877043009453e+01 -8.5940981040267328e-01 3.0199811939696897e-01 -5.5737631295232291e+00 3.1230339369980031e-01 1.7208449219110582e+00 -3.5994628068260868e+00 2.8293198867231535e+00 4.6031771587336067e+01 -5.9750775605919586e+01 -3.9081341195604793e+00 9.4649585854165359e+00 -1.0686952587187250e+01 3.5383822945581173e+01 9.1845335710484886e+00 1.3575439222474257e+01 1.0196297538318108e+01 3.1260207895282534e+01 -1.5344751079074262e+01 -4.6042433281151602e+00 -1.3335217351461721e+00 2.7869738265856903e+00 4.9570092893778686e+00 -1.5428758442072024e+00 -8.0615830809945621e-01 -9.5494667030076086e-01 4.8536896896984729e+01 5.4242406493818187e+00 -4.6669612286081588e+00 -8.5313439187646667e-01 1.2661348185602583e-01 -1.6497233558253033e-01 2.6213024649425587e-01 2.5907823884447623e-02 -1.1102531866666374e+00 7.6241225990891522e+01 -1.5897961665803493e+00 2.4077480315722806e+00 -1.1059288369290465e+00 -2.6535618258420426e+00 9.3800595637336670e-03 -2.1475342301371070e-01 -4.1708948288201793e+00 -2.4237950236733936e+00 2.7256760764258829e+01 1.2407784400387309e+01 8.8477342395113701e-01 7.0553514835075393e-01 3.2819129618389695e+00 2.2431280123411397e+00 -5.7879355265451737e-02 -5.0434717440934862e-02 2.8858366450493883e-01 -3.0238529177703000e+00 -3.3560931758701340e+00 4.3814251756165277e+00 -1.8485849729453863e-01 -1.0506399672969673e+00 -1.2308384429300334e+00 3.4457948551264650e-01 2.2177095171385022e-01 -2.2155625694044745e-01 -5.4537800281355857e+01 5.2563996397407372e+01 -2.3657693926010204e+00 -1.1802618724874370e-02 -8.5280443801094883e+00 -9.5181342142206553e+00 -1.3386406222882923e+00 -1.7024009272413669e+00 7.6921063303327386e-01 3.6228549280125890e+01 2.0102091162232227e-01 3.6671796018658043e-01 3.8010317464722471e-01 3.4345800431950813e-01 3.7294220228952774e-01 -5.9721067027514306e-02 -1.7649808113187959e-01 4.0517958679009014e-01 4.7034344601160157e+01 -4.1169947137559014e+01 8.8926505832255298e-01 6.4045080694648582e-01 8.5786703586764119e+00 6.8837670838411302e-02 -2.5720849241107269e+00 4.6129021368268353e-02 3.0899148554460005e+00 3.8018276331278145e+00 -3.0894636333081280e+01 -3.0519952357300610e+00 -7.3216896256011699e-01 2.4076176895649040e+00 2.7446093422333742e+00 8.5964470568001161e-01 5.6304970549443045e-01 3.6194646752587552e-02 4.0247444983127544e+01 -1.1266042069487554e+01 -1.2681118020698747e+01 7.3676437381515330e+00 -1.1726402120074290e+01 3.6815776557269530e+01 6.7706905997072937e+00 1.6695043169169548e+01 1.7727450595283623e+00 -8.5497914657445335e+00 1.7007124830946726e+01 1.2950569352186911e+00 -5.5507398619731418e-02 9.9238336629692170e-02 8.2157012850367972e-02 -2.9368217836647736e-01 1.0976194953804713e-01 6.5361300947660794e-01 1.2701519417706539e+01 5.7293039263357128e+00 
      </Row>
      <Row Index="22">
        1.5722955729921675e+00 5.0954834143177530e-01 -2.2571933002636692e-02 2.4268617100693746e-01 1.6511914861135079e+02 5.1363958044023619e+00 1.9005409624993705e+00 -1.8412869157076299e+00 -1.3370261627134228e+01 -2.5373352056386256e-01 -7.9247613374566894e-01 7.3720653342382414e-01 -1.4597927178659933e+00 2.0718980607079964e+00 1.6355274692711488e+00 1.2496229197534792e-01 -1.4312113075710569e+00 1.7672614652784794e+01 3.1417588472715028e+02 6.4040915008732551e+00 2.9222610668945150e+00 -2.0152148989176393e+00 4.8053690226368943e+01 1.0333353360601032e+00 -4.2586525726975610e-01 -2.1569639442831473e-01 -9.8724634708617920e-01 -2.0402321435180091e+00 -1.6698140328241295e-01 2.9318869038291950e-01 -6.1562517156470875e-02 5.3426890028292551e-01 -2.6011239078989597e+01 1.5231658465739781e+00 -1.4609652158482381e-01 1.1251725807350632e-01 -5.4999345740832506e-01 5.7953021622014944e-01 -4.2866344365197956e-02 -2.2017225500074619e-02 5.2171328131069072e-01 1.1314845934166406e-01 1.8807503499702516e-01 -1.9755379360401124e-01 -2.2135642558827762e-01 1.2144247765650391e+01 -3.6054910266514383e+01 5.3747444425094058e+00 6.6448853773906169e-01 -1.5407417910729901e+00 3.4799239358648539e+00 -1.8039565298502158e-01 -3.4603291254749058e-01 2.8925759766001674e-01 -5.4319441989296138e+00 -1.3695887198384923e-01 -5.0562232160642684e-01 -3.7048651797666787e-01 -6.1006627209120756e-01 2.2144569744726255e+00 2.9868268070209308e+02 7.8717489333547856e+00 -2.1402728545748451e-01 3.7394716720595589e-01 1.9436710888232298e+01 -6.1018621143997542e-01 5.4204958169423101e-01 -1.3622396365699474e-01 2.6772667800977588e+00 -2.4859561844274136e+00 -6.7408163594772844e+01 1.2536885065189894e+01 -2.6164015499101501e-01 3.5313784163090531e+00 7.6361534242957987e+00 9.8935213116932452e-01 -1.8131038408484068e+00 -1.2923591971857189e+00 -9.3952801275945504e+01 8.3818928768702136e+01 -1.6368195190122044e+01 1.4797962418589883e+00 4.7721072456297406e+00 8.0181514233647704e+00 7.6617700091402252e-01 -3.6670426489735730e-02 4.5039929437956427e-01 4.5883588141741271e+01 -4.6546466831592127e+01 -2.8391318464478594e+01 -7.6322610476976260e-01 1.3463585226288259e+00 1.7381082762584843e+00 -4.2677854888115654e+00 5.3665929239207344e-01 -1.3232353769047178e+00 5.5944547328987937e+01 9.0818148694497154e+01 -9.4245935852757157e+00 -9.7421949102128682e+00 -7.6241942996983880e+00 -3.6153937098247525e+01 2.5873139855698071e+00 9.7302151535756938e+00 -1.0788226673789804e+01 -2.4861341685539884e+01 -2.3372898427577991e+02 -7.2106307640921756e+01 -1.3039711418604664e+01 -9.7190893093275008e+01 -4.4635401003616721e+01 1.4258567545973548e+02 -2.1886555127165344e+01 -4.1842940235313890e+01 1.1765990097021108e+02 8.4930547993355702e+01 1.7853877323229767e+01 -6.4287873597273846e+00 -2.8009939943292263e+01 2.2586663919406845e+01 -3.1359240592740454e+00 -1.4300237970560965e+00 2.3230927585748171e+00 3.9073629079138939e+01 5.8102974755457467e+01 -1.1963616671487216e+01 -5.6879755631975293e-01 3.9571503485455359e+00 -1.9791569568572420e+00 7.4898300114429359e+00 -1.9367289469651827e-01 1.5596162393664865e+00 -5.9422966659709815e+01 1.7347463885885145e+02 -4.4495641511801693e+00 1.1403801409063972e+00 8.2484304517371554e-01 1.0125375585686282e+01 2.3518858989302061e-04 3.9133171955333736e+00 2.5996024496784194e+00 -6.4018045917867695e+01 -4.8050108539312859e+01 3.7128373199901570e+00 -2.9035638129350283e+00 -1.8205299648470373e+01 -2.4770209457753731e+00 1.0869473719283254e+00 3.5073212067181134e+00 -1.3034505674213683e+00 2.5112775762638954e+01 7.3285102512322098e+01 4.0120731726146914e+00 3.3871123291435212e-01 1.1963238386053803e+00 2.9324516917406402e+00 3.6520537636244708e+00 -1.7917577513771463e+00 1.6199085371695361e+00 -1.3378958305858544e+02 6.2657557856949701e+01 -2.5892661082616613e+01 -2.6172891495287574e+00 4.2773854733315389e+01 5.4051172803644519e+01 8.8223424060772668e+00 3.7209297267543846e+00 -1.0358016874447684e+00 -6.7346141709254653e+01 -4.1585624234949591e+01 -7.3939958231187930e-01 -7.0266029645101935e-01 9.3464137219767629e-01 8.6814907710182587e-01 -4.2424781717943256e+00 9.1654888300486226e-01 -1.9228452311653619e+00 1.0696552957883398e+02 2.0534924268554624e+02 -2.4401902264896727e+00 2.7710826975891507e+00 -2.4585117529225055e+01 -1.7894148907381492e+01 1.3906202191429784e+01 3.8404261261643136e+00 9.8185318224575724e+00 -1.9098495947693095e+01 -4.7497322306480783e-01 -5.0886320958223132e+00 2.7170402686831583e+00 1.2652176684775918e+00 -9.8208943734886471e+00 -5.1391663482058902e+00 -3.7705734014462657e+00 -4.1848497722275646e-01 -1.6962326658739421e+01 -2.0014078406621434e+02 -1.3571136883875795e+01 -1.1243107998776404e+01 -8.2186476791297963e+01 5.8024265503424544e+01 1.3475345651663906e+02 -3.3881400970017559e+01 -3.5872597899338032e+01 5.0765079996968780e+01 -1.1650462791069895e+01 -1.2609973134827668e+00 -1.6296745907024786e+00 -9.4246555825508249e-01 2.2410626803405798e-01 4.0241696977447994e-01 -9.1631743136011456e-01 -1.8797959675799802e+00 1.2136375529683280e+01 -2.6414125206121948e+01 
      </Row>
      <Row Index="23">
        2.0002418009697320e-02 -7.5964578182143738e-01 6.5364121320007407e-02 -2.6091503953475410e+00 -1.8518609094261961e+01 1.5091001586956161e+00 -3.2830632449244113e-02 -1.9237872924212773e-01 7.8565540943536361e-01 -2.2261156777185573e+00 -1.8969944293938124e-01 2.9618144208318137e-01 -1.9822402314450344e-01 8.7478524495648316e-02 -2.3644977143866397e-01 -7.1824578181041487e-02 1.9905157004454571e-01 4.1219094267895153e+00 1.1022817522532173e+02 -9.4910034345267968e-01 4.8719012947978074e-01 -1.2767293581622013e-02 1.0333353360312936e+00 3.8434531317418656e+00 -2.1033190365898874e-02 2.1370957145059036e-01 3.4989306744608062e-01 -5.5963190966054295e-02 -1.2572424011886510e-02 1.2043604637525362e-01 1.6709018482315763e-02 2.4823854071880336e-01 3.9513819073233836e+00 3.9290065218141640e-01 1.3451355082533598e-01 2.0255665738179676e-01 4.0943991577764557e-02 9.3958683716565805e-01 -4.8498983904083720e-02 6.3443955508143512e-01 2.9179814841382501e-01 5.4107778638637027e-02 2.1921105272194586e-02 -3.7189651026106080e-01 1.4757699026327109e-01 1.6808565481822200e+00 -3.0062471123091335e+01 1.3247649193606797e-01 6.4524487100872857e-02 -3.2313893132757343e-01 -2.5605808219268877e-01 -7.1435452442810310e-01 -1.6067201581939872e-01 4.5647894431396185e-01 5.5764346597145353e-01 6.1164574943589983e-02 -1.3027518135422372e-01 6.6972366986470355e-01 5.8579428454433113e-01 2.7731458444692123e+00 2.1440231871646649e+00 -5.4767851227829345e-01 1.0104618711123492e-01 6.8874822040747866e-02 -1.8735022332270129e-01 5.5332466044564343e-01 2.0349558992524858e-02 5.0631464217330602e-01 -7.1912736095901453e-01 1.1416801886980465e-02 3.0700787221882990e+01 -9.1045915338909182e+00 -2.2673855886120625e-01 -1.9452880644882953e-01 2.0458306054302966e-01 -1.2710295508474769e+00 4.2317952718854357e-01 -1.3419579734585785e-01 8.3703127231227512e+01 -4.1742268404467566e+01 -5.0591693863344265e+00 2.5091719848318006e-01 1.1066588486506248e+00 4.5711000644610067e-01 3.9876471285428550e-01 -2.0588038629907779e-01 1.5481419547351100e-01 -4.9062262262693999e+00 2.7566663856734088e+01 2.3349978069615826e+01 -4.9894362339051507e-02 -9.2950231143708528e-01 2.1589949478288766e+00 -3.7758540618403948e+00 -8.9480232775470259e-01 1.2378022122275949e+00 6.3057205678597938e-01 -1.7461075541210533e+00 1.4364032854076854e+01 -4.4739075637672112e+00 -3.8504788456975456e+00 1.3916801241204077e+01 2.4321931215136043e+00 -5.1317332035476504e-02 -4.8885654930588824e+00 9.0985867763487605e-01 3.9248979211845665e+01 4.0934125129756822e+01 6.2139966898453558e+00 4.7027775221158834e+01 -7.3282591128946430e+00 -1.1170087400992161e+01 -2.1244518951968634e+00 6.7268446288559307e+00 1.9798983768934498e+01 1.7812866439003432e+01 -3.4686520853339857e+00 -2.2502923397940298e+00 -8.7841883327060337e+00 1.4110572657219857e+01 -3.6423503129718746e+00 -1.7927561421932883e-01 -8.9009128818654304e-01 -6.0332764597627673e+01 -2.5606639039048023e+01 -1.5315780886314201e+01 -5.7932074132689104e-01 7.0110070014093195e-02 -1.4942925748720945e+00 1.6532765852859823e+00 -2.5375664229656175e-01 1.4797382971059783e-01 2.7888778085559217e+01 -4.9228482294302744e+01 -2.3657403051781127e+00 2.6542934181204930e-01 2.8881055529667532e+00 2.6274564670160783e+00 -4.7288247306550513e-02 4.1081590278285240e-01 3.0213599305623029e-01 5.2452320519099899e+01 -3.2584929949388668e+00 3.4889639282837552e+00 4.7995488361925320e-01 7.5248258849177319e-01 -2.4095565689709515e+00 6.4632627310490709e-01 -2.7553596370250755e-01 4.7552100379296226e-02 -2.0573745210281832e+01 -3.0988679534105653e+01 -2.7866703731206144e-01 -9.4395524396603891e-01 -7.5934354344707122e-01 2.5960752591968639e+00 -9.6725756252900696e-01 -3.0649990968123060e+00 2.5333719500279352e+00 4.8835031473277013e+01 -1.2213072317672726e+01 -2.1387945884891046e+01 3.5323766187355876e-01 6.5647955197694507e+00 3.2207548945394695e+00 2.3130601454403359e+00 8.4383170862763401e-01 3.2860637970257711e-01 9.1954714911334236e+01 2.1339830615359460e+01 5.9301077210016055e+00 9.2952409050664331e-01 2.2560817676892952e-01 -6.2217610466637929e-01 -8.5672445244152995e-01 2.6997246869422127e+00 -2.0170767549178108e+00 -7.4518931246995436e+01 1.1754352020563488e+01 -1.5698754507361631e+01 6.8361181669437343e-01 1.4953395241292151e+00 -2.3123206804142127e+00 3.6032337944618220e-01 -5.8319061224292312e-03 -2.2459997001600263e+00 7.3599466883418046e+01 1.5210611007003536e+01 -1.2417317547836548e+00 -1.7161004113792408e-01 2.1790647865082680e-01 6.9747809392808890e-01 -1.0981731271920125e-01 -1.9994884420136733e-01 4.5095199413032472e-03 -1.2859962356775105e+01 -9.8475418269893680e+01 1.6562421951462625e-01 8.0303774960703134e+00 4.4315521332052171e+01 -8.1469483969482326e+00 -1.5671641995704389e+01 -2.1047842511912105e+00 1.2540022655653079e+01 1.3575860349765890e+01 1.1501029362596803e+01 7.7978079431912772e-01 -3.5690378151665669e-01 6.2462278509070046e-02 -3.0419842685455678e-01 8.9301306910308020e-02 -3.0920978695392343e-02 1.1971100911776489e-01 -1.7461341144219382e+00 1.4803449962612385e+01 
      </Row>
      <Row Index="24">
        -6.3953169724192904e-01 1.9392849953336451e+00 -4.9095606819629573e-01 4.7063101725957779e-01 2.2483325560719024e+01 2.4675251279691099e-02 -7.0571627201588327e-01 5.5222630278716167e-01 6.8334809454465836e-02 5.4563784484384606e-02 1.6545769791782089e-01 -1.2454835156991007e-01 -4.3143503139887907e-02 4.0423085622137112e-01 -6.0444407036180836e-01 -9.9311978729264883e-01 5.6251827911224195e-01 -1.5319861970245761e+00 -2.8469195145482409e+01 7.2392833562351724e+00 -1.1844084457184796e+00 1.0970933089285283e-01 -4.2586525503128053e-01 -2.1033190541907346e-02 3.1302662152625320e+00 -1.2309786546204377e-01 1.6686358511880426e+00 -2.0049742319106048e+00 -1.3482029718100294e-01 3.8118277877734030e-01 -8.0605669578910621e-01 3.6136718165381321e-01 -1.6815001961399132e+00 1.9933071164312760e-01 -1.7845828164307398e-01 -1.9836825458609339e-01 8.8172431506378074e-02 -3.4877641898733025e-01 5.4261215713320272e-02 -8.9989391698359636e-02 -1.2198515945374688e-01 3.6187028477211683e-02 -5.0678424576707903e-02 6.2679590473577529e-01 9.0793271768882744e-02 -2.0272340169476166e+00 1.5357129743495141e+01 -6.3500229682110443e-02 7.7787580559331659e-02 2.4943958853238932e-01 -6.3962096260769452e-01 -1.6272243717597135e-01 9.3949764814279979e-01 -3.7758549374488512e-02 5.9009254544599532e-01 -1.1411058095151509e-01 3.5337542221437984e-01 -1.7298461376848473e+00 2.5242233433729827e-01 1.0611479243156801e+00 4.1669566452371079e+01 1.2020156314864108e+00 2.2929758179806844e-01 -2.5178801265778339e-01 -2.1984719340287684e-01 1.4386399277307324e-01 1.4752208186117652e+00 1.6485739895229767e-01 9.8249290207849183e-01 -8.2983947763952726e-01 3.5372021205100147e+01 4.6494874043038701e+00 9.6053020976072312e-01 -2.0301862211964874e+00 -5.4673449408696229e-01 7.2958697048469701e-01 6.2010499647222006e-01 1.6004621537377335e+00 -5.3255936068535519e+00 -3.6196547734672365e+01 -1.2736048291053432e+00 -1.0883763652051497e+00 -3.0800310730054719e+00 -2.0730144367729508e-01 1.0403328479092093e+00 -4.0984782255758961e-01 -3.2999522391599379e-01 -4.5213775609475690e+01 2.8127812876016328e+01 -9.0330018960447944e+00 -3.1724287478522073e-01 -2.3807766710167333e-01 2.5282555518023897e+00 1.9622147671919252e+00 -1.0503876578376150e+00 1.9506472596600335e+00 -2.0241986142516879e+01 4.7333939563363494e+01 -3.8765276695283362e+00 3.1197354008783016e+00 2.4646171445438574e+00 -1.4591582470131666e+01 -1.0044276189256442e+00 6.5812498114578322e-01 4.7582676839916793e+00 -1.4854478261885102e+01 -6.0249554891759658e+00 4.0097014171932322e+01 1.1909158115500889e+01 1.0102834555023321e+01 -1.2619174284620581e+01 -7.1472257167569424e+00 2.0799575912131321e+01 1.4157103884767398e+01 -4.7890742237824526e+01 -2.0834059829670622e+01 -8.7482574049236632e+00 -2.4633838708783480e+00 5.6065884618269353e+00 1.4165823416236465e+01 -1.8093870153874618e+00 -2.9471777651119130e-01 -2.0641997456419703e+00 4.1344830818760606e+01 -3.2628537925764554e+01 8.3591908528967451e-01 5.3801432984583886e-01 -9.7706250280210227e-01 6.0730300279398453e-01 -1.3346675798110852e+00 -2.5336046795910228e-01 2.6275285304844936e-01 4.7964924281935708e+01 -3.9596232752260413e+01 7.3779234294091656e-01 -7.0116500481321176e-01 -1.9232688326544540e+00 -9.5324179363281969e-02 -8.9526405601594683e-01 -8.3613595379602135e-01 -7.5962633023746440e-01 3.6927077520266501e+01 1.5210720186264423e+01 -7.7770123661499668e-01 1.5380419463190620e-01 1.9264253071776807e+00 3.6517066112214618e+00 -4.3830083361843364e-01 -2.0823460655752446e-01 -8.6186764369000329e-02 1.0774391352315206e+01 -3.1751448539668505e+01 5.0080006663509380e+00 -6.4904611597916939e-02 1.6963848588013342e-01 -3.4313474198206073e-02 6.0442970280882058e-01 3.3952913794163564e-01 1.4590088195540085e-01 -2.6987131127902558e+01 -2.6711122592442308e+01 6.3287162672555732e+00 -1.1366274446951490e+00 -1.2354711246340845e+01 -5.0176777873086076e+00 -3.5473449668681634e-01 6.1812707741411466e-01 1.6775701947971629e+00 -3.8568478199971167e+01 2.0692821285740251e+01 -4.0890416824770401e+00 8.6896582539311387e-02 2.6598274752388795e-01 -6.5749082457162294e-02 1.1513266762107517e-01 -1.4951454559518157e-01 -3.0832673418693907e-01 3.1866257880762419e+00 -1.4362441470362677e+02 -4.2840551245004388e-01 -7.4620038024331858e-01 6.5361322955855616e-01 2.0034711055874119e+00 -2.0646047852869485e+00 5.5139260583157768e-02 4.1551226011313958e-01 4.2779897373612826e+01 -4.0380090019801855e+01 -2.9585109228784181e+00 5.6499771573078394e-01 1.4959036690016774e+00 3.8553824664257372e+00 -2.2227297850678696e+00 -2.7276839421169830e+00 5.0975842161264107e-01 4.9239313307354870e+01 6.1789943386898898e+00 5.1036357978939350e+01 7.7309195558687200e+00 9.0796661586392950e+00 1.5110950527565223e+01 -8.2996373864247062e+00 1.9852815221616542e+01 5.0499615766133044e+00 -6.7744259799678730e-01 1.6461296144074609e+01 8.0655029600544803e-01 1.2150699848787028e-01 -2.4087233031853189e-01 3.3379334905711089e-01 -1.7990603801073413e-01 -4.3218262594999793e-02 -5.2969075657541964e-01 1.1313557172342897e+01 5.4025564285448686e+00 
      </Row>
      <Row Index="25">
        -9.8052122810836403e-02 -4.7773862856953492e-01 -4.1345928895452938e-02 -1.9511718872131496e+00 -7.0533975762094769e+00 9.8211368470128479e-01 2.2866736362105740e-02 1.5535212550862099e-02 4.6585096736752601e-01 1.9828664065894754e+00 5.3593864721592131e-02 -1.1343738175532918e+00 -2.1083986853409883e-01 1.2873462867965149e-01 -5.1731884706844922e-02 7.0683730623261454e-01 -2.4230676948958230e-01 6.0248920471207787e+00 3.4164195702626870e+01 -7.5956889272753803e-01 3.4265562391370247e-01 2.6204255793397468e-01 -2.1569639383263062e-01 2.1370957343537800e-01 -1.2309786414702190e-01 3.0411565177173498e+00 1.8535262983424337e+00 8.3750739848819283e-02 -2.8370665455606452e-02 -1.4437797241374994e-01 -9.6530533438645705e-02 -3.2260326391995919e-01 2.5826096457109182e-01 3.6791406421003103e-01 2.5109034557184370e-02 1.1116523338490451e-01 1.0431982170591075e-01 -2.5697059955675656e+00 -1.6977503499940011e-02 -7.5979440574505797e-01 1.2464789240965825e-01 -3.3343305299746877e-02 1.4272802790196676e-01 -1.7646310170337606e-01 1.2862547993844980e-01 -7.5494572086023481e-01 6.8363611784000184e+00 9.6402361699042566e-02 -1.3143853090759050e-01 8.1955931151018777e-02 4.3824861968258931e-02 3.3743939719781374e-01 -1.4161534953443533e-01 -9.8020035889677204e-01 -5.6891624031142285e-02 8.3778457737979622e-02 9.7133912269258604e-02 1.3680039537202249e-01 5.5617811034758269e-02 1.1155250556937233e+00 -9.0553315624533806e+00 -2.0874198421999968e-01 1.1814169717145157e-01 2.2347074570646809e-02 -2.0645506050427254e-01 1.5916993481047808e+00 -4.0647818949637887e-01 8.3090924333034044e-01 8.9889728607242636e-01 4.6667351050672365e-02 1.5985245920361315e+01 6.8375159196188164e+00 6.4388287556613633e-02 -1.2231326290157085e-01 -1.0401171722222671e+00 1.3584002044288177e+00 3.4096343200832724e-01 7.2236735293774323e-01 -6.2092913660711716e+01 5.0399062330105025e+01 -3.1150155625303677e+00 6.0702633970638686e-01 7.0444729198783307e-01 -1.0039781373136520e+00 -2.4286322832746143e-01 6.6121394121391314e-02 -5.3758231756352570e-01 3.6073820357694274e+01 4.3499546512060284e+01 5.4426766100274762e+00 -1.1014274624810655e-01 -1.0469061711379712e+00 -1.0310559163260646e-01 -3.5241806435241201e+00 -1.2249394760699950e-01 6.4033157847183586e-01 2.1030500182682658e+01 2.8972451761159590e+01 -1.7662934843514435e+00 1.0127089370837439e+00 1.6291446341852200e+00 1.6503624255729186e+00 -1.7584440553401561e+00 -2.1927697137954021e+00 2.8190996995290201e+00 -1.8181778872711988e+01 -2.2407279858456430e+01 9.7138157431810157e+00 8.6437454944660299e+00 2.4206923988447102e+01 -1.2319783407950286e+01 -4.1274945221280362e+01 -1.5725231806268949e+01 1.1185590499564363e+01 -1.0230314466143739e+01 -1.6795622636504199e+01 -1.2909851336958582e+01 -1.0199738446715023e+00 -6.0173337689726765e+00 8.9049881890544960e+00 2.1374320961957629e+00 -4.0874407315326777e-01 -1.0488831762963213e-01 4.7001361625984245e+01 -2.1542627777983228e+01 -1.4899591480308118e+01 -5.7750915127239821e-01 -8.3598480050639523e-03 4.5572068887677375e-01 1.4977673577875636e+00 1.9694944312117502e-01 7.5403540646194034e-02 7.6225398783919132e+01 2.1488600816903375e+01 4.0420460767447910e+00 2.0626550425694867e-01 1.4859836628285583e-01 7.3999775972635895e-01 -8.4726473129922031e-01 -8.1847013697791682e-02 -2.4521857955739260e-01 -1.7532155249590460e+01 2.4437099018951319e+01 -1.6945063477791646e+00 1.8321842924074935e-01 -2.6029089375924741e-02 -1.4546615719122573e+00 -3.5674692705053718e-01 1.4005576198106140e-01 -1.5724044138435772e-01 1.2495179743132212e+01 1.8855961327739632e+01 7.0499523091402807e+00 1.0352527955921431e+00 -1.5384430198780059e+00 -3.9702489210728862e+00 5.6993726537871670e-01 4.9614486634266886e+00 -3.2759229971103934e+00 -2.6077514477896329e+01 1.1887082914052957e+01 -4.5650469946655106e+00 7.9943255161421700e-02 1.7252643172994269e+00 -4.4682896545811639e+00 4.1521138243133909e-01 2.1593834328342906e-01 -4.0729722519752742e-01 1.3061441634208720e+01 -4.5729728344667819e-04 -3.7999964075025261e+00 -6.9080863854000585e-01 3.5398020894125048e-01 2.0936392098046444e+00 2.3707563840612349e+00 -2.9424144304549955e+00 2.3536875204297458e+00 5.1296532313313762e+01 -4.9128897575123801e+01 9.9113709505031835e+00 5.0334813219151353e-01 1.6117780565250754e+00 1.3023459640435462e+00 -2.0361099933637599e+00 -6.2009798934119509e-02 4.5273037706979942e+00 -3.2892860887884460e+01 -2.1024755117819950e+01 -5.3186712615409206e+00 9.5082351539758289e-03 1.0476845782545732e+00 1.8093445713705023e+00 1.2888639260727928e+00 -1.2463418920648461e-01 -6.2012412436188158e-03 9.2773819917595219e+01 2.5350092096614389e+00 -4.2840699511425662e+00 7.1870610356907196e+00 1.6824357439108887e+01 -1.2333319415107869e+01 -3.0040223469298184e+01 -1.1482432688300474e+01 2.5162102772970840e+00 1.7041309733494188e+01 3.1824246360395037e+01 -3.6868863296809162e-01 -1.6312832891111384e-01 -1.0696665360915616e-01 -1.7498283037798945e-01 -4.2512138871286576e-01 6.3515462711999204e-02 4.1869109811727867e-02 -6.0280589757474417e+00 3.7311467610091235e+01 
      </Row>
      <Row Index="26">
        -1.2363200967617618e+00 -1.5818686269034630e+00 -5.0785880509790005e-01 -1.9649107020751785e+01 1.5508894666825313e+02 3.3656094950233992e+00 -7.2451790367163937e-01 2.1225445420709459e+00 6.6564649316552629e+00 6.7140260431686816e-01 6.9511150733742721e-01 -8.9509673491453701e-01 -7.5274719751276553e+00 9.0301854742332544e-02 -4.4794819536275661e+00 2.5098246051271667e-01 5.2714004758732014e-01 2.1378659230615398e+01 3.4376497870296492e+02 1.5253830521812968e+00 3.0458631308558803e-02 2.7526787598050744e+00 -9.8724633267887651e-01 3.4989305475113608e-01 1.6686358444462832e+00 1.8535262918917592e+00 4.9319935643524481e+01 -4.8034426479834169e-01 -4.9577174264541873e-01 -1.2156588551229248e+00 -1.0166699107847137e+00 1.5604336805842536e+00 -4.5508520450631543e+01 2.0199936959994127e+00 1.2319752135592682e-01 -3.3244687799453082e-01 2.1725724231708238e-01 -1.7510081850098078e+00 6.9391775560173577e-02 -8.5128033212494414e-01 1.5994471427751193e+00 -2.9311175898938412e-02 3.3277395569302992e-01 -5.3052144944192270e-01 -1.5503493037438049e-01 2.0187256035097334e+01 -1.4658435062496903e+01 5.1947495294567307e+00 -2.9275952033972535e-01 1.4837221161213316e+00 -1.6637909432210236e+00 4.0862010685387667e-01 4.4452979457808317e-01 -3.1903570334462267e-01 -2.6539413335257841e+01 5.9092881872795922e-01 4.8968933099225409e-01 2.0910006369981411e+00 2.6709801040929071e-01 3.1780255226234146e+00 2.4962296958669944e+02 4.4570227388526673e+00 7.1468506375579277e-01 -4.9418457319197653e-02 -4.2479612628538517e+00 1.5647942658340697e+00 4.6233412337890023e-01 1.2170347239913157e+00 2.6797233347034936e+01 2.1335375207652552e-01 4.1344886564603044e+01 2.6288672707987068e+01 5.8524171851078162e+00 -2.3738975831764719e+00 -2.0196918278852877e+01 1.1992667693767823e+01 6.1377060712622944e+00 8.0977229561263115e+00 -3.4141902012814811e+01 2.2784034167545713e+02 -2.1664516552531133e+01 8.3550010011180564e-01 -3.9144910155004027e+00 -6.5798657121883934e+00 9.3374607843726887e-01 1.1646339688362515e+00 8.9405980750351366e-01 -8.6381754625939948e+01 2.2932715434086948e-01 1.6290508929547581e+01 -3.6771573698213533e-01 -5.3452565666298568e+00 9.1866023715287621e+00 6.0957156589081229e+00 -1.1796037884603150e+00 6.6466391114538448e+00 6.6737820861431530e+01 -1.9349181521185209e+01 -3.9469439472164289e+01 -1.8355213560199079e+01 2.9663749679410487e+00 -2.3997634160768897e+01 2.6294333084524609e+01 6.8484488076579986e+00 -1.2318455087485027e+01 1.2893342511695721e+02 -3.0219061442111354e+02 -1.5392330780688607e+02 2.0013600618606688e+01 3.1224441536622589e+02 6.8525953460729710e+01 2.2581853753653479e+02 3.0364695903926016e+01 9.6866360333851702e+00 3.4855881230538841e+01 9.1485046437773619e+01 2.1330485340897667e+00 -8.5237567100346752e+00 -4.8310230179758484e+01 7.2456983927626538e+01 -1.2898742748040560e+01 -2.6983937775979494e+00 -3.9714317759399460e+00 2.7752728185390953e+02 -1.6027552951429783e+01 -1.2099686492762430e+01 1.1162235407681553e+00 -3.7525003513258923e+00 -1.1371153259857110e+01 -5.0373063895802659e+00 -1.2941161233891871e+00 -6.0110591182529127e-01 2.3085258877665376e+02 1.1599998647884844e+01 4.1898102772461989e+00 -1.9595341597403368e+00 -2.6141628672514576e+00 1.0517281999851072e+01 -1.2822617059873065e+00 -4.0743125511031604e+00 -3.3518094399918601e+00 1.1218568971869851e+02 -5.0226939510942017e+01 -1.4568256813388528e+01 3.7136151866964693e+00 1.7686439866122328e+00 7.9556540361155301e+00 -7.5797687159238791e-01 -7.4643779012846656e-01 5.2298345727333295e-01 1.3372646839182380e+01 2.6817490095714884e+01 1.9037040248724679e+01 4.3721147108412062e-01 -7.3904993757155157e+00 -6.6317611575218329e+00 1.4798639198387065e+00 2.8200071563632405e+00 -3.5138016068067603e+00 -2.7732103425311470e+02 1.0054432263004853e+02 -3.2235149642404544e+00 -5.2149202657254268e-01 -1.2390413967712718e+01 -1.9794473564765298e+01 1.9706739519963831e-01 1.4593738770538134e+00 3.6813335164505543e+00 -7.0703832526207634e+01 -1.8444228594975357e+01 -1.3918329539078137e+01 -3.1061318083452727e-01 5.2379061066999908e+00 5.0124063517890569e+00 3.8831580519909510e+00 -1.0598059356938543e+00 2.6566718929066697e+00 2.6188442464556636e+02 -8.4485681519843524e+01 3.7477784883865596e+01 2.7390982009423855e+01 -3.6002202800310066e+00 -4.5249751949968733e+01 2.0735420772362637e+01 2.8217340890808540e+00 3.7254852803971829e+01 5.0867794653948749e+01 1.2236885340536901e+01 -5.1071026573332368e+01 -6.5164408949220298e-01 -1.0196115799321808e+00 3.1919797571502372e+01 3.6985937986509043e-01 7.5395213983417086e-01 -6.9856326508837674e-01 3.4458920889949377e+02 -1.5916236780749841e+01 -1.5230991033186010e+02 1.1987303651465121e+01 2.5219311817474707e+02 2.0250032350375892e+02 1.6952164723442132e+02 2.1800278984545500e+01 -2.3264538224857766e+01 2.1741413033425488e+01 2.1481112819882661e+01 2.4830037831277716e+00 1.0334676963680067e-02 -4.7152195614998349e-01 -9.8813601114437266e-01 -1.1300950357926745e+00 -8.6540069064232417e-01 7.2238437523043331e-01 6.4975306030656583e+01 -4.1129043425793590e+01 
      </Row>
      <Row Index="27">
        5.9946426037776035e-01 -1.8712232746200090e+00 6.1911062980683607e-01 -5.7588752065169047e-01 -3.3830447567126498e+01 -6.3248410895412199e-01 -1.3918000333103112e-01 -8.0532258032210535e-01 1.7851416924129859e+00 8.6912776155044724e-02 5.1764013421305211e-01 -1.2880536930179060e-01 6.3248631537525757e-01 -1.4685717973518939e+00 -6.5430440541883184e-03 1.9159492352425374e+00 -5.2295767640739632e-01 8.6489919037688079e+00 -4.7871242166384995e+01 -5.1191267904180462e+00 2.9483765823627339e-01 4.0816797676572913e-01 -2.0402321470673583e+00 -5.5963193474959316e-02 -2.0049742313230685e+00 8.3750740521359182e-02 -4.8034426995544477e-01 6.0186398109374402e+00 5.9883701661871375e-02 -7.4162306283795942e-03 3.1561610440138210e-01 8.9746780992186359e-01 -4.8974783496589565e+00 -5.7061987864493580e-01 1.9523863085722809e-01 9.2294775410053778e-02 1.0348265024715364e-01 2.6928778501694872e-01 -9.7654934230933174e-02 1.0173056611986013e-01 6.8085011262198636e-01 1.0904035673426127e-01 -3.5718725932716661e-01 -1.9900163888762319e-02 4.4719044195175889e-01 -1.0131077918652522e+00 -1.6852251820480046e+01 8.2771109476395699e-01 2.0066767452824255e-01 -4.1972312124420286e-01 -3.6657080838584477e-01 3.2853227048083589e-01 -4.5574146413330668e-01 -1.0925214889045867e-01 7.6725728193333398e-01 6.5526534735023911e-01 -7.7342462750436203e-01 2.0253767317342968e+00 1.2505253482461157e-01 3.5222587803762053e+00 -4.4441146728431292e+01 -1.1025105222724323e+00 1.6730874422330919e-01 5.2154636152176970e-01 -1.5454712134898938e+00 7.4847660377541481e-02 -1.0889136122829948e+00 -7.3021969211457621e-02 -1.0533479405086119e+00 2.6704865848669241e+00 -6.8804710463539010e+01 -5.5884725861373923e+00 -1.6929254903049431e+00 1.8252941969670928e+00 -7.9393298118668554e-01 -2.3456900260546729e+00 -1.1155354582583450e+00 -2.4762833264471459e-01 9.6295584942569796e+00 9.2851584132788545e+01 9.1561376949826219e+00 5.3019098695577316e-01 1.8284066344185135e+00 -7.6707730285193065e-01 -8.8862992182376344e-01 -5.5670974444764321e-02 4.4265914152095309e-01 -3.2151124306584251e+01 -9.4681057431138257e+01 5.4011038342847861e+00 -4.1661648426218878e-01 9.4690413359136527e-02 -5.9741347827515767e-01 -2.8016110557327951e+00 -1.2986179719333959e+00 1.0619601221738360e+00 4.8902494499493265e+00 -1.1805895911682721e+02 7.0038382753341626e+00 -1.9494482485772147e+00 8.9306707811482244e-01 1.0753214785064667e+01 1.8926118861573185e+00 -7.0632216794857072e-01 -1.1738005684175095e+01 3.7873037242989902e+01 -2.3184111034990266e+01 -7.2909812151199702e+00 -6.7997825630354196e+00 2.7836846375792820e+01 2.9223354260893913e+01 2.1480721166096011e+01 1.5073798113237658e-01 -1.8106283334559624e+01 1.6510761722161227e+01 6.8463722873600005e+01 9.7463046837497131e+00 1.0346599216597800e+00 -8.9619898999585477e+00 -6.3254761587663344e-01 -3.2494594284804661e+00 1.0268758876014994e+00 8.3715020359526021e-02 2.6386477809816519e+01 8.1300442899148734e+01 1.0684071530358779e+00 -3.4522796785083742e-01 6.3274763069481210e-01 9.2218038804342228e-01 -2.2782823586935796e-01 -8.1155670959516124e-01 -3.6867758838127968e-01 -1.6505713840964734e+01 2.1786479734999631e+01 -4.4125122049482570e+00 1.0401389586940668e+00 2.2189236222422886e+00 -3.5497060258027391e-01 1.1903514626615879e+00 6.1279550012509021e-01 5.1686488096852667e-01 -3.8112336031703062e+00 -6.8549793496771301e+01 6.5163249125992340e-01 8.7144462410195855e-01 -1.1282868849940542e+00 -2.7777672180585133e-01 2.7077841666563790e-01 -1.6089403427092916e+00 6.8884477953398393e-01 -1.1189469121261027e+01 6.9967616628801039e+01 -5.9517116600563895e+00 1.5293772657807503e-01 -2.0696976201577699e-01 -8.1681975982453459e-01 -1.0592403221023901e+00 3.8421106373523350e-01 -9.1130257206941190e-01 2.1021074445043268e+01 8.8564502791248145e+01 5.2501399875997254e+00 1.1868381689545500e+00 1.0341573499067758e+01 -5.0479191413454751e+00 -2.9504222299335932e+00 -3.5567316231151214e+00 5.6296652090375676e-01 -4.2731020744834382e+01 -5.1177630692622643e+01 2.3305719192335514e+00 -1.0410613742008848e-01 3.4213689103562794e-01 -4.6336909592370845e-01 6.1181270782761554e-01 -3.9291747115049225e-01 9.3686037794268551e-01 4.4883141341325391e+01 2.9868901834587257e+02 -6.9050638748151449e+00 1.6524198858665506e-01 8.5994263696358964e-01 1.2261497326958637e+00 -1.7012900594844522e+00 -1.6265023472321223e+00 5.9517109631516298e+00 -2.6127212378877378e+01 7.9788806110413134e+01 -4.6380399394880092e+00 -5.5262678653095350e+00 -2.4242078065069794e+00 -1.0140129250292254e+00 5.9131080300520580e+00 7.6407682048275047e+00 -1.2997094980018212e-01 3.1242946518163194e+01 -5.8646979813229137e+01 -1.2649728681486387e+01 -5.1215957030640880e+00 2.0639216158854779e+01 1.0725113669154538e+01 2.0565552831489022e+01 4.7410310895746104e+00 -1.2733427447811025e+01 -7.0676105848924635e+00 -3.9210445313451729e+01 1.9835347000584758e-01 -1.2472420591355444e+00 1.5516280101054192e-01 -7.5970045689604992e-01 -2.2386198990425996e-01 -1.1991698091232801e+00 2.1708590983736826e+00 -4.0260003301682605e+00 -3.3171066891909710e+01 
      </Row>
      <Row Index="28">
        -8.9523905555481412e-02 -2.9279423628195054e-02 3.2944340138231616e-02 -1.7285102088624029e+00 -7.6525837279722992e+00 -2.2359435498326113e-01 1.9834113265870864e-02 -3.5913312977945200e-02 1.6397980155099293e-01 5.5080888266227264e-03 6.4083186790995006e-02 8.6353287150781083e-02 -3.2340268053066890e-01 -9.7382729899537987e-03 1.8534212861198809e-01 7.4553368389170732e-02 -2.2832298303541523e-02 3.9073499359443886e-01 1.3212566834086417e+01 -1.5029150777638334e-02 1.0229046242896600e-01 -1.9469736427561578e-02 -1.6698140347716514e-01 -1.2572424270337935e-02 -1.3482029685785510e-01 -2.8370666682470146e-02 -4.9577173744990094e-01 5.9883702651740464e-02 3.2782426018281330e-01 -6.9011509206529098e-03 -8.5526281271656401e-02 6.2519951324240708e-02 3.1291149038642567e+00 -6.4351956887184194e-04 2.0761394911799358e-01 9.9369740106224264e-02 -1.7489721452312125e-02 7.2097227707502626e-02 2.1345172923281398e-02 -1.0936890174333608e-01 -2.1486170315428588e-02 -1.4686192015813931e-02 -1.9457480268117491e-01 1.2647365226331322e-01 1.1952336631169215e-02 4.3912034717028803e-01 4.1090136188699518e+00 1.1505719929301041e-01 -7.7417269122085783e-02 5.7206299526641892e-02 1.6051626684838236e-01 -2.6699317115326318e-02 -7.6666471072351222e-03 5.1883314839923880e-02 1.3770889857774098e+00 1.2390057179269449e-04 6.1661480106547900e-02 1.0525302524228716e-02 -2.1437058662014397e-03 6.2828389656264250e-02 -1.1463096359718111e+01 -1.4955565678595628e-02 -4.3783050470849218e-02 5.5273063289820082e-02 -4.3761642562325009e-02 -1.5325522918450815e-01 -9.3023346719412758e-02 3.4960027989997637e-03 -4.9191331191382531e-01 4.1628954865650769e-02 3.4994108606317313e+00 -2.6280696041606788e+00 -1.2900835977971636e+00 7.2950790695466594e-01 -2.7483415145954382e-01 -2.7347522943465730e-01 -1.0121407799075219e+00 -7.2840670572362054e-01 8.4027032979718737e+00 4.5351771046482945e+00 1.0829888134686254e+00 -1.5669019477849218e-02 -8.5557268329118585e-02 -5.2980582332511972e-01 -4.8727232482480543e-01 -1.4408069034046667e-01 -1.3502170709365835e-01 -9.3969330379831817e+00 5.5011970661231642e+00 5.3006367888962358e-01 -1.5568274799219239e-01 3.5173752877285480e-01 7.3346842214437502e-01 2.9989234869639517e-02 -1.6432171090550318e-01 6.1804155458098142e-02 -3.2557739251294393e+00 -1.0998052141250170e+01 -8.8624339568133070e-01 -1.0642106089147287e+00 -1.7265729643482095e+00 1.6043627624238228e+00 4.8900107783808933e-01 1.2377814535979417e+00 -2.8121542327198021e+00 1.5264537302659766e+01 -1.8787758957732837e+01 -4.3446546574223888e-01 3.2320321296051291e+00 -9.1831534706545455e+00 1.5836592148469247e+01 -9.0633661470105764e-02 2.2063689642760580e+00 2.8978975721702493e+00 -1.6466209777438401e+01 -2.0755033219053618e+00 -1.8750137949440386e+00 2.2852078327629738e-01 1.6352780841177892e+00 -2.4977642178884136e+00 -2.3788919347441229e-01 -2.2440928894961626e-01 8.2539150829903596e-02 1.1241591203006632e+01 -6.6005493607725576e+00 -1.4308768993540184e+00 4.8564292054819280e-01 -3.1718638358853585e-01 3.1254098309321732e-01 -4.4720349142282723e-01 6.9088384053488427e-01 2.5375773733899798e-01 1.6125106704640658e+01 9.0335901528391673e+00 -1.1857853969801413e+00 8.7432932159213508e-02 1.8467921639940418e-01 -4.8839860850150968e-01 1.9366002488480594e-01 3.7428612899393310e-02 9.2654884833647505e-02 1.6176342050993640e+00 1.9965838254288908e+00 2.9782626091848807e-01 -1.7198839163988889e-02 -6.0448202771479487e-01 -6.0428357757454743e-01 1.2446005513254046e-01 1.1652227124915937e-01 -2.0171099353482103e-02 -8.7511098891029633e+00 -6.5009686347436517e+00 -7.6336939358395739e-01 -8.6286524008540644e-02 1.6914722919468206e-01 2.6841555041586557e-01 8.1680020268047659e-02 -6.1630160963318525e-03 -1.9921446426066269e-01 6.7278661192146956e+00 -1.1970978983051106e-02 -1.2681318762774012e+00 -2.5882297627987350e-01 1.8197923922310466e+00 -4.7439726327455816e+00 -5.3101595965999904e-01 -2.8721937609458487e-01 -1.9682101196467286e-01 9.8687907095118987e+00 2.9480900980731803e+00 2.0760825098793845e-01 1.2188454055954076e-01 -5.8622912671635163e-02 -1.5514282319203215e-01 2.3699282831889992e-01 -1.2988456347673571e-01 2.6744308370782294e-01 -9.5961812782232130e+00 2.3490767799606544e+00 -2.7541230058142760e+00 -7.0905082950749643e-01 6.1623227281122972e-01 2.3027342193268856e+00 -1.1530284201288197e+00 -7.9657768066763135e-01 1.0314007203792375e+00 -1.0548057867434821e+01 1.4139711340349095e+00 -1.1324690984027090e+00 4.9288920529207150e-02 -3.2031026036350485e-01 7.6561620487164606e-01 1.8327606712329469e-01 2.0708243833670203e-02 6.2355381227335964e-03 7.6168902917441290e+00 -1.3510643769211892e+01 -1.6579890590524187e+00 4.8864345482042362e+00 -6.3366455899375662e+00 6.2092558380870173e+00 -4.7701560127864528e-02 1.3860496239041262e+00 4.3736631364060434e+00 -9.8904545467325988e-01 4.3788194020401239e+00 1.5068836897835075e-01 2.5164044611805991e-02 -4.6748728617642565e-02 -1.4977042973265711e-01 -2.1271755372513967e-02 5.8180317344318389e-02 8.7504386889847297e-03 9.8806158105894548e-02 4.5138332988680512e+00 
      </Row>
      <Row Index="29">
        -1.1569543080889300e-01 1.9535993946930097e+00 -2.2848417598123286e-01 -2.6084080266214187e+00 4.0178802584780158e+00 -9.5432515607080465e-02 4.5470295478542998e-02 6.6157714240735466e-03 -6.5178489399871320e-01 -2.5948442480489220e-01 -1.6039652506789313e-02 2.5008230531111370e-01 -9.5010843421716018e-01 -5.2522767621941545e-02 2.6146546008599714e-01 3.8665735187935169e-01 -1.8955070730397172e-01 -1.1251419802568581e+00 -4.5042136672690489e+00 1.6981663658072883e+00 -3.5562110473357789e-01 -6.7084991423014861e-01 2.9318869083642762e-01 1.2043604575283177e-01 3.8118277784286836e-01 -1.4437797427297963e-01 -1.2156588556348700e+00 -7.4162288827356454e-03 -6.9011513239556786e-03 2.8204261449045696e+00 -6.5590600954931610e-01 2.2242975748401150e-01 -7.1073540427425907e+00 -5.1535435948481123e-01 -2.6151762189467131e-01 5.2091388848799591e-01 -1.8107743473434479e-01 6.1727621932417365e-01 -5.0473936777649789e-02 -1.1786855571017728e-01 1.2071223357443608e-01 3.3810016828081255e-02 -5.1027792279738027e-01 8.0019574469991595e-01 2.0769030065774188e-01 1.2721254666334119e+00 -1.0674232672380224e-01 -2.7740050023375334e-01 2.7355060836849859e-01 -4.9582588988814735e-01 1.2655436292017114e-01 1.7704492122798560e-01 1.3820708561846604e-01 1.8326432713073096e-01 -2.8030536325180244e-01 -4.8503583019745763e-02 -1.7045128450525027e-01 -2.2155779356167189e+00 -1.1622971800710717e-01 5.6688378890531865e-01 2.3306939538824707e+01 -3.2518886433035754e-01 5.8904801338128837e-02 -3.4351015971156923e-01 5.4784061298717346e-01 -2.9409758954876242e-01 4.2864042882480136e-01 -1.5960024689508026e-01 4.2672578838651454e-01 5.9653062505681365e-02 -3.3315059516766237e+00 -8.1903677942317188e-01 -4.6121009592818074e-01 -2.0612258779016202e-01 -1.8933846796052762e+00 9.7420637265520527e-01 -1.4510593064804893e+00 -7.6230653584993679e-01 8.9973593425733505e+00 -3.5960308434427176e+01 8.9365326366678044e-02 -1.9157375392050651e+00 -4.4991386945939666e+00 6.8002577944947404e+00 1.2253595910762489e+00 -3.7065700568340940e+00 -2.4556154808636390e+00 4.2650031895625631e+00 -7.7681772286513482e+00 -2.0174497377125626e+01 -9.1150450038943287e-01 5.9900184738710838e-02 -2.3620237722647066e+00 -6.5370725355224746e-01 -9.8976134264427795e-01 9.0065972205871447e-01 -2.8399408094492742e+00 -4.0899615255209582e+01 -5.5695119121596717e+00 -1.5043621670948712e+00 -3.2370035965471029e+00 -5.1035917739838172e+00 -1.8354655180178541e+00 3.9504796621806495e+00 -3.0413727977646823e+00 1.3932865241242055e+01 -1.2188377472536104e+01 1.3430562600767153e+01 -3.3104309142673802e+00 1.0560085807189893e+01 -2.8722088781330200e+01 -3.7123436664274330e+00 1.2800114152963991e+01 -6.8420589416422732e+00 1.4876636998365029e+00 -5.9356739055840047e+00 2.0660879469954807e+00 -8.3636816766558542e-02 -4.4148638762645553e-01 4.5685278713654709e+00 -1.6527303030825529e+00 4.3238066831101135e-01 1.0208940399400812e-01 -2.3586778119783247e+01 -3.7633756170459804e+00 4.4362946840219877e+00 6.1665932644755284e-01 2.6007189931070862e-01 2.2846510489967278e+00 -1.5994313614047797e+00 3.4588234308965959e-01 1.2306947193238366e-01 8.3854323896419931e+00 -1.3585744692792002e+01 -2.3331688212505242e-01 3.0662562711978386e-01 3.3542515133752393e+00 2.7640274410198060e+00 -9.7982638712424430e-01 1.3529078286530731e+00 1.1118534540774374e+00 9.6836118192781839e-01 4.3074288562390270e+00 2.9382090258946597e-01 -3.7198678665213381e-01 -8.9043770277825729e-01 2.8435765763444820e+00 1.7033131572406815e-01 -3.1236186824623702e-01 -6.3955659457740482e-02 3.4669995059851999e+00 -8.2095674406598178e+00 -4.0528371800962759e-01 1.3995184718544662e-02 -8.0081931039214460e-02 4.2158418363403077e-01 -1.4732513188882290e+00 -3.1511441400673634e-01 4.3948195903368803e-01 2.7269528433161895e+01 -1.7568253476767548e+01 2.7095880402111412e+00 -9.3885644897618969e-01 1.6880804624891779e+00 1.2509733622238958e+01 4.1882491643694519e-01 -1.6696338704399460e+00 -5.9393658148486295e-01 3.4683537584703458e+01 6.7416927897932055e+00 -3.5885882519223369e+00 -5.0237888694934119e-01 7.3216408455503146e-01 -1.5838124607135957e+00 1.0637652711580321e+00 -3.5885924850395562e-01 -3.8596507576787520e-01 -4.9802656811868502e+01 -6.2730128088470707e+01 -4.7956398640056630e-02 -9.1344874635617879e-01 -1.5224425190044855e-01 1.4803367456362579e+00 2.2288777950108418e+00 -2.0842796500529639e+00 -3.2702150849729805e+00 -1.7052024866822194e+01 -2.9051333436655113e-01 5.4716823163985695e-01 -1.4667117714338934e-01 -1.0162478168392288e+00 -5.5615231232202356e-01 -5.1019566497281232e-01 -1.8225546172674023e-02 3.5805083136025245e-01 -2.6398222207565983e+01 5.6632264181658428e+01 4.2297581298425115e+01 -1.3679841335291723e+00 1.2320175098343777e+01 -9.9465565994456426e+00 -5.4008169006558404e+00 9.2216669596183269e+00 -2.9141045516809179e+00 1.2920891629327343e+01 -1.9468026062660948e+00 9.8163741521986481e-02 -1.3954534311653788e-01 -1.2102595977447894e-03 -8.7148803505136174e-01 2.4804595676966468e-01 -1.3012519623944999e-01 5.1236052069825178e-02 -4.5703204933714323e+00 3.7755732140552083e+00 
      </Row>
      <Row Index="30">
        8.2006821329937896e-01 -3.4049469718870212e-01 1.4679183460272498e+00 -1.5193923244955272e+00 -2.4806192835954278e+01 -2.4507160236559811e-01 3.1956282589590330e-02 -5.4757684734252354e-01 1.0324822100924275e-01 -7.5369107004468117e-01 -4.4190999947130316e-01 -3.7676845054414310e-01 1.0182345202924132e+00 -1.5588787072285373e-01 7.9329917264084382e-01 -1.2397450347116928e-01 -5.1833084421529874e-01 1.9248824569344558e+00 6.2817527786791544e+01 -9.3244699741850012e-01 -1.7821726509956060e-01 -3.7364417635499575e-01 -6.1562517487826346e-02 1.6709019668520009e-02 -8.0605669556712400e-01 -9.6530532443079631e-02 -1.0166699075924188e+00 3.1561610483707248e-01 -8.5526280378578567e-02 -6.5590601008575788e-01 4.1058379045380056e+00 -4.1731862152724375e-01 -6.0129569146906423e+00 4.3711274712547976e-01 1.5452220707952158e-01 6.0290223248530769e-02 2.4271064473968190e-02 7.4684935156601118e-01 8.8696137518113449e-02 7.8836189235778587e-01 3.8279823463084028e-01 -1.4603761418250250e-02 4.7871803797431900e-01 -1.6333482108402964e-01 -4.0348354075185300e-01 -1.1331360017072711e-01 -1.2716902626345261e+01 -4.2129979996319883e-01 7.1630090190563336e-02 -2.2541095962091715e-01 1.1970520222166817e-01 2.6765409454252187e-01 -6.3976097966155598e-01 2.7235916151919198e-01 1.8487727535626148e+00 5.2954902228914316e-02 -1.7408499990862558e-01 5.4698434691723552e-01 -8.6606938371307218e-01 1.3357228755696298e+00 -3.1144209331423149e+01 -3.6760196495511321e-01 -1.7662791570184067e-01 2.3243098972422016e-01 8.4669846742434496e-02 1.2601387925374274e-01 -4.3692529946548586e-01 3.0989132494290028e-02 -2.3739999134888503e+00 1.3636161611761799e-01 1.5557437333240266e+01 1.2808583171196588e+00 -3.2966745945024023e-01 -3.1837954513400746e-01 1.0090265990111220e+00 -1.4737505775767317e+00 6.6099574553106555e-01 -1.8253112969549137e+00 -2.5503213634535072e+01 -1.0725746691343829e+01 -2.5081717303661240e+00 4.2262539453479220e-01 1.9544540029114046e+00 -1.6414329627184543e+00 -7.7340949771619893e-01 8.0138692904604125e-01 1.7752007007808784e-01 8.0336789224625647e+01 2.3514329081389640e-01 4.1724318175803205e+01 4.1087225279729154e+00 -1.0807364026477169e+00 -1.0671282666269180e+01 -2.1178110572284847e+00 6.8116425382722650e+00 -1.1638031048293072e+01 6.3662836712055082e+01 3.0830290839109153e+01 6.5310736035076005e+00 -1.6569885322831155e+00 1.2833157346933755e-01 9.9606677901352931e+00 2.9146988088505812e+00 -1.6930696138260988e+00 -1.0786394088064180e+00 -6.1135124824363878e+01 1.5728716485672882e+02 -1.0608844909955963e+01 3.3798077958285440e+00 2.2397062129188157e+01 1.4309689954373766e+01 -3.8721843154455200e+01 -1.8670800656944117e+01 5.1152996883892943e+00 7.0172600617855892e+01 3.5364703288002417e+00 2.6786175355364321e+00 4.3685954558600049e-01 -4.2540593772693036e+00 1.9858644149065645e+00 3.8459872115845464e+00 5.0934574938389621e-01 -5.7696250756183259e-02 -9.3510195647012267e+01 -2.5100105415817062e+01 -2.5848714426313109e+00 -2.8611023422948056e-01 2.9610577332218191e-01 9.3794804892626971e-01 4.2714512775828695e-01 -1.3407033366711243e+00 1.2893610769174664e+00 -5.3427658525868786e+01 -1.1798982227121070e+02 1.1343511698167075e+00 6.2058120602091515e-01 4.6061115973115030e-01 -1.8102727660517868e+00 5.5027905681069278e-01 8.1303861555707257e-01 6.4719604428055955e-01 -2.2549495029502765e+01 -3.1970177906028541e+00 -3.0856536896001061e+00 -1.9566164766351340e-01 -6.1147228286540667e-01 -3.9030159329928038e+00 -4.7698927672291258e-01 -3.9946241772543312e-01 -2.7233636431359137e-01 2.4167986887783172e+01 -4.6657180034714258e+00 -1.0615841971098234e+00 -1.2451655909492615e-01 2.7343154271829739e-01 -3.5655992278795434e-01 -1.4136631613990556e+00 -1.0709878858543891e+00 9.6614253947878015e-01 -4.0265520833600021e-02 -3.8839946046719966e+01 -2.8652472313117627e+00 1.2754971186602797e+00 6.8854000949101311e+00 -3.7511778799017748e+00 -2.9447398096828958e-01 7.1017553520081922e-01 -7.6686979632544627e-01 2.5941033393092823e+01 1.0571463898728325e+01 3.6559720440825330e+00 5.3392311853549712e-01 -3.6682241355094830e-01 -8.2693741909918550e-01 -2.2039593774318764e-01 1.2761124083309581e+00 -9.2738207914989401e-01 1.4090979673792226e+01 5.7689891454407302e+01 -1.2209139075636801e+00 -3.3047225681396819e-01 -7.0886614344098575e-01 1.8253336671702272e+00 -2.4978944134479679e+00 -5.8644470139055938e-02 1.7764724387565654e+00 1.5038055925729687e+01 3.7390815489938177e+01 4.2259243551807435e-02 -2.3889030748882722e-01 -4.2253044548873375e-01 -1.1504549112805242e+00 3.1725852342339067e-01 5.1900317245795957e-01 -3.7101017244328116e-01 1.2664472054784776e+01 -8.0340721337152047e+01 -6.1401535704977050e+01 1.2948878634228320e+00 2.2343783714516064e+01 8.4763383022481378e+00 -3.5712111842578565e+01 -2.2584592478016802e+01 1.5943603938449751e+01 -1.3830340022027940e+01 1.0873691619080841e+01 -5.4209403332667261e-01 -1.3500454653220118e-01 -1.5153861203680885e-01 2.6170721705635447e-01 -7.9831367374272100e-02 -9.3658874897575017e-02 -4.3805473364102454e-03 -1.4050869777173865e+01 2.3683452362126243e+01 
      </Row>
      <Row Index="31">
        6.4266781703851150e-01 -2.9153447999344168e-01 2.8100144258080700e-01 -1.5332388840845965e+01 -1.7280865446094225e+01 6.1173872206942204e-02 -1.0601631560260059e+00 2.1196967689079038e-01 2.4842943110244926e+00 -5.9871350989062067e-01 2.4577465259868961e-01 2.6471216266036696e-01 -1.2479042819000679e+00 -2.1607375014787644e-01 -1.5078738435643357e-01 1.0047114921147842e+00 -6.0610039829581985e-01 -7.1716806713354648e+00 -4.3502240323645935e+01 2.4470160873523866e-01 -3.9952478245021822e-03 -1.3504687870698459e-01 5.3426890257606563e-01 2.4823853820157216e-01 3.6136717879320746e-01 -3.2260326959366092e-01 1.5604336866931185e+00 8.9746781839381817e-01 6.2519950674344571e-02 2.2242975733995962e-01 -4.1731862116433316e-01 8.0810993289173041e+00 6.5669941110596852e+00 -7.2035169941503008e-01 -3.8763518613431636e-02 -5.5909237928700548e-02 -1.5021906043481184e-01 1.2220781266663510e+00 -5.5088484268960611e-02 2.5552652866308895e-01 4.3557845314433763e-01 8.5823208294065104e-02 -5.5238560984638835e-03 5.5222922223238935e-01 4.2899447476629349e-01 1.2218028670635562e+01 6.9671113504123596e+00 2.0621839944399105e+00 4.7098786181268093e-01 -1.8285026865783158e-01 3.8768200841822364e-01 1.3724275051660084e-01 3.3292546160466441e-01 1.6533101600781411e-01 1.0738176141546403e+00 8.3939728676049610e-02 -6.0317378048745296e-01 4.8959645047953015e-01 -6.9213992198714630e-02 4.9659533050204416e+00 5.8021274630175895e+01 1.5245965156035890e+00 1.1024465653891271e+00 -3.6241381478670837e-01 -6.8034685391775362e-01 -1.9183738821868923e-01 4.3542885393608510e-01 -2.0034697303443896e-01 9.8679603504393198e-01 3.9563653227692663e-01 -1.8035740510562427e+01 -9.9834340211179651e+00 -3.9718466597711011e-01 -2.6892991221197349e+00 1.7433892694324697e+00 -1.6805642008952200e+00 1.1599904665675287e-01 -4.2403750632735715e-03 -5.4065226884076679e+01 2.2970347793967434e+01 6.8503188243009028e-01 -6.9649028674654279e-01 -5.2004104459369955e+00 1.9379617097094979e+00 -5.1737383508117141e-01 -4.3692698377323169e-01 1.1781178398491421e-01 7.4580066907283936e+01 -1.5731417976414496e+01 8.2654580858482447e+01 -2.4171142512612065e-01 -8.9855522488357753e-01 3.4279153967205751e+00 -1.6724093394421836e+01 -1.0596966876952751e+00 1.3605788325711368e+00 4.4958473550745424e+01 -1.7254358793676019e+01 -3.2527296421060768e+01 -2.1386265286077617e+01 -2.7898077648292944e+01 -5.5291878015050358e+01 2.3418119495429316e+01 2.9721847425362043e+01 -2.2257200308853257e+01 -2.8381056110004707e+01 -5.6022138665978787e+00 1.2990462882591623e+02 -2.4940519950079853e+01 1.2834938405531807e+02 2.3470658350323799e+01 7.8559856178116377e+01 7.1107948375261740e+00 -2.0345319079878632e+01 -7.3473749484442848e+01 4.0423933706753509e+01 -2.9858353005927825e+00 -8.6026989224713857e-01 -1.1600157717966923e+01 1.4008162953773306e+01 -4.1331746658012154e+00 -7.4505133008881064e-02 -9.0964193636819435e-01 1.4971505101833728e+02 1.4329445660537900e+01 1.3346026144878351e+00 4.1405311237176168e-01 1.3643134494856355e+00 -9.7446109944004000e-01 -6.5743904876383663e-01 -4.0145977079634637e-01 -8.9507472695225576e-02 8.0919658638054230e+01 1.5426231681740354e+01 1.7214719844105701e+00 3.3827521108997510e-01 -2.2757665975094490e+00 -1.3768047046356280e+00 8.8272427910714724e-01 -1.6418341827561989e-01 3.8521797197455915e-01 3.2222121341627428e+01 -3.3186543115247630e+01 1.5134408313886827e+00 1.4402802519652103e+00 -2.1627350475359890e+00 -1.8473726710489196e+00 7.0006208186007876e-02 -2.9116803431335592e-01 8.0397490222357115e-01 -2.8474476440892431e+00 3.7674036232536061e+01 6.4195945983980209e+00 -7.4733631785453880e-01 1.7061880551749260e+00 3.1037421020326001e+00 -1.5145686110868470e+00 -2.7913312590464101e+00 4.8805201047697022e-01 -5.9032498864433819e+01 1.1339761631986591e+00 9.1192325298676380e-02 -4.1186304390908723e-01 -1.0341391264255915e+01 3.7596199110187172e+00 -1.3771256182274567e+00 -1.1646516670639846e+00 9.5319834656331381e-01 2.9955083363047152e+01 -1.6803066970327563e+01 -2.9267885585720217e+00 4.6085710600510749e-01 5.6812860087132711e-02 -1.0997704580187833e+00 -1.4483295987021805e-01 9.8340579827488095e-01 -2.2555725846736241e-01 4.1778949070284312e+00 5.7916813169061740e+01 -1.5897306206136534e+01 2.8409644848619626e+00 6.0280659770534655e+00 7.6858130135389757e-01 -3.1811577992375071e+00 -2.2067595757998539e+00 2.0039510945251635e+00 3.5990195152931548e+01 1.5371072587677645e+01 3.8699541971991547e-01 -1.1684950270180208e+00 2.4116875041137291e+00 4.2518675206870360e-02 1.2613412852488182e+00 9.6451350299250449e-01 2.1013050695247806e-01 -1.4329775763998311e+00 3.6576298590200906e+00 8.6749264979965517e+01 -6.2084952277783243e+00 1.3539528209405523e+02 9.2244770916093870e+01 6.8411739537414192e+01 -2.1368876473085106e+01 -1.3796386610811009e+00 6.1404525769708926e+01 5.1525367291968358e+00 2.4460982938128368e+00 9.6086076687576849e-02 -7.9404532606530842e-01 -1.2008378108250606e-01 -7.7454427609548904e-02 2.4169727626689005e-01 7.5480295267314546e-01 -3.5549639760575968e+00 1.0973762709741845e+01 
      </Row>
      <Row Index="32">
        -7.0394362027422135e+00 -2.1544731432702736e+01 2.0787188191423525e+00 5.7514358251573867e+00 -4.2452069067338452e+03 -7.0016618921436518e+01 2.3022730258420134e+00 5.9105452748958385e+00 8.4190091013817003e+00 5.9645149869774885e+00 3.9123995077392082e+00 3.4929145483280949e-01 2.9431587525991290e+01 2.6105944575356657e+00 -1.2534111996005706e+00 7.3057786955617772e+00 -4.5705611024897692e+00 -6.0894793386516440e+01 3.8456746687818111e+02 6.3039357526142531e+01 4.0318949463457878e+00 -9.4842547015442147e-01 -2.6011239079857248e+01 3.9513819944112925e+00 -1.6815001816223933e+00 2.5826103392510458e-01 -4.5508520530347297e+01 -4.8974783195700793e+00 3.1291149711732480e+00 -7.1073540209290513e+00 -6.0129568608253976e+00 6.5669943247494302e+00 1.9408090316920543e+03 -1.2143883424324549e+01 2.9870531261962014e+00 -1.7365615437061153e+00 7.7700539556845731e+00 -1.0860999582662270e+01 1.0693214865622063e+00 -3.8478151006324719e+00 5.0205447415644358e+00 -4.3371010007962940e-01 -3.4095381053377913e+00 -4.2835067962471518e+00 -9.3066495854470910e-01 8.7052470159569566e+00 2.1608087962469822e+03 -5.7413583856721374e+01 1.4055038622245688e+00 1.7584819270942340e+00 1.0358789951569257e+01 -6.5085787185651602e+00 3.8184282047574656e+00 3.1806238810208004e-01 6.1778949263530983e+01 -8.2740402541696245e-01 2.4378427511903187e+00 1.5215248908790038e+01 -9.8640032215028945e+00 1.6384108037883379e+01 -2.1924172109667666e+03 1.5496813415540311e+01 -3.0281672757874838e+00 -4.6422282081942043e+00 -1.1129525576988312e+01 -4.0929308713018830e+00 -2.9937447243639355e+00 3.0352275124308195e+00 -5.4306954809858141e+01 -1.5191570147196281e+00 5.6963961270142079e+02 -2.0574265411780630e+01 -7.2854080585504875e+00 -4.5209448036293907e+00 -1.5290830476660631e+00 -3.9051030468913190e+01 -1.2593113199861335e+01 -1.3285093347068155e+00 8.9086302972876342e+02 1.4799984922226304e+02 1.9622158495177530e+02 1.3342499655958148e+01 1.4188260912915212e+00 -2.2000268668442004e+01 -3.8741187470754085e+01 1.1461841938585877e+01 7.8748157691406675e+00 5.8748179225413674e+02 1.2301084266055461e+03 7.7133285200257501e+02 3.1540748740582103e-01 -5.2860761883847005e+01 6.2381844607180284e+01 -1.5121562956424918e+02 4.8924355290615615e+00 -6.5211167332060072e+00 5.9354104155444475e+02 3.8787610455471986e+02 8.2572937180394320e+01 -1.8260637248876918e+01 -1.2658204756902519e+02 -5.5391608509155060e+02 1.4944189397302424e+02 3.1478140272185425e+02 -1.9376757630531719e+02 -1.6524140005280276e+02 5.2293135105981510e+03 5.4930027422179528e+03 -6.4749698560667662e+02 -7.5986691996199988e+02 -3.5790825556630443e+03 -7.8496715419210273e+02 -6.8332650878062179e+02 -2.1765839426332829e+02 -7.2508065202181297e+02 -1.1625160715798415e+03 -4.6505026904923943e+02 1.5448002647245056e+02 1.8870766609055985e+02 -6.1840655231941957e+02 2.3998114988127304e+02 3.7403332852533111e+01 1.0634450992983356e+02 2.4447016785200690e+03 -3.1137315102889772e+02 -9.8932540037807485e+01 4.4708838528201511e-01 2.2142234470065816e+01 2.2950675037996007e+00 -6.6015541638216160e+00 1.5528944946516711e+01 -2.0651940101197761e+00 7.0088894345922796e+01 9.7570595962502966e+02 -8.0707218257059282e+01 -6.0874074962141060e+00 -3.5076512419327457e+01 -7.6011240003530673e+00 2.0999319586459904e+01 -8.8889300667142663e+00 -7.6617281375640438e+00 -1.2933814177896643e+03 3.9465709472108023e+02 -3.3204263110358703e+01 2.7137397486449952e+00 2.7450291388697224e+01 -1.2050766834580777e+02 -2.0643200897672987e+01 2.0538344579346557e+01 -5.3584343951089897e-01 -1.5395052757794765e+03 -5.6942908109880557e+02 -9.9194532592082396e+01 -4.0329845783423188e+00 -1.2941529444862971e+01 5.0638087965889476e+01 1.8909414388373975e+01 2.4505769471897665e+01 -4.6179734813086846e+00 4.8275773427297827e+02 2.9281336136001187e+02 9.3492113726965385e+01 -6.1450276786211830e+00 -1.3097738140053025e+02 -1.5098165826924384e+02 -4.4285559288262320e+01 -6.4610140048080416e+00 -4.7592763239959845e+00 7.3077848296120283e+02 1.8174167201510136e+02 2.2123236842316481e+02 1.7159302293697341e+00 -2.7772903453597785e+01 8.7373641621977427e+00 6.3792246279786013e-01 -9.4938591652149587e+00 1.0205825399851332e+00 2.2114308229292647e+02 1.5010250591361337e+03 -5.9220560021547435e+01 -4.7752342688357707e+01 5.2121348385079443e+01 1.2407422261284391e+02 -1.0669526757492514e+02 -1.4378404496510264e+01 -5.3149769054394312e+01 -2.5671422090518877e+02 -8.0611989566058037e+02 2.9456679351193269e+01 8.8882804538587301e+00 6.9963776739908070e+00 2.6417988130464089e+01 8.2610465368279620e+00 -5.6533003214497910e+00 1.6261089103871080e+00 -1.1277675664250996e+03 2.3757619910897520e+03 3.9719412501306106e+03 -4.2260788345824051e+02 -4.7202561969771966e+02 -4.0396676092789457e+03 -4.9453279789050100e+02 -9.1653586460344445e+02 1.3783682760275593e+02 1.2733956277824109e+03 3.3436771910320243e+02 -7.5824821890629863e+00 2.4363739575699128e+00 -4.6333139577535043e-01 -2.3651616725397195e+00 5.3626263213807874e+00 1.2056259114856349e-01 -9.1322989416921700e+00 -2.2507836413536754e+02 5.5059478149657571e+02 
      </Row>
      <Row Index="33">
        -2.5100477484537165e-01 2.3665061105489513e-01 9.4981221246580816e-02 4.2119338123004297e+00 1.3905273747663026e+02 5.5018559789909656e+00 2.3628107224094131e-02 2.2792878155089857e-01 1.7764245368319616e+00 -3.4225476719265735e-02 -2.3034110539913344e-01 -3.5440337611057549e-01 -1.0791208336369724e+00 2.2646015753013288e-01 -6.6195759691454892e-01 -2.0606273518015805e-01 4.6941957155010905e-01 6.6388131372933685e+00 3.0617999305818444e+01 -5.5787355684179865e+00 2.5248855678874516e-01 3.8026338572349416e-01 1.5231658434542059e+00 3.9290065061225854e-01 1.9933071331688865e-01 3.6791406297412349e-01 2.0199937195732369e+00 -5.7061988077290748e-01 -6.4352079594188160e-04 -5.1535436064762763e-01 4.3711274379076404e-01 -7.2035170649310487e-01 -1.2143883564503790e+01 2.5990938355801796e+00 8.4514722542578191e-02 -2.2750393806063873e-02 2.2557704754480395e-01 -9.0341142687852161e-01 5.2156399425651478e-02 6.2454358550103201e-02 1.7707637336665982e-01 -4.2926073916514748e-02 1.9510327080299666e-01 -1.8604568383597803e-01 -2.1898692917857338e-01 -3.1731684297888592e+00 -1.1831193472157194e+02 3.1803488975300644e+00 -1.2390670987988070e-01 4.0987573217208562e-01 -1.3178383629123911e+00 -4.4088593130670839e-01 -2.6352648897650466e-01 -1.0407454513153400e-01 -2.5156662778884340e+00 1.3067394080457909e-01 1.9083540486847561e-01 -6.0606943762944510e-02 4.5952055385227314e-01 1.4771288313599200e+00 7.8501076943507329e+01 -1.2344962979732541e+00 9.9057492516057333e-02 6.4496313023985730e-02 -1.0266383030994719e+00 6.7633491599603457e-01 -7.6757818350362106e-02 5.3641196239264410e-01 1.8799036066196508e+00 -3.0073706935799649e-01 4.6333205951934300e+00 5.0986167686000208e+00 7.7023771762091542e-01 3.2505994673769578e-01 -1.0313286890367124e+00 -4.6299593545649476e-01 7.3829132718247081e-01 6.2545260703416616e-01 -3.1992534803896753e+01 1.8523729391037733e+01 -1.8596478192467433e+01 7.6346764781568754e-01 6.4654310054899611e-01 -1.1401757671882251e+00 5.6121558026203577e-01 4.9084663515376414e-01 3.3988170403432405e-01 9.7136518822389348e+00 1.1792213384578139e+01 1.9572538069194955e+01 4.5301311158876367e-01 1.8512949882863383e-01 5.4424933323746982e-01 7.5155877611968158e-01 1.2278242461578548e-01 5.8154189443027771e-01 -2.4521726272043509e+01 1.8076357381112018e+02 1.9367217018636964e+01 2.6141081312816210e+00 8.5091785238168498e+00 3.2218257835001211e+01 -2.7555547662330806e+00 -7.4566281179532101e+00 4.3129667487682548e+00 4.9071679633841605e+01 7.6334405449792939e+01 -1.4732359527681291e+02 4.3411252115156948e+01 -1.8588171700128555e+00 2.7746970579216892e+01 5.1384403612312745e+01 1.3054507504021300e+01 3.1910917205738457e+01 4.1327309016859630e+01 2.7124181382006551e+01 2.4933834193967755e+01 -1.0685140211692675e+01 -2.2365924975401281e+00 5.1993299550606951e+00 -9.9907919360638839e+00 -2.5949629248409920e+00 -6.4358992090083174e+00 3.2535445846708093e+01 -4.7975703061851700e+00 -8.4545670374076280e+00 -4.7470116230896586e-01 -7.0465904732770923e-01 -1.1139615360801827e+00 3.0597940952999294e+00 1.6107218983536897e-01 8.4539697431844751e-02 8.4971975603762601e+01 -1.1510217846197861e+00 9.8911241098477642e-01 -1.6491585187283830e-01 8.7788009564871039e-02 -4.6569654148293327e-01 9.2699015367890089e-02 -5.3882638126346194e-01 -3.2143721076469439e-01 -1.0670550919801215e+01 9.0217659007250339e-01 2.3426114937975626e+00 1.0978742960717889e+00 1.4764153463193281e+00 7.1632437522135355e+00 5.2911797462220231e-02 -6.0379417713778161e-01 1.4128050195997183e-01 5.8873293267035933e+00 -1.6340156502443815e+01 6.8684021950248280e+00 -1.6941867613398054e-02 -6.0151037182667144e-01 2.4874264867918694e-01 3.2262365529072068e+00 7.2964439654995972e-01 2.5406402934579153e-01 -7.8376698183324152e+01 4.4828136371281788e+00 -2.5364053594887569e+01 5.6566743922376617e-01 8.3047397994325745e-01 -4.5110354135283934e+00 2.3215264346262008e+00 1.4907589894373228e+00 2.7012890464756228e-01 4.9743242557573012e+01 3.9045102450481863e+00 -1.6572130447741937e+00 1.5478848073610296e-01 4.6810441896627630e-01 -1.8466394995701477e-01 -2.0894009860826568e+00 1.0531250432380668e-01 -2.9258930397736937e-01 1.0439250109490128e+02 -4.0915198958235976e+01 -2.0292355856044220e-02 2.3909095051731528e+00 -2.7264263903699577e+00 -4.6447473872739868e+00 3.5516673579619287e+00 1.4660815426336968e+00 3.0733410598618729e+00 -4.2909113613388200e+01 1.0419284942900049e+01 2.0731569622755242e-01 2.2594750263968680e-01 3.7953059567184927e-01 1.2214619471126413e+00 -9.1637940936399787e-01 -8.5060957335243126e-01 -7.3909457236200904e-02 6.8637739806021585e+01 -5.7426674234987033e+01 -1.5767165428645171e+02 2.8991242897145682e+01 -1.0141895290276910e+01 1.3047773323710061e+01 4.3298976379496487e+01 1.7032370858203798e+01 1.8509183399914598e+01 -2.8232354795588890e+00 2.6577001290193847e-01 -6.1596343380046892e-01 -2.2830771422829343e-01 1.4936482728230205e-01 3.2587722747221687e-02 -3.0662468291428835e-01 3.0694591535485580e-02 1.5473527031318213e-01 1.0932554581099497e+01 -1.1148354341687108e+01 
      </Row>
      <Row Index="34">
        3.0806584564159755e-02 -1.1808128163609856e-01 7.5471210888764517e-02 -2.2589004792420155e+00 -2.6227752409384493e+01 1.1273985779253662e-01 -2.0461494562798513e-02 -9.1678505696203949e-02 1.2116392393749185e-01 -5.7033774332559004e-02 -7.4718401981253603e-03 4.0810318370607286e-02 7.9654376827418716e-02 -6.1976892007006110e-02 -7.2893231180439846e-02 7.9832630539954860e-02 2.5052042693940152e-01 -6.4668735207514649e-02 4.5653856779340792e+01 9.1752191000002301e-02 -1.5699451195397996e-03 6.1603341307142401e-02 -1.4609652060296097e-01 1.3451355046157046e-01 -1.7845828188059856e-01 2.5109033384659717e-02 1.2319752523098877e-01 1.9523863250984524e-01 2.0761394917194048e-01 -2.6151762136683487e-01 1.5452220663468985e-01 -3.8763517033430617e-02 2.9870530709293064e+00 8.4514723331799047e-02 5.3672887241827638e-01 7.7460466555160215e-02 -4.8968487616033902e-03 4.3699049509688170e-02 1.7657450575179374e-02 -1.1740677364538828e-02 6.9326504981518156e-02 -4.6665798257318827e-03 -9.3767340871308086e-02 -6.8575890683376134e-02 6.0081451974771848e-02 1.6619870134931887e+00 -6.4220373245857783e+00 1.1416340186895360e-01 -7.5503437372649654e-02 1.9818470500906845e-02 1.4566470238580068e-01 -4.4777354067839926e-02 -1.0423226195457552e-01 2.0652997899749670e-02 9.5276561845807919e-02 6.0026365154718708e-02 -3.6181209782528770e-02 2.4704946263911864e-01 3.1795474240924729e-02 -6.1175196032149159e-01 -1.7045240987528842e+01 -9.5740433580453449e-02 -9.2021572074419772e-02 1.6272020235322796e-01 -4.4617106080010863e-02 -7.7697256666135778e-02 -1.9693649442354166e-01 3.3588338718657823e-02 -2.3260591738506559e-01 1.3134608601776931e-01 1.1934005951454006e+01 -1.0276929844619032e+00 -1.2864572086176098e+00 4.6652962536262521e-01 -1.3858041266825296e+00 -1.6771053832892607e-01 -3.0337756163861457e-01 -7.2867709302084038e-01 7.4006349540248806e-01 7.8792637832957197e+00 -1.0762694180245287e+00 1.5992561051737142e-01 3.4164350561390222e-01 -1.7283469883442422e+00 -3.4441351197586340e-01 1.3493848540465175e-01 -6.0981978009896451e-02 1.1087202508573949e+01 1.2179601397363884e+01 7.2722361685461854e+00 1.3787210109327253e-01 -5.1941283232667468e-01 7.9837613087850823e-01 7.8350926629695739e-01 2.8810861270074040e-01 -5.9805950027261057e-01 4.4777260631941260e+00 -6.0135853960408419e+00 3.7091223720574420e+00 -1.9016259415280574e+00 -2.0672838804010918e+00 5.8625148168573249e+00 1.9211409918872042e+00 1.6541125832211807e+00 -3.9523133622043529e+00 4.1573784728389693e+00 -1.0909143685809575e+01 1.0502580886466863e+01 7.3486602411219704e-01 2.0328571570003220e+00 8.5435733957490871e+00 -1.2199937723112164e-01 2.6582607608980275e+00 3.5533026338562779e-01 8.1574638143801490e+00 -1.6126950499209167e+00 8.6473223281234368e-01 1.6432552258093563e-02 -7.7033874583645634e-02 -6.4592202501990736e-01 -1.4159081265328484e+00 -4.1682058276396206e-01 6.5735908506256158e-02 -6.0134842161017836e+00 -9.4347786035171666e+00 -5.1763205401400683e+00 1.0171443902010631e+00 -1.6153904585678447e-01 -7.1767312630200308e-02 -4.7054343284187450e-03 1.9171300313070871e-01 6.0704656112288702e-01 4.3243683240386943e+00 -9.5197590284184805e+00 -8.2579323548664418e-01 1.7920281764102014e-01 6.6917862409831574e-01 -8.8577585082094168e-01 4.0799812785397105e-01 -2.5040785350445238e-02 -1.6957965523436071e-02 -2.9558788268402836e-01 6.9362201437879367e+00 -2.1641838644147926e-01 -2.0294490963193995e-02 -1.1676861888511780e-01 -1.4675868459999124e+00 1.2288371144359450e-01 -3.8772738170819943e-02 -8.7443910027386149e-02 -2.5843624223819006e+00 -1.5615952735980500e+01 -3.4282462563510308e-01 -2.0810804124796928e-01 1.8681793719425821e-01 3.5229447443775319e-02 5.9923289102630417e-01 1.3368008506158935e-02 -3.4704694401458236e-01 -2.4507348964193625e+00 2.0285309395400533e+00 -6.5619548412117386e+00 3.6073221673456807e-01 2.2189229822530008e+00 -8.6066710728540947e+00 -2.5283750615864808e-01 1.0219610051616258e-01 -2.5995212151177144e-02 1.8365115754234239e+01 6.9948807742227928e+00 1.5058814214278697e+00 4.6091721845385913e-01 -6.8340165755981175e-02 6.3891591426421104e-02 -2.9948140351586616e-01 5.0488510569550227e-02 4.2470910145917351e-01 5.1667721294787308e+00 -2.9390956589986502e+01 -1.1953898926225683e+00 3.4155957437280127e-01 6.5377234871808421e-01 9.9693998312748988e-01 -2.9318927996178079e-01 -7.1981626146821920e-01 9.9326076768180549e-01 -4.1711502036112336e-01 3.7461727163235992e+00 5.6222143602755703e-01 -2.5749913798549567e-01 -4.2363024128969540e-01 1.6710842681678328e+00 4.4112945893810718e-01 3.0892719832734228e-01 -1.4443315723817976e-01 9.1872850992926978e+00 -1.0670398314102087e+01 -1.8400296994057399e+00 2.1027682715794258e+00 4.2600544231373325e+00 -5.4257495524894139e+00 -3.6007103943193219e+00 9.9198659654054921e-01 3.7999213960965368e+00 3.4578186298540459e-01 9.5703355355159196e+00 -6.1995515764192710e-03 5.1739208736734099e-03 2.0201795547870272e-02 -4.7675644137070261e-02 -1.5122173686342663e-01 -1.6734372710414419e-02 9.4685262247821811e-02 -8.9592788862549533e-01 1.0490836563930436e+01 
      </Row>
      <Row Index="35">
        1.2753769487632557e-01 -3.1415365455243488e-01 5.1522395706970148e-02 -6.7074030055430001e-01 -6.4529878408294863e+00 4.0564098049130026e-01 5.7769868371792543e-02 -7.5463518429797882e-01 -8.7733257109006507e-02 -1.3163000908995970e-01 -1.7596997026412867e-01 1.5760639182620859e-01 -9.5266466558884488e-02 -3.9950248868339880e-02 2.0036743273072477e-01 -6.6026811400535124e-02 -1.0503075447874990e-01 -3.7802774684717672e-01 7.8249861683557338e+00 -5.3822003043236288e-01 5.5614804169496088e-02 -6.5853333273372228e-01 1.1251725859092060e-01 2.0255665758764288e-01 -1.9836825489147608e-01 1.1116523306748256e-01 -3.3244687862049688e-01 9.2294776164762823e-02 9.9369740293741904e-02 5.2091388885014567e-01 6.0290223263377518e-02 -5.5909236505776505e-02 -1.7365615470450138e+00 -2.2750393564759101e-02 7.7460466706008813e-02 5.4256385782769845e-01 -5.5266426732467580e-02 1.2739305784000091e-01 -2.6825476975674133e-02 -8.4107403908979597e-02 7.4754821809559502e-02 1.0842571554289127e-02 -6.3043333078696862e-02 -3.3328021897274612e-01 1.6393545115821674e-02 1.1044031236806831e+00 -1.1895955934821296e+00 1.0415853006929605e-01 5.2265441490237985e-02 -7.6134807797178272e-01 -2.0578563330602463e-02 7.1446863006111916e-02 -2.1604331222546019e-01 4.8650149925296177e-02 -3.0726959967071860e-01 -2.0654421866589628e-03 -6.6052183045341745e-02 9.2830096882491081e-02 2.0091784598571888e-02 -3.0599565811129992e-01 3.1376626572421138e+00 -6.1325174446041852e-02 6.1150097852582797e-03 3.1382030840827441e-01 3.8978026657497278e-02 -8.6362908647268477e-02 -1.6447587436989408e-01 -4.3320561658609445e-02 7.3911182898911076e-02 6.0032633993563012e-02 -5.5406883389161887e-02 -4.2506062148984114e-02 -5.6516533615365561e-01 1.3930509065751551e-01 -3.7942829660654809e-01 6.2934124363316835e-01 -6.5616446627270575e-01 -4.7512097993835867e-01 1.9562622766641895e+00 -6.7114383664533648e+00 1.8959188648016184e-01 -4.8040204456340357e-02 -4.4756361929285760e-01 8.4825608710903566e-01 2.7605989036196882e-01 -7.3490739323221199e-01 -7.7800957657058523e-01 -1.3026159833412610e+01 1.2723445672489204e+00 -5.5954095674402859e+00 -9.9872517641852288e-02 -5.0539050552776710e-01 -8.5445837903950084e-01 -1.1988438542787887e+00 -1.3434009190974652e-01 -1.6798240859639904e-01 1.5616800181465464e+00 5.8508260095832867e+00 7.4529830977613143e-01 -8.5354520715322768e-01 -7.2362580004199240e-01 -3.0592802465513924e-01 -4.2142413819615804e-01 2.1488028707073803e+00 -2.4032521346177256e+00 1.0307699822796561e+01 1.2457596670777903e+01 8.4503999143401352e+00 -2.4900913769171233e+00 -2.4732540850028926e+00 -7.2020876786277199e+00 -3.0800504661757242e+00 -2.9295284381029387e+00 -3.1540822377334941e+00 -2.8207271118663568e-01 1.0430911635974647e+01 7.1082253801991158e-01 -2.7336001356189793e-01 -2.3335998860868963e+00 7.1689324406318122e-01 -3.9539817065989957e-01 -1.7002023651871373e-01 -1.1835720166450481e-01 -8.7081042663262860e+00 -4.2258860009905543e+00 -6.9312149840868642e-01 4.6887655372825754e-01 -4.4035698021033909e-01 1.4375624380968688e-01 -2.9005372145741576e-01 1.4214553806170951e-01 3.0385567688928528e-01 3.6888068118806672e+00 -2.5087078857918133e+01 -6.9822867559310831e-01 5.6554446859876961e-01 2.3877622470931081e+00 4.9292683756151590e-01 -2.8980036587960845e-01 1.5353155342664131e+00 9.0337254868075845e-01 -1.9322316429674302e-01 -4.2432114133022818e+00 3.2952780605143062e-02 -2.0217929545718633e-02 -7.7340616106135940e-01 -6.8436140083487917e-03 1.5034340534752066e-01 -1.9365276748657227e-02 4.6049827718527107e-03 -2.5246696220968374e+00 -5.2258479969678024e+00 -8.4208867762600903e-01 3.2764422197126192e-02 -2.0421535640455835e-01 3.6435915259423068e-01 -3.8806866225873593e-01 -5.5679721223823309e-02 -1.4270065528932849e-01 2.1827051087462905e+01 -1.4537543065769841e+01 -9.1815365610534982e-01 6.8383527184266990e-01 5.1594609245484033e+00 3.7651066236831943e+00 8.0445830005837393e-01 5.4328005324287687e-01 -4.7636463135047956e-02 -6.4646547005748545e+00 2.4449163379250081e+00 -3.3852863565118163e-01 -1.1099104284597283e-01 3.5525832317030609e-01 3.3001126289850857e-02 4.7446230033188241e-01 1.4708497530649400e-03 1.1897187099983397e-01 -3.5672652387139081e+01 -2.8402379652235204e+01 -5.5740381805180683e-01 -1.1657035686131134e-02 -1.4928238198410808e+00 -3.5694141082709496e-01 1.2026099318493024e+00 -5.1630695819699979e-01 -4.5507105114926283e-02 -9.1671405497063461e+00 7.7809342596306124e+00 4.3637942956626796e-01 -1.7754262312578026e-01 -5.6154497691063343e-01 -6.9648724198475620e-01 -1.6362273273998085e-01 2.0636850718740829e-01 -1.5513149419278360e-01 -9.7490387316374272e-01 1.1367819005136184e+00 1.4460800462236222e+01 -1.7842123668218512e+00 -1.2410060092040549e+00 -3.4864592255189444e+00 -2.7003958077333010e+00 -4.7225752025822310e+00 -7.6747603345002968e-01 3.3870355945954316e+00 2.7869263903629955e+00 -2.6739151454043947e-01 -3.9434781934064134e-02 -2.0265850070144475e-02 -1.9195820701273425e-01 5.8757625675403324e-02 -1.5032242975266144e-01 -1.9983848736345067e-02 -1.0425462581711069e+00 3.6502769053168800e+00 
      </Row>
      <Row Index="36">
        -5.9661295056593372e-02 -1.1904592028618571e-01 -4.9011963991519636e-02 3.9355813646159277e-01 -6.7301911727865331e+00 -5.2625606311730111e-01 -1.6635506166920533e-01 1.4921191197549177e-01 4.7921434721765355e-01 1.0800856680617506e-01 1.2839233105777312e-01 -1.1174850308090442e-01 2.4194543368317412e-01 -9.2638928265107775e-03 -1.4388056421526441e-01 1.9962712594264415e-01 8.5638780243158297e-02 1.0147594401891635e+00 4.5827864078653562e+00 2.4365417973282724e-01 1.1574352505487956e-01 2.9816825733558178e-02 -5.4999345803717170e-01 4.0943992555184161e-02 8.8172431804689366e-02 1.0431982347959812e-01 2.1725724193662108e-01 1.0348264899983776e-01 -1.7489720971572593e-02 -1.8107743490919859e-01 2.4271065695749883e-02 -1.5021905927738999e-01 7.7700539790413927e+00 2.2557704810943430e-01 -4.8968482995022100e-03 -5.5266426680505631e-02 4.7042754060333902e-01 -2.5148388568253005e-01 8.0072619154883222e-03 1.4334460613411296e-02 4.9322299800991232e-04 -5.3726585525984312e-03 -1.1197728480194607e-02 -4.5065843084952456e-02 -3.8367888106660426e-02 1.8317176785132006e-02 -1.1957765819921903e+01 -2.4932641939958592e-02 -5.1145509232133672e-02 1.1220137430850372e-01 3.5869145037858124e-02 -8.3514162747724746e-02 9.8188078467882384e-02 -6.6753140325775367e-02 -4.6111883310381234e-02 4.0755185708658194e-02 2.4098753294547082e-02 8.0794681004107832e-02 1.4213544366294378e-01 -1.5837298192231231e-01 8.6233313869414641e+00 -2.2167813040991222e-01 7.5930031847382298e-02 -7.8601090323757408e-02 -2.7266324385113005e-01 6.9993501119562485e-02 -8.7877390835647454e-02 1.2399332592835406e-01 -1.5020802555559556e-01 5.9407885368253976e-02 1.0388781877137809e+01 -7.7984006292808061e-01 3.1532933145292286e-01 -9.7980578090812287e-02 -1.0294451970196405e-02 -6.7430626369705382e-01 5.0414167284577815e-02 8.0903870614786058e-02 -3.2176406425840007e+01 2.4295246583179342e+00 -1.1021293379017965e+00 2.2514729479951612e-01 2.1117628303960601e-01 -2.9660306051164298e-01 -2.0497396341941637e-01 1.1602318115603696e-01 1.3315446351314897e-01 4.1010226882046922e+01 1.4720500328821631e+01 8.0586170595745727e+00 1.3311139710057616e-02 -5.8897170595107151e-01 2.8511648087252794e-01 -5.2668952919390533e-01 -2.8509817549267458e-02 3.8126628592119693e-01 1.3985971888237202e+01 4.2190669331416828e+01 1.7498514794041640e+00 3.0039595581957468e-01 1.1384814393028746e+00 1.5535496562280471e+00 2.3415384245788258e+00 -9.3839439017858439e-01 4.5218497192544174e+00 -2.8333073508207224e+01 7.9491360722134942e+01 3.6109169314107405e+00 -2.6419042441579430e+00 8.1024248355431112e+00 -8.2210354774827330e+00 2.1790936852850102e+01 -8.8514339082589433e-01 2.7493983848328001e+00 1.7328998618906155e-01 -1.8408626476292469e+01 7.3739608927576796e+00 -3.6426695096615513e-01 -7.5459397588864896e-01 2.2258296588034518e+00 -6.9749975852058277e-02 -3.2549224963180601e-01 -6.8340645932143140e-01 2.2066263356286086e+01 -5.6070011754835374e+00 1.7368409622636136e+00 -5.3015368991822975e-01 -1.6979763443464435e-01 -4.8746693536268459e-01 7.2908014382233199e-01 2.0413743682582186e-01 9.3428098133484239e-03 6.6666645202867780e-01 -3.3577640696937561e+00 7.6668419159411727e-01 -1.1931830277892617e-01 -2.0681154904258431e-01 9.1749200370990103e-02 1.6055637586867400e-01 -2.8062425120398460e-01 -1.7953846132496531e-01 -3.0716601667864964e+01 1.3511208959900207e+01 4.9461739384514658e-01 2.0021857370957835e-01 5.3997640084088516e-01 5.6414980342659327e-01 -6.6007832343004369e-01 -3.8388798165873483e-02 3.2556437055319763e-02 -2.3118819713410176e+01 8.9745744937221417e-01 -1.6223067017408539e+00 -6.2557192274956069e-02 -3.1076957378581116e-01 -1.1065536487523014e-01 7.3964963790346383e-01 4.8385257946755811e-01 3.4932070101469592e-02 -9.6079755899681913e+00 6.9183725469978707e-01 -1.8575540104099040e+00 -1.5865344164123912e-01 -1.2193311489260874e+00 -1.7198693856443605e+00 -4.0949475885339753e-01 -1.9592761541030776e-01 9.5914343510796016e-02 2.1038702555925202e+01 2.6076218041048378e+00 6.2675349435058825e-01 1.0118256487042998e-01 -1.2166211169231667e-01 1.8711322063342190e-01 -3.3946484114312447e-01 -6.8430071410070625e-02 -1.0245960341048455e-01 5.4375727364305227e+01 1.9936615747263019e+01 2.3347055997336783e+00 1.5931828449238372e-01 5.9544223111956907e-01 5.8252900583207090e-01 -7.5270985220181696e-01 2.5271411717734249e-01 -2.8000235402755091e-01 -2.8888629636665904e+01 -1.1015169870025602e+01 -5.3994005143067758e-01 -4.7760910166582654e-02 2.2498514495223981e-01 6.9373304771075506e-01 2.9203095982163063e-01 4.3655542629441602e-02 4.9214886235549933e-02 4.3967175516543096e+00 6.8141534575813978e-01 -2.7396039158440573e+00 -3.4921424275451858e+00 5.8017886703491230e+00 -8.9936215393950789e+00 2.0148001306392171e+01 6.2667837807284243e-03 -2.4520860226532677e+00 1.9258869432338884e+01 8.0450691482878689e+00 -9.5531481114018602e-01 -5.2336988436714194e-02 4.5791681082576252e-02 -1.5206390660406938e-02 -1.0676992952188558e-01 1.9964816295139361e-02 4.4571636493344613e-03 -7.7621788256612678e+00 1.4889426579076501e+01 
      </Row>
      <Row Index="37">
        2.3973876361855648e-01 6.6417880713730393e-01 3.0338968748901962e-01 -4.0415008513255088e+00 -3.3598112801551736e+01 -5.2910931239189996e-02 -1.2088497064000571e-01 -6.7301669325519242e-01 1.3982495491818633e-01 -3.9186752292822065e+00 -1.8994237608912201e-01 1.1091889621636228e+00 -4.5517248784494058e-01 -3.5762123616493485e-01 9.5489165936165876e-01 -5.5324738630411308e-01 -4.1589114818817474e-01 -5.6365055266369453e+00 1.1532829223599968e+01 1.1092866147997433e+00 -2.9170178087913551e-01 -2.6698995913811041e-01 5.7953021502154023e-01 9.3958683364585771e-01 -3.4877642106899082e-01 -2.5697059980879668e+00 -1.7510081874664762e+00 2.6928778978693896e-01 7.2097226151831201e-02 6.1727621711598601e-01 7.4684935362971849e-01 1.2220781196456301e+00 -1.0860999645354724e+01 -9.0341142272882435e-01 4.3699047355833187e-02 1.2739305652512378e-01 -2.5148388414731859e-01 5.9898167792321004e+00 -3.1564831341927523e-02 1.6030802872887377e+00 3.7979735038113915e-01 5.7964782540288015e-02 -1.9944221196077019e-01 5.8408060982419818e-01 -7.5948013641035581e-02 4.9655932136897150e+00 -4.8758365383388247e+00 5.9726135598607999e-01 3.1418733498787860e-01 -6.1972927089288576e-01 7.8413509063300815e-02 4.3669301903144442e-01 -1.1456387820450864e-01 1.4380124539887027e+00 1.3972547384924119e+00 -1.2048296391043836e-01 -5.8511386165977730e-02 -3.0408069974110463e-01 -4.0678511866692552e-01 -7.9485726655806843e-01 -1.9821405635272839e+01 4.9593121955564301e-01 6.5543721529104759e-02 2.7212653741299031e-01 1.0984529546856145e-01 -1.5777087853971921e+00 4.0106855207065623e-01 -1.1146567055874255e+00 -1.1302476333655369e+00 3.2904259718929718e-01 -2.0436182492703796e+01 -1.6229855723229534e+01 -4.1797986690799838e-01 -2.0746200597091047e-01 1.4373975268927097e+00 -1.8931185621281892e+00 -3.7625664101094314e-01 -1.6994098073138943e+00 9.1256741425261595e+01 -8.1513396083303689e+01 4.7063908777581194e+00 -1.1339222929254391e+00 -1.3293233237521349e+00 9.5595662321079544e-01 -2.0938703765890720e-01 -7.4091332404381505e-01 7.5692703114490500e-02 -1.6568646001817292e+01 -5.7210286060783218e+01 5.7211157855638273e-01 6.5364966586228312e-01 8.9495289944216205e-01 -1.8314041341352674e+00 1.2490421203007651e+00 1.8742978994579644e+00 -2.5168741268153507e+00 1.6749440213682917e+01 -9.5953673405873133e+01 -2.9602333823943301e+00 -7.2868124247322008e+00 -1.0145180585522530e+01 -5.0720737293202367e+00 7.3761784479304504e+00 5.9828826298002751e+00 -1.6199373495614147e+01 2.2160632123774235e+01 -6.7862667463632420e+01 1.6240583591237908e+01 -1.2438242416121270e+01 -3.7092354680710926e+00 -3.7826909558430614e+01 5.7125360543487744e+01 3.7226466802571480e+01 -2.5168629145462194e+01 1.2645651123675653e+02 1.0882542497987853e+01 1.0749234773691683e+01 1.0256644551998875e+00 -1.9116764968208320e+00 4.0895409118864645e+00 -4.7509443899914512e+00 -1.7496060845159120e-01 6.7720559083427168e-01 -1.5829001951867019e+02 1.5553797417664027e+01 7.8895031551921875e+00 6.4244279128122717e-01 5.7823036109061832e-01 3.6202980162856235e-01 -1.2508897783485700e+00 -1.4647045805351862e+00 4.6560645617566365e-01 -1.1760113438820014e+02 -4.6356254971549106e+01 -2.6313028848132958e+00 3.4765308046550147e-03 2.5612559214942450e+00 -1.2597771947747329e+00 9.6398725466325952e-01 8.1236387069318017e-01 1.1699872699400395e+00 4.9585254420620501e+01 -1.4250755812738182e+01 2.4693582867594159e+00 1.6510141917816529e-01 -9.8934398683263680e-01 -2.6825211109498159e+00 2.7918228876646745e-01 -2.0239582040225024e-01 4.2988189632182672e-01 4.1275514350392768e+01 -3.3939569820144250e+01 -8.6730778365258629e+00 -2.1250169612054099e+00 2.3941227230463373e+00 4.2506703362638492e+00 -6.9053673609550552e+00 -9.5964201134684721e+00 5.0463419627298922e+00 6.0025740627751475e+01 -2.2967416270902113e+01 -3.6556396636965749e+00 4.8316963271369562e-01 5.0290803191795508e+00 3.8811879622504737e+00 1.0052983013851731e+00 -7.7183653624639148e-01 3.0936277425319408e-01 7.6655888423454144e+00 9.2975520635550311e+00 8.2208920351618939e+00 1.2152863752275871e+00 1.8442494498757434e-01 -3.0347425952708296e+00 -1.0945790592707318e+00 4.5701941754758719e+00 -2.8201327544729353e+00 -1.1153155751417283e+02 1.9231237260582930e+00 -1.8169073418141309e+01 7.4559708541162784e-02 2.3627452454766473e-01 1.1676093586790204e-01 1.2207609686666387e-01 -1.3479031227763811e+00 -1.3498056655604644e+00 5.6328177599356252e+01 3.6787580323074508e+01 3.5292059622026954e+00 -4.8017879506044980e-01 -6.6502570919390036e-01 -2.1730302356378668e+00 -9.3207585447925112e-01 5.1149777895231807e-01 -5.5799162784005159e-02 -7.5797300748935029e+01 -3.8531362998779969e+01 2.0922095951863014e+01 -6.0585468878966360e+00 6.3367793986419656e+00 -2.5823315209136382e+01 3.6449856583050376e+01 2.4180258816326351e+01 -2.5759563037866746e+00 2.5814704548191798e+01 -2.9924456115047981e+01 2.4557154485488821e+00 3.1521709619086380e-01 1.2759765037533644e-01 5.8351736403399346e-01 5.4184271155860553e-01 1.5762747990635184e-01 3.3527258330406084e-01 -4.3638658690034404e+00 -2.3323527597328674e+01 
      </Row>
      <Row Index="38">
        -2.6496207549383536e-02 -1.3211555832806948e-02 1.3473502763293510e-02 -2.6915096329064880e-01 3.2052953016141998e+00 -2.4048183916587851e-01 1.6462751455189328e-03 2.9705000462750597e-02 -6.1480472718740770e-02 2.4893530470477692e-02 7.9505146203262156e-02 -5.1542009740445809e-02 -3.2334184484862583e-02 3.9122853484193809e-02 3.7131816587828603e-02 -1.2318965329789489e-01 7.8589095697003106e-02 -1.3258537007893617e-02 1.3664807761060560e+00 1.5381793817284456e-01 -3.2905611907356067e-02 2.1359199412970840e-02 -4.2866344264801542e-02 -4.8498983826620351e-02 5.4261215737914099e-02 -1.6977503433091692e-02 6.9391776304876834e-02 -9.7654934358379644e-02 2.1345172959325961e-02 -5.0473936788373308e-02 8.8696137731830493e-02 -5.5088484156414097e-02 1.0693214789780683e+00 5.2156399721859925e-02 1.7657450629831928e-02 -2.6825476987589081e-02 8.0072618443453522e-03 -3.1564831422186752e-02 3.8021216288016413e-02 3.6059286736829489e-02 -2.5208041615197629e-02 -1.5595079898358708e-02 -2.8534192555553738e-02 1.6255227630067145e-02 -6.9035104867224223e-02 2.3121316761728394e-01 -3.8203798172438763e-01 5.6323139973791627e-03 -7.0059297029965509e-02 5.6311748257885950e-02 7.3874529128646352e-02 -3.3221972546131254e-02 8.4887694037272476e-02 2.8525609853771405e-02 -1.1372454476606404e-01 -8.0006895653847703e-03 2.8074225961507507e-02 1.3856882311553631e-02 -6.1809732386444757e-02 -8.3167620148056898e-02 3.5194140178909512e+00 -1.1233752669082886e-02 -5.6011737814336091e-02 -2.4635535490403516e-03 4.7422469966011987e-02 -8.6239595950910221e-03 2.0642024064086661e-02 3.6251145936283043e-02 1.1667832569880361e-01 -5.8836050764180761e-02 4.9736580080430777e+00 8.4632378624280702e-01 -9.9746557551705972e-02 4.8909647534941314e-02 -6.0954073551826582e-02 1.1617724892410619e-01 -5.9544735534015347e-02 -7.0942553921529358e-02 -3.7090374350038271e+00 3.0789313231960058e-01 -1.1741141473568528e-02 -6.8276529201189637e-03 1.4165543266539515e-01 -5.4218293205536838e-02 -2.0268667853956424e-01 4.5417915207153950e-02 4.2284045549668567e-02 5.3048860186780331e+00 6.4297293833990654e+00 2.4031687281943532e+00 1.3973659367885358e-01 -1.2977301972591676e-01 -2.8129571288793276e-01 9.0280018016801356e-02 2.8345960457003172e-01 -3.9788789604861996e-01 3.2437400374513743e+00 1.0972547414288815e+01 -1.0770831674373849e+00 -7.8037165593496494e-02 -5.3904798185428315e-01 -1.0623661954898340e+00 5.6663554964074780e-01 2.4457557420371073e-01 9.9860533189793321e-01 -4.0185600588043151e+00 4.3291072558390589e+00 -1.4798499408554555e+00 5.5586342583665371e-01 -8.1606893247255030e-01 -1.6458879939980200e+00 2.7824347475219744e+00 2.3053362294743298e+00 2.0443222588703809e+00 1.1370881289838906e+00 -9.6156247313025212e+00 3.3271587293739913e-02 6.3494544269180581e-02 7.2109936318173862e-02 2.3150499056705853e-01 1.9390952147923757e-01 -1.7310367883475852e-01 -1.3780660148392973e-01 3.5963422203063629e+00 -3.8997857865830858e+00 9.7248440908401790e-03 -8.3401836497106599e-02 -6.9082276422051336e-02 1.0968626169040396e-01 -1.6083244130476881e-01 2.8923923710647940e-02 -1.1574081188794227e-01 3.3501235524743249e+00 -8.7751607437655199e-01 1.0693026293067476e-01 -5.4337723271992613e-02 -2.3749864005024085e-01 8.5675896817466457e-03 -7.3987277241885432e-03 -8.2781329843213791e-02 -3.0847416364662317e-02 -1.5780696738228581e+00 6.8071246792904185e+00 -2.2693174616779288e-01 -4.9004953595371770e-02 -1.3808989535490923e-02 1.1609726633556948e-01 -3.5116396811716924e-02 7.8585836431820308e-02 -2.7415671131084132e-02 9.0350326186546681e-01 -6.1843989312490910e+00 1.0342252348272041e-01 2.8625070538159658e-03 3.8762015377892256e-03 1.2141617648957839e-01 -6.6159178606588709e-02 5.2435552697725513e-02 1.1179641928621017e-02 -6.6789411629627011e+00 2.9729225253764646e-02 7.1156459948699113e-01 -3.0189453634410912e-01 -3.1928281337628395e-01 -2.7923049899804475e-01 -3.4685571755515121e-01 -5.3699519275852259e-02 4.3000904767511075e-02 2.2505423852811290e+00 2.2903821692530073e+00 1.3130926455266190e-01 4.4531073452109091e-02 -1.0986916575780378e-01 -8.7652624030190224e-02 9.3016726368914338e-02 4.2997223698210563e-03 -1.8499145986431792e-02 1.0281808856521854e+01 -9.5780245725031676e+00 1.0370600298074661e+00 -1.0972606147881932e-02 3.1730601025783911e-01 7.9554098080682367e-02 2.3972233705792434e-02 2.0004064991406653e-02 -2.8189034774443678e-01 2.3691144966302149e+00 -9.1887614416336874e+00 -4.5497846641126216e-01 1.8534419183538151e-01 6.6128603728253826e-02 1.2074941532906297e-01 -4.1684515680280754e-02 -1.5290137711037755e-01 4.8088004730743039e-02 3.7172020689566341e+00 -7.6674837650172094e+00 -3.2768721158428931e+00 4.5303329233293371e-01 -4.2330408976359024e-01 -6.2309879944026925e-02 2.1436283536646652e+00 1.6495188887579919e+00 1.4037131831599439e+00 -8.5417612606295279e-01 3.7656654014445414e+00 -1.5152614214827581e-02 2.2983124834793145e-02 -3.0442727214303023e-02 -2.7641686593485329e-02 -9.9765383881662284e-03 2.1859757280362994e-02 -7.4523748895153119e-02 -2.2026025888459744e-01 3.9020119197026535e+00 
      </Row>
      <Row Index="39">
        2.4251694837603882e-01 3.4477003705520948e-01 3.9866441283411280e-01 -1.3440492621706568e+00 -3.6906197052131944e+00 -2.8495885771097668e-01 -5.7873570238745634e-02 -6.7390937083980029e-02 4.4139640303656447e-01 -1.3803852059290971e+00 -7.7441261036691217e-02 -1.5412815429309951e-01 1.1012153294402260e-01 -1.4847450229205617e-01 4.3404076706248518e-01 -3.2202880755062990e-01 -2.7099244124387051e-02 -2.1505685629947457e-01 1.4447141832969269e+01 6.1018005830514310e-03 -1.3413674537628700e-01 7.5619426166293330e-03 -2.2017228205589261e-02 6.3443955447945899e-01 -8.9989391110290085e-02 -7.5979440596437320e-01 -8.5128032627288996e-01 1.0173056641723471e-01 -1.0936890203588819e-01 -1.1786855694326093e-01 7.8836189215838148e-01 2.5552652470621240e-01 -3.8478151617119920e+00 6.2454361365444466e-02 -1.1740677907976949e-02 -8.4107404432017141e-02 1.4334460571760792e-02 1.6030802851826778e+00 3.6059286739821353e-02 1.3321362688721834e+00 1.7892788025260131e-01 1.4655759820340675e-02 1.4940502600923555e-01 2.2239891035074136e-01 -7.6459796407208500e-02 4.6069473894844748e-01 -1.3503654768588559e+01 2.0103402316425967e-01 1.7030799218961828e-01 1.5952679228948968e-02 -2.2953891681052902e-02 -1.0598337092263901e-01 -8.2903896094727522e-02 4.6712226456479550e-01 1.3689982645193848e+00 1.2568501898623137e-04 -5.9044426636570030e-02 -3.7899731473404419e-02 4.6190271562698386e-02 9.6452151041500400e-01 -1.1936483029817076e+01 -1.0828819762275557e-01 -4.6962951836760886e-02 -4.2428869067299077e-03 -1.4342776101626098e-01 2.4525705091951705e-02 1.4488115141785821e-01 -5.2174814074845227e-02 -1.4395207040925733e+00 1.3401852607672715e-01 -3.8654967524382995e+00 -1.3155740345992699e+00 9.2720058888741907e-02 -2.7952383830904637e-01 1.1830163389109600e+00 -2.2242282743693238e+00 5.0764626781704469e-01 -7.1766916293593142e-01 3.5667419974589087e+00 -4.9311445596197935e+01 -1.8588379509477537e-01 -3.5107843551222329e-01 1.3006219375684225e-01 -9.1841670360736316e-02 -8.9926073891787195e-02 7.0679745285043803e-03 4.5211283640038419e-01 3.4296652627208395e+01 -2.1738740515921062e+01 1.1986419959582427e+01 7.2068676952376132e-01 1.2243301116914296e-03 -1.5508865835515571e+00 -6.3521228014405651e-01 1.1150828420899650e+00 -1.9232056874989640e+00 1.0518500096174421e+01 -1.6781146491753578e+01 2.4851148446797446e+00 -2.3949182573176895e+00 -1.8137587127772228e+00 4.4727412143102692e+00 3.5913812907825999e+00 1.5866047859546839e-01 -3.0823931467449350e+00 -3.4058813928809613e+01 4.3992966728074663e+00 3.0216268926807173e+00 2.6791471415758541e+00 1.5094037508187398e+01 4.3103755589818071e-01 1.4997162756092408e+01 4.0280386454752151e+00 1.1902307187139773e+00 5.9955338442445168e+01 1.7661067593053144e+01 1.0174317026739175e+00 -2.3871374437542525e-01 -7.2996931981838475e-01 2.1251558428264516e+00 -1.5706309432204382e+00 -1.0314822622209942e-01 -5.6272524507077282e-01 -6.0120278391199932e+01 2.8479344271070497e+00 -2.6184507945192195e+00 -5.2854674132800872e-01 1.9399617558116233e-01 6.5878080824940799e-01 9.4017920253060860e-01 -1.4067418338871276e+00 6.1402689223052320e-01 -4.4954000092616873e+01 -6.9360201275818667e+01 -6.4068540952717612e-01 1.2151802893508722e-02 3.4700658480527335e-01 -9.9405866592966774e-01 4.7223748037130636e-01 -2.7026067304622980e-02 2.7136890494141980e-01 3.4801205937943749e+00 -1.3454244319941203e+01 2.6185770623982307e-01 1.1412879937065896e-01 1.2048671026406055e-02 -1.6294045559510404e+00 -1.1474536036226816e-01 -2.2492800986670408e-01 7.1233637304436048e-02 3.5236995988335252e+01 8.8926516236403188e+00 -2.4003816204561872e+00 -7.1562568198517740e-01 6.6724651015183922e-01 1.5089657576103361e+00 -2.4379453144077847e+00 -3.5163050279055690e+00 2.3793541188376803e+00 -9.8785628692864975e+00 -2.3536491424322605e+01 -1.8640710962530811e+00 3.9283274636386534e-02 1.9168888187966866e+00 1.8661410909653053e-01 -3.1223208116101153e-01 -2.8242719305529601e-01 1.3214883254007351e-01 -3.1292187845056105e+00 1.8899397685767099e+00 5.3009186722284056e+00 7.6993878433736707e-01 8.4586250307793875e-02 -1.7427302259949764e+00 -1.8522794594964171e+00 2.3961959614098909e+00 -1.9808095718846885e+00 5.0462715873642750e+01 9.6320592938885170e+00 -5.3364319382219207e+00 -7.4116720396122937e-02 4.5540322912097331e-01 2.8062427941075985e-01 -1.5711662256565653e+00 -2.7301932256840633e-01 -3.0324558719912176e-01 4.0257471421116918e+01 2.6221887452800729e+01 1.0116689966429817e+00 -1.6749319567712190e-01 -3.4327727512233341e-02 -8.9816533471770288e-01 7.8062689506296579e-02 1.2558939025948890e-01 -5.3594009014466343e-02 1.7040305939402948e+01 -4.8442610429631571e+01 -1.4094892149809255e+01 3.5695712731348390e+00 1.7114037774899515e+01 -1.3224598399786132e+00 7.8307583258367970e+00 1.0176665152420659e+00 6.5695878886413279e+00 -5.7326059745836346e+00 -1.4281384875459244e+01 4.9540941915394049e-01 -3.8260928671856931e-02 -7.3455230126353022e-03 2.6415360442507774e-01 9.0270346650998798e-02 6.4488335820346382e-02 1.0740084321682275e-02 -7.8387743943024724e+00 -6.1999091133097979e+00 
      </Row>
      <Row Index="40">
        3.1270229911553793e-01 -1.5957537533035909e-01 2.9965172528221518e-01 1.5042873765222833e+00 1.6803949082368529e+01 5.6143346747578116e-01 -9.0440873577327469e-02 1.6147446991708730e-01 9.3794570809276800e-01 -4.0170658391290037e-01 -1.5706889393753085e-01 -7.9335715812591218e-02 -1.3252308023508141e+00 -2.2162873940339095e-01 1.5190882992120336e-01 4.6201381797118835e-01 -3.3072372228769698e-01 -8.5015567218464660e-01 1.5924467371291016e+00 3.3253857407233300e-02 -2.5907885488232868e-01 -1.3532770693324095e-01 5.2171328411129414e-01 2.9179814717461400e-01 -1.2198516122710215e-01 1.2464789120259546e-01 1.5994471368134204e+00 6.8085011456283762e-01 -2.1486170575786803e-02 1.2071223400505371e-01 3.8279823518750344e-01 4.3557845440477205e-01 5.0205447806521777e+00 1.7707637068572282e-01 6.9326504790850452e-02 7.4754821897971613e-02 4.9322313330013232e-04 3.7979735301716527e-01 -2.5208041665825048e-02 1.7892788068851107e-01 2.3119549527733674e+00 4.9500748699601631e-02 -4.5139940519316185e-01 1.4579639531182575e-01 3.2958251479349399e-01 2.6709551037877199e+00 -4.0666133903403491e+01 6.1763836957785845e-01 3.3453076093116635e-01 -2.2192104861092307e-01 -3.7437005497528308e-01 1.7604698861120438e-01 -3.2609648658317703e-01 6.4450492525253117e-02 -4.1658097004502812e+00 1.5782071236767928e-01 -6.6275860635825778e-01 1.8767509481764311e-02 3.0429994449730907e-01 2.6328552609768474e-01 8.0989403520906791e+00 7.0798367573116483e-01 3.9493364075540244e-01 -2.9478420717305287e-01 -5.6918251719712920e-01 1.5092134153575851e-01 -2.1588836753398830e-01 -9.8068914816502699e-03 1.2224153211839974e+00 4.1076647449034176e-01 5.7504379095536935e+00 -6.6227583451419862e+00 -4.0704581273446905e-01 -7.7624503820448432e-01 -1.7072752679867893e+00 5.0829393794953970e-01 -7.6276747935200107e-01 -3.0979391777994003e-01 3.8485244485854153e+01 1.1237978489651525e+01 -4.9407541068007781e+00 4.4809585271052499e-02 1.8462993246706638e-01 -4.0707221668489524e-01 4.2480715746549885e-01 -1.7930809343821641e-01 -3.4970547610445768e-01 -2.4199434029329453e+01 1.4005824795935336e+01 2.6045475261665558e+01 2.3324307906455949e-01 -3.6370574410957701e-01 -2.9779912441401186e+00 1.6195336784126748e+00 -4.5846011173401213e-01 -3.6607871591760877e-01 4.3735841231516758e+01 1.0551753842234781e+01 3.5163065103322282e+00 -4.1168105952008673e+00 5.5229970724865463e-01 1.0920068046535357e+01 1.6029623504773394e+00 3.3315420877451092e+00 -2.8715203958474391e+00 2.2228336607691194e+01 6.6305125596371767e+01 -3.4994640526674104e+01 -5.6685887409633544e+00 1.1832924673085245e+01 -3.5363808626428508e+01 1.9649968089948164e+01 -1.2213924618196941e+00 -7.2021354341107324e+00 5.3340975880612689e+01 1.3041119328760770e+01 1.5058288935101569e+01 -7.0656143300302932e-01 -1.8966222827729879e+00 -4.1365161732237956e+00 -1.0239239398118016e-01 4.1665708420677133e-01 3.8413820226968248e-01 3.5190452710030698e+01 -4.5175784469348486e+00 -2.6616208493098270e+00 8.6162753833018424e-01 3.5753826501982644e-01 6.2916599386516570e-01 -3.9902623052228275e-01 -1.0207274230874646e+00 7.6476672399985823e-01 4.2509354573761819e+01 3.8673907327307553e+01 -3.1512096079576963e+00 2.6389002242794679e-01 1.5586926671849743e+00 -1.3001705269239570e+00 5.7087963740082293e-02 2.8992432288480685e-01 1.3198145862088528e-01 5.7375173430751701e+01 -9.2062404903872057e+00 -1.4734395491416663e-01 5.8994252394795754e-01 1.8695097049050879e-01 2.9843221037663050e+00 -1.0585366805168989e-01 -5.5017456996494563e-01 -3.1916580527202740e-02 -2.3995477899588522e+01 -7.3937356573380102e+00 1.6596575168891832e+00 -3.1205091758878672e-01 1.0162388544828538e-02 1.2940656270490511e+00 -1.1933449170372863e+00 -4.7427556004169502e-01 -8.5075164423043859e-02 -3.3247776526959200e+01 4.6544225924911427e+00 -1.3278353943045195e+01 6.7343580558712435e-01 4.0210308058735595e+00 -6.4677743411578312e+00 9.8717622476813516e-01 -4.9521306231553580e-01 -4.4877709113492226e-01 3.8455235524018462e+01 5.5586417898733416e+00 4.5634839242128908e+00 2.2193584542313755e-01 -6.2239111281780779e-02 -1.9290191334664404e+00 2.5980482708718278e-01 3.6416126894102785e-01 1.6862158863298771e-01 1.3893744937837891e+01 5.6531623758577453e+01 -9.7569610975693379e+00 3.1567913217202688e+00 -5.2320313309106368e+00 -7.6401958807193626e+00 6.0027688321032482e+00 -4.1627702476058248e-01 1.3833047708530550e+00 6.1073281833367702e+01 9.6488520996913110e+00 1.0183564826691125e+00 -8.9953214026229522e-01 -4.6423433421176252e-01 1.0786573575489546e+00 1.6385614297989015e-02 1.0816969532220924e+00 3.3791901858062467e-02 -1.0244490685620004e+01 4.0047744520972515e+00 -5.1455387635452951e+01 -4.9574863217353817e+00 1.5960449357017954e+01 -3.9444984700857276e+01 9.7879064791978436e+00 -4.9295304440592069e+00 -4.5644538286278920e+00 6.5790518857031657e+00 1.0029476201509894e+01 1.5207748447949188e+00 -9.2652587579491463e-02 -2.7462826677828733e-03 -1.0267509193212249e-01 1.3138019246428145e-01 -9.0122875375601819e-02 3.0640527747461110e-01 1.2459594616877274e+01 -6.0751756242198529e-01 
      </Row>
      <Row Index="41">
        1.9008654839884377e-02 9.0807967570039564e-03 1.1925729821999798e-02 2.6470309514189871e-01 -4.3213035764316015e+00 1.8639022781618714e-01 -4.7169492642210716e-02 -3.6516093721310747e-02 6.5624721061319988e-03 -6.0077048264827418e-02 -3.3738021949530343e-02 1.5829351282477318e-02 3.8410828457697110e-02 -1.3453627457996938e-02 -1.9660936339336563e-02 6.5333279646375891e-02 2.3204274027233893e-03 2.4182326154863401e-01 7.3615231071441745e-01 2.0815118086568031e-02 -6.3233306553067484e-03 -2.2609657272370971e-02 1.1314845943469144e-01 5.4107778678821085e-02 3.6187028421083012e-02 -3.3343305456507329e-02 -2.9311176071940531e-02 1.0904035695085493e-01 -1.4686191988342000e-02 3.3810016928538356e-02 -1.4603761474318133e-02 8.5823208581710553e-02 -4.3371010140334354e-01 -4.2926073856091249e-02 -4.6665798157086991e-03 1.0842571560653436e-02 -5.3726585914138925e-03 5.7964782908877778e-02 -1.5595079901552567e-02 1.4655759950299630e-02 4.9500748684555895e-02 2.2082652128053170e-02 -1.2650672496910924e-03 1.4235320762837532e-02 3.4870988175440813e-02 -1.0644701653026667e-01 9.9525764243022374e-01 -3.3206479344091142e-02 6.7955327030248258e-02 -5.6231620469092754e-02 -5.7287959393379266e-02 1.5538138114379124e-02 -2.4916963071667485e-02 4.1775481355837340e-03 1.5937077721386644e-01 2.8486309167644049e-02 -3.2446489859433200e-02 3.1414787151832213e-03 3.9880369152353663e-02 3.2148263160422696e-01 -1.9777308867529644e+00 -2.7465707076229195e-02 5.1386590202531592e-02 1.2334874481176110e-02 -2.0526097375864706e-03 1.4542037320867604e-02 2.5716368372862938e-02 -1.3213550563910844e-02 -1.6590690112046480e-01 4.4730030459695952e-02 -7.5916357465008077e-01 -2.6841211176024526e-01 -1.4636917814004958e-02 -5.4164949596247958e-02 5.6551432120002687e-02 -1.4554238627557739e-01 1.7543660853029070e-02 6.0937886417921493e-02 4.0454042450050487e-01 2.7723524968960427e+00 1.2775117158644339e-01 -2.5781023652836636e-02 -1.2734350096782787e-01 4.4409676277700427e-02 1.2384329810116379e-01 -7.1523593230987670e-03 -5.5738855129366660e-03 -3.3136659213164998e+00 -2.8226439016709453e+00 -4.7759684261350599e-01 -2.9087872203119803e-02 -3.3337791224479218e-03 8.8956865687845929e-02 -6.6338180476838760e-02 -1.5758062032967321e-01 1.2400227045781752e-01 -1.3164600703725011e+00 -1.9171902504681158e+00 7.6206655560040160e-01 -3.8931850783875011e-02 3.2576454240989683e-01 4.6552532603661601e-01 -1.7751440228985560e-01 4.6696210569168495e-01 -8.7923290104263252e-01 -1.8224664827597419e+00 -1.0354778971606926e-01 5.2420661224339922e+00 -2.0767301629235058e-01 2.8801956779160029e+00 1.9729850527419959e+00 -3.8155621263267698e+00 -8.9894690149536505e-01 -1.2411699237883951e+00 -1.7995469588169035e+00 5.1203665560827485e+00 -3.7176962957545534e-01 -1.4383789554575221e-01 -2.4541851354536992e-01 2.8603443270480899e-01 -1.4837751929702803e-01 1.5458614059636949e-01 3.3845950053657113e-02 -3.5761221956245723e+00 1.9068011457402974e+00 -2.9350410680694594e-01 9.0093647931715926e-02 1.0862017494054044e-01 -1.5852415451594548e-02 3.8222639054333443e-02 -1.1306737420675483e-01 7.3459064893467346e-02 -3.0300184276945963e+00 -2.2425608430146573e+00 -2.4959051707436414e-01 3.5075954267878989e-02 1.0177759637127221e-01 1.6349413741397201e-02 2.0329242360597022e-02 6.9765620773815040e-02 1.2743949815259167e-02 3.1570941200837552e+00 -4.4885427564535672e+00 -2.9531077513960113e-02 4.2678366120517126e-02 -3.2662734268496862e-02 -5.7222722539392208e-02 -1.5016583603020602e-03 -6.8551125374085614e-02 3.2843982050786744e-02 2.6060730950783650e+00 3.2382450875616393e+00 2.5893397001961915e-02 -2.3494958046070345e-02 5.1437040163198000e-02 1.9658288088960474e-02 -1.8969778164966949e-02 -1.0762004787407101e-01 5.9389803430315982e-02 3.1547629139071489e+00 1.9451231982881814e+00 -1.2142625599530321e-01 1.1929564293256799e-01 1.0952655538626710e-01 8.3185100073998042e-03 1.7558480530431400e-01 4.0480380070663603e-02 5.8389879886140909e-02 -6.0522760760572112e+00 -1.4000945430837319e+00 1.8753404645777577e-01 8.0357721607973651e-03 4.3003812482288406e-02 -2.4852860559804957e-02 -6.3070776423366642e-02 4.5017993198982212e-02 -5.4234998688999267e-02 -6.7148977606753864e+00 7.5036636758822945e+00 -1.1463549548320335e+00 -7.8270924163364619e-02 -2.5787446207733855e-01 -1.1754417214341123e-01 -9.9828771331959942e-02 -3.0665991908083525e-02 1.9497368895773315e-01 4.4985460920850544e+00 3.4265140643616689e+00 2.2187695244991801e-01 -2.1516036863722773e-01 -8.4384333415529422e-02 7.2073227488071573e-03 4.0238953391805943e-02 1.5409288819833483e-01 -2.8664513224710329e-02 -1.6672869392661660e-01 -3.5756101178403767e+00 5.0027158958425542e+00 -2.0672616675381178e-01 2.6143463510248068e+00 1.6837284230544007e+00 -3.6679166188575865e+00 -1.1248427226617963e+00 -5.3332899470610851e-01 -6.9674538433142175e-01 -3.4192643645780474e-01 7.5884303391102206e-02 -5.1449046500798290e-02 5.0518032727107365e-03 1.0528216494640653e-02 -1.4813313526795303e-02 -5.2857388939457371e-02 2.4035560176439486e-02 2.8954118781354649e-02 -2.6920550552438488e-01 
      </Row>
      <Row Index="42">
        2.1572354710233260e-01 -6.0751501104564598e-01 1.8008498978910970e-01 3.2049607156003646e-01 -1.1164775688422736e+01 1.2989180304253360e+00 4.8344739574341961e-02 -1.3313097800497387e-01 1.0308829985424066e-01 2.0768787489735319e-02 -2.4161940636377485e-01 -9.7580253879555545e-02 8.5042455650498283e-01 9.8742764651746848e-02 -2.4408821650287552e-01 -1.2931061166025129e-01 -1.9829273883567938e-01 -2.0616607048583835e-01 -1.0943153115148164e+01 -2.0880026127936104e+00 3.1162490136953200e-02 -1.4445690596009644e-01 1.8807503456015004e-01 2.1921106227408838e-02 -5.0678423846547901e-02 1.4272802866363060e-01 3.3277395912688068e-01 -3.5718725967745257e-01 -1.9457480212195646e-01 -5.1027792249166026e-01 4.7871803654931511e-01 -5.5238545735356581e-03 -3.4095381000631662e+00 1.9510327024943763e-01 -9.3767340314781400e-02 -6.3043332762152016e-02 -1.1197729032051740e-02 -1.9944221236379023e-01 -2.8534192633119005e-02 1.4940502546821433e-01 -4.5139940453684702e-01 -1.2650671642439335e-03 8.9037937267952016e-01 -5.1514550933121772e-01 -1.9914482702030750e-01 -1.2685135550536728e+00 2.0038785590650541e+01 1.7198912718946302e-01 1.1746324114738950e-01 8.8800912824468975e-02 -2.1835573361382091e-01 7.1280661485377123e-02 -1.7100605714176564e-01 -4.6773389368012341e-02 1.0076409714729717e+00 1.2775969399457122e-02 2.7530990446288234e-01 5.6012098843648750e-01 5.1655729927606933e-02 -3.3272288246770643e-02 -1.7245670548209077e+01 -2.9591457402109111e-01 8.1969700797739284e-02 1.4645429998555054e-01 -4.6808707345845135e-02 2.1651721546184327e-01 3.6567221174502063e-02 4.2959394524539854e-02 -6.2664606956847391e-01 -1.7902414785662085e-01 -1.2047936707649669e+01 2.2658318489842868e+00 1.5043720728131011e+00 -6.0893706880025888e-01 1.1414655584684255e+00 1.1119175664652470e-01 1.4431749088352457e+00 8.6021508532930302e-01 5.4332876060768811e+00 9.2304409382711654e+00 -6.6098593853784404e-01 5.7104297997685560e-01 8.1165768446837205e-01 -7.6898210476659301e-01 2.4569372624170910e-01 9.7610655478249164e-01 6.8803107320413814e-01 3.5210322775357810e+00 -1.0079531783028211e+01 -5.5601410467063603e+00 4.9505669977792632e-01 5.7630759065250281e-02 -7.5631052445029767e-01 -2.0206200630138582e+00 9.2955683334743744e-01 -3.9246233408543885e-01 -7.3965886232854174e+00 6.0984485998072252e+01 2.1608998431617437e+00 1.3682974049834022e+00 2.1394118933556814e+00 -3.8396626306579629e+00 -8.0570334873202976e-01 -3.2823111359507267e+00 -2.1606808120020782e+00 -2.4676498469474275e+01 3.4663093131959926e+01 1.7624655873931758e+01 5.2788204939836962e+00 -4.5712129890365816e+00 9.0551739400979692e+00 -1.4898424012915054e+01 -2.0140355551571478e+01 2.5239997921537878e+00 -9.3279701214371471e+00 2.4769256496613014e+01 -7.4628289411018898e+00 -8.8502728647180695e-01 1.3607845628515225e+00 -3.3323959526441032e+00 1.7935109508420077e-01 1.8254239979382816e-01 -3.6652889852722831e-01 -2.2359631329520887e+01 5.4538192347085612e+00 -1.4518919537209740e+00 9.6987603178626536e-03 -6.7938356110582276e-01 -3.7829122545620608e-01 8.0755041029367680e-01 -3.2628590141371583e-01 7.1675701151345028e-01 -1.2930730567269748e+01 -1.6426953577526302e+01 1.7599512967824760e-01 -1.9492058816514307e-02 -7.5083153800135027e-01 1.8636067609794105e-01 -2.0381253623761086e-02 1.7230155162947391e-01 8.4773217683218591e-02 3.7331323129325966e+00 -2.0949517563492066e+01 -1.5549684764056337e+00 1.3332189047680196e-01 7.4132107898307709e-02 -1.7889217536677111e+00 -1.8460167788871049e-01 2.0410053697288522e-01 5.6221310198445000e-03 1.5888437864340972e+01 2.3836822213856518e+01 8.3343040033497573e-01 1.1206166314103538e-01 6.3965513575438226e-02 8.4369906474549561e-03 3.1057367677189984e-01 7.2043572442170967e-02 1.5534414488841825e-01 1.5795927824084629e+01 -7.9474798749362270e+00 -1.1959884305670965e-01 8.7015250675595412e-01 -9.4193135606674083e-01 4.9159491441190282e+00 1.2550103471464038e+00 1.4634164491194737e+00 3.2963531395280032e-01 -7.6451019258628001e+00 -8.2462615357129039e+00 -1.0050029837842125e+00 -1.1056355495871301e-01 1.3505623564633851e-01 6.2815207370374693e-01 -3.1699595593151297e-01 2.2643061181984800e-01 -4.7585949965674379e-01 -1.9028019372224012e+01 -1.0746010440209091e+00 6.9533054035473796e-01 8.9165877858797360e-01 -1.1133004135317615e+00 8.6073231885007306e-01 -1.5437616885461711e+00 1.2134627581602440e+00 3.7896076333123929e+00 2.2913853275568080e+01 1.0042971577661319e+01 6.8997714920845965e-01 1.4693998539815600e-01 1.0687795424630693e+00 -6.3539293959256271e-01 -2.2433226430594999e-01 -6.6187675274036628e-01 -2.9999804154446974e-01 1.5068634046011002e+01 -4.7013070350712098e+00 1.5263601664702943e+01 3.2594577977044574e+00 -4.5074036440900649e+00 1.0593455187916277e+01 -9.8595223988885508e+00 -1.6895310511808614e+01 2.4847913358129192e+00 -4.9912223953652983e+00 -3.6814069763522128e+00 -5.1700097547813817e-01 9.5215768122633548e-02 1.5228738924303570e-02 4.6395153466061084e-01 -1.1002669670047649e-01 2.0344427691437336e-01 -3.3293224010255074e-01 -1.0034684317313549e+00 -3.7572880090465945e+00 
      </Row>
      <Row Index="43">
        -2.0877159867173267e-01 2.7677689238117003e+00 -7.3169555010441201e-02 -2.1245847450244355e+00 -2.1806970951738649e+01 -2.7967233214253373e-01 -3.5753635759352026e-01 8.0548986890213636e-01 8.0789338061381288e-01 -8.4179709505346867e-02 9.1399360993076759e-02 -2.9358027919270085e-01 -1.2098236081615807e+00 -6.7772627555394052e-02 2.5702609253417530e-01 8.2414106671879739e-01 2.7067956611612326e-01 2.2793462270611133e+00 9.1554577047872598e-01 2.6280659988621689e+00 -2.2462138928585729e-01 4.2209294706951028e-01 -1.9755379413380536e-01 -3.7189651086886805e-01 6.2679590466126367e-01 -1.7646310363828918e-01 -5.3052144622284025e-01 -1.9900162425516489e-02 1.2647365197315436e-01 8.0019574478514244e-01 -1.6333482070350858e-01 5.5222922147374476e-01 -4.2835068928673792e+00 -1.8604568048277259e-01 -6.8575891237281361e-02 -3.3328021950308706e-01 -4.5065843504232816e-02 5.8408061168777747e-01 1.6255227631685552e-02 2.2239891156176289e-01 1.4579639479951467e-01 1.4235320660538932e-02 -5.1514550967165817e-01 2.1484059109215186e+00 2.7388889103194758e-01 1.5821373011333861e+00 -2.6033615996096322e+00 -3.6477730526857891e-02 1.2387294723695158e-01 7.9857763936389670e-01 -9.8442281134238641e-02 1.2304672815942089e-01 1.6957311287167887e-01 5.3785778531444797e-02 1.3312470161226131e+00 4.2568671322119868e-02 -5.8702886022382966e-02 -1.9709807032923581e+00 -2.2676351579778598e-02 1.4777042935878519e+00 -6.5151404671097382e+00 -2.5512490470697330e-01 1.3068278524686880e-01 -5.1161722597905790e-01 -2.9917271365020726e-01 -7.9852262867405321e-03 3.4001838099510218e-01 1.8435879186175924e-03 -1.0650997471801632e-01 9.9775107094914939e-02 1.4222346278350331e+01 -3.8585890088434667e+00 -9.2157322181844381e-01 2.7561408029271206e-01 4.0176779308526989e-01 -8.3717816571824044e-01 -8.1660012801796289e-01 -4.4575109319866069e-01 -8.0864680886881803e+00 -6.9716354668413025e+00 1.0683374138847537e+00 -1.3990920768074693e+00 -2.9749041490916142e+00 1.1063594752934591e+00 5.3049190490533316e-01 -1.6900045116794291e+00 -9.6409062763321640e-01 1.6040630141012784e+01 -8.5471903466758015e+00 7.2622649991642541e-01 -2.0048436620970650e-01 1.6693396021370834e+00 1.5637849898277776e+00 1.1360483277907036e+00 4.6144972649306926e-01 -1.7114641504845743e-01 -2.3912463966097704e+01 -1.5535322477650055e+01 -3.0245828134294683e+00 -2.3391810976461693e+00 -2.3958374788107770e+00 -1.6891840896227086e+00 3.9856972082962172e-01 4.1932293286566775e+00 -5.0914567651780436e+00 1.6968704724204891e+00 -3.5217961133225714e+01 1.6884193397870707e+01 1.1157712749597186e+00 8.6794799605286244e+00 2.2938936326078512e+01 -3.8571682297376206e+00 1.6326209467444404e+01 -2.9864013277557628e+00 -1.0863414667280193e+01 -7.1622425293532643e-01 1.2600929937650562e+00 -8.4030079730565532e-01 3.8099446937440007e+00 1.0003058060612493e+00 -3.4215112430961714e+00 1.9193111137310659e-01 -4.0495024892966980e-01 -4.0296649462534440e+00 -3.3193062951042265e+00 -8.2094556520473816e-02 -2.6297156360857166e-02 -2.7790410462273485e-01 8.9095227224337936e-01 -8.5150239267721173e-01 -5.7083390505697584e-01 -3.3180053327774861e-01 4.7793030470965814e+00 -4.7413588216963014e+01 -8.5073525398495686e-01 -3.8566730990930836e-01 -1.8122472828961740e+00 -3.9673674141697464e+00 -1.5775086293350782e-02 -1.3853852326578429e+00 -6.8642239264681737e-01 -7.4696719939176788e+00 -5.9517683006517985e-01 9.9512173930361314e-01 2.9232987623088191e-01 -3.0974339481912239e-01 -1.1551277283975452e+00 1.7688240416825585e-01 -3.6776831126825599e-01 1.4989623542641001e-01 3.2275555588589668e+00 4.6916966345733240e+00 -1.1839041858964947e+00 -1.9560700931804809e-01 7.6030328686983961e-01 -8.2533174519702790e-01 -7.8384427639324561e-01 -1.0246390080705261e+00 1.5540116328531828e-01 -1.8689705068128205e+01 1.4240659593200373e+00 1.0856885719313247e+00 -1.2257206539759438e+00 -3.8816016739181540e+00 -1.0617721699225784e+01 -1.1482249722180704e+00 -2.3791303949648781e+00 -1.0802903831139008e+00 2.2360544980362732e+01 2.5501293523479944e+00 3.0057801717629307e-01 1.8962499794719867e-01 4.9624052483996195e-01 -1.5492687373464007e+00 -4.5835376613446410e-01 3.9178082415666582e-01 2.4522734786238387e-01 4.2619774880597532e+01 1.8374873740211129e+01 -5.0633149932497314e+00 -1.4580242567415809e+00 1.0491168223402791e+00 1.5201160594500869e+00 -1.0675057307087421e+00 -1.6040297069316074e+00 1.8976164326988654e+00 -1.6839826209290550e+01 -1.2020258485090380e+00 -1.1728721281330081e+00 -2.7709696572013615e-01 2.5293252731479754e-01 1.1368071875948078e+00 7.3606164135000540e-02 -8.8770650432675735e-02 4.9460046882050979e-01 1.9536384254479344e+00 -7.3341251621023616e+01 1.9348672581028964e+01 2.6553781829681915e+00 1.1071464793157933e+01 1.7667472167805229e+01 -9.0863479392483164e+00 1.0000321327447226e+01 -9.4706450488017757e-01 -2.1828842621758895e+00 1.9758888293740822e+00 6.8374301550332051e-01 -7.6861555031058515e-02 -2.1910876408828739e-01 -2.3846079387015490e-01 -8.7115052581405727e-03 2.6585510820397523e-01 1.6432924211245847e-01 -3.9350290164064896e+00 6.9876256795533180e+00 
      </Row>
      <Row Index="44">
        -3.2668426230400373e-02 2.8286853474388579e-01 1.7690208654831707e-01 -9.6813959224657253e-01 -4.4011658220656642e+00 3.1532440440197773e-01 -2.4100047764755975e-01 1.9949664223421815e-01 6.4376993909469149e-01 -7.4330097810396845e-02 7.2877137826164035e-02 -8.9547005169572265e-03 1.9850227362104178e-02 -9.6240894397004992e-02 -3.5471682161626694e-01 6.1936065985388555e-01 -1.9583267771294899e-01 -6.9091738429311578e-01 2.2761342664159933e+01 9.3516802933890097e-01 7.7084730629015108e-03 7.7994989480033514e-02 -2.2135642562243049e-01 1.4757698988800749e-01 9.0793271519641255e-02 1.2862547804706570e-01 -1.5503492802204810e-01 4.4719044327353091e-01 1.1952336409695829e-02 2.0769030096658980e-01 -4.0348354114255791e-01 4.2899447469484642e-01 -9.3066501292216230e-01 -2.1898692810181908e-01 6.0081451657273632e-02 1.6393544874927279e-02 -3.8367888479506007e-02 -7.5948011418828454e-02 -6.9035104921444448e-02 -7.6459795716608769e-02 3.2958251478617484e-01 3.4870988121895277e-02 -1.9914482746510331e-01 2.7388889094105690e-01 9.2201610797619804e-01 1.5266928942767493e+00 -6.9213956448667462e+00 1.2501570510528137e-02 1.3719832217432082e-01 1.3334479966099338e-01 6.6169808749353312e-02 1.5480845452296102e-01 -1.5613933759719534e-02 -9.5675192312411630e-02 -1.8900648974727230e-01 6.0446991325526840e-02 -9.2291931531896076e-02 -2.0849914500323186e-01 5.0878438077133581e-01 -7.4028154666170209e-01 -1.6281298111039465e+01 2.6836755409843441e-02 2.8533247819173524e-01 -8.8819872917145909e-02 -2.9786782526728584e-01 2.0216814411840961e-01 -1.4364511678514288e-01 6.5682541946686365e-02 2.0053002036245460e-01 1.8800980007717924e-01 7.3271191407342213e+00 -1.8848800020241185e+00 -8.8674022990344825e-02 -2.9103344774540574e-02 -5.5647171023016995e-01 6.0445079029931414e-01 9.3710764784662559e-02 -3.8896322645219122e-01 2.8880647504359800e+00 5.3332319665586283e+00 -7.5913890241776305e-01 -9.5092226583813111e-02 -8.0120568504420930e-01 4.2075100092216644e-01 6.3108184844065840e-01 -7.1808867131760779e-01 -4.8576706837839040e-01 -4.4436797613983003e+00 1.3630564662456717e+00 3.8745427554221141e+00 -6.7206194854402090e-01 5.5599978702598274e-01 2.9932159104448899e+00 -3.6208872534009857e+00 -1.7523810437919232e+00 8.6751613954303208e-01 2.5934259038692176e+00 -2.5283129295375868e+01 2.0501220785820102e+00 -1.0247445377588655e+00 -2.1123846653644849e+00 4.9666752755096049e+00 -5.0101651531782077e-01 2.8733307579448351e+00 -2.3879456839882804e+00 -9.2367314876084805e-01 -9.2480585772355539e+00 -2.3820424879281823e+01 3.0696481533272779e+00 5.3088548792393340e+00 1.6594826721392160e+01 -1.7382792572000447e+01 4.2344434580667567e+00 -1.0298040648502136e+00 2.6768640555921452e-01 6.4631727420894425e+00 1.2389493863259418e+00 -2.4950659339010361e-01 7.9593714209506228e-02 4.4589463370889124e+00 -1.4852933549391594e+00 4.6603975138747766e-01 3.1192719454578244e-01 -1.2704314439629371e+01 1.1686637529992236e+01 -1.5839276768411992e+00 2.1722930761967330e-01 -1.7015717667783292e-01 -1.1210952398716625e+00 -5.9723486170508711e-03 -1.1595142223875010e-01 1.6356964202628821e-01 6.5478322134256599e+00 -6.5890632573870519e+01 -5.8313943265094004e-01 5.1056168781081102e-02 3.7977251693461289e-01 -4.1290691865551282e-01 -3.8583409805339308e-01 -3.5750183930401269e-01 -2.2657161107107186e-02 1.7317508434656588e+01 -3.9036464877280133e+00 3.4720128315939291e-03 2.6118832244811047e-01 2.8363029492365399e-01 -5.9359209540742963e-01 1.3375414627291216e-01 -4.4261121475395582e-01 1.0235350960190107e-01 2.5436534118991858e+00 1.8124005763196006e+01 6.2737311101670912e-01 2.2922916877390453e-02 1.5065968960892628e-01 -9.2375109576425696e-02 4.7641125426375286e-01 -2.0126774249820756e-01 -3.1885825976983301e-01 1.0924179226991328e+01 1.3855597928795518e+01 -2.6428843434882534e+00 1.5579448343636804e-01 -1.2758145928904443e+00 -2.7801155517857836e+00 1.6995166846541601e-01 -8.4432920183577298e-01 -1.1469442513548364e-01 -1.2762590095550763e+00 -4.6650952549731528e+00 7.3344872074329270e-01 3.2526894096232620e-02 2.4790372127188220e-01 3.8635073763899186e-02 -1.1684686087031704e-01 1.7336014564058733e-01 3.5285760224963869e-01 -2.7163227213472581e+01 -2.5012093594494285e+01 -3.5718047690097063e+00 1.7601259771157501e-01 6.9426956503456738e-01 5.4304721072103623e-01 3.9032968362591669e-01 -9.6276455220287871e-01 -1.2877141940977670e+00 1.9907778017457204e+01 1.2534206829148843e+01 3.5283808320116350e-01 -6.5395876801373554e-01 -6.8076897711655704e-02 1.1888992301348678e+00 4.1023363756947617e-01 6.5507978018755919e-01 1.8829331931800100e-01 8.9872075680068519e-01 -2.8808495229365455e+01 -2.7353643841364928e+01 4.4143742364571068e+00 5.3554353827624901e+00 1.0594109218093855e+01 -1.4176736160186804e+01 3.6248169378781925e+00 2.0582688852866280e+00 -4.9335072474627850e-01 4.8256383872178823e+00 3.6451949778298759e-01 -2.8327134626972494e-01 1.6698697002171162e-01 2.4337647924812966e-02 -1.6009842009900399e-01 6.6285551628990858e-02 9.2991592789239519e-01 -6.6500381833477773e-01 6.9448214637072363e+00 
      </Row>
      <Row Index="45">
        1.4803606194413490e+00 -5.6274955940479980e+00 1.2848812252640300e+00 -1.5199649873542148e+02 -8.0683499011512504e+02 -1.1483702710981440e+01 -8.1544341850425611e-02 -5.6421907790696082e+00 1.2397699296300052e+01 -2.6884934652065051e+00 9.6080418574452109e-01 1.0934605058831781e+00 -1.9702047839528632e+01 -4.3885784595276561e-02 2.5741267158911025e+00 1.7116446269768661e+00 -1.8010248308454559e+00 -1.3949735442961324e+02 9.4270506910791403e+02 2.1836506162511405e+01 3.0780947328145896e+00 -1.0080009181727601e+00 1.2144247799035359e+01 1.6808565473235291e+00 -2.0272340651638148e+00 -7.5494574135264836e-01 2.0187255828072697e+01 -1.0131077096533616e+00 4.3912035515062120e-01 1.2721254646633042e+00 -1.1331353144331047e-01 1.2218028706020505e+01 8.7052461431740085e+00 -3.1731683207345611e+00 1.6619870076148686e+00 1.1044031066766422e+00 1.8317184254442509e-02 4.9655933006933362e+00 2.3121317236613553e-01 4.6069481467353057e-01 2.6709550512439364e+00 -1.0644702067874397e-01 -1.2685135671785066e+00 1.5821373371924012e+00 1.5266929059222623e+00 3.0395256626517676e+02 -5.4134723960051872e+02 4.1580000867429341e+00 1.7348824925154610e-01 -1.3377263460953022e+00 1.0299287394546399e+01 8.2300646533660071e-01 7.5614673461314652e-01 1.0744057756685879e+00 -4.2393505684256390e+01 -8.0226727180956525e-01 -5.7019757473029298e-01 5.0194101251041658e+00 -4.9166568374838961e+00 -5.7006653547996621e+01 5.1685652306172483e+02 1.5158541936088909e+01 -8.9371623510507803e-01 4.1277965624187551e+00 2.7596619381729450e+00 -1.9632043949297255e+00 -1.5496930765007235e+00 -3.4848701994577969e-01 2.3126169442141659e+01 -9.1507509537528620e-02 1.7337430025500015e+02 -3.2327401494490829e+01 -6.9711339533385441e+00 -3.1109962370728681e+00 -5.4015197997932773e+00 3.0567202324448090e+01 -1.8732483608279544e+00 -8.0666911053323513e+00 -7.8075527771421184e+02 8.2015658923371120e+01 -1.3931085967081373e+02 2.2898604914614755e+00 -3.2442655833710887e+00 4.5804744110319007e+00 -3.3653122626332674e+00 -3.8068961208098191e+00 -2.3697047462372458e+00 1.2971103387860430e+03 1.7772854683438146e+02 1.1422510678992453e+03 9.4524900602158368e-01 -1.0212149073208021e+01 5.7325921012616732e-01 -1.9393572353928121e+00 4.5587355687839093e+00 -1.4486126204815172e+01 7.6980818109092797e+02 4.0648611087826612e+02 -2.4945973287440711e+02 -2.9243064984377531e+02 -4.7568523320126997e+02 -5.1737496296799600e+02 3.1094977269686012e+02 3.8745926637093129e+02 -2.4737239220647507e+02 -2.5872102669350073e+02 7.7602617891702812e+02 6.2873671327538705e+02 -6.6792894803095305e+02 -5.0051097842727904e+02 -8.1015118210321839e+02 9.5276537378473301e+02 6.4751071859996273e+01 -5.4483479848973536e+02 8.4866280364360227e+02 -1.8587810950405685e+02 3.1310774523547661e+02 1.7824268995367390e+01 -8.5567717683401384e+01 1.5752810822720437e+02 -2.0848039570655374e+01 -8.3853907246282660e+00 1.5166831571924437e+01 3.4220711455991619e+02 -1.2875561858934145e+02 -6.7597330059619708e+01 -2.1414846715865288e-01 -6.9215736906480743e+00 -2.0670297702021912e+01 -1.5711913831886575e+01 1.7351849712069258e+00 -3.1273618834547703e+00 3.7324025863532285e+01 -2.5263593567191816e+02 3.5400574308559733e+01 4.7264309567996401e+00 2.0326763245935826e+00 2.4782744943539754e+00 -5.8824424442493797e+00 3.4057986824656665e+00 4.1629832529742670e+00 -5.4922872213774247e+02 1.8854576230744411e+02 5.0630435172934085e-02 6.9271008925537227e+00 -1.6644465105925519e+01 -6.6603466854751659e+01 2.1493672457800597e+00 4.0169087844288391e+00 2.1786767189363103e+00 -3.9549711278981704e+02 -6.0861671737916694e+01 -3.5460168209130643e+01 -6.3040363775497354e-01 -8.1938244955055630e+00 4.8930744351583266e+00 -7.6207308434176682e+00 -8.6951182983107707e+00 1.1348332644274510e+00 -7.1645671607802797e+02 4.4595648986692087e+00 -2.3391405069360400e+02 2.1346618758489377e-01 1.4112135352187183e+01 1.6998509376655591e+01 -6.4678603835482793e+00 -7.1693531888136368e+00 -1.5625427956848865e+00 6.4947387258168419e+02 5.3277363992718165e+01 5.5619283731174875e+01 7.2221481198538529e-01 3.3900919189527485e+00 4.2231027031084523e+00 2.4344159700182217e+00 3.8774466195298984e+00 8.6019597368000000e-01 9.7302070668948340e+02 -3.6177110412332695e+01 -1.7104420155257738e+01 4.3983829954456112e+01 1.3491186123830509e+01 -5.3226657645760781e+01 7.2598493252579274e+01 -6.6939171321478801e+00 -2.5844243312255912e+00 -5.1102101746327833e+01 -1.8722509826206078e+02 8.4481466833258310e+01 1.8171688318273880e+00 6.2049742112521926e+00 1.1306918079918891e+01 -5.1702546886053824e-01 2.7352508542151099e-01 -2.2758581790262633e-01 -5.5233514372046920e+02 -1.2047115687230723e+02 -6.5412380608922831e+01 -3.9471029450980728e+02 -1.2588854896533087e+02 -1.4381706081744505e+02 5.5632295764050059e+02 -3.2976515373683117e+02 -2.6697201540185114e+02 3.0062139053056308e+02 2.2005366094709311e+02 -1.4218956350308602e+01 -3.6041874384500261e-01 -2.1670872026472416e+00 1.0165880054454570e+00 1.6671378583583802e+00 -1.6757444148271485e+00 3.2928794791459950e+00 -1.4920897323928975e+02 3.5454372870359339e+02 
      </Row>
      <Row Index="46">
        -1.6357906491881103e+01 -3.3953539860841900e+01 -6.5187670466229974e+00 -5.7332500720945063e+01 -1.6357702672040894e+04 -3.1038568120888368e+02 -1.7721414225229322e+00 -8.9349997999645154e+00 -2.4689825344358489e+01 3.5870140299007936e+01 -4.8464576002342525e+00 9.8372297330620082e+00 1.7406385571043586e+01 1.2476753349683424e+01 1.5876028998386584e+01 1.2544263787859876e+01 -1.7055500739334121e+01 -3.0162731149753199e+01 -1.7431641264954733e+03 3.8336731878088176e+02 -3.2179212606598661e+01 -1.3445794052396717e+01 -3.6054910124616100e+01 -3.0062470845968299e+01 1.5357129801547607e+01 6.8363612588778748e+00 -1.4658434712610383e+01 -1.6852251635400599e+01 4.1090137891815059e+00 -1.0674220755799979e-01 -1.2716902731984760e+01 6.9671121581973239e+00 2.1608087907528816e+03 -1.1831193437424773e+02 -6.4220372018880028e+00 -1.1895955528678996e+00 -1.1957765937619968e+01 -4.8758363416987507e+00 -3.8203798652017001e-01 -1.3503654639364321e+01 -4.0666133937997756e+01 9.9525765645728237e-01 2.0038785574615801e+01 -2.6033613712643193e+00 -6.9213954882404050e+00 -5.4134723503090481e+02 2.6460771204680495e+04 -1.6087880302534720e+02 1.7441007889770400e+01 5.8413200088178190e+00 -4.0201393637794913e+00 2.1663424745885290e+01 4.8359422089311721e+00 -1.4254593805737539e-01 3.4742745087582585e+02 -2.2746693064342396e+00 3.0576067692923544e+01 2.8616295305506107e+01 -1.9986847879836805e+01 4.1503302861224188e+02 -7.5403625820589887e+03 2.3538624248921712e+02 7.1744283871353876e-01 9.5576863761530735e+00 -2.1952836017768817e+01 -2.7891899261007723e+01 9.0471873894512669e+00 -1.5527181990124998e+01 9.0461755866907279e+00 -1.5086056285566087e+01 -8.4817102085860381e+02 1.2987499092003175e+03 6.2658684128429911e+00 2.2276997268960258e+01 1.3687282063855309e+02 7.4559032738145959e+01 -1.8167620600841929e+01 1.1336541180806066e+01 9.4212797735937147e+03 1.3370453929582527e+03 2.4803295096163147e+03 -1.1512085175783051e+01 -6.8485129259079258e-01 -7.9270640751456085e+00 -8.3908645383631750e+01 1.5975865291869734e+01 -5.2693878286616922e+00 -7.0334680726231345e+03 -1.9641361652971282e+03 -8.4286814096815233e+03 -1.1085330211341429e+00 2.0347628852442853e+01 2.3215272374234047e+01 5.1736971187996360e+01 2.3499855971616917e+01 -8.7161756901912781e+00 -1.3842540704522835e+03 1.4024187710624851e+03 -2.7809246790978991e+03 6.2295878933237395e+02 -9.4027678679992178e+01 -5.1561277090649673e+03 -3.8231111788040448e+02 7.2988353689325436e+02 -1.2977104275751763e+03 -8.6447707122334286e+03 2.8096590766019071e+03 2.8241513376178100e+04 -6.9646173755895495e+02 -3.7157977299160411e+03 7.0550315578073150e+03 -3.7242557438733284e+03 -2.4493355543785115e+03 -8.0890270954868424e+02 -1.0076571410973935e+04 -1.6911024726943751e+03 -7.7334462908658952e+03 7.3033314193063438e+02 4.0049447730140542e+02 -1.0560785147521617e+03 1.0181961680154507e+03 2.7659919222871520e+02 5.3091237019571599e+02 8.2745371608238679e+02 1.0924581731941648e+03 6.4928610809670135e+02 5.9247606692849743e+01 1.4673996688408806e+01 1.3734333535527855e+02 -1.9577324358126140e+02 1.3213143696873336e+01 5.5735709279808958e+01 -1.1246661170011455e+04 -2.4977750746020324e+03 -4.9243852753646246e+02 -1.3676225973291086e+01 -8.0708006415321293e+01 1.6205037164265534e+01 -3.1398822819033086e+01 7.8427200418980476e+00 9.4531434807951982e+00 7.3473619890634291e+02 -1.7427694550738597e+03 -5.1497133949728959e+02 1.1801687368798273e+01 1.1989119148842292e+01 -4.3633683100898253e+02 -8.0120145719759563e+01 6.5670292442256169e+01 1.9199868625189978e+01 3.3509278982856486e+03 3.2065798265195940e+03 -1.8096249622803589e+02 3.7296160485872029e+01 -6.0228273063710631e+00 -6.4693886726762940e+01 -1.2695341214951122e+02 4.9695112830384375e+01 -4.3453338760342966e+01 1.1032925078157408e+04 1.5963802362139361e+01 4.2210653487540594e+03 -1.1179018238045614e+01 -1.7571406374628708e+02 9.3157291905588409e+00 -1.4267986890585047e+02 1.9650046504279011e+01 -8.1251483655452432e+00 -1.4684847215072710e+04 -1.4619734145217226e+03 -6.5850289678526428e+02 -3.0126882979673343e+01 -2.7444775345560629e+01 5.8358373850367570e+01 1.8625838129954167e+02 -3.4527258202769730e+01 1.5022798271242392e+01 -1.0578687351773819e+04 1.0936797597975024e+03 1.1101458234953650e+03 -2.9050786414294009e+02 1.8933639357911079e+02 6.1443322470476085e+02 -6.1016964461514112e+02 -8.3123177071435578e+01 3.9809503427468383e+02 1.0551625003295307e+04 -9.6449788540098234e+02 -8.4271802414963167e+02 8.8640233269842099e+00 3.2435712052597410e+00 4.4735506027008469e+00 4.2958113675065761e+01 -3.4515149670626101e+01 4.8337445260528664e+00 3.0483725204325456e+03 1.4335302479690363e+03 3.2083207283325872e+04 -2.4389117484017567e+02 -3.4157398460203722e+03 9.7516072486719058e+03 -2.0042828168746446e+03 -2.7556807201695528e+03 6.8738401443244493e+02 1.8351586592766689e+03 -4.7252565439807233e+02 3.9079448874307218e+01 8.2723642072060102e+00 1.5149386480371447e+00 1.9603659623443068e+01 -8.5795248142534675e+00 1.4902191625037306e+01 -2.9857653575788390e+01 -8.6688946068562677e+02 3.9403451081788660e+02 
      </Row>
      <Row Index="47">
        3.4190410902222862e-01 -6.1426625635763854e-01 1.2892190788168989e-01 -3.9833251531376845e-01 3.7628582101469237e+02 9.5800864570940529e+00 2.7169073507699237e-01 1.8141321939431521e-01 4.2568924553870762e+00 -5.8533050098810357e-01 4.8896361171164548e-01 -5.4950830882361856e-02 -3.6164667705096747e+00 -4.3497518734744278e-01 -7.2755702351205298e-01 3.7481892711972237e-01 -4.2967941813751304e-01 5.5692716038763592e+00 -4.9073730102101138e+01 -8.6109982205364552e+00 9.1611823522639346e-01 3.8014923641580212e-01 5.3747444350541711e+00 1.3247648030248882e-01 -6.3500229906841926e-02 9.6402351935966080e-02 5.1947495798441166e+00 8.2771109850589697e-01 1.1505719220795839e-01 -2.7740050738702848e-01 -4.2129981052772791e-01 2.0621839598024962e+00 -5.7413584367471003e+01 3.1803489013907082e+00 1.1416339434123302e-01 1.0415852737219211e-01 -2.4932640870275691e-02 5.9726134386371699e-01 5.6323129015357146e-03 2.0103401813121291e-01 6.1763837164369306e-01 -3.3206480035379814e-02 1.7198912931241078e-01 -3.6477743993626410e-02 1.2501563166004287e-02 4.1579996683258287e+00 -1.6087880460457845e+02 1.2757567513295724e+01 1.6052134568243168e-01 2.5748248333880652e-01 -1.3688276532213544e+00 -1.0466750718537030e-01 5.0845552628206891e-02 1.3310144110012467e-02 -5.9580947048727815e+00 3.2252132698519398e-02 -3.1373808085780502e-01 9.7087931663006655e-01 -4.8250513488649405e-01 8.7633536331878759e-01 1.9740245821894155e+02 3.2987625106583165e+00 1.4162626899092967e-01 6.6541790574178722e-02 -1.5746265054154396e+00 5.2020356006886370e-02 -1.5948013514982029e-01 2.4252228349055110e-01 5.9699586341933930e+00 4.4173560502260689e-01 -5.7195194985119748e+01 1.4848579446868129e+01 8.0103223749645291e-02 5.1576320412777932e-01 -1.9457628714926614e+00 -1.8929434667414480e+00 3.5833477612800269e-01 7.0178651777645573e-01 6.4613661097049260e+00 5.3724677018782643e+01 -1.9895011092796913e+01 1.5890678383526482e+00 -1.1830783322920979e+00 -2.0898517597588580e+00 7.0422448585489100e-02 -6.8304316086928551e-01 2.4887225645814492e-01 -1.3888014130367606e+02 -1.1937799239502185e+02 9.1853918506749963e+00 -7.5882706627807317e-01 1.4048619810449283e+00 1.3869914848077087e+00 -4.5533790094931863e+00 -2.3569338318353061e-01 1.4261590494687264e+00 2.3119934834581386e+01 3.4083851784837816e+02 -4.9411759421412249e+00 -6.1579861837734491e+00 -5.5585826727024870e+00 2.1789670581398873e+01 9.8367981672532228e+00 2.5507023269692617e+00 -2.1236806514589965e+01 2.4525492072641208e+02 -1.6643591128226765e+02 -3.8311035062910673e+02 8.4112818991702383e+01 -7.1851682036788645e+01 2.3533573732409536e+02 3.0816091138797498e+02 5.5634056870346967e+01 3.1600369150024356e+01 6.2939742268917826e+01 7.8779700353588737e+01 3.0452108410304845e+01 -1.8541631960968722e+01 -9.4136585220996309e+00 2.2371469416508479e+01 -3.2874627263944035e+01 -6.3883352492966665e+00 -1.1007338057709720e+01 1.8578652044753019e+02 5.3119873687301634e+01 -1.6004354129264357e+01 -1.4559682760384911e+00 -9.9455673182183091e-01 -3.1623757883980232e+00 4.7962241852218614e+00 6.8484247711316892e-02 -3.2709804399915315e-01 2.2867988820718696e+02 -8.0115623489568009e+01 -5.7116050374115925e+00 4.1594334111380282e-01 1.0824981749018001e+00 -1.7542355686756799e+00 6.6199536107443802e-01 -2.8033575362082952e-01 4.0230170790330499e-01 3.6047581082573494e+01 -1.2814251796235212e+01 8.5068469276648102e+00 2.5541844637387316e+00 -5.3559759764675618e-01 1.8680897662333674e+01 1.1779100345905642e+00 -1.5218923217423366e+00 6.4196022551017362e-01 -2.1982134804275120e+00 5.7801569073470333e+01 9.1774280107620143e+00 -1.5589063953060278e-01 6.0457257249868501e-01 1.3056489808245431e+00 -3.4466581602989699e-01 -2.1128158669258208e+00 -1.3695749296900872e-02 -1.0716873453735752e+02 7.1201204634504009e+01 -2.5756929349888864e+01 6.6131199708726562e-01 7.0745686348595189e+00 -1.1135058038547371e+01 3.1377188723880294e+00 -8.9538512389174396e-01 1.3357705473726136e+00 5.2294378324404533e-02 -3.6024464042458931e+01 -2.4618553825701834e+00 -1.0530344168062847e-01 1.8428580523232085e+00 -2.5682867320165315e-01 -1.3343013374159653e+00 1.1128836609832442e+00 1.4624581306297013e-02 5.5151426313825411e+01 -7.5106042880776101e+01 -2.9876723007697366e+00 6.3511698435549739e+00 -5.3643433650348644e+00 -9.9373749406976781e+00 7.5706157154939007e+00 6.6397890825456374e-01 8.2538805057744238e+00 -9.7072141173736213e+01 1.1869207759098936e+02 -6.5443900756217772e+00 -1.1729872434759585e+00 -4.9070267840704673e-01 2.7659432351747162e+00 -6.5140884602351434e-01 1.0378756644731943e+00 -4.7310482314472679e-01 9.6522914268629393e+01 -2.7800017123657892e+02 -3.4084014289086247e+02 6.8701130287543776e+01 -7.0257908577610593e+01 2.6541303236163714e+02 2.6516856009852762e+02 4.4091278571569397e+01 3.3241067850754320e+01 -4.0205071644734161e+01 -7.7642997311603608e+01 1.6243224209595271e+00 -6.3972682462326702e-01 4.3532694203107125e-02 3.5108769401013551e-01 -4.1609950983937782e-01 -1.8482965156322184e-01 1.4870707220504755e+00 3.7126423266869992e+01 -1.1225909001266383e+02 
      </Row>
      <Row Index="48">
        4.6531367535162557e-02 4.1403230709803135e-01 9.9896973542400680e-02 1.0102612338881656e+00 -2.2365301004916809e+01 1.4868596855733149e-01 1.0010971261680966e-01 -1.5545517831050137e-01 3.1011904477141655e-01 -1.7964933631495578e-01 -2.3777108430165228e-01 3.1802534168583585e-02 -2.6741602066385584e-01 -1.3653730927575217e-01 2.7047433149813255e-02 5.5654454749115123e-01 -1.4852273748857692e-01 -7.3476191759118592e-01 -8.3590164288611710e+00 5.4742470243345409e-01 -3.1373219167292032e-01 -3.2977620562175258e-01 6.6448853859883239e-01 6.4524487291279742e-02 7.7787579961531239e-02 -1.3143853173480524e-01 -2.9275952040311731e-01 2.0066767668743499e-01 -7.7417268817005683e-02 2.7355060891084015e-01 7.1630089557824350e-02 4.7098786461200248e-01 1.4055038494300405e+00 -1.2390670965128980e-01 -7.5503437280861174e-02 5.2265441469071083e-02 -5.1145509500720276e-02 3.1418733732721577e-01 -7.0059297087317216e-02 1.7030799315881537e-01 3.3453076065493192e-01 6.7955327039796384e-02 1.1746324065812140e-01 1.2387294813926099e-01 1.3719832253906541e-01 1.7348828021445328e-01 1.7441007817547245e+01 1.6052135091414255e-01 6.5917006274305845e-01 -2.2703330051488041e-01 -2.3687701042365975e-01 1.0075931633407650e-01 -2.2577252767835346e-01 2.6304359864991099e-02 1.3348571125070334e+00 8.5425287000727865e-02 -2.2201327161594030e-02 -3.2101812880652436e-01 1.5828206543275117e-01 8.7460776868485546e-01 -1.1885845015986639e+01 6.7654094640811224e-01 2.0663685655901037e-01 -2.6168979787593687e-02 -1.3389865048046445e-01 3.2432632439991504e-03 8.2073996715820330e-02 -8.9618810648705097e-02 -8.2759316253376569e-01 1.9949716089491282e-01 -6.3050224032381035e+00 4.7216006783373388e-01 3.6020430425961236e-01 -2.4360949798352038e-01 9.0886546474125396e-01 -5.6978379113078303e-01 -1.5049869571307828e-01 2.1311524340502963e-01 5.0335435890655518e+00 -1.0349022019768562e+01 9.9707832285646703e-01 -1.3931451659555075e-01 -1.0971768137011502e+00 7.7709655583855408e-01 4.9406047356317856e-01 -3.2908856363827477e-01 -2.1037340274112604e-01 -5.6902645927196858e+00 -9.4402678371218567e+00 1.1324574735383530e+00 -2.9367642654768267e-02 5.4705735373732334e-01 -4.8261263894388140e-01 1.7821229400191541e-01 -2.9378387396491668e-01 1.7582916114673397e-01 -3.3070860995078402e+00 5.2353567059494530e+00 7.7191509331823882e-01 -1.4257898772789330e+00 2.9872482350688467e-01 -3.2265762314335800e+00 8.0191236384078868e-01 3.0086687279489452e+00 -7.4921124823734919e+00 -2.2085674786368557e+01 8.6277483020180625e+00 3.2585635280367093e+01 -4.5141901738525112e+00 -6.3039419296426118e+00 1.6500465946262455e+01 2.4588925379847257e+00 -1.0384322904849723e+01 -8.9035413310797988e+00 2.1660692446693322e+00 2.6860959009614799e+01 -4.2612389974212732e+00 4.3842698529770124e-01 2.0979941925831502e+00 -3.9689928346076506e+00 3.5172865343774129e-01 6.2713991561738813e-01 1.0296517537081760e+00 -1.0259772270388726e+01 5.5027487743973147e-01 -1.4323569267003506e+00 9.7734784461212532e-01 3.5317416362332210e-01 5.7905911332840065e-01 -3.0483604884811610e-01 -5.7804686119081383e-01 1.2366134066632513e+00 -3.0664320410076950e+01 -3.7053467882517701e+01 -2.5629520227099327e+00 1.1766907158115161e-01 1.7026799008887400e-01 -1.7982962476603048e-01 -9.8312172767257566e-03 4.6058920739181330e-01 2.2662450465883424e-01 3.8666370578717348e+00 -1.9128292758112913e+01 6.1360982508666950e-01 2.5782643314842302e-01 -7.0933293249164109e-01 -9.1194032954818127e-01 -1.4526524335133395e-01 -1.7245311191516036e-01 -2.3649760202843352e-02 6.8687968923079552e+00 1.9706445581735707e+01 -1.1317164750338975e+00 3.2650023094344477e-02 3.2060048009277287e-01 2.7893719017428675e-01 -5.3331958638262877e-01 -6.8510636989982387e-01 4.3789235287519790e-01 1.1970755364999036e+01 -2.2283163851290766e+01 -6.4884252023380906e-01 6.8956226499427709e-01 2.9415264355974569e-01 1.1539213087539304e+00 6.2692092942676858e-01 3.9327460616399662e-02 -1.3470380514082614e-01 -3.1688950939526478e+01 -3.1183081729051878e+00 8.0288675304054524e-01 -1.9885877950438774e-01 4.8331651977974843e-01 -4.9973780220822306e-01 -3.4999911019026353e-01 3.3643223917063481e-01 -5.4568027991977441e-01 -2.9770599660526074e+00 -5.9420582787771101e+00 -4.6313078573069566e+00 1.1793504801707896e-01 -2.3095681305770328e+00 1.4374468923227790e-01 -7.3428083485429152e-01 -2.8270322045167368e-01 2.0958333847421891e+00 3.1162980611417410e+01 2.0840955044123234e+01 1.7510899055549771e+00 -6.5981048642261220e-01 -3.6306385507403505e-01 -4.8806668159471234e-01 4.8890769026670000e-02 3.3635195368993170e-01 -1.8712922454546677e-01 -9.8891382490664910e+00 -1.0367291859931299e+01 2.8258711308748971e+01 -1.9437307558847181e+00 -3.0688564954350621e+00 1.6184088643259560e+01 1.3844647716827332e+00 -1.2988919605472766e+01 -1.6991623602414330e+00 1.4658689595710257e+00 -5.4331799717768248e-01 -1.0271210028560511e-01 -1.0091506916108983e-01 2.8362441300641916e-02 1.3373566719979116e-01 7.8463447296255429e-02 -1.5047711010220979e-01 -1.2165302497046326e-01 -2.8021299492095215e+00 2.1199122106686219e+00 
      </Row>
      <Row Index="49">
        -5.3545485733502529e-01 1.1041915958909800e+00 -1.2186785518491661e-01 -2.1962508759056902e+00 2.5285161936748779e+01 7.4077468232725652e-02 -2.1443006588753499e-01 2.7500698982862386e+00 1.6141181590879912e+00 3.7800252652924610e-01 3.2585164729440852e-01 -4.4034310184354597e-01 -6.3449310417556859e-01 1.1128646840334276e-01 -1.2528181553385787e+00 3.8057143146643124e-01 7.5028873795087414e-01 3.7287683635020130e-01 -1.7250107905464482e+01 -2.2516252351008609e-01 1.9236673796097942e-01 1.7325607754106884e+00 -1.5407417935015069e+00 -3.2313893172769353e-01 2.4943958985411366e-01 8.1955930512799272e-02 1.4837221262439613e+00 -4.1972312271927781e-01 5.7206299050837031e-02 -4.9582589085291318e-01 -2.2541096115718418e-01 -1.8285027287892319e-01 1.7584818444668855e+00 4.0987573358930973e-01 1.9818470047258785e-02 -7.6134807822259543e-01 1.1220137366528071e-01 -6.1972927330326910e-01 5.6311748154486016e-02 1.5952677988833264e-02 -2.2192104766151033e-01 -5.6231620511202132e-02 8.8800913256221567e-02 7.9857763761659639e-01 1.3334479923194414e-01 -1.3377264185388213e+00 5.8413198201659347e+00 2.5748248456059064e-01 -2.2703330104674252e-01 2.5068796676565146e+00 -2.0985091488821411e-01 -1.3316967734476498e-01 2.7583656402181589e-01 -1.7089086438187107e-01 8.3652384585628659e-01 5.9997434331957457e-02 1.5109983858991360e-01 -9.8613711419213801e-01 2.6916640144119669e-01 4.4865684312213716e-01 -1.3887215854437432e+01 -1.3935471665096277e-01 8.3823941285232961e-02 -1.1423067665402664e+00 -1.1000188642803288e+00 4.3111058955645770e-01 3.9696019861999984e-02 2.9530545922182666e-01 5.4042918759839509e-01 -1.6422775329362838e-01 7.8105200619094095e+00 2.4012188280863382e+00 6.9009238884123447e-01 1.1231930264790719e+00 -2.3787941466767677e+00 -1.9612496299709381e-01 1.3255204491220383e+00 8.8920000141462985e-01 -2.2428501780924499e+00 5.5560944075264317e+01 -2.0072785067919310e+00 -4.9870948402163218e-02 -1.1891868782828254e+00 -9.7048083290269460e-01 -1.8380104851398954e-01 -1.7324883337226504e-01 4.2452047275719740e-01 2.1535951266071926e+01 -1.6572153089518618e+00 2.9564878899076579e+00 2.6162721396162103e-03 1.7619266487601486e+00 4.1490922630654703e-01 3.6286051151895236e+00 -7.6868972287345683e-02 9.6229160080429144e-01 -6.9576038278447641e+00 3.3902637897116961e-01 -4.3188911759581163e+00 4.9361542626561128e-01 -1.1208388843681067e+00 2.6776425090431744e+00 -3.6996142125060216e-01 -3.3124982477195877e+00 3.2817084921618105e+00 -8.9175642392350909e+00 -6.3013943352350843e+00 -2.1451519492314155e+01 1.5140366986326200e+01 -1.2731029565159673e+01 4.2125827224556772e+01 -1.2396882272180800e+00 1.2527407572889886e+00 1.4336388739970051e+01 -9.0837327481162475e+00 -1.5581220625895355e+01 -8.5977279815780321e+00 -6.5232370031166853e-01 1.1124012516207454e+01 -9.2217630687001471e+00 -6.3077450561603698e-01 4.3736010692312838e-01 -1.1926784364739329e-01 2.3838963918703126e+01 2.1457290150108062e+01 -1.4969367376743321e+00 -6.1532280049522559e-01 -9.5557008940465948e-01 -4.5465272361727926e-01 4.3684315668337226e-01 2.0052768374436503e-01 -6.9463788372073276e-01 2.2298080838445685e+01 4.5945187050492507e+01 1.6819899700058896e+00 -1.2741042816051469e+00 -4.2277713576745342e+00 -1.7371975036871941e+00 -4.3315299789909029e-02 -3.9370998322969140e+00 -2.1566626391309009e+00 4.8087325832401362e+00 4.3047115344245501e+00 9.2491966911381951e-02 4.7414402888933899e-01 2.4410176704589617e+00 1.5874206889950304e+00 -1.9206896357914097e-01 -2.6373194177432813e-01 -7.4636389361745520e-02 9.0435104922078153e+00 2.4968236274539709e+01 3.1649742454064835e+00 2.1633431803238901e-02 2.0527830338172404e-01 -1.2308528824647766e+00 1.8818514704815064e+00 4.5689691135162713e-01 -1.7369790600677681e-01 -4.0465225068206564e+01 6.8873334742431751e+01 5.2960486348023039e-01 -1.3997449142086038e+00 -1.2273987951565934e+01 -1.1811200861935028e+01 -1.5049734158006292e+00 -1.9556814891637977e+00 -8.5086681124061403e-01 2.4027279382176729e+01 -1.4981266299473646e+01 -1.5961570017748206e+00 2.4743056914768347e-01 6.4868978052501802e-02 -1.3297694645766001e-01 -1.0341173806005965e+00 -6.4471567784162437e-02 3.4552193045229712e-01 6.6744577008191897e+01 5.3463861408389533e+01 4.0173064820969238e+00 5.5532617009978380e-01 3.9959955477879592e+00 1.5713862574853312e+00 -1.7326902581532169e+00 -6.3313766987091236e-01 3.0297278199083344e-01 1.2687276754502186e+01 -9.4836499211442060e+00 -2.5753173603452524e+00 5.3062664572352780e-01 9.2917865075033035e-01 4.2551135218949696e+00 4.2390167513697463e-01 -6.2402398922572466e-01 4.0388480232447410e-01 3.0745689041079459e+01 3.5203513848526029e+01 -2.8503195232564266e+01 1.3447718805081891e+01 -1.0363921967586531e+01 2.6324055459989118e+01 -2.6755867780952700e+00 4.6614728505526255e+00 9.3726449553570781e+00 -9.9428981955863946e+00 -9.7572319880632570e+00 3.7983928132495370e-01 -9.4077273940769146e-03 2.8287859162675238e-01 -4.4504064620511380e-01 -3.1374704555426913e-01 6.0348344405790888e-01 5.5037644908497896e-01 2.2440649965182926e+00 -1.0178269061379137e+01 
      </Row>
      <Row Index="50">
        3.4380853210273987e-01 -3.0236172728185740e-02 -7.0815432502264741e-03 -1.2743991860785400e+01 6.1981496066954264e+01 -4.5869581044997627e+00 4.6781230157181247e-01 -3.7616525822143920e-01 -6.6641152886961157e+00 3.4011453389504082e-01 9.3268257543546518e-01 2.3232358346584725e-01 1.5813095812000739e+00 7.1960994097629183e-01 1.0587584707347013e+00 -5.6301235099991964e-03 -5.7771329139415772e-01 -4.7165729887407792e+00 5.7934883397723688e+01 3.6332813515066524e+00 4.9849277092984062e-01 -3.1737791929831960e-01 3.4799239334041312e+00 -2.5605808166576327e-01 -6.3962096142028779e-01 4.3824859322858095e-02 -1.6637909324917621e+00 -3.6657080712852602e-01 1.6051626718548598e-01 1.2655436272994791e-01 1.1970519967064774e-01 3.8768200666217467e-01 1.0358789802329795e+01 -1.3178383593358820e+00 1.4566470224775685e-01 -2.0578563871712419e-02 3.5869142770117435e-02 7.8413510764417937e-02 7.3874528862673719e-02 -2.2953891232080137e-02 -3.7437005490657782e-01 -5.7287959416223520e-02 -2.1835573351061005e-01 -9.8442281576760687e-02 6.6169808984635814e-02 1.0299287301692914e+01 -4.0201396370249567e+00 -1.3688276378674220e+00 -2.3687701113895965e-01 -2.0985091330588684e-01 6.3191177153179847e+00 1.5836254314258336e-01 7.1888932672988881e-01 2.1241477659436236e-02 5.2259317249485093e-01 -2.3111490544059807e-01 -8.2680834157334182e-02 -1.7739380251561276e-01 -5.0793149166461327e-01 -6.3676455921848287e+00 6.2288167152554443e+00 -1.1424016821055702e+00 -5.6601244391633287e-01 3.2309686968963004e-02 6.9168145997501060e+00 -4.9630203396252104e-01 -3.7241614110806898e-01 -2.1832569428230211e-01 -1.3396002422284961e+00 -7.4261794205805010e-01 -6.5733575397952642e+00 2.2602050367345043e+00 -1.7737744805389251e+00 1.2410868148169811e+00 6.5853264915551790e-01 1.1199404200056384e-01 -9.3039903158183423e-01 -2.2581261505634234e+00 -4.1269645844136953e+01 -5.7404422498469359e+00 4.6895196215841688e+00 6.6425343358938127e-02 1.7611493956915751e+00 1.6211841513327272e+00 -1.9729128889819876e+00 -5.5413007308373452e-01 -3.9174275011918280e-02 1.1778843553886517e+02 2.8168982358938969e+01 4.4861362245955398e+01 -5.9907417908536625e-02 -9.9847564067423100e-01 -1.3636046273923288e+00 -4.0709079602912706e+00 1.1501201636507004e+00 -2.3348813023168682e+00 6.9842607166065505e+01 4.2283530649780886e+01 -2.6826228658836598e+01 -6.8535313149389037e+00 -2.0083436663329522e+01 -1.5953030635579786e+01 1.0965427253198204e+01 4.5980329252275567e+00 4.7342077146428148e+00 -5.2769775914073222e+01 -1.5852010646262457e+01 -1.2561780181535177e+02 2.2387977649412250e+00 3.8492189014666280e+01 4.8449263812029351e+01 -3.6640800154776745e+00 -2.4654257289631083e+01 1.3408557762215747e+01 -2.1842241733757419e+01 -8.2388064414379869e+01 5.7266857923824546e+00 5.9322790612292922e+00 -1.0167277617471306e+00 -2.4761880838398262e+00 2.7842140561552080e+00 -1.7597290617080958e+00 1.8525443684501106e+00 -1.9238125271263243e+01 -7.6518559861085649e+00 4.2298303427678547e+00 -1.1483048323692899e+00 1.0943388554301237e+00 -6.7105206855761779e-01 2.4362978762831222e-01 6.1739341987677576e-01 -6.1140171143913657e-01 4.9466815402454017e+01 7.2624700765811468e+01 1.8550253132917867e+00 5.5345785876272291e-01 -3.2189444113184640e-01 2.6892093846185778e+00 -1.5641960458366119e-01 2.3356492299930437e-01 7.7322590032149940e-01 -2.1287367673598851e+01 6.9216330835641742e+01 -2.7714243288558009e+00 -4.0156186395683573e+00 -8.6655767809368172e+00 -7.2399006941885400e+00 3.2180614143334152e-01 3.0381091491230445e+00 -1.1406810943116541e+00 -2.1634995014809647e+01 2.0694083413040104e+01 -3.7292672107364524e+00 2.5293178209067657e-01 3.5436375679646681e-01 -3.4853444498145525e-01 -7.1641086698449985e-01 -7.3021773848534921e-02 -3.4846566255122213e-01 1.7673513657282456e+01 6.8902977398691867e+00 1.3783907672442169e+01 -3.2386806158628882e+00 7.5994437008359057e+00 4.3473066008036678e+00 -2.4889022376718977e+00 -1.3334979139529637e+00 -9.1012946990113031e-02 1.0317642699007502e+02 -1.7237579160864698e+00 6.9312226144363018e+00 9.4888240002480861e-03 -1.1053000881592538e+00 7.4057908284783025e-01 9.3206909973795149e-01 9.7131331226235851e-02 1.5461657560283720e-01 -6.6789052284832991e+01 -4.2798174379493901e+00 1.1518747254455562e+01 -2.9176976906841467e-01 7.3568245866342838e+00 6.4304865870940313e+00 -3.3818618328367305e+00 -1.8022385383741841e+00 -4.4152774610285359e+00 1.2682814953836967e+00 -2.7360987020683751e+01 -6.6328717900173615e+00 2.0760279539726323e+00 -7.6875916239714570e-02 -2.7854528514582455e-01 3.0428199581638182e-01 -7.8957693403943985e-01 3.7950937371351162e-01 -2.4371790962261002e+01 -4.4202251919451783e+00 -1.5011230853178927e+02 1.0987268520308989e+01 5.0240534575131051e+01 5.0993673938325010e+01 -5.6213142137092831e+00 -2.8114462680524333e+01 1.4123487896883155e+01 4.0855061865945743e+01 7.8645158655711880e+00 1.8501664015444508e-02 3.0747310381542547e-02 -4.4311789692454751e-01 -1.4773172575187676e-01 4.8843685182141106e-02 2.9613284842598298e-01 1.6708960868527356e-01 -2.0951018511098102e+01 2.8573878677014829e+01 
      </Row>
      <Row Index="51">
        9.8031963081020732e-02 1.3427479234184486e-01 2.2254704430652550e-01 -5.4098285939457824e-01 -1.1711924593673478e+01 -1.2372271057470327e-01 -8.1892359383342078e-02 -1.0436980015220101e-01 3.1247104327721233e-02 3.6391872685395854e-01 -5.0625689517393345e-02 -1.1901159580838810e-01 1.6013601376610787e-02 -9.9676706119967567e-02 5.5990304772135790e-02 2.5978132613193206e-01 -2.3769341463790858e-01 -2.8846939833196750e-01 -2.1696260629237422e+01 1.9422489595220443e-01 -1.6007191757254813e-01 -1.3080991911519202e-01 -1.8039565270688390e-01 -7.1435452391295118e-01 -1.6272243733419434e-01 3.3743939683673890e-01 4.0862010242355151e-01 3.2853227099920501e-01 -2.6699316793579619e-02 1.7704492167707464e-01 2.6765409447829319e-01 1.3724275170911326e-01 -6.5085787154300556e+00 -4.4088593087885114e-01 -4.4777353958550759e-02 7.1446863061896404e-02 -8.3514162967696426e-02 4.3669302047472369e-01 -3.3221972555056094e-02 -1.0598337019974977e-01 1.7604698805122165e-01 1.5538138136711181e-02 7.1280661289168906e-02 1.2304672879902766e-01 1.5480845489418085e-01 8.2300647851047160e-01 2.1663424754374951e+01 -1.0466750423095519e-01 1.0075931641670965e-01 -1.3316967701879426e-01 1.5836254383212672e-01 8.7480417542817057e-01 -1.2349934973248972e-01 -6.5833211756970655e-02 2.2964955097370243e-01 3.1107229036579635e-02 -2.3367754172602007e-02 -1.2684521518263089e-01 -3.7955073614194604e-02 -1.0898349503901859e+00 -2.3728984011897122e+01 2.8781940020359037e-01 1.1494213483324468e-01 6.0251189849334155e-03 6.4574002598124514e-03 2.0254782161387119e-01 -1.4847195525959092e-01 -2.4402660880008675e-01 4.9749398358806129e-01 1.5886739047584830e-01 -1.4275452560305165e+01 -1.4810415688660150e-01 2.0648905883301147e-01 2.0921063346852975e-01 -4.8932669735119916e-01 1.9007090764173207e+00 3.4625815098129786e-02 -1.0618297449889921e-01 -2.0864272015713361e+00 2.6246567229657593e+01 9.4378644846535664e-01 -3.4405495110116646e-02 -5.6946920699690651e-02 -1.6549059413790701e-01 -1.1048345279335431e-01 -2.6986097834794565e-01 -4.0923334671211353e-01 -3.1502126924028360e+01 -1.8426201380049498e+01 -1.0259751419155210e+01 1.7066901394257075e-01 4.3949453968213348e-01 -9.7174659919599815e-01 3.4263169212691880e-01 3.6529413709275105e-01 -5.5147753938681254e-01 6.6099703294136987e+00 -3.8499801956305504e+00 -4.8851777018987406e+00 3.2884839558636259e-01 -1.2659758410282185e+00 -5.4298734763534586e+00 -1.6066873009616893e+00 1.0875305492512415e+00 -2.2759791705100576e+00 7.0559769811191302e+00 -1.0389443901694221e+01 -1.6348527144662039e+01 -3.0980399879594889e+00 -2.0908454774883104e+01 -1.3145477552637498e+01 -1.8619003534632220e+01 -1.0111694964756584e+01 -7.4740791460573233e+00 2.8905242171896859e+01 1.4361267807962959e+01 -1.5663504440885632e+00 1.1256661055294250e+00 9.2184513503598020e-01 -1.8128985787172678e+00 2.7610193771808742e+00 6.4499067839305191e-01 9.0452889961136163e-01 -3.2080282423498574e+01 1.0070988264724189e+01 2.6433854298609347e+00 3.0818863580612665e-01 -3.3248165429095877e-01 7.7206315959766769e-01 -1.4028260254995755e+00 -2.8432490008481548e-01 1.6072644977280387e-01 -1.9843069786035031e+01 1.3049637921566440e+01 8.6463696663924328e-01 1.4485798724913798e-01 2.9814798964249617e-01 -2.6633875132300244e-01 -4.1238738276038234e-01 2.9056858410203068e-01 2.2411939982553555e-01 2.1752679540522614e+01 -2.0092926188606793e+01 -3.0905040675832396e+00 4.2786602288008430e-02 -4.0679523902390358e-01 -1.3450652310081763e+00 -4.1144278773757248e-01 1.3780853714277580e-01 1.2273258788888820e-01 3.3223516282928017e+01 3.8410319095159544e+01 -3.1868926744712667e-01 2.0480317051757180e-01 4.6881119248567016e-01 -6.3220742171505928e-01 -1.6153775060393474e+00 2.5569198625690004e-01 -7.9359408886305571e-01 3.0793873007756417e+01 6.4402330321100152e+00 3.3883544035167077e+00 4.9475608773603447e-01 1.1951679465619864e+00 -2.1311533921111359e-01 1.7637358826100735e-02 -2.0415766711491667e-01 -2.0588388223970530e-01 -3.7369147570008181e+01 -1.1869484889044273e+01 -3.0998667884318358e+00 -3.3737969136836415e-01 3.5583370453765184e-01 6.2693102955838853e-02 1.5854712510937659e+00 -8.0396646474990863e-01 9.2406697184175590e-01 -3.6192018686931284e+01 -2.2605231377885815e-01 2.3517721541487688e+00 -1.0983370478871894e-01 -3.9954920536533223e-01 9.5857316474143994e-01 -3.5099251796854425e-01 -5.0621514015394520e-01 1.6046665978484747e+00 1.6075971219812857e-02 7.9612902067655114e+00 -2.1260423800815005e+00 -3.6577925504812125e-01 -2.5690308433306530e-01 -9.3462660578388146e-02 4.5864866119952730e-01 4.7269048204708347e-01 -3.0724349781281537e-02 2.5123839499045744e+01 5.1649145710614619e+01 -3.2838509380007110e+00 -2.1994541745968492e+00 -1.8149066071134392e+01 -1.1316137422975146e+01 -1.4355732946906020e+01 -1.0845599444161319e+01 -5.0545023027827263e+00 -3.3792135387125199e-01 7.3872738583397046e-02 -1.2067010815253443e-01 4.7671922540664990e-02 7.6724886439909046e-02 -6.4722065278993157e-03 -6.9059509659188306e-02 -2.8708494702527704e-02 3.3368774979236093e-01 -7.0144423500761366e-01 8.0213596241278429e-01 
      </Row>
      <Row Index="52">
        -3.7734270411016513e-01 2.4381953770520562e-01 -3.3376506460189459e-01 -1.4556222936575125e+00 2.9559496347727560e+01 -1.8673029549676909e+00 -1.3396451869865647e-01 3.7996083457478025e-01 -7.2232323744183402e-01 8.9397085975436608e-02 9.4162357446808564e-01 -2.1650585768498321e-02 4.2373329627104361e-01 2.8784648617761127e-01 -1.9450841276401881e-01 -3.0361554398415119e-01 8.2689354263783529e-02 -1.0057850048927577e+00 -1.5190495530516676e+01 2.1042036104414206e+00 -2.0795771750460101e-01 3.0350078927041496e-01 -3.4603291264641184e-01 -1.6067201668112777e-01 9.3949764839867322e-01 -1.4161535016347304e-01 4.4452979874814080e-01 -4.5574146538298854e-01 -7.6666478682594040e-03 1.3820708482857569e-01 -6.3976097955375311e-01 3.3292545811121244e-01 3.8184281804693825e+00 -2.6352648888095587e-01 -1.0423226247477002e-01 -2.1604331237272900e-01 9.8188078535400791e-02 -1.1456387972041016e-01 8.4887694014768131e-02 -8.2903897027837570e-02 -3.2609648599583174e-01 -2.4916963115532986e-02 -1.7100605671204067e-01 1.6957311138092804e-01 -1.5613934501736794e-02 7.5614669516383515e-01 4.8359421743857229e+00 5.0845551007858480e-02 -2.2577252795334479e-01 2.7583656346177049e-01 7.1888932494733981e-01 -1.2349934985048856e-01 1.1280680348080885e+00 -4.6242924626236385e-03 -2.2634923870082702e-01 -7.7070915839560980e-02 2.4450511795719934e-01 -2.1819051862767422e-01 -1.1549383994191323e-01 -7.6742060397663892e-01 1.6472204478387074e+01 -1.2349667268082218e-02 -1.2871611362020885e-01 -1.0725043866363998e-01 5.0854227838092003e-01 -3.6282094448966823e-02 5.7030362310756211e-01 7.2168069403010515e-02 5.3606987991778987e-01 -3.6286901435198649e-01 5.7102993964799555e+00 2.5717563790420339e-01 2.7320003769357953e-01 -5.0449548034256964e-01 -1.0968928073616127e+00 4.2447396137513449e-01 3.1143743647033845e-01 1.9742024931378102e-01 -1.4935708773800442e+00 1.3569084099949258e+01 3.9096428211753143e+00 -5.2218103513264735e-01 -1.4325199958312211e+00 -2.1814824566772018e-01 -3.3057618147921608e-01 -2.5770381624293143e-01 2.5001859915770158e-01 -1.7772394738486113e+01 8.1903981158330517e+00 -1.4525886400775041e+00 -4.1406283933573040e-01 -7.2970813483164298e-01 1.5495935422644687e+00 2.2531344173167600e-01 -5.7433288161555129e-01 1.0484587328398540e+00 1.2005896341590471e+01 3.4658543691788516e+01 -9.3388391098567283e+00 5.0911894485887199e-01 -2.6355066684034947e+00 -7.7796188582087638e+00 2.6627651095384222e+00 9.1018128062460457e-01 7.3850833700448915e+00 4.8890759187022521e+00 -9.0100840885399265e+00 -2.5646475431010746e+01 5.4812088529646772e+00 1.4199503384023849e+01 3.9532346252285357e+00 1.5982229052377091e+01 1.8767264985387097e+01 1.2451552445633975e+01 -2.0423009734400836e+01 -5.5395058530795907e+01 -2.0187145340042889e+00 6.7301711920066443e-01 6.2330577818398947e-01 9.2631089103548758e-01 -1.9208100365341230e-01 -7.9639823888594030e-01 -1.0691646609296099e+00 4.0164280652433746e+01 2.5811695135613419e+00 3.3503220871072017e+00 -7.2521467974562925e-01 2.7940574185541323e-01 -3.9094874591460904e-01 -5.1974474283219874e-01 4.5751618966667229e-01 -8.8543418791619721e-01 3.4127992642895464e+01 5.3201521266298613e+01 1.1987037076864611e+00 -5.6351761204359796e-01 -1.3038997532057011e+00 3.6848613483901937e-01 -6.3030447802957124e-01 -9.4302485209748166e-01 -4.1253912411271870e-01 1.9483477514392078e+01 3.1164968312063419e+01 4.8415551502878884e-01 -4.0431440709733169e-01 5.1114748359523787e-02 2.3761712179844192e+00 -7.1732704501619504e-02 5.3911701745765461e-01 3.7811716199798055e-02 -7.4702614610271212e+00 -8.7694456924503577e+00 5.4738821955453432e-01 -6.4738532401104651e-02 1.1448797981525977e-01 -3.0522778032170961e-03 1.0346087138140680e-01 9.2150349338052884e-02 1.6017287485440768e-01 -1.6578666173126521e+01 4.1196895212966275e+01 9.5614406012728690e+00 -2.8368425640780428e+00 -6.9822115340562689e+00 -5.0102282397694298e+00 -2.0965879916832018e+00 -8.5227339540017510e-01 1.5062104475335492e+00 -1.2008659284675389e+01 -9.6501395620697394e-01 5.1012242633642568e-01 5.8738428233052066e-02 -2.5963125412365429e-01 1.8496336283361359e-01 3.0836230051665980e-01 -2.2038208815098148e-01 -1.1596856218115856e-01 9.9168045612381022e+00 -4.3710282637711771e+01 2.7024600459896253e+00 -8.3150246392402455e-02 3.5699063152181116e+00 2.1292448359985863e+00 -1.4053751386321243e+00 2.2984435102182110e-01 -4.0835069669509707e+00 1.2468858153855678e+01 -3.8938432296468363e+01 -3.3930407550556083e+00 8.4269715647434840e-01 7.2545553380052041e-01 2.1755016247770698e+00 -1.0360367460699393e-01 -7.1153057238505979e-01 3.4277757838804634e-01 1.8566118584545620e+01 3.8873207302138084e+01 -1.7134679312785224e+01 5.4976002337152821e+00 1.2683688292498880e+01 9.0657194025441044e+00 1.3841813124530315e+01 1.7613120592388313e+01 5.9439109554376310e+00 -2.4373650749496392e+00 -2.3897027578537378e-01 8.3907838954194491e-01 5.3896778954342750e-02 -9.7128136985457192e-02 1.4599533207083596e-02 -6.8812260701434702e-02 -1.2660746690814462e-02 4.4840716853862261e-02 4.8895983293327623e+00 -4.2466822666255100e+00 
      </Row>
      <Row Index="53">
        4.9986719329717669e-02 -1.6519302465732930e-01 1.1137584685834678e-01 -1.3268568503693245e-01 -1.7024536004279867e-01 -3.5421465708859140e-01 -2.2963572586119654e-02 -1.7017387882936519e-01 6.4397769333698007e-02 -1.2181366937983955e+00 -3.5082967994577129e-02 4.5201612354329690e-01 -3.1848504214823592e-01 -3.0685208592256485e-02 2.3879700660949252e-01 -5.3963358070380696e-01 -5.5411955213674875e-02 -1.2964383020666617e+00 5.3974481578544413e+00 2.8364205203958504e-01 1.6027826635646700e-02 -1.2567137404228651e-01 2.8925759740206758e-01 4.5647894373426878e-01 -3.7758549767182070e-02 -9.8020035917670212e-01 -3.1903570383059299e-01 -1.0925214805876358e-01 5.1883314596380257e-02 1.8326432674294679e-01 2.7235916171885100e-01 1.6533101505348213e-01 3.1806239486441257e-01 -1.0407454510697356e-01 2.0652997649736271e-02 4.8650149776233498e-02 -6.6753139943955375e-02 1.4380124540276182e+00 2.8525609876354722e-02 4.6712226476051977e-01 6.4450492217911659e-02 4.1775480785712360e-03 -4.6773389379289848e-02 5.3785778258736802e-02 -9.5675192752980295e-02 1.0744057721288556e+00 -1.4254595668805581e-01 1.3310143811616611e-02 2.6304359546780669e-02 -1.7089086436082082e-01 2.1241476977551473e-02 -6.5833211974370406e-02 -4.6242924286186149e-03 6.1416562628127902e-01 2.9669141782149211e-01 -1.8467032952598359e-02 7.1379275829877575e-03 1.9023341039050073e-01 -2.9324153369500332e-02 -2.6914815120796476e-01 6.0444497464178566e+00 1.4854032585262750e-01 -1.7123200719358758e-02 6.7991177297619276e-02 5.2114556169982090e-02 -5.9244051988171731e-01 1.4403609058729241e-01 -1.7784130449240668e-01 -1.5502205078768000e-01 -8.0427537457776199e-03 -2.5763672608400312e+00 -2.7059911554246652e+00 -2.8067143705831205e-01 3.9968036566818910e-02 5.3611494651636349e-01 2.0535971480899279e-02 -1.7520246227197947e-01 -4.8669563312420372e-01 3.5591696716090738e+01 -3.5538674227279500e+01 9.2358219370251349e-01 -2.6981512276624925e-01 1.1255984536010999e-01 6.3222246305014096e-01 -4.5198502949026742e-01 3.9910416516369812e-03 2.0533056574657904e-01 -1.4588612259829640e+01 -1.0538060704772409e+01 3.0657898853057985e-01 2.1818379884831543e-01 9.9636562820713870e-02 -6.3513218861634080e-02 3.0206296220355744e-01 4.8335899563524476e-01 -6.3880552120753731e-01 5.2318460946619894e-01 -4.5334906547865499e+00 2.3086058195490455e-01 -1.4391175123196465e+00 -1.7592318819789958e+00 -1.8590079410123335e+00 1.3889860848882740e+00 4.3678390530955324e-01 -2.5745270115087333e+00 1.6156817691874579e+01 1.1710820273463995e+01 -7.0266251841552219e-02 -3.1016677585357817e+00 -5.2113163410530756e+00 -6.5861347210387287e+00 1.3329535378797626e+01 3.5918865465592922e+00 -3.9103145381390161e+00 1.7487140416639750e+01 8.4014528219870552e+00 4.1782042468056204e+00 3.0346129748797557e-01 3.8696214250926841e-01 4.7262967893179120e-01 -2.0221110979188328e-02 3.1154451668007441e-02 -5.1373560131754981e-03 -3.6100788027291550e+01 2.0051185141716910e-01 3.8471894353110656e+00 8.5730028853003626e-02 -4.5403901556653636e-02 2.1006344675874367e-02 -1.0326667055432253e+00 -3.0145139424288286e-01 -2.7561067513455217e-02 -1.3679368984358431e+01 -2.4246389437703897e+01 -2.2100564050879385e+00 -8.4871911199613792e-03 8.3847911512398454e-01 4.0145041398610082e-01 1.1771254297742778e-01 3.0327145786188192e-01 3.8564361462342006e-01 1.1872245660748774e+01 -8.4799481033281037e+00 8.0827579250410508e-02 6.3933428160731165e-02 -2.7532972873214590e-01 -2.1621515491728327e-01 -5.3953857109151765e-03 3.0858749898496796e-02 9.2920046465306355e-02 -4.8980222984646389e+00 -1.2003045368954060e+01 -3.4493155527018189e+00 -5.4862010465184596e-01 4.8971194575422361e-01 2.7246246944812897e+00 -1.2328507043433885e+00 -2.6369170837037164e+00 1.6957712791473236e+00 2.7077259134471205e+01 -1.6754101598141450e+01 9.3664934125445853e-02 -1.7532730341674521e-01 1.9448518389707923e+00 3.6088725257093186e+00 -1.1998872448034703e-01 9.5876539537281896e-02 2.0107930650361366e-01 2.3983874685151228e+01 4.0558064549385335e+00 2.3225917433732781e+00 3.9754962907107277e-01 -1.8506560453792531e-01 -1.2792794247079371e+00 -2.2752837928096969e-01 1.6378830124318049e+00 -1.2626071444381382e+00 -5.0492573805281580e+01 -1.6973868152729040e+01 -4.4837820108499473e+00 -9.6233237489947471e-02 -4.4804272048179550e-01 -8.3602720770619365e-01 6.2589405321947877e-01 -4.9402331504403985e-02 -7.4510810207603106e-01 8.2218086965356179e+00 1.0487288104801337e+01 4.7066568861191627e-01 1.1114691708190749e-01 -2.7527476994032440e-01 -7.4929194103944141e-01 -4.0407864015713812e-01 -1.3060405697192135e-01 1.5438714876361628e-03 -3.8044324000412871e+01 -7.0894678567851059e+00 1.2730192640154190e+00 -1.8458170167280845e+00 -2.0894631702533673e+00 -4.5444215367293839e-01 9.2109576169331504e+00 1.6445646829032463e+00 3.5477430037070434e-01 -8.8333210262118200e-01 -7.3045850835631860e+00 4.7791656858067702e-02 6.0594477855854478e-02 4.0197876705877766e-02 2.0147678448507372e-02 1.5251462921436457e-01 4.2856829230697467e-02 -2.7498521004957865e-02 2.6734822224356014e-01 -7.4707287300684202e+00 
      </Row>
      <Row Index="54">
        -1.1134944465733227e+00 1.6239169660160910e+00 1.1568990114350122e+00 -9.5323370504913782e+00 -2.8033550779284781e+02 -5.2081386167811257e+00 -1.1946361354163599e+00 2.7040968959167166e-01 2.7286900336400854e-01 -6.2273074580491228e-01 -3.5151937192678390e-01 -2.8839412252948193e-01 2.3537898154674863e+00 -4.6170822304563863e-01 3.0507767068555940e+00 1.0897342118256139e+00 -1.0172435351594360e+00 1.8758604496710063e+01 -2.9475631083545744e+02 4.9176475197872049e+00 -4.0753245104736868e-01 3.6703575294063473e-01 -5.4319442272437177e+00 5.5764347500635869e-01 5.9009256548182110e-01 -5.6891633840658845e-02 -2.6539413222227946e+01 7.6725728454260422e-01 1.3770889910365467e+00 -2.8030535910097854e-01 1.8487727310764299e+00 1.0738176218530384e+00 6.1778948100592856e+01 -2.5156662405337062e+00 9.5276564847495138e-02 -3.0726960197443987e-01 -4.6111894330998382e-02 1.3972547458999425e+00 -1.1372454505749291e-01 1.3689982664867584e+00 -4.1658096969811567e+00 1.5937077686893319e-01 1.0076409668570920e+00 1.3312470194392769e+00 -1.8900648483913729e-01 -4.2393506097893521e+01 3.4742744834620589e+02 -5.9580945795037978e+00 1.3348571072936264e+00 8.3652385935336349e-01 5.2259316878681072e-01 2.2964954182921388e-01 -2.2634922307434457e-01 2.9669142027601686e-01 6.7432136299816193e+01 -1.5362116415968641e-01 1.3015619589515368e+00 -9.7294079617562046e-01 -3.2385124517953578e-01 2.4890139667934761e+01 -4.7131261423357324e+02 -1.9076795879323185e+00 2.8779629763443604e-01 -5.2393040463287444e-01 4.7912950818142674e-02 6.3453562573405842e-02 5.8070081683706243e-01 1.0780210098362153e-01 -3.1577961390140427e+01 5.6625849714513166e-01 -1.7236285273245013e+01 -1.1379776651112820e+01 -9.2289264328621314e+00 5.2429322891180163e+00 1.6094701862979605e+01 -2.4177799493302189e+01 -4.5893004760137188e+00 -4.3838374872433921e+00 1.5796262623453200e+02 -1.7388157651903458e+02 5.6303835769440688e+01 -1.4151487303140511e+00 1.1262314682494434e+00 -3.6679450934084343e+00 -3.4290352190977638e+00 -5.9777410364630579e-02 8.6382561824154447e-01 -6.1275347206326394e+01 -8.2566826773409232e+01 -3.0492635111781052e+01 1.3472699804090535e+00 3.4148261006329945e+00 -4.8018760344451792e+00 -5.4707744746721563e+00 2.5809356540009940e+00 -4.7654079897858024e+00 -2.0207266864623728e+02 -3.4158182753766658e+02 -1.0335932231031052e+01 1.4758362560057307e+01 5.9901975274842725e+00 -1.1780389668997497e+01 -1.7134062718828890e+01 -1.7408762800548253e+01 -3.7181125372375512e+01 -1.4252451457733179e+02 -1.3692655829220408e+02 3.4530614567572178e+02 8.6553694643921091e+01 -1.1181460649657311e+02 2.2684698165883339e+02 -3.9762911807139608e+02 -8.7509997429720883e+01 7.4955866873744057e+01 -3.3093619768667486e+02 3.4716239344163576e+01 -1.3257171570935361e+02 1.1728769041497566e+01 5.8685271815883617e+01 -6.7066122647235304e+01 1.9084428596794407e+01 6.2421929983734277e+00 5.9436032310278293e+00 -2.4955362329637882e+02 1.0759395180685303e+00 -8.0901652317093067e+00 -2.0182704754243321e+00 3.5981113909738269e+00 1.9347318898262337e+01 1.5142499037223081e+00 1.4551458803574326e+00 3.2871220664076084e+00 -2.1879026796776455e+02 -3.3818216948802228e+02 -1.8414371154321891e+01 4.8498888285149799e-01 -4.4651337964537845e+00 -1.2959077940612422e+00 1.5662403381703660e+00 -1.0241886243107023e+00 7.3245233352429850e-01 -6.3369571979546734e+01 -6.4249733539736184e+01 -1.0641829674873406e+00 -1.5728654694610942e+00 -5.4406157358849896e+00 -2.8394513764510197e+01 -7.7879086464936653e-01 -3.3168133890446594e-02 -8.4717718557845600e-02 1.5300924647042939e+02 1.4045838631041428e+02 -1.5901931835721371e+01 -7.3427056578309258e-01 6.2291599311584784e+00 7.1974626811856446e-01 -9.2159628260217841e-01 -3.7531033622947865e+00 2.8885292264918769e+00 3.4917926070163776e+02 -1.0473026149446153e+02 6.8341875984921671e+01 6.9923117252771672e-02 4.2059679956304041e+00 -2.4543515162488404e+01 -7.1383513941656958e+00 -1.6116495355943752e+00 -5.8377700053463488e-01 -1.1333640316202695e+02 -2.5063934164323200e+01 -4.6008194948138712e+00 1.0573233377315012e+00 -2.6058753016068295e+00 -3.2026153751012316e+00 -2.1178696440429228e+00 1.8180519903127272e+00 -3.1364671733675413e+00 -1.0835846699761520e+02 2.1701066763180324e+02 -5.2627728265856270e+01 -3.9715775538099699e+01 2.4933587632423226e+01 8.4408578246544920e+01 -8.0942057392709103e+01 -1.0754375944172846e+01 8.7422984883093484e+00 -2.0448857484544646e+01 1.3369452003379411e+02 -2.4748781357754069e+01 -1.7543963846092190e+00 1.8801336954098247e+00 -5.2596521614154312e+00 4.9546534440344203e+00 -1.4064879978853666e+00 2.0359126273855283e-01 2.4432247393605576e+02 -2.7864711637127516e+02 2.8547832777260311e+02 1.0863426981573281e+02 -7.3334077350215551e+01 5.6953374617731697e+01 -2.9982358803828407e+02 -6.0819121700231058e+01 1.1353264462383450e+02 -8.2311987550732738e+01 -4.9886299074775032e+01 6.0645685292446294e-01 -7.4202118144029328e-01 -3.3292212967630586e-01 -9.9740150039671094e-01 -6.3130376073029293e-01 1.1926194636028939e+00 5.3354649490529482e-02 -8.2660073601315304e+01 3.5072762683022667e+01 
      </Row>
      <Row Index="55">
        2.4930258421358018e-02 -3.5424333428834853e-01 9.3574669377399666e-02 5.2350462910869311e-01 -2.4035677064733179e+00 4.2510611530631887e-01 -1.1174442075769897e-01 6.2026368113674901e-02 8.7046038639396572e-01 1.3568822053558506e-02 9.5078738708733984e-02 -5.6184367404065738e-02 -1.8931802391852104e-01 -4.0303872070122641e-02 -2.8931752114652437e-01 2.7039996782441639e-01 4.0815417688093283e-02 2.9360626505947742e+00 2.5015498087730492e-01 -1.1045294957579328e+00 1.3731826110127571e-01 -2.3804668876793261e-02 -1.3695887260696366e-01 6.1164575177801661e-02 -1.1411058036444649e-01 8.3778457514340432e-02 5.9092882223350962e-01 6.5526534704817885e-01 1.2390073182137577e-04 -4.8503582849209526e-02 5.2954901553598055e-02 8.3939728638432243e-02 -8.2740405764488756e-01 1.3067394142024302e-01 6.0026365304676421e-02 -2.0654421861600047e-03 4.0755185226928781e-02 -1.2048296373954998e-01 -8.0006895898659201e-03 1.2568481956463928e-04 1.5782071284586507e-01 2.8486309177247569e-02 1.2775969216312910e-02 4.2568671365009587e-02 6.0446991617817199e-02 -8.0226728186667096e-01 -2.2746693925745642e+00 3.2252134942384617e-02 8.5425286975459425e-02 5.9997434432255581e-02 -2.3111490551253605e-01 3.1107228997683756e-02 -7.7070915568434234e-02 -1.8467032873838034e-02 -1.5362116556302219e-01 3.0231676591647333e-01 -9.4412167342079634e-02 3.8169126239185841e-01 1.4457205363759018e-01 1.1890518177424605e+00 -1.0302201340461229e+01 -5.3596750806625526e-01 1.5530424246762348e-01 -2.8890633140973412e-02 -4.8307027538461927e-01 1.5081014115132330e-01 -2.0945648726012267e-01 8.0207549922850868e-02 2.1543074080415636e-01 2.7562665090675098e-01 -7.1693711430517508e+00 1.1665941569612537e+00 3.7641467609387719e-02 1.5250164226009488e-01 -4.7144631458341379e-01 1.0411658704217060e-01 -3.3200624376017562e-02 1.1470319404222989e-01 7.7709392874169971e+00 2.7123080690233930e+01 -1.5855952982477519e+00 1.3245953781814720e-01 1.5831038185806179e-01 -2.4930171707658388e-01 1.1339419818943680e-02 1.6232449382560032e-01 1.2444842450722565e-01 -2.2819204505202588e+00 -6.8046017820503781e+00 -8.5084652598660007e-02 -4.5840421566888834e-02 2.8239692063284583e-02 3.2386624965374022e-01 6.4448504398012185e-01 -1.8453385287666502e-01 4.7079077167465622e-01 -8.0523094302826905e+00 3.1462056179905615e+00 3.5491603962480394e+00 2.9942485255807261e-01 1.5098437790489365e+00 4.1783511701603695e+00 -1.3817873806699528e+00 -4.8818865447470328e-01 -4.9477023707286272e-01 -1.1561942385642450e+01 -1.1046453351717062e+01 -4.6815837540827623e+00 5.7150119220888920e+00 7.5743688671725238e+00 3.9792562719094602e+00 -1.0033787216540277e+01 -4.9727262712817009e+00 3.6187575344040335e+00 -6.0919260541501785e-01 1.4291927609440640e+01 -6.4909735031832838e-02 -9.2263710603508942e-01 2.9113070625818027e-02 -3.0780399434749617e+00 -3.4365754422659756e-01 2.9835939707181436e-01 -4.1295361868649139e-01 -1.4179223983559652e+01 1.2602157055157956e+01 -1.5712525919829829e+00 1.8783692380879291e-01 -2.5450358577036525e-01 -1.5511858716562843e-01 -1.2334842230660906e-01 -4.6455196282710737e-01 3.6858523068944271e-02 -5.3818008450840411e+00 2.8904890554288517e+01 -8.2622954959591188e-01 2.7982454010796801e-02 1.5450140671595758e-01 -2.0159888809884452e-01 3.3775419408167195e-02 -6.0522236796563100e-02 2.3004623304047463e-02 1.3140538172947984e+01 -1.4097346459701550e+01 -9.0933424008637331e-01 4.1182845355164560e-01 2.4397397162901768e-01 4.5389280173676255e-01 -1.5767237019670688e-01 -2.6176965161150095e-01 6.8087215224765754e-02 1.3009734463680815e+01 1.5252822455106795e+01 5.6232044105196621e-01 3.5103148539886303e-02 -1.6204942021313012e-01 -1.1160612808452064e-01 5.5909986229651587e-01 5.4598380609117009e-02 -9.8431392055345734e-02 5.3023885412721938e-01 2.1303850319155217e+01 -2.2431213559893584e+00 -2.3025900535596222e-01 -2.4374469883464922e-02 -2.5552032285202246e+00 4.8877942194336388e-02 1.3908098207161468e-01 1.3136395159943159e-01 -3.4059122574062712e+00 -9.1399168832647462e+00 -4.9736909883314517e-01 -1.5189727863701187e-03 1.3677056396501008e-01 -1.3629912351322915e-01 -1.5391059024673559e-01 5.2803191145366801e-02 8.7179734552805643e-02 7.5612267284803885e+00 2.9031866898138453e+01 -5.1939284706876643e-01 7.3592691940419197e-01 -2.5845884009800768e-01 -3.2761599863225310e-01 2.2650695209869021e-01 -2.6850154902289597e-01 1.6869892654778551e+00 2.7796871298111967e+01 4.0760148076119549e+00 -1.3050886648213833e+00 -6.9256790850207606e-01 -8.5287531117076654e-02 9.1446374953365428e-01 7.5571544798062007e-01 8.0161807118470985e-01 6.2642172261006157e-02 1.7008494491910824e+01 2.4869335606752969e+00 -8.3985326007514267e+00 4.0037943389638952e+00 6.0255728046179806e+00 -4.1647076974219175e+00 -9.2993590125180354e+00 -3.7656953506593966e+00 1.9577685283424626e+00 -9.0315873790962655e+00 1.5614845776827626e+00 -1.3595778667940078e-01 -1.4517274352487597e-01 1.4195247155852442e-01 -1.2288749728546555e-01 -1.1444740776845541e-01 5.1084687469906118e-02 2.8137785788349490e-01 6.8804603831254840e-01 1.1946278342915793e+00 
      </Row>
      <Row Index="56">
        -1.0562103338387467e+00 -8.7251565263828712e-02 -7.6573732810111039e-02 8.5152944953392762e-02 1.9798092641792437e+01 -1.7227572450793222e-01 -1.4713209413985773e-01 -2.7062790787439539e-01 5.0888573551282179e-01 7.1990830379329934e-02 7.3233831408906380e-02 -1.0712948235652142e-01 -4.4963790051081531e-01 1.5634743684975805e-01 2.4272946596006401e-01 -3.0039372274429849e-01 -1.1176500740708345e-01 -1.0216141665442251e+00 -3.1337185049188474e+01 7.6463409855166331e-01 -1.5002050869647170e-02 4.2834664996610849e-01 -5.0562231840336136e-01 -1.3027518060758006e-01 3.5337542218228202e-01 9.7133911105245191e-02 4.8968933822118577e-01 -7.7342462591358929e-01 6.1661480740382774e-02 -1.7045128246964936e-01 -1.7408500094574109e-01 -6.0317377309337417e-01 2.4378427179951530e+00 1.9083540320129977e-01 -3.6181208803542475e-02 -6.6052182571860740e-02 2.4098752349853925e-02 -5.8511381442655552e-02 2.8074225824837581e-02 -5.9044426383447979e-02 -6.6275860486842930e-01 -3.2446489682849577e-02 2.7530990334282168e-01 -5.8702883994733668e-02 -9.2291930384767198e-02 -5.7019749748729964e-01 3.0576067678271261e+01 -3.1373807548229060e-01 -2.2201325837432104e-02 1.5109983752090519e-01 -8.2680834193546590e-02 -2.3367753769770377e-02 2.4450511739656833e-01 7.1379282056096040e-03 1.3015619551386521e+00 -9.4412167752991355e-02 1.2791308210259951e+00 5.0320677865911323e-02 1.2224256532038663e-01 -1.2260621948555723e+00 9.2136176657500215e+00 1.0341979060931983e-01 1.4691543441524746e-01 4.2076372296506170e-01 -4.0803456339797350e-01 4.5338354124107139e-02 3.7419897286854087e-01 1.3651507615259709e-01 8.1827981193262311e-01 -2.6771118577601793e-01 1.8887494274036150e+01 5.5789447495431252e+00 1.0530340772156730e+00 7.5031629263173727e-01 1.0834402721404217e+00 1.7706819508351308e+00 5.2977328864280193e-01 4.5035725475218963e-01 3.9479334144257926e+01 -1.6811601482046946e+01 -2.1751458549202534e+00 -5.5394331331801272e-02 4.1117040335308275e-01 -4.9622266252458758e-01 1.3562722016118645e-01 5.0654054646944113e-01 5.2363561396142533e-01 -4.7264927012481124e+01 4.0018123504455531e+01 -1.8410444533792308e+01 1.2412869160051465e-02 1.7249536558356482e-01 1.8498878776084284e+00 2.1016617750204269e+00 -4.1415676868932338e-01 7.9909289259148020e-01 -1.0123621719037857e+01 2.7533714508979486e+01 -3.8052547104650660e+00 2.4039915370029341e+00 -1.9228704517424076e+00 -1.3009072877569352e+01 -1.5201648175442524e+00 -2.1652034011466972e+00 -7.7822298165233361e-01 2.2886325562390958e+01 -3.4147775106666330e+01 1.1954819391219473e+01 8.4504164181709953e+00 -2.5499585198763697e+01 -1.6683120676868487e+01 4.7940878903347217e+00 -2.7958429692080911e+00 9.2517584297283229e+00 -4.9687405377521259e+00 -7.0423382201945532e+00 -1.1089085349642687e+01 -2.3217765497731868e-01 -1.2551812972920651e-01 1.5237042976696586e+00 6.6209026387662706e-01 -9.3206858155148087e-01 -3.2824981238851769e-01 1.6315145945809320e+01 -2.8624463895826807e+01 -5.4811349811802756e-01 1.6314423670506617e-02 -9.2666133876946333e-01 2.3609389869607611e-01 -8.4489677903467963e-01 4.9671548773851026e-01 5.3182415993298982e-01 1.4010362596788932e+01 -6.5739133980911390e+01 7.1890656076357118e-01 -7.2286800515721761e-01 -2.7354371182170212e-01 5.9609435798031074e-01 -7.4311104999076460e-01 -3.7233567719268268e-01 -2.2242056611271524e-01 1.9917542924179553e+01 5.4209241803063364e+00 2.3017226706474503e-01 3.5608619697630567e-01 2.9360237231708197e-01 8.6330792603080253e-01 -2.0152520464580448e-01 9.7124098114696145e-01 2.4169983671101089e-01 -3.9031004746357212e-01 -1.7106103953493164e+00 2.1035259120640148e+00 -1.1301153470844233e-02 -7.5155966283791908e-01 -3.8734394517426995e-01 1.4825319878723531e-01 -9.1810997097643232e-02 1.4472898239367232e-01 1.1054017247897718e+00 -4.5903090853410752e+01 1.7397730835867287e+00 -4.2159750164153592e-01 -1.7289526019424031e+00 2.2480621604907141e+00 -2.4602134724035096e-01 5.0382808701813886e-01 6.7406365753584685e-01 -1.5250544956929190e+01 1.0825038558278266e+01 -2.0157607547106386e+00 -2.5334522832848677e-02 4.0853703217021575e-01 8.9489681188609893e-01 3.1725936883144001e-01 -2.3249153958440205e-01 -3.5231202990036209e-01 -1.1485639310703238e+01 -1.1628134944798684e+02 3.6542124804888134e+00 2.0296641751990219e-01 3.0023664796163096e+00 3.2224233119770909e+00 -1.6704618318698923e+00 8.7902956742247884e-01 2.8317078161976612e+00 2.4707134297730278e+01 -3.8266566561303989e+01 -7.0683633990029193e-01 5.7616375404547071e-01 1.3960671485633611e+00 -3.9298821331296097e-01 -1.6779299708301210e-01 -1.1444484353678108e+00 -1.5484030037695218e-01 2.5091343549647718e+00 -4.8514943823970512e+01 2.5897098915834746e+01 6.8359902665308985e+00 -2.6836075600375054e+01 -4.6660367178570539e+00 6.8886014307592518e+00 -7.6899314131550911e-01 6.7378775482119799e+00 -1.1898285592144475e+01 3.1711663057973986e+01 1.7311978988620341e-01 1.3852443356266519e-01 1.1079813705532962e-01 7.0513699999592216e-01 -1.0447284911830756e-01 -1.0837474285548654e-01 -7.6838837314053876e-01 8.4763753724278708e+00 2.2076000109324305e+01 
      </Row>
      <Row Index="57">
        3.5366259070381945e-01 -9.4695373115606376e+00 8.0632088020774262e-01 3.9174227753561581e+00 -3.1840376561148105e+01 -1.1184720181684773e+00 1.5206484930770259e-01 -8.9035873092694828e-01 3.5312472012960212e+00 -4.1684678986537149e-01 6.0096566874884338e-01 4.4715983618577404e-01 -3.5549020679220433e-01 -2.9981943287738966e-01 -1.3161353776258378e-02 -1.0070269411420816e+00 -1.2361825706268512e+00 1.6323902707882780e+00 -1.0170207604950581e+02 -7.0466087351763020e+00 1.7340679750761894e+00 -8.3474682303773751e-02 -3.7048652128357967e-01 6.6972367219816187e-01 -1.7298461362589459e+00 1.3680040097209756e-01 2.0910006264663199e+00 2.0253767289916800e+00 1.0525304095266273e-02 -2.2155779367352011e+00 5.4698434681912289e-01 4.8959644915146328e-01 1.5215249009916533e+01 -6.0606942413887310e-02 2.4704946383382875e-01 9.2830097218538299e-02 8.0794681810878899e-02 -3.0408070492252215e-01 1.3856882597660804e-02 -3.7899732128254371e-02 1.8767508104019726e-02 3.1414787479278061e-03 5.6012098911828645e-01 -1.9709807020785490e+00 -2.0849914437018233e-01 5.0194101192441849e+00 2.8616295438500302e+01 9.7087930509854703e-01 -3.2101812906427213e-01 -9.8613711379692304e-01 -1.7739380055508064e-01 -1.2684521486841877e-01 -2.1819051944327086e-01 1.9023340925259413e-01 -9.7294076280576292e-01 3.8169126364968731e-01 5.0320681403346113e-02 8.9315228330249070e+00 -3.6846665195569106e-01 -4.4016856976021188e+00 -5.8919180615051047e+01 6.2607275920133298e-01 -1.4585025306078392e-01 5.5206641688253200e-01 -2.1020955143437980e+00 5.9676579044492167e-02 -1.3069631383530318e+00 1.9279327502963303e-01 8.0243698806975916e-01 8.0384488721074132e-01 -4.8492319396532508e+01 5.5500665242955591e+00 -3.4159085591483862e-01 1.5899105230417945e+00 1.1877815629034103e+00 1.6501037245767467e+00 1.3094500865423335e+00 5.9014387855187400e-01 6.5624551872392090e+01 8.2687448732223942e+01 -7.8648645062359135e+00 3.6588960614063031e+00 7.3503388946156178e+00 -7.5637833819139360e+00 -1.0813235389558276e+00 4.9694460809735093e+00 3.3922582501990552e+00 1.6285918135295589e+01 -6.7548989425676567e+01 -3.3198987143403656e+01 3.7919155670437632e-01 -2.2530102561782983e+00 4.3822531606037192e+00 -7.5689801095618643e+00 -4.4111203009161093e-01 1.7742295792101231e-01 -7.9001666836958293e+00 1.5451221117932386e+02 1.5320089832902362e+01 -2.6406921472030191e+00 -4.3658932593345279e+00 -5.6385514871735962e+00 2.9545301740401220e+00 1.1342448634963054e+00 -3.6689821746632356e+00 3.1757885311996354e+01 1.6604979910082403e+02 2.9578117276052765e+01 -2.1240908840449642e+01 -9.1642333201239751e+01 -2.0808720751175812e+01 5.6511888088875537e+01 -5.4981709810566876e+01 -1.3279736402197337e+01 5.0279724558844805e+01 5.3579978929772395e+01 -2.6967155403135621e+00 1.8715272225738935e+00 1.7534003121667610e+00 -2.8187793754615122e+01 2.4754810832609233e+00 1.2491019758971147e-01 -1.6286127290065000e-01 -6.5776764527303371e+00 5.6599520159561891e+01 -1.3855183671086706e+01 -2.9514996793045922e+00 -1.8446367573424141e+00 -2.0960757443537261e+00 1.4938989146835726e+00 -1.1927835205086110e+00 -2.3174759430081773e+00 1.4028453145777238e+01 1.4105781041768395e+01 -5.5357612202572177e+00 8.3744148967559895e-01 6.1367837604251463e-02 -1.7419427860580772e+00 -9.5471661055924728e-01 1.0602649041628136e+00 7.1682276442245163e-01 -3.7716087700815137e+00 -6.9159950861847392e+01 -4.6270511595607786e+00 2.1248045710493728e+00 1.2637848396127538e-01 5.9587511231934964e-01 -1.8678645650990688e-01 6.6500553548766717e-01 1.2833800429358300e+00 2.1906574922405525e+01 8.4335686061107396e+01 -2.4224355069964076e-01 8.4187453820397606e-02 -2.2663895403170580e+00 2.4722133965325535e+00 1.1498391303748203e+00 -9.2957519428119761e-01 -5.2091508946934517e-01 1.0277589246470598e-02 6.3586378752594200e+01 -1.7061628034150882e+01 7.2550131078697611e-01 7.6285016838874640e+00 -3.4081679474530091e+00 3.4043788517130480e-01 2.6130752924801199e+00 2.3336053031163586e+00 9.2710735840834445e+01 -5.0154908566794802e+01 6.0493924112924198e+00 3.1758504922407726e-02 -5.4185716941316286e-01 1.6171404089349153e+00 1.9206490858015002e-01 7.1802371435358847e-01 -1.0931242606957525e-01 -2.5923786972055012e+01 1.0308855189510791e+02 -6.1937498191048306e+00 2.4038303875172997e+00 -1.5071616651037232e+00 -4.0785607773960120e+00 1.1135845272805085e+00 2.3428145668631544e+00 3.9943821677198201e+00 3.0492448861034426e+01 5.2447576242309879e+01 4.2140488082281991e+00 -1.0257530955557286e+00 2.7870569900841247e-01 -1.1512374554994835e+00 2.9507068665902807e+00 2.8140850999282883e+00 -6.7998067520508543e-01 -6.2389931859564967e+01 4.4128045037815696e+01 4.3960087850352636e+01 -1.7772239964532318e+01 -7.9531938667578856e+01 -4.4748962848233333e+01 6.4221044265694673e+01 -5.3043799796700803e+01 -1.2195917121960351e+01 -1.4361485371625349e+01 -2.8228586128472951e+01 -1.5199685383589423e+00 -4.8279120276308163e-01 2.1806918485639104e-01 8.3223295958729682e-01 -2.7444282581892354e-01 -4.2080297581312304e-01 1.0542231320369524e+00 6.6420339393001582e+00 -3.6645233900657765e+01 
      </Row>
      <Row Index="58">
        -3.1850885658521860e-01 3.6626304188573700e-01 -7.8092575527921504e-01 2.3175821049563865e+00 4.2227483523241517e+01 8.0460649105327042e-01 -2.6193115514022214e-01 4.6691160338201598e-01 1.0231648803504678e+00 -8.0107635440194003e-02 -1.4225993902121142e-01 -1.8007570981049881e-02 -3.0972471237864241e-01 -2.6213386064851078e-02 -9.4722623108690263e-01 4.9929135529481150e-01 1.6902733908765053e+00 2.7455808097199395e+00 -3.2134481693721398e+01 -1.7389830880931572e+00 1.0669106988567501e-01 -3.3338814110840553e-02 -6.1006627441843320e-01 5.8579428753977392e-01 2.5242233744172782e-01 5.5617811020630237e-02 2.6709802176268438e-01 1.2505253236051792e-01 -2.1437045026839741e-03 -1.1622971493536483e-01 -8.6606938776427533e-01 -6.9213982780269134e-02 -9.8640031650434707e+00 4.5952054789664887e-01 3.1795476448614579e-02 2.0091785616802582e-02 1.4213544195362005e-01 -4.0678511372645854e-01 -6.1809732350376193e-02 4.6190270160491265e-02 3.0429994822226547e-01 3.9880369429348250e-02 5.1655727396996698e-02 -2.2676348604441898e-02 5.0878438285061611e-01 -4.9166567045952547e+00 -1.9986847992671628e+01 -4.8250514892725566e-01 1.5828206664208311e-01 2.6916639843732004e-01 -5.0793149320880671e-01 -3.7955073140669149e-02 -1.1549384001696894e-01 -2.9324152560615713e-02 -3.2385125483054367e-01 1.4457205320774610e-01 1.2224256824997581e-01 -3.6846665948217616e-01 4.5310458264101170e+00 4.4332320309470674e-01 3.3923757792579394e+00 -1.1510893604522261e+00 3.8950303047634582e-01 -1.9430937765460771e-01 -7.7300092390010133e-01 7.0030031396162862e-01 1.3303304808465818e-01 1.3677453856746585e-01 7.2738110979533155e-01 1.6702869853531421e-02 1.6266005610700184e+01 -1.2875605277535556e+00 1.1969531673853708e+00 -5.6440810517636919e-01 -3.3707507702501971e-01 1.2638718066311649e+00 3.6967314873021762e-01 8.9686021096838708e-01 -3.4208982950150357e-01 6.4762527493198832e+00 -6.1587678792612044e+00 1.4778056398466899e-01 -7.8282296285047437e-01 1.5409784732844400e-01 1.3641620868532258e+00 -2.7254582363272783e-01 1.9330064375923239e-01 2.4892913073091961e+01 4.6786099020201611e+01 -5.1036645277404673e+01 -2.5111987506324716e+00 5.8827783553140556e-01 9.7405689678225116e+00 3.9742198968105704e+00 -6.3463277634511206e+00 1.2006895143874759e+01 5.1515913467743076e+01 -1.5387014169629083e+00 1.1328424300333189e+01 4.7610436522664159e+00 1.3370978173686515e+01 1.8052741958956272e+01 -1.0815676327745365e+01 -1.1806928054544377e+01 9.6241580017466255e+00 -5.3622123505766169e+01 4.0713649809473054e+01 -1.9414843185711760e+01 1.4650129914592945e+01 7.1656733272607624e+01 2.5527680745183744e+01 -4.7865976730708248e+01 -4.3092792512761868e+01 1.8437413468416047e+01 4.3603471504246158e+00 1.3998190809193974e+02 -4.0048165520560133e+00 -2.1260732200173917e+00 -2.5084932320776012e+00 -4.7743703412488738e+00 2.1026287280797185e-01 4.7576805779993236e-01 -1.8705395371581415e+00 -7.2609192561408420e+01 1.0703766546804161e-01 -7.1159266192341875e-01 6.2276052537886706e-02 -9.5722426690372231e-02 -5.0471198122596839e-01 9.9131874753334115e-01 2.5890206801842475e-01 5.0061996266178455e-01 1.5040969411282600e+01 -9.8291597298343930e+01 2.5445035895355543e+00 -5.5259326588175317e-01 8.4810012725717598e-01 7.0103862294633723e-01 -9.8206648140238695e-01 -4.9187221979205353e-01 -4.0266956282840183e-01 3.1805382346367594e+01 -1.0537974390664947e+02 1.3088717557877771e+00 4.7265297732504002e-01 4.3545456084405032e-01 2.5143267364148327e+00 2.1042345518741001e-01 4.5221929152702339e-01 1.0895052595789909e-01 3.0673018789576872e+01 3.0672951765173831e+01 3.6009064082327313e+00 -1.8473396634390737e-02 1.2972284786120714e-01 6.4895803694479426e-01 2.0273945419014323e+00 -1.7775564785078934e-01 5.1816436132279686e-01 4.0971171216609946e+01 -1.8683171163288154e+01 -5.8937825664056760e+00 2.6220176875009771e-01 -2.7642270396551556e+00 2.6640416629468149e+00 9.5391742928649492e-01 4.3339879719742902e-01 2.2096460110767979e-01 4.5350694156729105e+01 -3.7004456304996438e+00 -3.5722797937670991e+00 2.1202204517987278e-01 4.1243113103828932e-01 -4.1976272789321456e-01 -1.5138708034498034e+00 1.5798222899272663e-01 -2.8451787957238900e-01 -5.9334950280889352e+01 -4.0870539075997215e+01 -1.4332079627084848e+00 7.2233240414040500e-01 -7.1869873326576617e-01 -7.4708367366906181e-01 1.3245724678489736e+00 1.3437253488733036e-01 1.2809290169520038e-02 3.0759416915613244e+01 7.5870761162586859e+00 5.8870262515802096e-01 -4.6219785353174636e-01 -2.2072048784009723e-01 8.0429432815002144e-02 4.2195851353864100e-01 1.4435232772890005e-01 2.9460341591628900e-02 2.5748872667107207e+01 8.2446318878185139e+00 2.1507365737535679e+01 1.0393945838104447e+01 5.3281902912104442e+01 -1.5675037399934126e+00 -3.9328967249889786e+01 -2.3814614854056046e+01 -3.7455574239106575e+00 -3.7509229033373231e+01 7.7283825113696967e+00 -8.3287207183158429e-01 -4.0595553441306720e-02 4.6959248725908198e-01 2.8092527014876301e-01 -2.1178969905773326e-01 2.2706459611005292e-01 -2.3286442379756522e-01 -7.4201945537814513e+00 1.4451573641111612e+01 
      </Row>
      <Row Index="59">
        -2.8542769983437299e-02 7.9606622294359006e+00 6.5792012294045321e-01 -1.5905941581582283e+01 4.6593646317336265e+02 7.5754325196146457e+00 -2.9402385215763438e+00 2.9391769489362467e+00 -6.2419150505751695e+00 -5.6255174057909252e-01 -8.2997142322206385e-01 -1.1248478096039136e+00 6.3342388839051722e+00 1.4683465177639801e-01 -1.4984096568978706e+00 7.2704350769431008e+00 8.2899422102436870e-01 1.2300234307610276e+02 -3.0072587815435026e+02 -2.8680725354117853e+00 -5.3099670751289474e-01 9.3576695472069138e-01 2.2144569204715117e+00 2.7731458378545590e+00 1.0611479508934285e+00 1.1155249896545667e+00 3.1780258510596853e+00 3.5222588050792640e+00 6.2828385645772755e-02 5.6688378699800523e-01 1.3357228238472985e+00 4.9659532525462851e+00 1.6384104061748872e+01 1.4771289241348136e+00 -6.1175196997611891e-01 -3.0599566885696561e-01 -1.5837301682606153e-01 -7.9485724144387970e-01 -8.3167623635561433e-02 9.6452151346545723e-01 2.6328554245486657e-01 3.2148262924660242e-01 -3.3272298315332703e-02 1.4777042702055212e+00 -7.4028154553668624e-01 -5.7006655281169742e+01 4.1503301903663782e+02 8.7633573164404333e-01 8.7460774644973416e-01 4.4865687183829533e-01 -6.3676456136223347e+00 -1.0898349735005319e+00 -7.6742056135460324e-01 -2.6914813863151427e-01 2.4890139386597980e+01 1.1890518129681289e+00 -1.2260622113484039e+00 -4.4016857477089140e+00 4.4332319890839833e-01 1.6786247873988546e+02 -6.0445120656879226e+01 -1.7513646032665298e+00 3.0655873168273997e+00 -2.5102090101733929e+00 1.2544149418580166e+00 1.5128096729864535e+00 3.1059203958306369e-01 1.2403144968894522e+00 -1.5251413843005755e+01 1.3048747049777987e+00 -2.1693234313397078e+01 3.3387671469053927e+01 -1.1167527540428281e+00 -3.2669355350376463e+00 9.3890839750054056e+00 -3.2845358538506673e+01 3.2732072145281521e-01 4.1200351673096360e+00 4.0914371475750954e+02 8.7266386296527401e+00 9.0703383937610482e+01 -4.1538035323475508e+00 -8.6982964099855735e+00 1.6485083891837803e+01 1.5587242340767915e-02 -3.6460337024222191e+00 -3.1815106873013361e+00 -3.1704619614880687e+02 -5.9105303352747413e+01 5.6112896079884740e+02 1.3212762817310264e+00 -3.5556104698353863e-01 -6.0138728210776407e+00 -1.3890341527908021e+01 1.0318062718529717e+00 1.5382069321862559e+00 -1.3897803942429073e+02 -5.1970590786576986e+02 -2.1954764692284849e+02 -3.0253905696971032e+01 -4.4900873257940582e+01 -1.5189276220605694e+02 5.6782089575348522e+01 1.5722295009971188e+02 -1.2425774338087820e+02 6.4647225908695447e+01 -8.5840415686478559e+02 7.3994120049062047e+01 3.5333076247254456e+02 1.0712697791413161e+03 4.5550074700659627e+02 -6.0480945955102857e+02 -1.3259376569669568e+01 2.5862674271177889e+02 -4.5636197493563554e+02 1.5984245257575921e+02 -2.5032250686207226e+02 -1.0292906399395024e+01 -4.4086273775784605e+01 5.8707426498484544e+01 4.4370697829963248e+00 8.4351677950712123e+00 -1.6066053204481090e+00 -2.3200367766808768e+02 4.9237423073892174e+01 3.1905146301960485e-01 1.1349834061776676e+00 1.0511162830975536e+01 3.8704491594761947e+00 1.5742472463810367e+01 5.7127992876361056e-01 5.2822396966450516e+00 -5.9874661983974192e+01 8.7229587424011271e+01 -3.3254335531248586e+01 -1.3647388939789513e+00 1.3956742210111486e+00 8.0534888343623976e+00 9.1973514619723460e+00 -1.7098654053840567e+00 -1.6964977003540325e+00 -1.8578528062474220e+01 -1.3684336373849797e+02 2.4194359425778202e+01 -4.1749648713847991e+00 3.6099717648883143e+00 3.8918329244207712e+01 2.9699286042129245e+00 -4.5521791201856940e+00 -4.4345721996538243e+00 3.0335235065913093e+02 1.2073577443180267e+02 6.8993247802227415e+00 -1.2015814824266813e+00 -4.4091904270350870e+00 2.9709389701358324e+00 3.7305159997130950e+00 -2.2431755723475213e+00 1.7482984071886021e+00 4.3970592055812449e+02 7.8760477336009984e+01 1.5088064032073063e+02 -5.3578754151859087e-02 7.6040149890907305e-01 1.9781462946601835e+01 2.3595874326599073e+00 2.5048061663310301e+00 4.9026544233311448e-01 -3.5242024168908938e+02 -2.9584582077705818e+01 -4.0103928408542160e+01 1.3916328817536514e+00 2.9490929309986313e+00 -6.1021635529007199e+00 -5.0256044227024006e+00 2.6661085955019250e+00 -1.8640799288743057e+00 -1.4007335369894611e+02 3.2436055144606956e+02 -1.5245364909254732e+01 -1.7801670766957510e+01 1.7489857985401628e+01 8.7801894077865370e+00 -3.3604952312813708e+01 9.3351878194441795e-01 2.9020562933330510e+01 7.6231122646725453e+01 1.1671779973377852e+02 -1.1319820158477523e+02 -5.3885629723713677e+00 5.6778832564980917e+00 -1.1332445118589476e+00 1.4618148721136777e+00 1.9422540403725534e+00 5.5567091608524599e-01 8.9283139854919500e+02 -4.1660669326714606e+02 -4.4861787275934353e+02 3.7905049569185104e+02 1.0599848531628920e+03 7.1774933233400725e+02 -6.1768113530032269e+02 -1.7204992316830376e+02 3.4980262177956172e+02 -2.2127062588959052e+02 -5.9919877186543644e+01 1.0840455406408797e+01 -1.9449332265866985e+00 -2.5703795662077935e+00 -5.2769798883630123e+00 -1.6414615780793795e+00 1.0033083111197636e+00 -3.2933965896779682e-01 -1.0041837401674263e+02 5.4678248069493371e+01 
      </Row>
      <Row Index="60">
        -2.1718700081551717e+01 4.2129551876195848e+01 -3.0201472619094911e+01 6.5173666199498825e+01 9.2638520629190371e+03 1.0617449536920951e+02 -2.4130814297634764e+01 6.6698244190041063e+00 -4.8468853067033756e+01 -1.0324282923165971e+01 1.3493260617372531e+00 -4.4977760096400612e+00 -1.0924398295031540e+02 9.9610643655209774e+00 -2.2984350885703314e+01 -2.6900058861496987e+01 2.9651331039306420e+01 -1.2754294653088209e+02 6.2115542568449300e+03 7.3069902980554900e+01 3.1946187176618928e+00 1.6733568346797188e+01 2.9868268395804392e+02 2.1440235030447528e+00 4.1669565011453585e+01 -9.0553305246867399e+00 2.4962296078890080e+02 -4.4441146469806611e+01 -1.1463096355388952e+01 2.3306939952748124e+01 -3.1144208163871561e+01 5.8021277529333986e+01 -2.1924171074618248e+03 7.8501073734460988e+01 -1.7045240782854265e+01 3.1376630856798009e+00 8.6233320624800527e+00 -1.9821405025157169e+01 3.5194140104022082e+00 -1.1936482864061889e+01 8.0989402684272989e+00 -1.9777307756619116e+00 -1.7245670411763097e+01 -6.5151397248751977e+00 -1.6281297962372868e+01 5.1685659681266475e+02 -7.5403624021614432e+03 1.9740244869477456e+02 -1.1885844237949739e+01 -1.3887216909847112e+01 6.2288173319356543e+00 -2.3728983213550457e+01 1.6472203093371434e+01 6.0444496864716672e+00 -4.7131260977436654e+02 -1.0302201247017083e+01 9.2136171927065416e+00 -5.8919178394114383e+01 3.3923753762044750e+00 -6.0445124115344612e+01 5.3559280847321992e+04 1.4923953697693020e+02 2.2338083405169634e+01 -9.5287894904062629e+00 1.2430296416018513e+02 6.1483248486550721e+00 3.2827534103145581e+01 2.3066636269566715e+01 3.2077773665195951e+02 -2.8269891448417525e+01 3.6095543613577574e+03 5.4637858541585103e+02 8.0005069706073144e+01 -6.7328777404855259e+01 1.8009742602135407e+02 1.6631363056187706e+02 5.5487530306650761e+01 6.9448737237163527e+01 9.6001538030217125e+02 -1.5132791396113125e+03 -1.1226979657915447e+03 -2.3761027839495377e+01 -3.9040816034444504e+01 5.8724965025901861e+02 3.4643023882812543e+00 -3.2174618387147589e+01 -7.9353761099062980e+00 -2.7373346816655835e+03 3.9594001253336346e+03 -4.1618982062823643e+03 -1.8501464699897486e+01 -4.5125629836296923e+00 -1.3537172050892320e+02 5.3195608666645808e+02 -5.6277100378554486e+01 7.9280038105141443e+01 1.4978260965639631e+04 -1.1225771519316351e+04 -1.4075014111388768e+03 -4.2232519780552849e+02 -1.4746434127151105e+01 -3.7298050030572549e+03 4.9607680771133653e+02 -2.1277540399901648e+02 1.5665408596532252e+03 8.5815640655462175e+00 3.1167467361816023e+04 3.5667176773295214e+04 -1.1417972615931587e+04 1.7440619688320130e+03 7.3083860818745714e+04 1.5495738090995026e+04 -1.4692250183828653e+03 -8.4188963299568768e+03 1.7191004210882060e+04 2.2074820237649810e+03 4.6088914545433618e+03 -3.8690956349234034e+02 -1.9418596589950253e+03 5.6516828847588167e+03 -4.3150026518311921e+02 -2.0196053944106578e+02 -2.5478743685799623e+02 2.4747338859280848e+04 -1.6786968714097229e+03 6.8396146931869225e+02 -3.7035801182287031e+01 -5.9289609424725313e+01 -2.2365366138655872e+02 -7.9360516599904543e+00 3.1499236222669317e+01 -4.5273609365643374e+01 1.6660318699385349e+04 -7.1029144465863965e+02 1.7215915836165399e+02 -1.9199363231144417e+01 6.1706729140510134e+01 3.2090249380264083e+02 -2.3144667055246565e+01 -1.2097644801493118e+01 -9.3851470763237757e+00 5.3875971292737768e+02 1.2529242307011232e+03 3.5167534879979303e+02 1.4676110443582459e+01 -8.9080951341281434e+01 1.5935978353871546e+03 2.4202278413971101e+01 1.0429051689374774e+01 -2.3943853525455285e+00 -9.4444897131236321e+03 -2.0590773220858400e+03 2.5551559067980406e+02 8.5169038467910241e-01 -1.0619235554083618e+02 1.9555004733782820e+02 5.4216711244706062e+01 -3.2287202685370474e+01 2.5054291303144069e+01 -1.4860589182141726e+04 -2.2066753865211053e+03 -7.4055438605752568e+02 -3.1994920575521689e+01 2.3988744537232731e+02 1.6250716223561144e+03 1.8719166484875366e+01 1.6707852752820589e+00 3.2246468852761481e+01 8.5625451470047192e+03 1.4694808642110597e+03 7.0977086397837297e+01 -6.3298227913552445e+00 6.1959485846695259e+01 -5.8307442020950930e+01 -4.1181549633513619e+00 1.2811041345401261e+01 -2.7336292816737700e+01 1.5602875907455511e+04 1.3388249731192474e+04 5.0910682173240883e+02 2.4664004048242333e+02 -1.1155700186721128e+02 -4.0993518104015720e+02 6.4503662611641880e+02 1.9348443690146095e+02 -3.2120038482153655e+02 3.2788713896789041e+03 -4.1548243887468016e+03 -4.8807185911480201e+02 3.8249398310621174e+01 9.8765898428607898e+01 -1.2636101929518014e+02 -9.3017726210320006e+01 -6.5630680395197686e+01 5.2139300537288946e+00 -6.5057270692836028e+03 2.7162253944089629e+04 4.5458426798476517e+04 -1.1565510033784007e+04 -9.7155218280630606e+01 8.5668352638015785e+04 1.3595057104557516e+04 -1.5629765008576401e+03 -1.0012340478219769e+04 1.1621486812612740e+04 2.8003934536753391e+03 2.4355464546121055e+01 2.5502230740953848e+00 -4.9663822804422026e+01 -3.1455554788536361e+01 -2.0775380334143634e-01 -1.3072367728707171e+01 -2.7433015470883959e+01 2.7496263527110059e+03 3.4852521394137241e+01 
      </Row>
      <Row Index="61">
        -1.3461686738662199e-01 -1.1565259845144755e+00 -4.0542082356607523e-01 -3.3518717111460319e+00 1.8429934781877296e+02 -1.0616010183008431e+01 7.0996208397367155e-01 -8.4426946850449269e-02 9.5171517696892716e-01 1.7988102772479464e-01 -3.4989886532968600e-01 3.8614981768993317e-01 -3.7125927236400003e+00 -8.2193764954714266e-01 3.0227701420628339e-01 -1.7246345616199044e-01 -6.7281408195992753e-01 -1.0718821782914802e+01 -2.4569695056900815e+02 2.2926911841471743e+01 5.1372307772930159e-01 3.8166709665447707e-01 7.8717489419060982e+00 -5.4767851725244598e-01 1.2020156232224319e+00 -2.0874198396398097e-01 4.4570226816281178e+00 -1.1025105152608079e+00 -1.4955567682065407e-02 -3.2518886670374059e-01 -3.6760196370707376e-01 1.5245965126703140e+00 1.5496813773557051e+01 -1.2344963101375335e+00 -9.5740436561847275e-02 -6.1325174192816689e-02 -2.2167812559514743e-01 4.9593121860498801e-01 -1.1233752756497212e-02 -1.0828819630535413e-01 7.0798366957899361e-01 -2.7465707081704593e-02 -2.9591457376528929e-01 -2.5512490472084437e-01 2.6836752454980017e-02 1.5158542136972528e+01 2.3538624287571429e+02 3.2987624711198746e+00 6.7654094551568134e-01 -1.3935472022939618e-01 -1.1424016837345441e+00 2.8781940199741218e-01 -1.2349671095310821e-02 1.4854032557961583e-01 -1.9076795713206138e+00 -5.3596750859267261e-01 1.0341978384058836e-01 6.2607277993488419e-01 -1.1510893604806258e+00 -1.7513647192233179e+00 1.4923953816278316e+02 2.2352377279116510e+01 -2.9617945434568127e-01 -3.5195735187429182e-02 6.2759768993731058e-01 -3.0729298205279321e-01 7.5098935339871220e-01 -3.4715802975246812e-01 5.1864626625285437e+00 1.2221353153823866e-01 -3.6815129090133620e+00 2.5528751148000893e+01 2.9458046759562873e-01 -6.2558147023401034e-01 1.1281481624159824e+00 3.6209861121052977e+00 -6.7152899595315940e-01 7.5831166007663531e-01 1.9539471436698872e+02 -1.0092498148471805e+00 1.6683883997980839e+01 1.3939769477603217e+00 -1.1804004662769785e+00 6.1417365028955828e-01 -4.5509937686956636e+00 -4.5404887436934960e-01 -2.5713892759615486e-01 -2.9125374313316883e+02 -6.1368112429820620e+01 -2.4721333248413771e+01 4.3888958962633462e-01 -8.3627072951994730e-01 -2.2082619850758931e+00 6.8728780996576688e-01 6.9518889865978006e-01 -2.3045702366908305e+00 3.4625490508755547e+01 -3.0653142789323658e+02 -8.1449208007684319e+01 -1.3875333290090953e+01 -2.2301104210055833e+01 -1.2162222317856387e+02 2.6563022015050223e+01 2.4690099798557608e+01 -1.3004799530290931e+01 1.3937684581434200e+02 -3.0459699692780100e+02 2.3892689465905221e+01 -8.5551767888229122e+01 -1.3873846298116476e+02 5.6642542074658053e+01 2.9093466382510991e+02 -4.9375879857798743e+01 -7.7177096987823063e+01 4.4101146497728223e+00 2.1709349778729852e+01 -6.1424289938525817e+01 2.1080653076168900e+01 -1.0862957829322447e+01 3.4547196265686267e+01 2.8554679422246579e+01 6.0308015537847730e+00 1.7676164380663081e+01 3.4001256018891530e+02 1.6611624437191676e+01 1.3035226146494097e+00 4.2635088475626581e-03 4.1314554341988696e-01 1.2270178757589605e+00 -5.9837614009673716e+00 2.7437892386217078e-01 1.0591823143092483e+00 4.8226842220210500e+01 -2.8871243247395466e+02 -1.2105041811828761e+01 5.4340575835303051e-02 -2.5516536949180590e+00 3.6757035037079522e+00 4.4201720303200887e-01 -2.3222319279292680e-01 -6.3432096001467664e-01 6.9659586496353882e+01 -4.2462504435090757e+01 9.4300352954551272e+00 1.1719560874615831e+00 -2.4972127095770702e+00 1.4130691913876035e+01 -1.2686251693306758e+00 3.1841913446497716e-01 -9.7176139983592746e-01 -8.9745846852043542e+01 9.4230582344815460e+01 -7.1695110904129251e+00 6.0680747187027628e-01 -1.2637105408308464e+00 3.1676574780108737e+00 -4.8080037436016383e+00 -1.8431568005014602e+00 -4.0614555196819246e-01 -5.3208722484901955e+01 -5.1932133048470588e+00 3.5691394321288911e+01 2.1719554889838069e+00 1.0847554749321988e+00 3.5536053621140482e+00 -6.0492623809187762e+00 -3.2379087054106317e+00 -1.3042705254214670e+00 -2.2392328975631881e+02 -3.4112597022120099e+01 4.9127093019236376e+00 -7.2624005789820867e-01 9.3477494998364818e-01 4.5855548618942521e-01 3.3632228363214267e+00 2.0285192607376046e-01 3.1241529968004000e-01 1.0297009883996020e+02 -1.6967674605229689e+01 8.8232081416708077e+00 2.0475419448752676e+00 -7.1678470159478191e+00 -7.3687092501343798e+00 3.5987011607057653e+00 9.0759461455163182e-01 9.4803105973210933e-01 1.1336120032552409e+02 4.8453322031251446e+01 -1.7244010640719353e+01 -4.0520775048637603e-01 -1.6704132741904232e-01 -6.3519559118731195e-02 -4.6607048649457283e-01 1.1376684788695357e-01 -6.3452822856481572e-01 1.8129529553414613e+01 -6.8106783791798904e+01 7.6291817978839617e+01 -5.1218133644161391e+01 -1.2016668437622816e+02 2.4186365218799693e+02 2.8241516380719730e+02 -7.1185610821302987e+01 -4.6342035432377585e+01 3.2201090742236374e+01 -5.8962756699972473e+01 1.9642679601468964e+00 3.9319783617145276e-01 -5.3793180004258190e-01 -1.0158774249754909e-01 6.6091376386208722e-01 -8.7033635996495540e-01 -8.2202107365014854e-01 4.5040673909664861e+01 -1.0276467428912902e+02 
      </Row>
      <Row Index="62">
        -3.1976318314161134e-01 2.2624822170586220e-01 8.5446523283241760e-02 7.8743070453521113e-01 4.8425208257167185e+01 1.3993530303797055e+00 -1.0614932511656736e+00 2.6932322850815282e-01 1.4824773542647396e+00 -1.4167141849598355e-01 -2.2020861045260565e-01 -3.5734892020608200e-02 -3.8624750607880642e-01 5.6646752583493463e-03 -5.2357624848748396e-01 8.1472142531531055e-01 2.4453012582910105e-03 1.3503348896879857e+00 -6.5658597093500745e+01 -3.4118870492339509e-01 5.3507109585132662e-01 3.0005658244984984e-01 -2.1402728147343320e-01 1.0104618821265601e-01 2.2929758102745382e-01 1.1814169395240164e-01 7.1468507075547838e-01 1.6730874654574915e-01 -4.3783049908959981e-02 5.8904803979260123e-02 -1.7662791675993361e-01 1.1024465736915658e+00 -3.0281673412351324e+00 9.9057491066116832e-02 -9.2021571133065194e-02 6.1150103208369444e-03 7.5930030133008586e-02 6.5543729098539338e-02 -5.6011738046813128e-02 -4.6962950884546606e-02 3.9493364280463084e-01 5.1386590384038922e-02 8.1969699184679917e-02 1.3068278721593174e-01 2.8533247978403015e-01 -8.9371614153833434e-01 7.1744261721869407e-01 1.4162627959026955e-01 2.0663685792262693e-01 8.3823940039017941e-02 -5.6601244333242118e-01 1.1494213519496166e-01 -1.2871611389109661e-01 -1.7123199420563388e-02 2.8779628985427053e-01 1.5530424175482366e-01 1.4691543337492241e-01 -1.4585025709379318e-01 3.8950302562136657e-01 3.0655873364223112e+00 2.2338083515153144e+01 -2.9617944415036668e-01 1.2315303058663551e+00 -1.2327970548095837e-01 -8.0542050865157089e-01 1.1080493357988486e-01 1.0460855078746750e-02 9.6209537880058038e-02 5.8948254470522810e-01 1.8389642133592032e-01 2.9239350558112420e+01 2.5607240253137924e+00 7.4419666960897435e-01 -9.3105208032056908e-02 5.2698587572956512e-01 2.4348636087341302e-01 7.0441037152014041e-01 8.3262766924386966e-01 7.7528013432146309e+01 1.7989697921453640e-01 -7.2336154788147233e+00 -2.5296402425732856e-01 -9.0234741023772358e-01 7.9123471206139584e-01 1.0589730820776533e+00 -7.7791201037164526e-02 -1.0941888911953895e-01 -7.7768938888247519e+01 3.5982547566691707e+01 1.1875956591097196e+01 -1.0504544765967719e-01 4.8840048979280759e-01 1.3235931140416781e+00 -9.4075757106105273e-01 -1.0400073743427283e+00 1.3364106595195935e+00 -5.0751389436011948e+01 5.8283298743218225e+01 -7.9776526934431935e-01 9.4004479548300601e-02 -1.7631368541946433e+00 -8.6670728380883002e+00 -1.0683008650267680e+00 4.7079647112769925e+00 -6.8350444153806178e-01 1.9254013003751275e+01 1.5104175381896130e+01 1.5625150805807664e-01 1.3153150980132466e+01 1.6697199067059969e+01 3.1683474251317477e+01 -2.1636647244809602e+01 -6.4946069019654216e+00 9.3229577805164308e+00 -2.1563300154033257e+01 1.3643558498905827e+01 -3.1031745656265457e+00 -2.6661203776569371e+00 -2.2651713422805209e+00 1.8472485114846418e+00 -8.2627575955536325e-01 4.7327973390533956e-01 -1.1745850197051690e+00 -3.4821158610984004e+00 -1.3413659036514364e+01 -2.9680977642760809e-01 6.2261627237235384e-01 -5.1534108368446141e-01 -1.1481424883069629e+00 2.6211287098769476e-01 -1.8716777796052764e-01 5.4909333515567504e-01 2.0677942253673670e+01 -1.8502067132687650e+01 -1.6370095352994838e+00 -2.2109057882742483e-01 2.5701694715158396e-01 -5.1253864753276268e-01 -2.2173796951155472e-01 -4.5012963070067208e-01 -2.8759111903927992e-01 7.2920465066531136e+01 -1.0555059858394010e+01 -1.1171820455479065e-01 8.8862250905295859e-01 1.0971957735300748e+00 4.3894076479232353e+00 -3.3607521090664250e-01 -3.1865383674946052e-01 2.4155976881864519e-01 1.3564127795579680e+01 1.1820701710191852e+01 3.6411690606469165e+00 -4.1185144726531786e-02 -4.6825595606623693e-01 7.0690486069124470e-01 9.4264252253126735e-02 -5.8783850475676425e-01 -3.3206809085338851e-02 1.4530917041554858e+01 -1.4809882488950993e+01 -6.8801731973785820e+00 8.6922777420146291e-01 -2.8200209676284196e+00 1.1555802458320166e+00 1.4565699067501967e+00 4.0300015832666625e-01 2.5792263469671373e-01 -2.5403773335535789e+00 7.4206980725757603e+00 -3.6050784152434274e+00 2.6095647642721417e-02 6.4977614020000374e-01 -2.1509486417397738e-01 1.7242421063431124e-01 3.3505491450093383e-01 -3.4630079695236515e-02 -3.0590972519914686e+01 -2.8916388807962875e+01 -4.4647947538974151e+00 6.7332726692831879e-01 5.0387388835409830e-01 2.5959477562621025e-01 -2.8808017174765710e-01 -1.1414252396319299e-01 2.3967955925210456e+00 9.2757601048714946e+01 -2.1434394047311798e+01 3.2970184198757124e-01 -8.0435730858698662e-01 1.3188834567029346e+00 2.2433111527810468e-01 -6.8457249933146613e-02 3.5553726432842936e-02 -6.2326329541526573e-02 9.2170192256362498e+00 -7.5643661800451099e+01 -6.2576728423095318e+00 1.1016291135925361e+01 1.4320129728638722e+01 4.7493049928226569e+01 -1.9852840467801194e+01 -1.0319797305911617e+01 6.2563036282857416e+00 -2.0239899866290216e+01 3.9743237227658646e+01 4.0085024393842805e-01 -3.9392911715083301e-02 2.0313081023371513e-01 3.1859741335989811e-01 -2.5617558585320055e-01 2.4228307185132525e-01 5.9040755291277947e-02 1.4727405021596249e+01 2.5359511997325878e+01 
      </Row>
      <Row Index="63">
        9.7839901994851375e-02 -4.4227275677951572e-01 -7.1195990105641371e-02 -1.0180439682221731e+00 -4.1123901561900823e+01 5.1519870199438922e-01 1.4732676479914808e-01 -3.4290576085810009e+00 -7.4189675605172090e-01 -1.1328130456958217e-01 -1.1609391509876206e-01 1.1791549470893514e-01 -1.6546971602217653e-01 -9.2189452042712686e-02 1.2654454758519316e+00 -5.1494829454250712e-01 -3.4094280984250247e-01 -1.2031672034935355e+00 3.3569915787292217e+01 -2.6335393989497213e-01 1.1463982912415707e-01 -4.3369209057233243e-01 3.7394716941086020e-01 6.8874821077452686e-02 -2.5178801381409438e-01 2.2347073235249457e-02 -4.9418457146009231e-02 5.2154636434379509e-01 5.5273063058592697e-02 -3.4351015890614178e-01 2.3243099035006498e-01 -3.6241381261983463e-01 -4.6422282542561959e+00 6.4496313815081141e-02 1.6272020208512217e-01 3.1382030817069939e-01 -7.8601089968103111e-02 2.7212654048968499e-01 -2.4635535399672183e-03 -4.2428856823459871e-03 -2.9478420777538616e-01 1.2334874427038289e-02 1.4645429922369319e-01 -5.1161722510040164e-01 -8.8819872839156377e-02 4.1277965850116232e+00 9.5576862886603919e+00 6.6541799316248762e-02 -2.6168980014004153e-02 -1.1423067659036690e+00 3.2309687166206302e-02 6.0251187063641853e-03 -1.0725043822388913e-01 6.7991177491396340e-02 -5.2393040864976115e-01 -2.8890633416681653e-02 4.2076372063220668e-01 5.5206641610596929e-01 -1.9430938217513169e-01 -2.5102090040062208e+00 -9.5287896390021523e+00 -3.5195733248825412e-02 -1.2327970820713446e-01 2.5212867716214200e+00 3.1539132971122452e-01 -3.3467280840543356e-01 8.8121521653625606e-02 -8.1266797121575612e-02 8.3722334272730781e-01 2.3328939384189862e-01 1.5638130128947251e+01 2.3278133027090071e+00 -8.5679564969935651e-01 -1.3407744407771816e-01 7.9525186191131070e-01 1.0246486295103621e+00 -1.2453097107002193e+00 -1.0764949065934886e+00 -1.2792247862464455e+01 -4.4884677855150244e+01 3.8435445565647854e+00 2.7976794863891807e-01 1.4174172939320897e+00 -1.2564024241946754e+00 -3.3545986125378680e-01 8.3464269860359319e-01 6.2233753279288384e-01 -2.5464831534660874e+01 4.7408226263884519e+00 -1.5021051844939686e+00 1.8488873001116152e-01 1.0421389885053678e-01 3.4472568294348793e-01 -3.8811241053885470e-01 7.8095501156294567e-01 -7.6311484464217294e-01 1.0651014676191238e+01 6.5294585980261772e+01 -1.8695126660444714e+00 -1.7071203380499940e+00 -8.9745089770263242e-01 -5.2431769448195862e+00 1.9194925204077966e+00 6.5380142684270757e+00 -1.0044709025266661e+01 2.0967785351030074e+01 -3.9848682868507481e+01 6.0199416132025476e+00 -4.1449362873977655e+00 -1.7148789274445676e+01 1.4064502291127923e+01 1.5942676497287785e+01 1.8716243410957333e+01 -7.9599265126134089e+00 4.8810815529712954e+00 -8.8727428029266964e+00 2.4568456865205803e+00 -6.2236881403945477e-01 -6.1858373659374406e+00 6.2367495778473661e+00 -1.0404034620347034e+00 -1.0760238072050916e+00 -7.8134888820253101e-01 1.3749342861601939e+00 -1.7324274878777473e+01 -1.1955912456236319e+00 3.5677919828595139e-01 6.1821888761528498e-01 9.8862643157801244e-02 -4.6785584042700346e-01 -1.4701591151709559e-01 1.7340497306055680e-01 -2.0787784816346402e+01 -1.4845269455634741e+02 -7.0868576896624980e-01 7.2359758360210491e-01 1.1719282732069800e+00 6.5774217824512871e-01 6.5571406970277080e-02 2.4532812150221677e+00 1.5542012389358448e+00 -2.5911860468721130e+01 1.6307585698008257e+01 9.8423400274896267e-02 3.3515007828017709e-02 -4.6455545940580691e+00 -5.4004244085223831e+00 1.2082247732436713e-01 2.2440833499643209e-01 4.4895611839848476e-01 -1.9923520227989911e+01 -4.1813261070298971e+01 -2.4457059116127766e+00 2.3449264983980422e-02 7.8830831277018909e-01 -2.9759164407997640e-02 -1.1679677539784266e+00 9.0395215167006215e-02 -2.3703912856517842e-01 9.0044518650529426e+00 -2.9940380443116357e+01 2.6389152206708761e+00 8.3189645026397807e-01 9.0881658810287398e+00 3.3963503893141587e+00 5.0635511119565102e-01 1.0940265923945292e+00 1.2875558791720083e+00 -5.3797650594162178e+01 1.9007687643181953e+01 1.3214991328207688e+00 -1.1372479672753788e-03 -3.1671003470020764e-01 6.0345745698435849e-01 7.5787640429030922e-01 2.3162891383043949e-02 9.6330201824280370e-02 -1.0897676215159251e+01 -2.0329185513997589e+02 2.2865911437573088e+00 2.5294380124997473e-01 -3.7648232603670646e+00 -6.4629970562737515e-01 7.0242552331445030e-01 7.0406620332239989e-02 2.1377618157882901e+00 -3.2072901453853149e+01 -4.1234004066373018e+00 6.9326611354017587e-01 -7.3692881113453090e-01 -1.4785025862618681e+00 -1.8951290296266166e+00 4.1372457006275454e-02 6.8776063636978080e-01 -3.4698164236731727e-01 -4.6745685832065647e+00 -1.1483900029105362e+02 9.5186866832982844e+00 -2.8087788981796233e+00 -1.7328401797674726e+01 2.0306276883332607e+01 1.2678677669179848e+01 1.1507904037307881e+01 3.7741476522099404e-01 -1.0971790411287657e+01 1.4745194305827351e+01 -1.4167755348129085e-01 -6.6610359399959407e-02 -6.6705565200787298e-02 3.5722769049100206e-01 1.2615910107483730e-01 -2.8453435621921991e-01 -1.6258060692328513e-01 -1.9310166814324869e-01 1.4043604293404144e+01 
      </Row>
      <Row Index="64">
        1.1839853949221095e+00 1.9562678742342468e+00 -3.6598162474066775e-01 -1.2392803098978760e+01 2.1662250850061690e+02 -1.7915154793306765e+00 1.1696448343828836e+00 -1.3813337397960677e+00 -1.7248890260799580e+01 4.1277876891151793e-01 1.7468632411536975e-01 5.2468306352368455e-01 3.8803846434559972e+00 1.4322721248501906e+00 1.8547873359897078e+00 -5.3225803175131858e-01 -8.1666221471617462e-01 3.8685627799584097e+00 4.5838140946462708e+01 7.3373020107511637e+00 5.4087299230882102e-01 -1.2456324050991956e+00 1.9436710885765976e+01 -1.8735022359153952e-01 -2.1984719191660762e-01 -2.0645506410217865e-01 -4.2479612543358369e+00 -1.5454712143399805e+00 -4.3761643209942136e-02 5.4784061315225330e-01 8.4669842447213206e-02 -6.8034685803482375e-01 -1.1129525651686549e+01 -1.0266383053617942e+00 -4.4617106921780447e-02 3.8978026697817469e-02 -2.7266324620961058e-01 1.0984529527150566e-01 4.7422469462093192e-02 -1.4342776264705770e-01 -5.6918251581097934e-01 -2.0526096355459877e-03 -4.6808706928050087e-02 -2.9917271601681961e-01 -2.9786782583548232e-01 2.7596618628715817e+00 -2.1952836123045003e+01 -1.5746265085814879e+00 -1.3389865033478190e-01 -1.1000188655828893e+00 6.9168145964600800e+00 6.4574001704544304e-03 5.0854227883681724e-01 5.2114557112160287e-02 4.7912937845893566e-02 -4.8307027597550173e-01 -4.0803456285260431e-01 -2.1020955138278588e+00 -7.7300091961005846e-01 1.2544148840184022e+00 1.2430296607923746e+02 6.2759770191374198e-01 -8.0542050862214731e-01 3.1539132922095392e-01 1.6490312304819881e+01 -8.7926426817127368e-01 3.4329173663321977e-01 -4.5816942798334631e-01 -2.7682592481552595e+00 -1.7901880365076981e+00 -2.4413888636422193e+01 2.1409709978259777e+00 -1.1285186278770660e+00 1.6765524012084825e+00 4.7170655312252734e+00 -7.2507193576479012e-01 -1.5527310244849479e+00 -2.1986783427950658e+00 -6.2005447777574823e+01 2.0632476135240410e+00 1.3090653198047963e+01 -4.1419116084692043e-01 2.8645276065547307e+00 6.8907059234549024e+00 -8.6222085017744443e-01 -6.9506588589975693e-01 -3.7713813479574920e-01 8.5618713719249257e+01 2.8229575023299169e+01 4.2359374098918551e+01 -1.0315856734316181e-01 9.7198368122793255e-02 -4.0496373356702389e+00 -1.8247051976564581e+00 1.7767950876685317e+00 -3.4039262311540508e+00 7.1504171536719582e+01 -6.9414862099317475e+01 -3.9330835210987026e+01 -1.0453624703412268e-02 -4.5288843602813644e+00 -2.1324583288403979e+01 4.5142342428046520e+00 -7.5051613697861308e+00 1.6334934286551668e+01 -6.6751254428890263e+01 -1.6963092395729780e+02 -1.9445188404046769e+02 2.2444235826938858e+01 1.2260079934517194e+02 9.5440144186769857e+01 -5.1336069025263271e+01 -1.8226447074471888e+01 1.8749093685030218e+01 -4.5290705163123619e+01 -9.1787049121407691e+01 3.8498596561163367e+00 4.9456999196987681e+00 -9.1241712524560388e+00 1.3951646457978608e+01 5.3665448702691405e+00 -1.2003675414906785e+00 3.6775862724032971e+00 -5.3290592468238316e+01 1.1206136483287001e+01 1.6136486218542700e+01 -5.9160207066140780e-02 3.4257436862287705e+00 1.1036047056234466e+00 3.3352901312601162e+00 6.6214731588239162e-01 7.9466084518074842e-01 6.7492791648592174e+00 1.9437096307519559e+02 8.0250648774519107e-01 7.5926426794601054e-01 -5.3168295853140535e-02 7.6771400108137042e+00 5.3012271077158080e-01 2.2622546457338997e+00 1.6505092305007005e+00 -1.8302382316164312e+01 8.1382408776783819e+01 2.4775050885275505e+00 -8.0589651974616547e+00 -1.7230245006554014e+01 -4.1779074017787821e+00 9.2530575595017694e-01 3.7331498719405198e+00 -3.0472716946418097e+00 -1.3568741523195740e+01 -1.7940229490328043e+00 -3.8808086375320272e+00 3.1500177321547240e-01 1.1685908205687134e+00 2.9206562620171272e-01 4.7426290191880227e-01 4.4208811046290242e-01 4.5464085815130489e-01 3.2393467830058398e+01 2.9891577742167101e+01 2.7408775967513947e+01 -3.0803262402175955e+00 2.1531179261720791e+01 3.5835739307450531e+01 2.0994946142669697e+00 7.4836748924523933e-01 -6.5133532386017645e-01 5.4590445380318329e+01 -2.0901328672985073e+00 -7.6125402123444985e-01 -2.7888362358758390e-01 -1.1491743295053141e+00 5.4646001104083552e-01 -3.8428664723977946e-01 -1.8924219425132249e-01 -7.3047938209618168e-01 -7.1241061668907037e+01 1.2073684813706291e+02 1.4488327010654615e+01 -2.5202928163360028e+00 -3.5708319365650407e+00 2.3833297507408275e+00 -1.5970807060522318e+00 3.4352877397002612e-01 -1.8112291235094560e+00 -3.2506924227102544e+01 -6.4669189765455485e+01 -1.1935456989719796e+01 3.0204913973535001e+00 1.2744016729988061e-01 -6.9161029107286538e+00 -2.9236057512541436e+00 -2.9292616997548069e+00 2.0601943983362248e-01 -8.6063503922287055e+00 -3.2180918092344996e+01 -1.9748322898349670e+02 2.3661779062369199e+01 1.2283337893305689e+02 1.4688368497878866e+02 -4.5033422428821147e+01 -1.0675222359465490e+01 7.6830100704679349e+00 2.5048248708200134e+01 -2.6100206628194851e+00 2.7655308908747045e-01 -1.7747412207881297e-01 -1.1100778233090169e+00 -3.5532996215747598e-01 3.0978136367137843e-01 1.0620734542598896e-01 -1.4881178514244198e+00 -1.8810438050095222e+01 1.5061701253805170e+01 
      </Row>
      <Row Index="65">
        -2.1864972705560703e-01 -7.9848431586246604e-02 7.9367187939045181e-02 7.1900024797389506e-01 4.4787717603405895e+01 1.3771887840988775e+00 -1.1321114256755749e-01 6.0148050776567175e-01 1.2801545324711543e+00 5.4306699195778374e-01 6.5685354914981342e-02 -1.2928733235251233e+00 -2.9962503556763664e-01 9.9312332577838475e-02 -6.3832279091799116e-01 5.4067322556667174e-01 4.3624252078876680e-01 6.6028942927325716e+00 -8.5650380791379703e+00 -1.8979692377709814e+00 2.3315132467159611e-01 3.9809884662058531e-01 -6.1018621200612921e-01 5.5332466317647122e-01 1.4386399452576618e-01 1.5916993490292026e+00 1.5647942727248363e+00 7.4847658424311139e-02 -1.5325522784053547e-01 -2.9409758841507028e-01 1.2601387807643150e-01 -1.9183738389872929e-01 -4.0929308942997125e+00 6.7633491650155086e-01 -7.7697255197334059e-02 -8.6362908157537888e-02 6.9993499464132469e-02 -1.5777087844127067e+00 -8.6239596671090005e-03 2.4525704649310143e-02 1.5092134310424399e-01 1.4542037509419403e-02 2.1651721530556461e-01 -7.9852249047149826e-03 2.0216814571461547e-01 -1.9632043831538795e+00 -2.7891899269798756e+01 5.2020358673166206e-02 3.2432643496568964e-03 4.3111058935145508e-01 -4.9630203226933389e-01 2.0254782198978416e-01 -3.6282094601275405e-02 -5.9244051965157507e-01 6.3453574070763352e-02 1.5081014148872557e-01 4.5338356862716422e-02 5.9676574406184346e-02 7.0030031666205750e-01 1.5128097228675443e+00 6.1483240717919525e+00 -3.0729298458463716e-01 1.1080493799170327e-01 -3.3467280661514442e-01 -8.7926426618327946e-01 2.9236312750588231e+00 -1.5268761232328093e-01 1.0310203398030933e+00 3.6180294733538160e-01 -3.6403508991011968e-04 7.1422801634229049e+00 2.0643538265686452e+00 6.6481539503408915e-01 -2.7979987283231367e-01 -3.5237225320770449e-01 1.2979200912113458e+00 1.0012274136619737e+00 1.1228414371219086e+00 -9.8143275454845629e+00 6.0449107740558361e+01 -6.3679802590245380e+00 3.2615346756165609e-01 3.9598641440147730e-01 -7.2233360439258831e-01 6.1970886790143509e-01 1.7885102564683120e-03 8.2333277870273502e-02 3.7245045248338329e+00 3.3251460161959642e+01 -9.1077008746697743e+00 1.5354908871928707e-01 -8.1971475557529239e-01 6.4247907807074967e-01 -7.2280431659610644e-01 -8.2720517322987164e-01 1.0045359356584189e+00 1.0207669465511685e+01 4.0524644448356639e+01 5.7188592916392729e+00 1.7999508299397613e+00 4.4748316335430269e+00 1.0871991377289962e+01 -3.0130277645220955e+00 -5.6223389996292292e+00 9.3850587972733290e+00 -6.8686157412322999e+01 4.1378425102232683e+01 -2.0201706797187789e+01 1.0317182771533634e+01 3.2934763809141941e+01 -1.1480086854233189e+01 -2.7576955702078774e+01 -2.6659707005541907e+01 1.5079304273116856e+01 7.1562080082256514e+01 1.4606894508433449e+01 -7.6209475532448323e+00 -1.9357802700476960e+00 -5.8321391840262491e+00 5.3409225563297085e+00 3.0351780220717117e-01 2.9916385608244955e-01 -6.7035623489661744e-01 -2.6224487981628670e+01 1.1486631254389721e+00 -1.8299744170766644e+01 -1.1549318931586356e+00 -2.1585233630685252e-01 3.5468610920034749e-01 1.1076540510856674e+00 -2.6382175272729508e-01 -3.9029579076344634e-02 4.5956643335302033e+01 1.0858054491440621e+01 3.0226041753853750e+00 -2.0261222866842888e-02 -1.3132545523916406e-01 6.2326180045214541e-01 -1.0839706645570730e+00 -8.3333014629262037e-01 -8.5484186888670166e-01 7.1367919612247405e+01 -1.1719777881656455e+01 1.2290982859055930e+00 5.7069550733437446e-01 1.7445424856354066e+00 1.2850686122010870e+00 -4.1025054652955362e-01 -7.3896939541165274e-02 -7.9665403501611595e-02 1.0899523618950479e+02 6.4662023029955051e+01 4.7534836719419218e+00 -4.2357036453798125e-02 -7.2147222465330008e-01 -1.5758602494585141e+00 1.9632059009327989e+00 5.9595005401613199e-01 -2.9950610067236216e-01 -3.6750271132198577e+01 2.6599084183836567e+01 -9.2349495905093271e+00 -6.2280485846040512e-02 -1.1884849129708512e+00 -2.9411166952299270e+00 -1.2826009134872436e+00 9.4253340213192510e-02 -2.5656696470226137e-01 -4.4298476545041694e+01 -1.5148204063255434e+01 8.3181393435192721e+00 5.6020240737089708e-02 7.6515974550972032e-01 6.3718977706702162e-01 -1.4189713390518328e+00 -1.2274962722921632e+00 6.1697747907039835e-01 9.1093013443627143e+01 1.5436018865582298e+01 -2.1724006049049676e+00 5.2428562411861579e-01 2.1133047696123519e+00 -7.4187938959349120e-01 -5.5536127270727054e-01 6.1791913448071056e-01 -6.9772169588540045e-02 1.2911089843070221e+02 -1.8867680951335387e+01 -5.1230959138943035e+00 -2.4510644241149926e-01 7.6562338021719256e-01 1.0982769958445147e+00 1.9234500537878603e+00 -2.1850631943376442e-04 1.2404777811471590e-02 1.6772904596640001e+02 3.7558042683175699e+01 -2.6567865064990599e+01 6.0054718898981996e+00 2.2331516464694552e+01 -1.7266907388397215e+01 -2.1648407320541786e+01 -2.1104924054820302e+01 4.8731168707996932e+00 -8.7659752379204292e-01 2.0424251293153517e+01 1.3832794380087539e+00 -3.9666237871898602e-01 -1.0837680900566138e-04 -3.0443958973998497e-01 -5.5083265744826104e-01 -8.9968398953815198e-02 -3.4134427766471731e-01 -1.3164079224507725e+00 2.3077468906128018e+01 
      </Row>
      <Row Index="66">
        -3.0288242329210280e-01 1.3424952143076685e+00 -4.5069398368536362e-01 3.9107097634229149e-01 1.3256334161040115e+01 1.3901973288445002e-01 -2.1567548562157857e-01 7.0650089440159825e-02 -6.3115313661349404e-01 -2.1372650061009052e-01 -4.1161795992644405e-02 -1.6211135775634489e-02 -1.3108996478631418e-01 1.5076646187890547e-01 2.2684934000084719e-01 -6.5391655022125683e-01 4.9628109119751684e-02 -1.3655000095820355e+00 -4.4169544142387451e+00 3.2056255105283067e+00 -6.4849679301244323e-01 2.2238608585174596e-01 5.4204958334761055e-01 2.0349557402646545e-02 1.4752208180034898e+00 -4.0647818996605489e-01 4.6233412327118184e-01 -1.0889136124740249e+00 -9.3023347707461568e-02 4.2864042869538821e-01 -4.3692529926291623e-01 4.3542885284321642e-01 -2.9937446764239581e+00 -7.6757821454455311e-02 -1.9693649500991484e-01 -1.6447587424799881e-01 -8.7877390056645410e-02 4.0106855152153859e-01 2.0642024056465116e-02 1.4488115048010253e-01 -2.1588836686610335e-01 2.5716368371165754e-02 3.6567221059726429e-02 3.4001838014795993e-01 -1.4364511762686294e-01 -1.5496930460564329e+00 9.0471874588556958e+00 -1.5948014440573299e-01 8.2073996787030770e-02 3.9696018320171333e-02 -3.7241614358302222e-01 -1.4847195498781626e-01 5.7030362238866839e-01 1.4403609052090666e-01 5.8070079719590240e-01 -2.0945648774805750e-01 3.7419897218403964e-01 -1.3069631362012601e+00 1.3303304621539636e-01 3.1059198162408563e-01 3.2827535844740211e+01 7.5098935955336965e-01 1.0460854155736410e-02 8.8121521464693847e-02 3.4329173359103304e-01 -1.5268761273748410e-01 1.5048478608183102e+00 -3.4210469516464920e-02 4.1097189902974840e-01 -4.3833985791798380e-01 3.6385399886197511e-01 5.3667555394141253e-01 8.1150135260095324e-01 -1.5803994436867015e+00 -4.7386907633693909e-02 3.8187560356412265e-01 4.8260863365809459e-01 6.2449683483726537e-01 -3.5560829407282419e+00 -3.0478168728989516e+01 1.2494661707830677e+00 -1.2148609699786337e+00 -2.5344381520931165e+00 4.8507952775457852e-01 7.1659729454706789e-01 -3.3939331159383834e-01 5.5089263292885515e-01 -1.4101642692157220e+01 3.9271316502405025e+00 -7.3735089738844213e+00 -2.8671886156869886e-01 -2.9756525285531854e-01 6.8981163998260620e-01 -1.0793166353908898e-01 -3.5044553186999738e-01 1.2517618634252616e+00 -8.2746110481558901e+00 -2.1379892840003500e+01 -2.9876777935092527e+00 1.6708054938840302e+00 3.0501357896254380e+00 -8.2363447547389388e+00 -3.7784031052477940e-01 -2.4200537496523342e+00 2.3804518899510958e+00 1.0270879638495177e+01 -3.8714410893678149e+01 2.8230203907555286e+01 2.2665099397589703e+00 3.0583973700834463e+01 -5.2444349278495652e+00 1.0617096768221433e+01 2.2815660680861821e+01 2.7620657942250224e+00 -7.4064560292697195e+00 -3.8689388387516859e+00 -5.3012665581326246e+00 -8.6720477383999439e-01 -1.9393100968237000e+00 9.8209639489810279e+00 -9.1230767179321104e-01 -2.4672271592887546e-01 -8.6170675453438073e-01 2.0464985912517555e+01 -1.7876281890232711e+01 1.5127132324232662e+00 2.2713270561166610e-01 8.6484970308345055e-01 1.0561898242186416e+00 -1.0662135534658002e+00 5.9490790609148664e-02 1.3527996928997160e-01 2.2469873225847095e+01 -5.3853007976789634e+01 1.5194331198552913e+00 -7.7270269490665655e-01 -3.9549423764989911e-01 1.2222202353112048e+00 -4.5227713823641069e-01 -3.6603069396125781e-01 -3.2935716770681397e-02 1.3791018353967125e+01 5.2868680786428968e+00 1.1333820518209450e+00 -8.5553378914583603e-02 4.1122944187173971e-01 1.6260772945040856e+00 3.1296550229157560e-02 3.9296909395213769e-02 1.2638403187588340e-01 -6.5019223534045523e-01 -2.6647584088558187e+01 2.8182264595634479e+00 -3.2963999412095069e-01 2.8124172730923580e-01 3.9379149121062174e-01 -9.5046527495644539e-01 -5.0121958429338298e-01 8.1915697128952336e-01 -2.3929156725420398e+01 -4.0244377693303932e+01 4.6446763101358686e+00 -1.0864204770370467e+00 -6.1014393314380131e+00 6.7256480713556321e-01 -1.3106636747835765e-01 2.9966497914879625e-03 1.5794662623863271e+00 6.7761387981035455e+00 7.9411002398521759e+00 -2.3925283382364597e+00 1.4810143836290079e-01 1.2536173157346298e-01 -2.6471691743586234e-01 3.9197587504146369e-02 2.6977305151494768e-02 -8.4337008250910217e-01 5.8439897908410146e+00 -7.5793036171932528e+01 -1.6742918460283369e+00 -4.5423818560793505e-01 8.3410191964977365e-01 1.3457524117321147e+00 -9.0022742804703793e-01 6.7423183237185991e-01 -2.9142417841723400e-01 -1.0054677899248169e+01 -1.0628274269131907e+01 -2.5700525302659116e-01 3.2658516869670340e-01 6.8758150326482337e-01 8.8528549448211180e-01 -1.1737020865793681e+00 -1.4910234809337266e+00 1.7174746322471890e-01 -6.5532907992928813e-01 -5.4177891509338778e+00 3.7847268132493824e+01 8.2175126653709529e-01 2.3501710047272958e+01 1.3123955015008733e+01 1.0180634070831935e+01 2.4212142338831946e+01 -1.5899967215511399e+00 1.1283676385363378e+01 -4.5633912939624581e+00 9.1214868866717713e-01 1.9482369205243089e-01 -9.5057317138416753e-02 3.8327821562811176e-01 1.2816714877674656e-01 -1.1119216800190068e-01 -8.1383449139077868e-01 6.8320468059061223e+00 -1.1615415642995568e+01 
      </Row>
      <Row Index="67">
        -2.5542870930739253e-01 -2.2286290896246841e-01 1.3033874408449719e-02 -5.1224780038410245e-03 1.7659330971999907e+01 7.1107606733648654e-01 -1.1985752181166553e-01 2.8786140905566171e-01 8.0321939224086358e-01 1.9842362049168444e-01 1.5538715753076518e-01 -6.8246586833618128e-01 -3.6146144356832366e-01 1.0795048598696826e-01 -2.9187213135230722e-01 1.1203493391751174e-01 1.7375450169060969e-01 3.4180367522544088e+00 2.1484545510295856e+01 -7.0143001753112733e-01 2.7281121539375364e-01 3.4842576581051865e-01 -1.3622396325510006e-01 5.0631464338454069e-01 1.6485739966890287e-01 8.3090924337498429e-01 1.2170347301667463e+00 -7.3021969714370721e-02 3.4960034327475853e-03 -1.5960024605592338e-01 3.0989132100224026e-02 -2.0034697001713653e-01 3.0352274686794374e+00 5.3641196325481388e-01 3.3588339468272110e-02 -4.3320561480216568e-02 1.2399332496188009e-01 -1.1146567043264104e+00 3.6251145896103322e-02 -5.2174814101648925e-02 -9.8068904432864201e-03 -1.3213550478230585e-02 4.2959394214970276e-02 1.8435888034318282e-03 6.5682542938232100e-02 -3.4848701171000585e-01 -1.5527182064965999e+01 2.4252228885372662e-01 -8.9618810124281703e-02 2.9530545940274777e-01 -2.1832569308916128e-01 -2.4402660865946993e-01 7.2168069581744321e-02 -1.7784130431903677e-01 1.0780210298173643e-01 8.0207550039697137e-02 1.3651507706618485e-01 1.9279327189666096e-01 1.3677453868240352e-01 1.2403145263891560e+00 2.3066635916264318e+01 -3.4715802958942893e-01 9.6209539880557693e-02 -8.1266796219028922e-02 -4.5816942615471828e-01 1.0310203392767388e+00 -3.4210469127878534e-02 8.5305206590469684e-01 3.0784780351701013e-01 -3.1277285301768432e-02 1.9041770593299361e+01 4.0904711366905282e+00 -1.1571534663139166e-01 1.6108617804752612e-01 4.0788813153653791e-03 3.2766300088244737e-01 3.7440902284098670e-01 5.7569255643390616e-01 -2.1005137730912089e+01 1.3045250842317984e+01 -2.0915186265975798e+00 7.5375738409123760e-02 5.3435142734309693e-01 -2.7224397150098412e-01 3.8781001493742717e-01 3.4026878197499832e-02 1.9420729580861557e-01 1.0132104498011174e+01 2.9527896090550517e+01 5.6309293019170532e+00 4.4179877579430982e-02 -5.1204859492852384e-01 9.7316369811975356e-01 -1.1951118188675358e+00 -9.0274027383309779e-02 1.4317002946122470e-01 -5.0900890194141297e+00 2.7019536034472019e+01 1.7006375531074216e+00 9.7929338616417727e-02 7.2349708239471122e-01 3.0448459110088044e+00 3.0142094688617227e-02 -5.9502464016054712e-01 2.9912859965138860e+00 -1.4411268457055538e+01 -7.9091461438136150e+00 4.7668946267547980e+00 6.6839747272044647e+00 1.3013064915784440e+01 9.2491494697741228e+00 -7.9750656459946354e+00 -5.4797300985401076e+00 1.0056098069533428e+01 -8.1716240997339966e+00 -1.9617038692108515e+00 -2.0738689104423429e+00 -1.8487754482641292e+00 -2.3813067221722397e+00 6.8433272199718953e+00 -1.7423191701246754e+00 -5.5565225142180652e-01 -9.6735838510168881e-01 3.7354404062616325e+01 -8.8465010563735422e+00 -7.9714279803406498e+00 -5.9961618207981671e-01 -2.8774074072794065e-01 -5.0327864365782560e-01 8.9455075542129259e-01 4.3562554894262834e-02 -3.4558698143593358e-02 5.1892525050859149e+01 -2.3748574666799815e+01 1.1331134455348613e-01 -9.4970193684709769e-02 2.6078217925878278e-01 7.9430839037651335e-01 -7.1846366039831433e-01 -5.8260499151301259e-01 -3.9584318675894209e-01 7.9815038002372773e-01 1.0774187668187778e+01 3.9378089319711762e-01 3.8437988720587107e-01 7.5943148533428939e-01 8.6370837886070717e-01 -2.7340515120708631e-01 -5.6222317494565965e-02 -5.6159520588625028e-02 6.0346432362352971e+00 1.3699133512202062e+01 2.0942190209948421e+00 6.2780551972613452e-02 -7.6833371856121935e-01 -4.9091252122808626e-02 1.5294206510477950e+00 8.3429491423428104e-01 -2.6543704618196373e-01 -3.9965071919504226e+01 7.7990511495179362e+00 -2.5474353713243048e+00 -5.7293674031313691e-01 5.3897059167163519e-01 -1.4592709799576626e+00 -3.3194863186444579e-01 6.0622026608755514e-03 1.5231593241952199e-01 5.2205627684840010e+00 7.2432150066379108e-01 2.7287943250373488e+00 1.4948058700744871e-01 2.5528408546310288e-01 3.9853728155713952e-01 -3.7658615850146582e-01 -2.1899608111086211e-01 -3.7460253049905301e-02 7.6634278025882750e+01 -3.5720597302090027e+01 1.2476709004270363e+00 2.4220840627470502e-01 1.1567076316595317e+00 -4.4280561989318912e-01 -5.8781959070368206e-01 2.4144242059405949e-01 1.4705331573478968e+00 1.6417690639824116e+01 -1.5734341117567965e+01 -2.5073341133629583e+00 1.2465150605834197e-02 5.2942473393957812e-01 1.2218527566513302e+00 7.7322755885336392e-01 -3.0628087794166392e-01 6.1703356546356503e-02 5.2676487195027221e+01 -3.2951323808276570e+01 -4.9207022350001210e+00 4.6001499603327103e+00 9.8076264655241729e+00 1.3117544583261878e+01 -7.2654624410231854e+00 -5.1511994379413402e+00 4.4962476286383923e+00 -7.9058433692945016e+00 1.8631550350426217e+01 1.6434710137452169e-01 -3.4655271183558511e-01 1.6243917900814919e-02 -1.1890442417064809e-01 -4.6257011420453142e-01 4.9083469772885246e-02 -1.5717101150221424e-01 2.5065872122810973e-01 1.8575952047262280e+01 
      </Row>
      <Row Index="68">
        -1.3519435813552236e+00 -1.0567011599064633e+00 -1.0741298744842496e+00 -9.0354613956359344e+00 2.6224266844836177e+02 2.7352954856510414e+00 -3.7195056913397195e-01 3.3065617886125676e-01 4.9159327000838280e+00 9.2384956938654739e-01 5.0634933810463956e-01 -4.7620659282390232e-02 -1.0766273601903503e+01 2.2458045018336242e-01 -3.2046746027188915e+00 -1.2150831789518808e+00 7.3539768410257977e-01 -9.8577653258213616e-01 2.0575535616860748e+01 -3.3508156755232710e-01 -7.9260696436792843e-02 1.2334973086857661e+00 2.6772667976271283e+00 -7.1912736958338241e-01 9.8249289303716347e-01 8.9889728424422377e-01 2.6797233330754860e+01 -1.0533479353578903e+00 -4.9191331607474620e-01 4.2672578854357823e-01 -2.3739999107812899e+00 9.8679603639887148e-01 -5.4306954555560822e+01 1.8799035863543327e+00 -2.3260592027110949e-01 7.3911183618018406e-02 -1.5020802162952585e-01 -1.1302476313297687e+00 1.1667832519116511e-01 -1.4395207063647317e+00 1.2224153235071391e+00 -1.6590690087300647e-01 -6.2664607016310980e-01 -1.0650997591663014e-01 2.0053001774203191e-01 2.3126169681845553e+01 9.0461758984939173e+00 5.9699585863396241e+00 -8.2759316036683717e-01 5.4042917946594216e-01 -1.3396002466908041e+00 4.9749398765655822e-01 5.3606987344792645e-01 -1.5502205081952405e-01 -3.1577961454652680e+01 2.1543073854694461e-01 8.1827980581092152e-01 8.0243700083263936e-01 7.2738110305118209e-01 -1.5251414073950563e+01 3.2077774338708412e+02 5.1864627003187369e+00 5.8948253841434528e-01 8.3722334110730057e-01 -2.7682592544353666e+00 3.6180294575302829e-01 4.1097189520017841e-01 3.0784780039009818e-01 3.2567344078300692e+01 -3.8829954030389890e-01 5.3971184055362791e+00 4.7399834428386356e+01 6.6302793016209645e+00 -2.5581302545096491e+00 -1.3348680089176042e+01 2.5522870710376317e+01 3.5326773992691400e+00 4.5124659486093091e+00 3.1982602289747661e+01 1.4933377204115027e+02 -4.0379930619553839e+01 2.5384204425181922e-01 -3.8956937574882318e+00 -1.5532400358434870e+00 1.0967745194090321e+00 -2.8675431772921367e-01 -2.0739946057304243e-01 -8.1246579410618381e+01 2.9051251966943582e+01 -1.1606892639032934e+02 -1.9511598212218475e+00 -2.7853805865558936e+00 9.2828001737472317e+00 1.1170219809419525e+01 -3.7304792719217956e+00 8.9174034489342002e+00 9.4618417482938639e+01 2.2544156639410920e+02 -3.4967965058370936e+01 -5.8612023868295244e+00 -1.0783587663464932e+01 -6.9933999767138502e+01 2.8408924498027037e+00 8.6991017819053873e-01 3.6968793868265379e+00 6.7610728908856430e+01 -2.1763256587317886e+02 -1.6585099104377343e+02 -2.2896048305514149e+00 4.8171296985198069e+01 -4.4683258041869536e+01 3.4941060108050340e+02 5.8725633387758592e+01 -1.2834621508148674e+01 9.5647832028196092e+01 3.6949405366558260e+01 7.2965046132530915e+00 -8.5376999639893221e+00 -3.5468226802020162e+01 3.4403115618421708e+01 -1.0936884823928214e+01 -4.2898426339171660e+00 -4.7218375074307337e+00 2.3290718093591585e+02 1.6893046867976196e+00 4.5841118832197481e+00 7.5314392533094932e-01 -2.5261201975462200e+00 -7.8313514405689819e+00 -9.8764484652089433e+00 -3.0967334379295985e-01 -3.1689500822177501e+00 1.5898752973239857e+02 6.7846477683575174e+01 1.0058885649790142e+01 -1.8133314165831884e+00 7.0467120697649221e-01 2.5457030449327807e+00 -4.3120649202839614e+00 -1.8363764192406959e+00 -1.2117971006545645e+00 9.5294474528585340e+01 -2.4114999671607734e+01 -6.9267745518211541e+00 3.8409750814391423e+00 9.3217339473653738e-01 1.7547666161743493e+01 -8.3410811236475979e-01 7.7625229829533493e-01 1.3565232906516305e+00 -5.9079926544022783e+00 -1.9290077618635898e+01 2.2181991468456545e+01 8.8690400011581061e-01 -4.3181123900630212e+00 -4.4101549909480049e+00 -1.1331772558222308e+00 2.6619732074009748e+00 -3.2230714611097411e+00 -1.9989577007593971e+02 4.0664096545755228e+01 -1.0434722807995291e+01 -9.7994728640399265e-01 -1.4049036259481685e+01 -5.4461950271861781e+00 1.3245442750074758e+00 4.4577695727293354e-01 2.2206550337157878e+00 -5.5054218420778398e+01 -1.2050256339385328e+01 -2.2298250398506653e+01 -1.1588602744705476e+00 2.1562635860679933e+00 2.8706291283617134e+00 6.6409298216211718e+00 -2.1099437929384393e+00 3.1134902366297350e+00 7.1948200858776318e+01 -4.3312968826299607e+02 5.1640500003697554e+01 1.9023407893223730e+01 7.0131625598393299e-01 -3.2249466498666642e+01 3.4825486774361082e+01 3.1158397785773873e+00 9.7257191002765300e+00 1.5464673567476274e+02 -1.0773896850505753e+02 -2.2305100448794974e+01 1.0625837587845739e+00 -9.5391131146172370e-02 1.3537282636925816e+01 -1.4507060730361161e+00 4.0563959859694076e-02 1.7804798723860848e-01 8.8222787365532895e+01 1.1309405110566172e+02 -1.2314361395994020e+01 -1.2338115525865820e+01 8.7461291164046955e+00 9.8658977217416350e+01 3.0582462662979088e+02 5.6940343166010649e+01 -3.9061583708301988e+01 6.6973392502049137e+01 4.9712292640080946e+01 -4.4771740721665410e-01 7.7015508012016909e-01 -3.5123079974558991e-02 -5.5915475020217253e-01 -9.2183167545015543e-02 -6.0354112536980808e-01 7.4522706968541286e-01 5.7373641582588775e+01 -8.6032489531765837e+00 
      </Row>
      <Row Index="69">
        1.2546492079181867e-01 -7.4535499465055544e-01 2.6237510341127290e-01 -2.5913586262470290e-01 -1.9493593122574396e+01 -5.0084410545112323e-01 -1.6949661666632210e-01 -3.1675410984702523e-01 2.1405569492951741e+00 -5.2298704279168100e-02 7.8259270063822078e-02 -1.0679199680323670e-01 -6.6338651368702983e-02 -9.9727170668011689e-01 9.6893718092697992e-03 8.9189412802260648e-01 -2.4453934507990027e-01 2.9541704072430548e+00 -3.9097036824434596e+01 -1.4223831110408127e+00 1.5806984685791584e-01 3.4189079653368870e-01 -2.4859561852489613e+00 1.1416799807551392e-02 -8.2983947802241143e-01 4.6667350910115056e-02 2.1335374724787137e-01 2.6704865858662061e+00 4.1628954080668024e-02 5.9653061767399151e-02 1.3636161585590045e-01 3.9563652859038712e-01 -1.5191570067322004e+00 -3.0073706991016191e-01 1.3134608497437306e-01 6.0032633620098252e-02 5.9407886395224097e-02 3.2904259568833644e-01 -5.8836050695286690e-02 1.3401852600343189e-01 4.1076647340629791e-01 4.4730030340510485e-02 -1.7902414809415207e-01 9.9775106529136792e-02 1.8800979918294919e-01 -9.1507520421771460e-02 -1.5086056364218827e+01 4.4173560033659398e-01 1.9949715977548313e-01 -1.6422775311862381e-01 -7.4261794334777420e-01 1.5886739031080133e-01 -3.6286901391494764e-01 -8.0427541021875007e-03 5.6625849084764468e-01 2.7562665077748977e-01 -2.6771118746150702e-01 8.0384488953790612e-01 1.6702869379652367e-02 1.3048746746556361e+00 -2.8269891160910916e+01 1.2221353067828908e-01 1.8389641889060157e-01 2.3328939262615817e-01 -1.7901880375414234e+00 -3.6403479816038420e-04 -4.3833985793297048e-01 -3.1277285436241760e-02 -3.8829954304175018e-01 1.5957197860690615e+00 -2.0662151159368626e+01 -3.7500277489238822e+00 -7.2441148445838999e-01 5.0407257419550433e-01 -8.4152534810937141e-01 -8.2855630397668056e-01 -5.3155573299350856e-01 6.6095487569592673e-02 1.7655597262158651e+01 2.1557467700968633e+01 3.6987131713309860e+00 1.3979024477333360e-01 3.0100118810585741e-01 -7.2192032416171514e-01 -1.2083092546774293e-01 -1.1546580341565343e-01 1.9940641563357225e-01 -3.9489817014295781e+01 -4.2547123868943174e+01 9.8364069816300557e+00 -1.5217691622644985e-01 -8.0210432080216942e-02 -4.9334571143847405e-01 -4.8363191167789266e-01 -5.0507838085875223e-01 4.9204580298916734e-01 -7.0680672525346466e+00 -9.3707173997849907e+01 5.1021825572563060e+00 -1.7584933019770428e+00 -1.1153872145329696e-01 5.2622124902660410e+00 1.5404084047078181e+00 -4.5365445635268875e-01 -8.3913964298591335e+00 3.9977036546668820e+01 -2.6628236479226857e+01 -4.3206201570856884e+00 -7.2777585772192070e+00 7.8121343255048004e+00 5.0278421236506965e-01 2.0767846572842011e+01 3.1403867169381838e+00 -1.2987640001790094e+01 1.4124629771137878e+01 3.9532123592063428e+01 7.2975886945820321e+00 1.0725213806208567e+00 -3.2036069517091663e+00 -1.8497816634994679e-01 -1.7195069966188703e+00 4.6000344660612391e-01 5.1365858647268947e-01 2.3752767195763035e+01 1.8543819824299167e+01 -2.9878746317217519e-01 2.1495030166139339e-01 3.6359701574156134e-02 5.9943573370100722e-01 -9.7304776495563838e-01 -5.3446201465571108e-01 1.6860937157797162e-01 -2.1505930265988354e+01 -5.0614996712719034e+01 -2.6203682297869006e+00 4.1139383045059913e-01 1.2681478238033890e+00 -5.9169564681583076e-01 5.0175760202351616e-01 1.5245432293625544e-01 1.1844433853738999e-01 2.3838610943114844e+00 -3.1849317677178306e+01 1.4310249774437125e+00 9.0043262224933562e-01 6.9928837977295188e-01 1.7240237046650009e-01 2.7667211784006440e-02 -1.2023037196407798e+00 3.2572075288955343e-01 -1.3222489264625437e+01 2.5865287529217539e+01 -3.8857328020712885e+00 1.2838099864220021e-02 -2.8968825092916323e-01 -3.9172347988409606e-01 -1.3280172799446994e+00 -1.9837062967134911e-01 -3.0696246315785591e-01 4.2019518034185239e+00 1.4798961970873506e+01 -1.5102414947377785e-01 1.4203619898321334e+00 3.0898825557837668e+00 -5.0987750430455812e+00 -1.4872510292000598e+00 -2.0394569036649299e+00 1.3723331540964048e-01 -4.1424532678986907e+01 -1.4452001276216379e+01 1.4805338037253861e+00 -2.6229248197762706e-02 3.5246803035965968e-01 -3.7671088994170532e-01 4.6664477870237775e-01 -5.8102877216466425e-02 3.5250777172713987e-01 4.7427656913256875e+01 7.7046926036483114e+01 -5.0367820734364841e+00 3.6544995480390130e-01 6.6468799788518673e-01 5.2380093122277738e-01 -6.2975432799343700e-01 -9.8309345956947514e-01 3.5447296404049102e+00 -1.1331548980173125e+01 5.6427277350627264e+01 -1.5009528963071261e+00 -2.8210265329114694e+00 -7.8250782073092751e-01 2.1369452503554953e-01 2.7009085634166752e+00 3.4678613858265210e+00 -1.8468295917536892e-01 5.5213242427198566e+00 -5.1103206925458551e+00 -1.3348926924709732e+01 -4.6614243429736009e+00 5.5264370504078535e+00 -8.8020586562895460e+00 1.7405430375310285e+01 4.3015517367658092e+00 -7.7010213389391291e+00 -1.7457818347504372e+01 -2.0834687487184862e+01 1.7335706993440958e-01 -5.1830021474660271e-01 1.6096154925749229e-01 -3.1606588923374229e-01 1.2372840914755434e-02 -5.9184189965504319e-01 8.7558625433203474e-01 1.5627177980931908e+00 -2.1455282641292435e+01 
      </Row>
      <Row Index="70">
        -3.8579265079368341e+01 5.3746707805421856e+01 -1.4229239123185835e+01 -2.2610810769451200e+02 -4.1943440801186371e+03 2.9927861745371320e+01 -3.9956756686944573e+01 -6.3765706694812252e+00 1.2996060975824600e+01 -1.1147638408612906e+01 -1.1072786048096610e+01 -1.3402357471965843e+01 1.1551677628085599e+01 1.5267809149637102e+01 -3.2223899026526659e+01 3.2551468693967763e+01 3.1768764566790196e+01 -2.9063867269782349e+02 3.1287874024064204e+03 2.2602909313617354e+02 1.8011125877031976e+01 2.5623837736027923e+01 -6.7408162235009058e+01 3.0700787597392740e+01 3.5372020808574248e+01 1.5985245769092188e+01 4.1344886248230189e+01 -6.8804709817568025e+01 3.4994111142150359e+00 -3.3315053418045864e+00 1.5557437811481577e+01 -1.8035737897298532e+01 5.6963961596865556e+02 4.6333203154226794e+00 1.1934006268834310e+01 -5.5406761949598149e-02 1.0388781675796054e+01 -2.0436180887608522e+01 4.9736579880781964e+00 -3.8654962991178081e+00 5.7504380477912491e+00 -7.5916352234742135e-01 -1.2047936904315335e+01 1.4222347057773732e+01 7.3271195667626374e+00 1.7337432670511771e+02 -8.4817098687134421e+02 -5.7195192560174945e+01 -6.3050219679224329e+00 7.8105200532154413e+00 -6.5733567268152910e+00 -1.4275452364602749e+01 5.7102992126854897e+00 -2.5763671091953748e+00 -1.7236282095458591e+01 -7.1693711531407525e+00 1.8887493999468067e+01 -4.8492320189801127e+01 1.6266004229353083e+01 -2.1693217587715480e+01 3.6095540846767267e+03 -3.6815122787901462e+00 2.9239350604842496e+01 1.5638130592378289e+01 -2.4413888273638069e+01 7.1422796117862095e+00 3.6385373938464038e-01 1.9041770410063549e+01 5.3971176357499644e+00 -2.0662150814698112e+01 1.8813335563889039e+04 9.3680776296405838e+01 1.7724842472810167e+01 -3.3515786213101819e+01 -6.7771129548258614e+01 -6.0018118105475303e+01 1.3928239397106971e+01 1.1652501025037505e+01 -1.3375780669680266e+03 -4.3883367802975181e+03 -8.1513135859584406e+02 -8.5633755813091810e+00 -7.9915651236253325e+01 -2.1009575229021721e+01 -3.2936059828559408e+01 -3.0255444001032949e+01 -4.1741452745390674e+01 4.2142637607346169e+03 1.6198365960734651e+04 8.6192540408211119e+02 3.8361296328961160e+01 -5.9259910744289101e+01 2.1425518419021500e+01 2.5860933265353617e+02 2.1255753278655412e+01 -7.5250288919764913e+01 2.1860317086644209e+03 4.3327843325473950e+03 2.3792098391487798e+02 -1.9367401440146642e+02 -7.8658598280031924e+01 -2.5896459216039511e+02 3.2369048436653975e+02 4.6568192265538744e+02 1.2848068982017827e+02 -2.1202782461314255e+03 -9.7469136072397669e+02 1.0396619405012649e+04 -1.3987638840553350e+03 3.2243706173225637e+03 5.7268438156041702e+03 -1.0066849298622728e+03 1.3222329387553805e+03 -1.2634629947086296e+02 1.8317636056714364e+03 -5.7386953600680999e+03 3.8250966274796519e+02 -3.8942937085884154e+01 -3.4456583707217851e+02 8.8053304100762523e+02 9.8759512557152505e+00 -9.8531058758649294e+01 1.1445201202872958e+01 5.1581607696136564e+02 -1.0346980752353749e+04 -3.1897204217291437e+02 4.9609140801198777e+01 -3.5496414334047586e+00 -1.0433736426894575e+02 -4.6157815124627859e+01 3.9467974311500342e+01 4.7262460760335721e+01 2.7801742823305540e+02 -1.7048280920940761e+04 3.1700229191275685e+02 -2.6842497994656156e+01 -2.7740469755619415e+01 -3.8388857934327277e+01 3.3331027438276948e+01 -4.4904661512847269e+01 -3.8366781317544998e+01 -9.1537659720112424e+02 6.8990953882216709e+03 -2.1875484043546021e+02 7.9842861679438801e+00 1.3258204050536733e+01 -5.2463537047733553e+00 1.1548057455132948e+01 8.5266215909324288e+00 -3.1405522305046134e+01 2.1270256804791279e+02 -1.0442267333975589e+04 3.7136259999522008e+02 -1.4325602160476395e+01 -2.4541149484473635e+01 -3.9553400201199111e+01 -2.5901916527423182e+01 1.2508419850294411e+01 -1.4724252213820940e+01 -5.1276054596356116e+03 -3.0185184599399799e+03 -1.0439359850769224e+03 5.2055437662123552e+01 -2.7277207025183310e+02 -3.2558519214143934e+02 -3.3098771831653721e+01 4.4011647082615646e+00 -5.0476008261342411e+00 3.7627602005944937e+03 8.4411045557956677e+03 1.4980555577733412e-01 2.8356936661528469e+01 6.2531297591631301e+00 2.8313944226218155e+01 4.7504596255083015e+01 1.7473504603194598e+01 7.6887023215901200e+00 4.5101091834502986e+03 3.4388183124885200e+03 1.6867718428440276e+02 3.5636018562617608e+01 6.4713516680602851e+01 6.3664086450495262e+01 -1.1953594108246273e+02 -4.8955919414285930e+01 -1.3333942120992887e+02 1.6479408407254607e+03 -1.1862490972273052e+04 3.3191449918563012e+02 3.2725070140225398e+01 5.2087420233292505e+01 1.3587107172248943e+02 -8.7400397339719348e+01 -8.6395317390024047e+01 -1.2308363364725665e+01 -1.5241726265996695e+03 -4.9514778161186754e+04 9.4675367379498857e+03 -1.2681300743529064e+03 2.8087867874201929e+03 6.5883791313359852e+03 -1.5751928087257352e+03 7.4664958823997279e+02 -6.6677720460204000e+01 -8.4457315416126949e+02 1.2453985493411301e+04 4.1807766682283756e+00 2.7045537896839960e+01 -2.8937208586585683e-01 2.4095364782788117e+01 -3.4705693221332155e+00 3.1794291805541778e+01 -3.7875471281397040e+01 3.1898901784791542e+02 1.2100305751382044e+04 
      </Row>
      <Row Index="71">
        -6.6225795217287367e+00 -5.6023462305013982e+00 -2.5685577446785146e-01 -3.3852341905664616e+01 1.5410940043592900e+03 8.6824508451157811e-01 -4.2252643886839110e+00 3.1900301243531715e-01 2.8088954768286438e+00 1.2977639318497992e+01 -2.7233875243457839e-01 -5.2658877691563930e+00 -2.9392524576984556e+01 2.8928399267335232e+00 -5.3874409479856151e+00 -3.5163577258885539e+00 1.8672597119796137e+00 4.1911912363563715e+01 -1.5137521907949940e+03 4.2837476632063947e+00 -1.3046730295018391e-01 2.0568631306881069e+00 1.2536885025937062e+01 -9.1045915210932584e+00 4.6494874358511993e+00 6.8375159045424070e+00 2.6288673092612534e+01 -5.5884725864467502e+00 -2.6280695991532639e+00 -8.1903678959167792e-01 1.2808582549036487e+00 -9.9834340417560270e+00 -2.0574268614022458e+01 5.0986168378359196e+00 -1.0276929855329513e+00 -4.2506067075493092e-02 -7.7984009461442838e-01 -1.6229855762247574e+01 8.4632378048134937e-01 -1.3155740495831765e+00 -6.6227583203068434e+00 -2.6841211157500311e-01 2.2658318608844841e+00 -3.8585890324392267e+00 -1.8848799993503613e+00 -3.2327403174163919e+01 1.2987499031974244e+03 1.4848579671753027e+01 4.7216006418164169e-01 2.4012188532618666e+00 2.2602050460252769e+00 -1.4810416661130288e-01 2.5717565637357920e-01 -2.7059911527425515e+00 -1.1379776745609433e+01 1.1665941632097498e+00 5.5789447679295296e+00 5.5500664978047762e+00 -1.2875604112328931e+00 3.3387671702844045e+01 5.4637859494997997e+02 2.5528751251833082e+01 2.5607240607127735e+00 2.3278132836351588e+00 2.1409710886581572e+00 2.0643538288014316e+00 5.3667559337344484e-01 4.0904711317455416e+00 4.7399834625804658e+01 -3.7500277324889062e+00 9.3680767511749025e+01 1.2946320476690610e+03 1.2724514345245549e+01 7.1574297348533946e+00 1.3089864829580620e+01 2.0764540977302850e+01 1.4240801445024063e+01 1.2209028216893627e+01 -5.5786913267754562e+03 2.2843978890656331e+02 -3.9078391600085965e+01 5.4321379260034712e+00 1.2936228526693412e+01 9.2407791909809021e+00 -1.5030317942391651e+01 1.6728160062374933e+00 -6.9029946261727204e-01 8.8534985365213288e+01 -4.1841137485019203e+01 -6.6993342373502526e+02 -3.4240548431921436e-01 2.4427948347134816e+00 -1.1160306901781610e+01 6.9837155452391499e+00 7.1153138579055231e+00 -4.1212176695253007e+00 9.4951790405225893e+01 1.3545528273259897e+03 -2.3996439985976008e+02 4.3732259183707043e+01 -3.0111968460098304e+01 -4.4861096791790715e+02 -2.6418050547038654e+01 -2.5212200811666783e+01 -4.6006040830358224e+01 -2.1469487422171419e+03 -1.4647392438933593e+02 2.5053636487672645e+02 4.3520421480786536e+02 -8.7722112331290873e+01 3.5299659064127650e+02 2.3680805519901739e+02 -2.9882592969567702e+02 3.3947578998484272e+02 -1.5247990723586477e+03 6.3491400397586375e+01 -7.5781277332285026e+02 -6.5527988303226810e+00 -6.2997687467522923e+00 1.4107341249587614e+01 5.4084090418931211e+01 1.2495052457345730e+00 -1.7228700291574215e+00 1.7669022480579611e+02 1.7698362540172923e+01 -3.5320181438815416e+02 -6.3739462087052026e+00 -6.3761940017429879e+00 7.1342096606381062e+00 4.6330158309844478e+00 -1.2918964978762178e+01 -9.2707762854594336e+00 2.3488425098283915e+03 -8.0590111081102930e+02 -6.7508479184526209e+01 -4.1301316119946847e+00 4.2028297112519795e+00 8.9369929764547056e+00 -1.8124923988935890e+01 -3.5864528791553099e+00 -1.3181709122304484e+00 -2.3224342957413933e+02 -1.5022745006391233e+02 -1.4326486164211201e+02 2.7026710826089544e+00 -9.2806409048025671e+00 1.0579097914824342e+02 -8.5689627778986051e+00 8.2447568531776234e+00 -1.5140985338487660e+00 1.8164668356165857e+03 2.2401172707326697e+02 1.6656620765431580e+02 1.5272293398619627e+01 -1.4721309246016503e+01 -2.2764002546727170e+01 -1.2104025880911223e+01 1.4368253390641470e+01 -2.4757981717487983e+01 1.9783168553549331e+02 -9.1084045757095737e+01 5.9723665172471362e+02 -4.5785795725057810e-02 1.0376080795887880e+01 2.9065019661686279e+01 -1.0792453374965646e+01 1.1558613120314433e+01 5.3513996304143348e+00 -3.6145846282482344e+03 -1.0302634728364865e+02 -1.3469360357113740e+02 -8.8909716789180706e+00 4.5408365940156727e+00 1.3180712139420393e+01 2.1449762644504489e+01 -2.3404833958416571e+00 8.6709689642272547e+00 -2.3192213716890392e+03 -8.3709763329449743e+02 8.1182842944669028e+02 7.3407593761900518e+00 4.7281730786860663e+01 3.1833928103926027e+01 -2.2516472589704644e+01 -4.8607083808342386e+00 3.8912496208435527e+01 -6.0123201759410790e+02 -1.6352245461750135e+02 -8.3190050749577495e+01 3.7193685622835915e+00 2.7293990922253215e+00 1.2120799477582068e+01 -1.7679087456190246e+00 -8.1115344534079057e+00 -3.2602190489086524e-01 1.4130873048008943e+03 -8.5591933850213263e+02 5.4440822081826241e+02 3.8759409623107132e+02 -1.3193734883651126e+02 9.3219193264133719e+02 3.2365243407154628e+02 -2.5763873106396159e+02 3.3027800151331178e+02 4.9602936549678998e+02 -8.4557901781400719e+00 -6.8831862447807708e+01 -9.4369153422906038e-01 -1.5084376927259715e+00 2.9119823586513891e+00 -4.8389394870556171e+00 5.5456177108709870e-02 -2.2099127462365686e+00 -3.6079830257759886e+02 2.7432953760874335e+02 
      </Row>
      <Row Index="72">
        -7.3975020841908179e-01 1.3666098002172294e-01 -3.3151227277616968e-01 7.9002609512054107e+00 9.5645034913408352e+01 2.8197191853386707e+00 -1.6919259755167815e-01 1.7510257659533628e+00 3.5968140663675463e-01 8.0098201836213107e-02 -2.7532590215290342e-01 -2.2224989869178025e-01 1.5127073570015561e+00 3.3221062394038492e-01 -2.8515488951511592e+00 5.5338992516320573e-02 -2.2810918553062720e-02 -3.5407714610105074e+00 -1.4612945715734938e+02 -1.5643398158541919e+00 -6.3955777053894536e-01 6.7790738712633325e-01 -2.6164014826114834e-01 -2.2673855677861671e-01 9.6053020791622568e-01 6.4388293509403172e-02 5.8524171712082902e+00 -1.6929254942940632e+00 -1.2900835970905380e+00 -4.6121009502853383e-01 -3.2966745697443667e-01 -3.9718465702144101e-01 -7.2854076552905269e+00 7.7023770272972358e-01 -1.2864572067319040e+00 -5.6516533397823032e-01 3.1532933238636041e-01 -4.1797986980143975e-01 -9.9746557711230144e-02 9.2720055971214022e-02 -4.0704581002831475e-01 -1.4636917241652392e-02 1.5043720743730966e+00 -9.2157322072453240e-01 -8.8674022566006858e-02 -6.9711337488091374e+00 6.2658694891403499e+00 8.0103176318816860e-02 3.6020430884953725e-01 6.9009238263306827e-01 -1.7737744795004238e+00 2.0648906239883452e-01 2.7320003140339666e-01 -2.8067143761398067e-01 -9.2289264190070810e+00 3.7641467782166163e-02 1.0530340816368302e+00 -3.4159085109281107e-01 1.1969531726355260e+00 -1.1167527843695879e+00 8.0005071663491577e+01 2.9458047463017079e-01 7.4419667613020457e-01 -8.5679564749483372e-01 -1.1285186334048027e+00 6.6481539887737062e-01 8.1150134788985984e-01 -1.1571534450241412e-01 6.6302792885780866e+00 -7.2441148613915374e-01 1.7724844811453057e+01 1.2724514283671255e+01 1.1166778601091528e+01 -3.4724068984800169e+00 -3.1985655752515640e-01 6.4857605753726979e+00 6.8615365340846832e+00 5.6282538286502088e+00 -3.1325041085183543e+01 1.8022019377855372e+01 -1.4427470417217927e+01 3.5063052681327678e-01 -2.3201641007567275e+00 1.3838601839669309e+00 2.4823056542611477e+00 1.1494183314592092e+00 1.2667293371473709e+00 4.3718421538273844e+01 5.0265228502396155e+01 -3.0797404761389462e+01 1.6582664908360889e-01 -1.0299703089581413e-01 1.7953702791506378e+00 2.4561239101951169e+00 -1.4553874800021456e+00 5.0182427456450043e+00 6.2959142113098778e+01 7.9040462220476286e+01 7.0986333297484414e+00 1.1190212959635614e+01 1.8172036560309820e+01 -1.8216018245834665e+01 -6.6897416893321653e+00 -1.9779341917593136e+01 2.1015042079709474e+01 -8.4514809237329615e+01 8.1678171455655587e+01 2.9609081382925766e+01 2.9739310109319597e+00 9.6053184198739132e+01 -7.1854609368369438e+01 2.6168808276588706e+01 -2.2430410811656621e+01 5.5632379444760574e+00 5.0231257861329823e+01 3.7862328300137726e+01 -6.7396968761145217e+00 -2.8621481691599016e+00 -6.6356075495063918e+00 5.2062696013049239e+00 1.9533647270331009e+00 1.9622392485853757e-01 -1.0080184212234595e+00 -1.4906869110888623e+01 1.2533967389395663e+01 1.1740332722939570e+01 -4.5293745471053271e-01 -8.4520242345445240e-01 -4.2206834231350081e+00 -2.0520334543442065e-01 -1.3859503579135357e+00 2.1941836990380514e-01 5.2935679126790092e-01 2.2244640836574998e+01 9.7435305293888135e+00 -2.6097630015762423e+00 -2.3001456038408890e+00 1.7297539080739541e+00 -1.3870462235560601e+00 -2.3795649518434279e+00 -1.5792895923105355e+00 2.3581126338866440e+01 -4.0012549235762435e+01 1.4853435473730769e-01 6.8863544607754479e-01 5.1374966650490137e+00 9.7439059332074294e+00 -9.7751092002476270e-01 6.5258659522261997e-01 -1.4818361748120706e-01 2.9164635893823743e+01 2.3938936529060605e+01 9.8045500961204652e+00 2.5016633668040544e-01 -2.4588146831563460e+00 -1.5236216136520397e+00 -3.4448237373596591e-02 1.3464392927251634e-01 1.1151200555326390e+00 -1.9156452425868338e+01 -4.6161233845634797e-01 -6.7609314227214412e-01 1.2091392028336316e+00 -2.3977028325588424e+01 2.1368995194779302e+01 3.9434017195246440e+00 2.5491437364802265e+00 1.6551583199821218e+00 1.4553755345222271e+01 -3.3648541614297756e+00 -1.1091021046570816e+01 -9.6443052081217295e-01 1.7000357442697691e+00 2.1063627849206057e+00 -8.9068535359942302e-02 2.0140561901954912e-01 -1.3677611523532991e+00 -2.5964972663723795e+01 -8.1338744790677652e+01 1.7778271195309742e+01 8.4578023380530816e+00 -1.4916755913407655e+00 -9.4414057808693101e+00 8.0869542848005871e+00 5.7749358014128358e+00 9.7167680156658953e-01 5.0731105584390093e+01 -8.4700139161974221e+01 4.5937768351561772e+00 1.0321155419885439e+00 3.9097185007171333e+00 -7.7004687699141527e-01 -2.3679619482506666e+00 -1.8903406089132013e+00 -1.9611960309481091e-01 -9.7587183551195267e+00 1.3046937550688563e+02 5.3541733036146113e+01 -1.2378117732530834e+01 6.2368049098659810e+01 -1.9631461232494473e+01 2.9327498523551025e+01 -2.7232953854128681e+00 -1.8514700891876657e+01 2.5425678612394222e+01 2.3236963977704594e+01 -1.7888319366007628e+00 1.1147055341496710e+00 8.9759470343549230e-01 1.8517562695118195e+00 2.5549032381998288e-01 7.0006135705964767e-01 -5.8098173529484143e-01 6.6458882428531014e+00 1.3408737132747138e+01 
      </Row>
      <Row Index="73">
        -1.3047327737510246e+00 -1.1938842126722862e+00 2.4059514663241544e-01 9.4175345260827044e+00 5.0791594232801003e+01 -9.8132537014572119e-01 3.8348251445729886e-01 9.4616466741222816e-01 -1.0772124567131911e+00 3.8990008192050274e-01 2.4305412410012772e-01 -3.8468251915801943e-03 1.1069461585868225e+00 -1.6470388086036519e-01 1.1712536975793278e-01 2.4690450284593624e-01 3.9497500416746334e-01 -1.1893342661347788e+00 -4.5575096513079018e+01 -1.8887546852411470e+00 1.1621747451128694e+00 2.0366299739195761e+00 3.5313783970430208e+00 -1.9452879544790058e-01 -2.0301862127640979e+00 -1.2231325600954494e-01 -2.3738975714943820e+00 1.8252941812497927e+00 7.2950791025706252e-01 -2.0612259182934167e-01 -3.1837953992500090e-01 -2.6892991337275021e+00 -4.5209452662515446e+00 3.2505997983519386e-01 4.6652962763942085e-01 1.3930508870484104e-01 -9.7980576846332212e-02 -2.0746201661047128e-01 4.8909648881704536e-02 -2.7952383508336842e-01 -7.7624504265853034e-01 -5.4164950333645656e-02 -6.0893706598190467e-01 2.7561407864254761e-01 -2.9103342551870789e-02 -3.1109966347014506e+00 2.2276996226122805e+01 5.1576326181978638e-01 -2.4360950189610961e-01 1.1231930375675461e+00 1.2410868278218885e+00 2.0921062782075778e-01 -5.0449547384148796e-01 3.9968035343774133e-02 5.2429323465020161e+00 1.5250164473788252e-01 7.5031630353355627e-01 1.5899105056958207e+00 -5.6440808780388885e-01 -3.2669353103267724e+00 -6.7328783315291361e+01 -6.2558152972531733e-01 -9.3105196023921089e-02 -1.3407744518003650e-01 1.6765524213664373e+00 -2.7979986216222008e-01 -1.5803994424353567e+00 1.6108618552776202e-01 -2.5581302448931211e+00 5.0407256426735980e-01 -3.3515785292808502e+01 7.1574300773915667e+00 -3.4724068915176884e+00 3.9513986504732998e+01 -2.4763585312937266e+00 -1.4387299379362148e+00 -5.8563685294904722e-01 -1.1713651607931141e-02 3.0441418315572548e+00 7.6092248531641332e+01 -2.9198157954693675e+00 9.6217238137466787e-01 2.2868511657857880e+01 -4.9123860255826912e+00 3.5888830129122268e-01 -2.1420793715817116e-01 -7.4354045075102293e-02 -1.2512967612691295e+02 -6.4936912365580028e+01 -1.2114150566887218e+00 -4.2555531570209620e-01 2.8855497954446982e+01 -3.0337841964676571e-01 9.3602723418686775e+00 2.9775348942408186e-01 5.6935599619128174e-01 -1.5558812761765603e+02 7.1266001695016456e+01 1.4107433820757539e+01 8.0461878707232728e+00 -7.6918930796768791e+01 2.1691704553879404e+01 -1.0530039892762708e+00 1.5397291135823853e+01 -6.4382060425857093e+00 2.0479787723525698e+02 -1.8895835402727499e+02 -1.3091441429043320e+02 3.3456018916684691e+01 -1.2692886711521301e+03 1.3942101014621983e+02 6.8746134861866306e+00 -6.5344026891563880e+00 1.4409663013254889e+01 -4.2187551211265891e+01 1.0558770245497481e+01 -7.6367522795246714e+00 6.8765582347888987e-02 1.1158941401984703e+02 -2.8073171712493256e+01 -3.0632027980041165e-02 -1.1516386087413342e+00 1.2704129488597316e-01 -3.1135938067714562e+01 5.1822834517821029e+01 -1.0024567682703037e+01 2.4320320907195780e-01 -2.3185065074859267e+01 4.2761505956675947e+00 2.8191301615295901e+00 9.5318763387924887e-02 -1.1177768397180883e+00 5.5990663655459684e+01 1.3829472508660807e+01 -1.3308446141560546e+01 2.0672177637664241e-01 -8.5101644351659331e+00 -9.1593729408836388e+00 -1.4634420549276250e+00 -1.4073685831197760e+00 -6.5488839207021465e-01 -9.5303820504919301e+01 -1.2691590014387202e+01 -2.2644067515279858e+00 -3.6582063197684639e-01 -2.0662888905967520e+00 -1.6464620232295601e-01 -1.0970199572626882e+00 8.3892104391573286e-01 2.2724543613882786e-01 8.4828857687216441e+00 5.9472045932556142e+01 -5.5746452299772500e+00 7.9077425652017252e-01 1.1384976124039881e+00 1.0362744790218130e+00 2.3391197538718300e+00 2.4321813631339984e-01 -1.7770854157281146e+00 9.6105343680465012e+00 7.7543951819758149e+01 -1.0697215758592915e+01 1.8391130603030215e-02 5.5216765021277411e+01 -1.7920296937444633e+01 1.8327053120692938e-01 -1.5990562731891682e+00 -1.4105546061278744e+00 5.9019513217319059e+01 -3.1981390727715734e+01 -5.2775651943907320e-01 -3.8859940766124018e-01 5.3524638025517106e+00 -1.5656205514990233e+00 -3.4078306468706643e-01 1.7735032652006272e-01 1.4757421113129952e+00 -8.6060235831774250e+00 7.5680120078254163e+01 -7.6826535029764500e+00 -5.1570083723436770e+00 -9.2125424043759736e+00 5.1813021308833456e+00 -6.9282817343571841e+00 -2.3676899867964845e+00 6.9770362505757877e+00 -2.5763209692048207e+02 2.8191319729561656e+01 1.2777250261792688e+00 -8.3519671032791720e-01 -1.4706748562385428e+01 -3.1339320846008434e+00 2.1452808002381971e+00 2.1015710181353047e+00 -2.5241755505599883e-01 -4.9249050605732918e+01 -1.9211698706435439e+02 -1.4309256782735292e+02 2.8175858467945478e+01 -1.0690792661085898e+03 8.1570782237039424e+01 5.5789834105544855e+00 -2.0930561469840214e+01 1.3202607421690123e+01 -1.3753384065002820e+02 -2.3156811477780689e+01 -2.5804449959869165e+00 -1.1188312585441622e+00 1.7618184591204118e+00 1.0893028386702988e+00 -7.7001170167910882e-01 -5.3767600940384730e-01 1.2022933288067179e+00 2.0797774724779920e+01 -4.5182297453143804e+01 
      </Row>
      <Row Index="74">
        5.4004608484175420e-01 -1.2950928541519158e+00 2.6073039040815971e-01 8.3187119714802975e+00 3.0556591867422753e+01 -2.2730557159947282e+00 -2.2112786111375549e-01 -3.9527353981059719e+00 -4.4138689899853745e+00 -1.0596822857994717e+00 -1.3086730858992697e+00 -9.9702679494306778e-03 2.8313494942554485e-01 2.0993709077033951e-01 4.7071205116605324e+00 -1.5223209030933411e+00 -1.9107963757022901e+00 -6.0701610792289102e+00 -3.7252226705727509e+02 -6.2004991437765153e-02 1.7470609486319205e-02 -2.9924397473299020e+00 7.6361534186139179e+00 2.0458307029117295e-01 -5.4673449116971085e-01 -1.0401171616341440e+00 -2.0196918313562406e+01 -7.9393298465913897e-01 -2.7483414558215813e-01 -1.8933846779266474e+00 1.0090266040830436e+00 1.7433892835967413e+00 -1.5290828015652096e+00 -1.0313286794023950e+00 -1.3858041220465438e+00 -3.7942829568800462e-01 -1.0294450681207934e-02 1.4373975264442187e+00 -6.0954072418080540e-02 1.1830163436621035e+00 -1.7072752732846652e+00 5.6551432200914409e-02 1.1414655581365498e+00 4.0176780153993263e-01 -5.5647170616266672e-01 -5.4015196827655245e+00 1.3687282115825286e+02 -1.9457628620673033e+00 9.0886546494221809e-01 -2.3787941411586147e+00 6.5853266092234541e-01 -4.8932669819961605e-01 -1.0968928064651315e+00 5.3611494515590707e-01 1.6094701981648370e+01 -4.7144631115915558e-01 1.0834402762536339e+00 1.1877815559871960e+00 -3.3707507339273834e-01 9.3890843005358988e+00 1.8009741588208149e+02 1.1281481030682197e+00 5.2698588285003711e-01 7.9525186526286240e-01 4.7170655322161510e+00 -3.5237224626156083e-01 -4.7386913972130129e-02 4.0788882977634833e-03 -1.3348680133294348e+01 -8.4152535324536926e-01 -6.7771128795691311e+01 1.3089865064714132e+01 -3.1985659167860669e-01 -2.4763584689872005e+00 5.8423290332264742e+01 -9.4858811747827509e+00 -1.8177548716269127e+00 2.0693600084798885e-01 1.1689666593790267e+02 -2.0664559277251803e+02 2.7714043238940093e+01 1.0650902210411328e+00 7.1060487038597557e+00 3.2886795162058434e+01 -1.4247885807180025e+00 5.1306888485112587e+00 3.5437859359854142e+00 -8.5078602418058267e+01 -6.3667085437544031e+01 -4.8198775596901179e+01 7.2658418181783302e-01 7.7637810683847945e+00 6.3654582714886594e+00 -1.8627893389793954e+01 3.2064270018957650e+00 -2.2231807430780712e+00 -5.6692229734381954e+01 5.5744736260299078e+01 -5.7098691237972318e+01 -7.0398168478748602e-01 -1.8076975467570662e+01 -1.2557506210289529e+02 3.6022311639884728e+00 2.0899172420276431e+00 -7.9010526651472182e+00 -1.0319466273411692e+02 2.4737272371131507e+02 3.1103079373483365e+02 -6.6583591720183392e+01 -1.4597679126011872e+02 -3.9539635666409288e+02 -1.8524667879776700e+01 -8.8743372979037460e+01 -5.6226898267088991e+01 -1.9976959745414433e+01 3.5739141450707422e+01 -2.4663563242575833e+01 4.2381772044409978e+00 1.5665346612719439e+01 1.0411481654251700e+02 1.2006436129005927e+01 1.6667504795197143e+00 3.2198887310824778e+00 5.3520915887397031e+01 1.7488602140492947e+01 1.6025725074194497e+01 -3.8544526231132465e+00 1.1890254808290592e+00 -1.5091150002646135e+01 5.4003093770683925e+00 -2.9807304567957082e+00 3.5378284304788776e-01 -1.1275968843357941e+02 -2.9054308336035052e+02 -2.9420009445897364e+00 1.1164574193156771e+00 -1.3335927740902207e+00 4.5690407311995678e+00 7.3351722518570028e-02 4.5522192896414824e+00 2.8218261993504776e+00 -5.0568667903663624e+01 -3.2624127172437056e+01 1.1968026957858228e+01 -1.2973905797535037e+00 -1.3133093465871752e+00 -2.3850050203648152e+00 -9.2461781480737670e-01 1.8921714901403623e+00 6.7212234032860751e-02 -2.6473765750941766e+01 1.1779325068324714e+02 -1.0624670281952149e+01 -2.6347339049379137e-02 6.2821728682379074e-01 6.7336183585058507e+00 -2.1111487191919904e+00 -5.8700983510719240e+00 3.9011162527766885e+00 4.9166126809692287e+01 -2.0619833906602776e+02 4.5767096144186539e+01 1.7107236053836579e+00 6.1487180793043432e+00 1.7581772258783889e+02 6.4030979916003261e-01 2.8248495853611701e+00 -2.0902409472627816e+00 -1.4732350401769395e+02 -2.2889730120340118e+01 8.6935856515710768e+00 -4.0688446224841801e-01 -1.0919605437424593e+00 5.8452944544307002e+00 -3.1080699445010573e+00 3.5743143882137489e+00 -4.2341691453499344e+00 1.3452054259824763e+01 2.5528527226369647e+02 6.4460894891083171e+00 -1.1806818533216330e+01 5.8734700124987285e+00 1.2804762881569964e+01 -1.4751191542810915e+01 4.8133808171959078e+00 6.1358423793384560e+00 1.2864262524450137e+02 7.4218835189749370e+00 1.0150033091903424e+01 1.0103493676995807e+00 9.4367443509356690e+00 -3.7223621974385566e+01 -8.5310807887151441e-01 -2.9655963338870928e+00 -2.5304318961404704e-01 -1.5112000996854476e+02 -2.3441929603958238e+02 3.9881110339752450e+02 -5.4956364892775539e+01 -1.1063402236225754e+02 -8.8319960382377687e+01 1.2352237401171024e+01 -9.4164604828789706e+01 -4.2867291148176029e+01 3.5161690405224363e+01 -2.8111197946124324e+01 -2.4691457393078875e-01 -5.7825799088548990e-01 -1.3111478524689644e+00 5.4948469830135114e+00 3.1318821814961928e-01 3.5558086938018341e-01 -3.3444308797645590e+00 -7.0862506454475902e+00 -2.8765440813755006e+01 
      </Row>
      <Row Index="75">
        -1.5812876581751887e+00 -3.2766161952498996e+00 -6.3893045667421688e-01 6.6827031135476318e+00 2.5677448336140060e+01 -1.6100932582022016e+00 -5.8632441745203323e-02 -2.9598935286843897e-01 1.9325084801063213e+00 1.0723788720004535e+00 2.0102024243105782e-01 -3.6318467990241743e-02 -5.7613854387060996e+00 4.8761083955024226e-01 -2.8198889367593756e+00 -3.0364280103440251e+00 7.9711680221248571e-01 -1.5855071115831834e+01 -9.6053151251929478e+01 3.5116888376574078e+00 -8.3076125401756795e-02 1.9963012011845160e-01 9.8935214704390084e-01 -1.2710295380430296e+00 7.2958696332860895e-01 1.3584002182301138e+00 1.1992667615758364e+01 -2.3456900271969992e+00 -2.7347522289073822e-01 9.7420637907856644e-01 -1.4737505612856268e+00 -1.6805641603530148e+00 -3.9051029693913506e+01 -4.6299594487112472e-01 -1.6771053168201888e-01 6.2934124630065469e-01 -6.7430626016263773e-01 -1.8931185497277880e+00 1.1617724987644426e-01 -2.2242282656290353e+00 5.0829393284755042e-01 -1.4554238548364484e-01 1.1119175694917760e-01 -8.3717815143700136e-01 6.0445079695247905e-01 3.0567202833995907e+01 7.4559034750149522e+01 -1.8929434876816100e+00 -5.6978378425324172e-01 -1.9612496169867200e-01 1.1199406699540049e-01 1.9007090810135896e+00 4.2447395593896303e-01 2.0535970783090107e-02 -2.4177799331600909e+01 1.0411659004580255e-01 1.7706819525476556e+00 1.6501037221613555e+00 1.2638718001819631e+00 -3.2845358130384625e+01 1.6631361898825079e+02 3.6209860645643515e+00 2.4348636732122020e-01 1.0246486333304128e+00 -7.2507193164001205e-01 1.2979201001931351e+00 3.8187558778135644e-01 3.2766300752649880e-01 2.5522870632568186e+01 -8.2855630982755102e-01 -6.0018116003854956e+01 2.0764541281620694e+01 6.4857605285826958e+00 -1.4387298867504796e+00 -9.4858811356434671e+00 6.0666969645642276e+01 3.5117461452950165e+00 3.1318821591127626e+00 -3.4785744249696052e+02 1.7466514781420560e+02 -4.0685113651242908e+00 3.1161778466421897e-01 -7.4575156763057748e-01 -1.9352191502875939e+00 9.2451499240485973e+00 5.1014257957228315e-01 -5.3757182452924379e-02 2.2496570611214793e+02 1.1962777662507824e+02 -1.5943668572652325e+02 -5.4665667335204327e-01 -3.5128256333512313e+00 7.2531609842253886e+00 1.4399234726263870e+01 -3.4963893253571774e+00 5.9201285163501192e+00 2.9666845799242935e+02 3.8037340916063624e+02 -1.8452246066504472e+01 4.4834864458018391e+00 -1.8563923789563489e+01 -9.2556860491252223e+01 -2.9082062724403052e+01 -6.3810960346175856e+00 2.6248007785314432e+01 -4.0661168062384786e+02 2.3612210826565408e+02 -9.8332785841241190e+01 -1.0453564524898290e+02 -2.0433046657166483e+02 -2.1365047887790254e+02 2.9991139731526687e+01 -5.2694031040252924e+01 -8.4451508417340733e+01 -8.2762657484621016e+01 -1.5348158412242142e+01 1.4212925276618989e+01 5.1390755421963545e+00 -1.1452424173994523e+01 -7.8503647567503165e+00 1.4341314949270027e+01 2.5824229087410355e-01 4.5873618766774289e+00 -2.8380901621456058e+01 -8.8504544401709779e+00 2.7204412319082621e+01 2.5099937978318065e+00 -5.7418026085560996e+00 -5.2401624144469565e+00 -2.8069973720457142e+01 4.6985539973869583e-01 -2.1464339952896982e+00 1.7887032676106173e+02 -6.3644762057375424e+01 1.2861168044306169e+01 -1.4559087725020632e+00 3.6824658599798568e+00 2.1059821245033365e+00 -1.6135826778738540e+01 -7.1947758064561385e-02 -1.4186091212020491e-01 -8.6317862552620284e+01 -2.2811851961701905e+01 2.2723005985135387e+00 2.3815085426790934e+00 3.8295473167117962e+00 5.5582374394007275e+00 -1.8097266552339306e+00 3.1200473632990509e+00 1.1295776255063070e+00 -6.4987613499157305e+01 6.5605552720544324e+01 -7.6761396307738323e+00 1.7429105362947808e+00 -5.8035998183838640e+00 -4.9864357900287359e+00 -4.5345886025935513e+00 4.4319511876850122e+00 -2.8874227666616141e+00 1.4934444661576708e+02 -5.9410723200657230e+01 3.9531379890392763e+01 -5.7841834045719698e-01 -1.6657750299811596e+01 1.2545115484095213e+01 8.0638972468849488e+00 1.8367120106853734e+00 1.5178217986061355e+00 -8.1787678629187212e+01 -4.6569999690760596e+01 -5.5743669880050675e+00 -2.0195147768294950e+00 1.6749247230986839e+00 5.3492918883898710e+00 1.4660720188598532e+01 -4.0974721907088565e+00 2.7038595732649724e+00 -4.2954344301942194e+02 -8.2252297574738145e+02 3.0457957073637317e+01 8.9814195277462279e+00 -4.4010565268632007e-02 -1.5379553560752719e+01 5.1965859378025357e+01 4.9094387301843252e+00 -6.8116366741464454e+00 3.6946741389352340e+01 -1.9811920087881299e+02 -5.5537190217237367e+00 2.2907094199527478e+00 1.4544284474814049e+00 3.7612089383736702e+00 -1.6231077200329764e+00 -1.8304412660491707e+00 -3.5966681579338911e-02 1.7679692765028449e+01 5.6289772025330808e+02 9.2739273472582795e+01 -1.0215872565397707e+02 -2.0974909200827446e+02 -1.1362702572190244e+02 3.6463746553677538e+01 -4.0658081658346070e+01 -1.0394845686399566e+02 2.1566809807043319e+02 1.2317423900090478e+02 -8.5907422569744067e+00 1.1332122011976935e+00 1.6584054087651872e+00 6.8315885213042349e-01 4.1324052587345328e-01 -5.2250613927228851e-01 -7.3102357008519903e-01 -6.5589299266023730e+01 1.7952727393132858e+02 
      </Row>
      <Row Index="76">
        -4.6387976765860361e-01 -7.4761575532169022e-01 1.8358412258428558e-01 2.8261934922924183e+00 5.7592855673370764e+01 3.6424290539839475e+00 -8.9661042050782314e-01 3.1480603056316312e+00 1.8688487353155274e+00 -5.2365122473114445e-01 -3.9752348366699074e-02 -5.2700026452559712e-01 2.1628254350137723e+00 2.2768501940353425e-01 -3.7903721651036095e+00 1.9530525701675217e-01 6.1673651140293373e-01 6.9267467290711693e-01 -2.4502428715309634e+01 -2.9648214951342942e+00 5.7196598881492672e-02 2.7570077403002928e+00 -1.8131038386505030e+00 4.2317952843794421e-01 6.2010499617054693e-01 3.4096343624388681e-01 6.1377060627511071e+00 -1.1155354631215273e+00 -1.0121407799534161e+00 -1.4510593073599765e+00 6.6099574670699646e-01 1.1599904517692039e-01 -1.2593112978047657e+01 7.3829132016965460e-01 -3.0337756094608537e-01 -6.5616446498108871e-01 5.0414167890878048e-02 -3.7625664651997309e-01 -5.9544735600028043e-02 5.0764626487912179e-01 -7.6276747750351603e-01 1.7543661108506803e-02 1.4431749105231166e+00 -8.1660012955408945e-01 9.3710764461011342e-02 -1.8732483047802475e+00 -1.8167620128168778e+01 3.5833474395996906e-01 -1.5049869379955214e-01 1.3255204449815139e+00 -9.3039903269309576e-01 3.4625816973215207e-02 3.1143743266535506e-01 -1.7520246288281172e-01 -4.5893004754228173e+00 -3.3200624109327850e-02 5.2977329257274308e-01 1.3094500908859321e+00 3.6967315522284183e-01 3.2732066946111615e-01 5.5487531710581266e+01 -6.7152899583513403e-01 7.0441037631178327e-01 -1.2453097098947041e+00 -1.5527310282805817e+00 1.0012274175276497e+00 4.8260863099694640e-01 3.7440902469021170e-01 3.5326773934736480e+00 -5.3155573526136179e-01 1.3928240914790941e+01 1.4240801391600179e+01 6.8615365394054866e+00 -5.8563685464105220e-01 -1.8177548504672245e+00 3.5117461790282123e+00 1.1097136176313748e+01 5.6072070085939396e+00 -4.0312751362281944e+01 5.9148023666475702e+01 -1.2740049580781802e+01 7.8666103457981407e-01 -2.4267393350021393e-01 -3.6109707819150572e+00 1.8758412584537640e+00 1.7788193719260721e+00 1.7745612571721923e+00 4.6176971093261727e+01 -1.0233968748535137e+01 -1.1718911354257688e+00 1.3509753626587675e+00 -1.5033119239951565e+00 3.1600495902778327e+00 -3.5861148052681822e+00 1.9201707100635406e+00 5.9501832329755144e-01 5.9211207329526857e+01 8.3998872138354187e+01 1.1152071306656122e+01 4.2329859943747667e+00 8.5753651415836174e-01 -7.5711126011116798e+00 -9.3345833533008626e-02 -1.2532281658752083e+01 1.3462843343910526e+01 -6.4178629665748446e+01 1.3538979398792230e+02 3.6786854404748709e+01 5.4657183918875827e+00 7.8582720590027066e+01 1.3278609344669009e+01 -2.7762054597304576e+01 -2.0267639189423946e+01 6.7190411774805430e+00 6.6553915527606478e+01 3.2726641911411562e+01 -9.9139645671756398e+00 -4.3450910690481335e+00 -6.0720201219111551e+00 1.5387095242195398e+01 -1.1771507447370504e+00 6.4212070461641158e-01 -2.7880945146491243e+00 -4.1376929454408142e+01 3.8445747933932665e+01 -8.9408087922602135e+00 -9.5744683344750880e-01 -1.4873125100568814e+00 -7.1588759998858400e+00 2.8610946020403194e+00 -2.1459147963157683e+00 -8.0111909771731793e-01 5.5344157186887514e+01 -1.0705423920165889e+02 6.1951082237699140e+00 -1.9856391647940854e+00 -1.0302914626542758e+00 -2.6403776983605098e+00 -1.6009868339893458e+00 -5.5130353251479294e+00 -3.0245799439096968e+00 5.0716376605863871e+01 -3.2885339378526396e+01 -2.0529456444976404e+00 1.2526111445622312e+00 9.1249121200108902e+00 5.7779662550961461e+00 -7.7391058299568272e-01 -4.7994415812455604e-01 4.6847472366673937e-01 6.3761822828349523e+01 2.8137120631627120e+01 1.0389040204091089e+01 -3.2577414616152781e-02 -2.2781914319365129e+00 -1.2697272904471220e+00 1.0870041899077654e+00 -1.1867373689779979e+00 1.3211690273426524e-01 -4.2094217675013169e+01 6.2653913357715510e+01 -7.0071400686895373e+00 1.5466289995123046e+00 -2.0536166672073740e+01 -4.8574106739258625e+00 2.9516061641395765e+00 2.5134339410513546e+00 2.5205283217169843e+00 2.0685703698961561e+01 -2.1745605798780161e+01 -1.2351764298581203e+00 2.5209453477895760e-01 1.6554636564112002e+00 2.4901300908371695e+00 -1.1513694903358882e+00 1.8217878716805507e+00 -4.2682074895716299e-01 -4.1378069136252009e+01 2.8708743202886922e+01 8.3443867621325580e+00 5.4428599124911843e+00 9.8287486151643293e+00 -5.8226029029003676e+00 1.1841581778220391e+00 4.9848894908096240e+00 2.3962823786429439e+00 9.3228419829292363e+01 -7.1698602868782473e+00 2.6334292033350266e+00 3.7757219181474078e-01 5.4033601095310928e+00 4.1222611904660482e+00 -1.1899034214141011e+00 -1.4316107463403513e+00 -2.4631777276302103e-01 3.1539396289688739e+01 9.0907946620376379e-01 2.2858572164573030e+01 -4.8615589909594563e+00 5.8097159660869330e+01 4.5253384382629548e+01 -2.2769271856040604e+01 -1.0350488720155127e+01 -9.8695791436607987e+00 -1.8468049276989404e+00 -1.3735769637393462e+01 -1.8589507914405506e-01 2.1697611841653952e-01 5.5320688703064214e-01 1.9882622484120200e+00 -6.6314356499361560e-01 9.8298846036913157e-01 8.2144828889011023e-01 8.2143604764580722e+00 -2.2852680809527730e+01 
      </Row>
      <Row Index="77">
        -1.1338535282032911e+00 -2.6951936707827773e-01 -9.2979306062462541e-01 7.2003667304956593e+00 7.3357002831187742e+01 3.2824610450846441e+00 -6.0641015468261550e-01 2.3417204281404924e+00 1.7386342405326474e+00 9.2945568872205098e-01 -1.4760833055320657e-01 -5.5998006941632639e-01 3.3511129593593836e-01 -5.7173947900961572e-02 -3.2634797198709062e+00 4.5000831477243963e-01 1.0746997654931647e+00 4.3474137774919086e+00 -1.6644030982594759e+02 -6.8429205581931452e-01 -1.2947207127199400e-01 1.9428535763807571e+00 -1.2923591926717231e+00 -1.3419579581302954e-01 1.6004621537618859e+00 7.2236735687218645e-01 8.0977229437691562e+00 -2.4762833741440829e-01 -7.2840670509160432e-01 -7.6230653347019484e-01 -1.8253112974790930e+00 -4.2403660041827607e-03 -1.3285090368490273e+00 6.2545259344703386e-01 -7.2867709118992963e-01 -4.7512097781922691e-01 8.0903871274848882e-02 -1.6994098073298995e+00 -7.0942553815156059e-02 -7.1766916607804410e-01 -3.0979391434810566e-01 6.0937886862519219e-02 8.6021508389060908e-01 -4.4575109086733278e-01 -3.8896322503726921e-01 -8.0666908522533163e+00 1.1336541610843170e+01 7.0178647442896291e-01 2.1311524616865221e-01 8.8919999503296054e-01 -2.2581261517274172e+00 -1.0618297175183222e-01 1.9742024523245794e-01 -4.8669563332606258e-01 -4.3838374955066683e+00 1.1470319359419062e-01 4.5035725796475923e-01 5.9014387852583705e-01 8.9686021229548996e-01 4.1200351207969845e+00 6.9448739244449939e+01 7.5831166381204385e-01 8.3262767561139650e-01 -1.0764949025655417e+00 -2.1986783509156278e+00 1.1228414382204202e+00 6.2449683183124627e-01 5.7569255791928642e-01 4.5124659420914419e+00 6.6095485875148352e-02 1.1652503449838964e+01 1.2209028081973042e+01 5.6282538249093177e+00 -1.1713645416534746e-02 2.0693602584128712e-01 3.1318822074552055e+00 5.6072070018531237e+00 8.9658346409143235e+00 -1.6898669724800968e+01 8.8582540732181229e+01 -4.9121462484824168e+00 7.3829684396502815e-01 -6.5934765399981643e-01 -7.0021389855696725e-01 2.3669956993086370e+00 1.4394772613770033e+00 9.0951680558034886e-01 -1.0126023769363107e+02 1.2118475685871239e+01 -2.7698124811141010e+01 -1.1811899703505717e+00 1.7594763293535776e-01 6.9998471993289026e+00 1.5777711142881929e+00 -2.7566344824281006e+00 9.8318522942285007e+00 -4.1285853283038136e+01 2.9651303604097933e+01 7.5264146485803156e+00 8.4008995712076917e+00 1.4305130510344263e+01 -1.4397660076873112e+01 -6.4617914055179266e+00 -1.4240592817128851e+01 9.0079391232198116e+00 4.0615225913752234e+01 -1.7092991047526198e+01 8.8871134406309096e+01 5.0778224245329024e+00 3.6354313216293619e+01 -1.3944376180232261e+01 -4.5736579339621208e+00 -3.2862027955168109e+01 2.2839094628559131e+00 -5.0407096553811471e+01 9.1199153363162537e+01 -1.7749088156334437e+01 -3.9911239518278077e+00 2.4285841190640234e+00 8.0912172124531292e+00 -1.8319954641959129e+00 9.8323229928094191e-01 -9.8882251632708851e-01 1.2530305791542094e+02 2.6064897908837196e+01 -4.8017167315676943e+00 -2.1344519573428045e-01 -1.8463484993324073e+00 -4.1319264881029270e+00 3.5809522034093200e-01 -6.6835372928531944e-01 -1.0274121725514478e+00 1.3284717260983962e+02 3.0877048714327451e+01 1.2036090287094448e+00 -1.6029661797816515e+00 -3.2061297868628031e+00 6.7156231290499413e-01 -1.4321123874005135e+00 -2.9797044284371696e+00 -3.3569723250791732e+00 5.8469495574658723e+01 -7.7175869348440301e+01 5.5536513088532047e-01 1.3367585206294041e+00 5.1988297516979856e+00 7.0382449317514784e+00 -4.9862937145464059e-01 -4.1634946172161102e-01 2.1051269845454020e-02 2.2281207331996484e+01 3.9059126070833422e+01 9.8199968715048271e+00 5.8417379135193603e-01 -2.1571991837884257e+00 -9.1690772196727721e-01 2.0510493277789044e+00 2.0544729941747364e+00 -1.7828100998668868e+00 -6.7775292534872278e+01 6.4656237093224263e+01 3.8862302623025364e+00 1.8758249510123604e+00 -1.5501064114663501e+01 1.2871356999527173e+01 2.1915765180533739e+00 1.8091684027809991e+00 1.8951253005495090e+00 -5.5824901788431362e+01 -2.1392917997186032e+01 -6.5250098413014648e+00 -9.5561012306368176e-01 1.8228437961844861e+00 2.7689083274773338e+00 4.5072893999940078e-01 -1.2148719677287130e+00 1.1991774694268083e+00 2.2274619438803143e+01 6.8549464284732267e+00 3.9318066804232785e+00 4.2777579905128711e+00 -7.1125597995792234e-01 -1.1549206887970639e+01 2.8829696349253844e+00 3.8681077895150375e+00 1.3987538320610211e+01 2.1358691982504695e+01 -3.3743247803127815e+01 -2.7659583869426569e+00 -1.2488493900979165e+00 3.3857929424773374e+00 1.3288855912157942e+00 -6.6362268525142554e-01 -1.2014927209914283e-01 -5.7265900833632344e-01 7.1521815455351316e+01 8.4400278252124849e+01 1.0558729265065671e+02 -6.1489199369424723e+00 2.0427066740416649e+01 3.0444216728524360e+01 1.0613234891938816e-01 -1.6141893437114160e+01 -2.7959906181019196e+01 -3.5789074553326827e+00 5.8510597770957873e-01 5.2096266704382665e-01 -2.5909608233959602e-01 -6.5177029626863892e-02 8.9041625814608871e-01 -4.9066721343582592e-01 -6.8403811597242936e-01 -8.5158280894091831e-01 2.9747027944818633e+01 -3.0140262374673839e+01 
      </Row>
      <Row Index="78">
        -4.3758679771723038e+01 -1.0441957077387407e+02 -2.9279569129867014e+00 6.1668801292823628e+02 1.7317681092714018e+04 -1.2891696949424065e+02 -5.3743578491848893e+01 1.5941223510644704e+01 5.0095897990289814e+01 -1.0872340623010969e+02 5.9037399367826904e+00 5.0229644405650106e+01 -2.9114517721947777e+01 -9.2667604931464354e+00 2.3022673734250301e+00 -4.3537863978137466e+01 6.4984618440212216e+00 6.5229802849353291e+00 -2.3340365958170307e+04 2.8954527684784864e+01 3.9630834901798089e+01 1.8861923574352033e+01 -9.3952799740563222e+01 8.3703126470551169e+01 -5.3255940599933655e+00 -6.2092914899936709e+01 -3.4141902921081055e+01 9.6295589843923164e+00 8.4027028858763515e+00 8.9973597785938182e+00 -2.5503214929029127e+01 -5.4065226700506173e+01 8.9086305032417295e+02 -3.1992537797726072e+01 7.4006337581340631e-01 1.9562626055085275e+00 -3.2176406371294433e+01 9.1256742832175163e+01 -3.7090375378120370e+00 3.5667412902487285e+00 3.8485245212170412e+01 4.0454047885407363e-01 5.4332870239942306e+00 -8.0864682535247994e+00 2.8880645274002745e+00 -7.8075523269257974e+02 9.4212797432942316e+03 6.4613598426753587e+00 5.0335440091929611e+00 -2.2428521754118265e+00 -4.1269648428044093e+01 -2.0864269230966030e+00 -1.4935717889447488e+00 3.5591697102569697e+01 1.5796261310065165e+02 7.7709386593820531e+00 3.9479334008754577e+01 6.5624552751104758e+01 -3.4209087450133646e-01 4.0914366495699505e+02 9.6001678322122348e+02 1.9539472085172488e+02 7.7528012901923503e+01 -1.2792246606346453e+01 -6.2005451461238998e+01 -9.8143291183275920e+00 -3.5560825457597360e+00 -2.1005138531326665e+01 3.1982606188306818e+01 1.7655598159312554e+01 -1.3375777758642837e+03 -5.5786913830821877e+03 -3.1325039859928651e+01 3.0441405212040991e+00 1.1689667108474532e+02 -3.4785742991514303e+02 -4.0312751590239721e+01 -1.6898668479586767e+01 1.8377517750618435e+05 -3.0099597503124387e+03 -3.4007884985628834e+03 1.0240098598041548e+01 1.7362970371003030e+01 5.7328141713514924e+00 -1.4387351427324450e+02 5.4077828403912235e+01 4.7747842051011844e+01 -5.0460889493784525e+04 -2.7969075917058976e+03 -5.3971158456046724e+03 -2.0104384727520113e+01 -2.7422361052500655e+01 1.0641864944324789e+02 4.5537480600177486e+02 -7.4915775649795748e+01 4.4475146268903529e+01 -3.9458989136069635e+04 9.2046087548421547e+03 -9.9626918583096347e+02 9.3394591910830775e+02 3.6114708116729162e+01 -2.1634765746826897e+03 -2.9094668901288560e+02 6.5518736286831268e+02 1.3173823480541367e+02 7.8966019219404643e+03 2.4660936790536762e+03 -6.8211205345699091e+03 3.7674612930743315e+03 -5.5288661384609513e+03 1.1410027132468740e+04 4.6319330057819561e+03 -4.2611303948356617e+03 2.4230923778413935e+03 4.7379855745853820e+03 -7.5028028959625738e+02 -2.4934501988464035e+02 2.2442651731375145e+02 1.2917671774179871e+02 -1.8087719284831633e+03 1.9566966460632148e+02 2.0068645188686639e+02 1.9358528203359245e+02 -4.1168567774797657e+03 2.1477483114226802e+03 2.2233062338109594e+03 2.9656852990618802e+01 -1.0416136981220916e+01 1.9110390373349946e+02 -6.5282363211353029e+01 1.4699169981024745e+01 6.1948120541959241e+01 -3.2154873843215872e+04 4.5765667073504528e+03 1.8712844268389517e+02 -1.0170004147042867e+01 8.5149185461777961e+01 1.2883099178281645e+02 2.4739742117734338e+02 -4.1508173747785406e+00 -7.6770162923903476e+00 7.6887292760626253e+04 -9.7599442091025412e+02 -5.1222927480703220e+02 5.7602052975903959e+00 1.5766740895516705e+02 1.0814304978614673e+03 2.0527003587325453e+01 1.9679541404889278e+00 -2.2809210374975109e+01 -9.1159879842926748e+03 4.6238300576643614e+03 3.7862588498834521e+02 3.9312898578802233e+00 -4.8189632365221314e+01 2.2354083948803600e+02 -3.8137364846795748e+01 -1.6783310798123932e+02 2.3469725557977557e+02 -4.8999663238069043e+03 1.2081276566954330e+03 -5.4615119933649548e+03 -1.7637043020405429e+01 -1.9791867539098516e+02 5.2695680803540063e+02 -1.0870939021332742e+02 -2.3277200789913024e+01 -7.5246283481155842e+00 5.1254989232351480e+04 -1.4470180833651684e+03 1.5480609055595673e+03 -9.3806424161305202e-01 -6.3044811450236011e+00 -3.7291572971618734e+01 1.6096327206421847e+01 5.7675122556774554e+01 -1.1792592835852761e+02 2.1247463750808245e+04 -1.9591165121361664e+03 -4.7040375155641232e+03 -1.3903556764455081e+02 1.0481591371953596e+02 1.1019553065120004e+02 -3.0498421155734820e+02 5.4592235882276157e+00 5.9488947206437842e+01 1.7840499188718223e+05 2.4413265363238752e+03 -2.9750217419327237e+02 -1.7962059426045016e+01 7.0237462285789661e+01 -2.1472481625582441e+02 2.1365944396238774e+01 2.0092040603030000e+01 -3.1997614010397228e+00 -2.9983625341113657e+04 3.4734831639283366e+03 -8.6967806717703206e+02 3.2173309577326690e+03 -5.4955130286409358e+03 1.3167106930573249e+04 4.7707703627877654e+03 -4.7193036381323127e+03 2.5401687359958187e+03 -3.4533644855135324e+04 -2.3360578362258661e+03 1.2494975354427661e+03 -2.4673349153410527e+01 3.9195984021670270e+01 3.4830435912504107e+01 6.9472816995507447e+00 -3.1580874228200344e+01 -8.8816220038861502e+00 1.9806627293900558e+04 -2.0872114082904453e+04 
      </Row>
      <Row Index="79">
        1.5205330809419689e+01 -1.0340949568375419e+02 1.1436951637847415e+01 -6.5479629461398872e+01 8.9425489968922921e+02 1.1286422088089503e+02 5.9370824711440946e+00 8.9405874170676611e+01 4.4027770110708843e+01 5.2418330621606458e+01 4.6866235834519188e+01 -2.8021400269490300e+01 3.4727295427673653e+01 5.6362433872958562e+00 -8.1255639142647865e+01 8.4633598453602644e+01 7.1042425908890436e+00 3.9888906560439500e+02 -2.8252271152267645e+02 -3.4332092051066337e+02 2.8930409117194056e+01 2.0306890067359330e+01 8.3818928326038531e+01 -4.1742268417373694e+01 -3.6196547565332686e+01 5.0399062627387210e+01 2.2784034159244402e+02 9.2851583681060362e+01 4.5351770772936106e+00 -3.5960308739142420e+01 -1.0725746649184430e+01 2.2970346702539246e+01 1.4799984614647838e+02 1.8523729861925403e+01 7.8792636917219170e+00 -6.7114384190317651e+00 2.4295246873921315e+00 -8.1513397007727164e+01 3.0789314397026146e-01 -4.9311445741083674e+01 1.1237978381528592e+01 2.7723524793455141e+00 9.2304411594315265e+00 -6.9716357732049801e+00 5.3332318650136585e+00 8.2015643294260371e+01 1.3370453887713047e+03 5.3724676737766231e+01 -1.0349022171228782e+01 5.5560944279493924e+01 -5.7404421179311385e+00 2.6246567206120158e+01 1.3569084182191236e+01 -3.5538674343670181e+01 -1.7388157561793196e+02 2.7123080790449237e+01 -1.6811601249177585e+01 8.2687449003275020e+01 6.4762536067882026e+00 8.7266389783962950e+00 -1.5132792118716536e+03 -1.0092507395377126e+00 1.7989722788483320e-01 -4.4884678189957356e+01 2.0632480856221633e+00 6.0449108258546460e+01 -3.0478168791955270e+01 1.3045251047062383e+01 1.4933377162799707e+02 2.1557467380214788e+01 -4.3883367941917168e+03 2.2843979301749908e+02 1.8022020110450796e+01 7.6092249476037978e+01 -2.0664559280297544e+02 1.7466514743702993e+02 5.9148024250551515e+01 8.8582541575789080e+01 -3.0099595683173939e+03 3.8391438639738997e+04 4.6702660826710633e+02 7.5236831863634336e+01 7.6716209158621496e-01 -9.2553513282997301e+01 3.4114591640479162e+01 7.5209499781373310e+00 1.3547041282723171e+01 5.0595153150524966e+03 -5.4841325346327567e+03 -6.5986838820620596e+02 -2.1606258927297546e+01 -1.6926397850635709e+01 9.8978524149888472e+00 -2.5258860466540622e+02 -3.8749159601975663e+01 9.2562862376208244e+01 7.6451348627027073e+02 2.0166883857379275e+02 -5.6507001470229295e+02 2.2603017817523856e+01 3.2950620382566740e+01 -1.7397053783832501e+02 -7.0850901436191620e+01 -6.7925418742381055e+01 3.5428835945485810e+02 -6.6329041754628179e+03 1.1923825602876588e+04 -3.6645509126769070e+03 2.8524548854031229e+02 -2.1654513425476398e+02 2.4588165401509036e+02 -5.6588929248239219e+02 -7.8333059615879586e+02 6.1258296606143233e+01 -3.5254900471509145e+03 -1.8498622610563793e+03 -5.6948683176749910e+02 -1.7192057633282985e+01 7.3495301165875048e+01 -8.9534254311061943e+02 -2.8498237922829389e+01 6.9322635971016012e+01 3.1876475876663683e+01 3.8652342317715539e+02 6.1436386476460093e+03 2.9026629446772859e+01 -1.9558158933644762e+01 -5.1844290417502634e+01 -1.3730637362413427e+02 8.3318067961482143e+01 1.8047518031469341e+01 -5.6040001150513575e+01 4.3860873032447416e+03 3.1129575121390095e+04 1.1551270592897936e+01 -1.1254877422564531e+01 -1.3148869537737119e+02 1.6065042695652423e+01 -3.3482644088180990e+01 -7.8878011506742666e+01 -5.9604849342176230e+01 -1.2473233885191621e+02 -2.8885536717404902e+03 -6.9377228242577985e+01 3.8020945853726815e+01 -1.8998463619172981e+01 1.6019787475224439e+02 -2.6507532363333667e+01 -1.9201468898620860e+01 2.3209395589961293e+01 6.9421886830264702e+02 6.2106954184942415e+03 7.5679153913573828e+01 3.2639046582860651e+01 -3.0068975303956051e+01 -1.8980953366978792e+02 1.7755232243285013e+02 2.1446918245334174e+02 -1.3241651477853281e+02 9.1453995757445227e+02 2.2540453680542851e+04 7.5121548076948375e+02 -8.8775185586838717e+01 -1.7874335111762954e+02 -5.5604744612919717e+02 8.4557590703295318e+01 -4.9401730264192977e+01 4.4828668796419606e+00 2.0574477808918709e+03 -7.8968452631726977e+03 -1.0218698360746563e+02 -2.7949050040403467e+01 2.7113796767967870e+01 1.2819359121817979e+02 5.8236923174648837e+01 -1.2606679190834011e+02 1.3126182891557454e+02 -1.2506476479079533e+03 6.6521690961600543e+04 5.6080733931857685e+02 1.6499831041015688e+02 -7.2474519168894460e+00 -1.1465392162079029e+02 1.4620590646433845e+02 2.9538239035249021e+01 3.0774737051647571e+02 2.7317965798551477e+03 1.8746516507802298e+03 -4.7405429491840187e+02 -6.0746081812623970e+01 3.9987767770071514e-02 2.5156407820262757e+02 9.0016271514825348e+01 1.2241532792192129e+02 2.8465452309924331e+00 6.7791961835022084e+03 2.5153261686145233e+03 -3.1084672859651346e+03 1.9357592694368981e+02 -2.7474897764546370e+02 -6.2579771475112102e+02 -3.1243812327414958e+01 -4.7011556201374867e+02 -6.3044055774319941e+02 4.2302154264187557e+03 -3.7936852255385879e+03 -3.3458953331258414e+01 -4.7400989251929786e+01 -5.0733194750462474e-01 -4.8221026853718996e+01 -5.4940204915728934e+01 -2.1295035199980830e+01 3.7987541418351611e+01 -9.9914320296381914e+02 -2.7788347544037561e+03 
      </Row>
      <Row Index="80">
        4.0508261741358851e+00 7.2928992443966143e+00 -2.6332677040472277e+00 9.3747411928438851e-01 -1.2587286596377201e+03 -4.7779847815357584e+01 5.4044574040903228e+00 -7.0158262631123556e+00 -3.1697638057923427e+01 9.0815783573160258e-01 5.0595625904298025e+00 1.3784737283300217e+00 2.9069795377424242e+01 -3.2275233356494124e+00 9.6841225591498983e+00 -3.4952885013754127e+00 -3.1833654725999168e+00 5.0091178389275683e+01 -3.2339524112058712e+02 4.0520056408910996e+01 -5.5204290623858423e+00 -3.8344888050246206e+00 -1.6368195288501735e+01 -5.0591693826155479e+00 -1.2736047903277652e+00 -3.1150155520718190e+00 -2.1664516470725857e+01 9.1561376758050823e+00 1.0829888158085197e+00 8.9365301299750399e-02 -2.5081717526434986e+00 6.8503178926312103e-01 1.9622158395367069e+02 -1.8596478117755474e+01 -1.0762694261906276e+00 1.8959187966564883e-01 -1.1021293461952553e+00 4.7063907959480353e+00 -1.1741141355861018e-02 -1.8588380459861753e-01 -4.9407541241012609e+00 1.2775116975764966e-01 -6.6098591924821726e-01 1.0683373835102827e+00 -7.5913891780513154e-01 -1.3931086185937806e+02 2.4803295109173300e+03 -1.9895010987002323e+01 9.9707830525437868e-01 -2.0072784731848401e+00 4.6895196053059038e+00 9.4378643141088536e-01 3.9096428455830576e+00 9.2358218571115902e-01 5.6303835946230265e+01 -1.5855952874786237e+00 -2.1751458347423123e+00 -7.8648644906229848e+00 -6.1587677981714695e+00 9.0703384258121389e+01 -1.1226979711061836e+03 1.6683883928472678e+01 -7.2336154616202917e+00 3.8435445241062993e+00 1.3090653222614515e+01 -6.3679802261126905e+00 1.2494661906437372e+00 -2.0915186114516553e+00 -4.0379930610012664e+01 3.6987131578932413e+00 -8.1513136673424049e+02 -3.9078390933090162e+01 -1.4427470369895300e+01 -2.9198157720056770e+00 2.7714043166176680e+01 -4.0685116431363957e+00 -1.2740049525124736e+01 -4.9121461426974387e+00 -3.4007884638882001e+03 4.6702660903201127e+02 2.0938645875826755e+03 -5.2644460166789706e+00 -3.5319243668420768e+00 2.9898835160213821e+01 9.0931861819806503e+00 -3.4447936910273120e+00 1.6094815760642884e+00 -6.2865443013039512e+03 -8.8988916633016493e+02 -1.6338301611290551e+03 -4.8290659730762187e-01 5.7818930937376862e+00 -3.5665556896446979e+01 -7.5435744339284923e+01 1.2526355574694922e+01 -5.7203618564913725e+00 2.7384655356689141e+03 -1.7648636856356636e+03 -1.1751442311136325e+03 1.1561969831175922e+02 1.0414232135635683e+02 -4.1779654222645496e+02 -1.3031371623269203e+02 -1.1866628269059230e+02 -6.5571782392906044e+01 1.5017397157902788e+03 -9.4173074609110768e+02 -4.5152389244390838e+02 1.0884826929089603e+02 4.3715261856281904e+02 -4.9896375245252409e+02 -1.3763167356311512e+03 -5.9280685880339426e+01 3.1826883020571429e+01 -2.2592544214157642e+03 -5.2405487873948755e+02 -6.6882922792813179e+02 1.0374955700374744e+02 4.1048412897256185e+01 -4.7716721055345381e+01 6.0211383418331110e+01 2.9132119993694737e+01 6.2656112966792456e+01 3.9657610870547069e+03 5.6347517001557003e+02 2.2341700830517402e+02 -2.5414760900845330e+00 -4.2230834058045730e+00 2.8910301991279269e+01 5.6425315139995869e+00 -2.7217829751730864e+00 -4.2139824217330668e+00 1.4538280479147452e+03 -2.7082292361905792e+02 -5.9222236745727503e+02 3.2573115523542588e+00 -2.2123176496479346e+01 1.6754731775827160e+01 -1.2461442962865240e+01 5.2283171476374264e+00 5.3955638564078745e+00 2.2656966531903927e+02 1.0686070511815069e+02 3.7172950622711051e+02 -1.8030284195732495e+01 -5.9620375358879301e+00 -4.7563704327134928e+01 4.0448033994483126e+00 3.2641017630308227e+00 -3.0254032485140820e+00 -3.1151175261685185e+03 7.5322884147027798e+02 -5.9956801411292054e+02 -2.0535828734891339e+00 6.7489283231343578e+00 3.0739648682132611e+01 -1.0992471254969587e+00 3.0968181743620571e+00 2.7508477960972084e+00 4.5842993331704783e+03 2.8638413219632093e+02 2.0984916826762442e+03 -1.0280424330579098e+01 -1.0541754269072348e+01 5.0191151089648116e+01 -3.8330550078831180e+00 -1.9624140611286631e+01 8.3539021221908172e-01 -9.5488681696136227e+03 -5.1028192188659705e+02 4.0221885295156596e+02 3.1150674976603465e-01 -5.0594248604086260e+00 -1.8190065593907093e+01 2.5523398455522255e+00 7.0064799002863598e-01 -1.0672496614129212e+00 -4.2494334021471968e+03 1.0661866721332926e+03 1.5945697801440269e+02 -5.5796874899918066e+01 4.2153594459332453e+01 6.1790109192389984e+01 -6.7704924487033111e+01 -1.7336519878661676e+00 -1.0554763038273364e+01 -4.5543592354838183e+03 3.2728156531661079e+02 -4.0279670566387540e+02 -5.0910869372708234e+00 1.6303236048176700e+01 -1.5838898671579102e+01 7.0526650286312815e+00 1.0293898972369032e+01 1.8135829834569961e+00 2.2041754485597266e+03 1.0974988989910344e+03 1.5227703541686233e+03 1.2128792651900957e+02 3.6054849080118254e+02 -2.0286366881709910e+02 -1.0441596239825326e+03 7.9271716692872872e+01 1.6846313431062413e+02 1.8166792417276883e+03 -6.5314874743839448e+02 9.4729498416662352e+01 -1.3958355879633473e+00 -1.1863809910524402e+01 -1.8617434138898751e+01 -1.6694347841935335e+00 1.3666012946284871e+00 -1.1671920156519491e+00 -4.6329505932207189e+02 -8.7256252178369891e+01 
      </Row>
      <Row Index="81">
        3.2510429784579004e-01 -4.3042619961209905e+00 3.8866755612610149e-01 2.6682155062386244e+00 3.0830781652429948e+01 1.1422811992215285e+00 5.4363889544113597e-01 -3.3912887756987953e-01 1.4772342141553008e+00 5.1336903436704207e-01 -3.5312721219793883e-02 1.2416413724833841e-01 6.0463429621199793e-01 -3.2138720479328732e-02 -5.0112588679255143e-01 -4.4537471757557334e-01 -1.6543703898733497e-01 -5.9122194891131130e-01 -2.2820951084161390e+01 -4.5697254975800039e+00 1.2760261170790885e+00 -8.2048497824341315e-03 1.4797962374192077e+00 2.5091720031392750e-01 -1.0883763635637460e+00 6.0702634304487180e-01 8.3550010059603608e-01 5.3019098456358504e-01 -1.5669018412896918e-02 -1.9157375403401460e+00 4.2262539322687331e-01 -6.9649028919305067e-01 1.3342499660243334e+01 7.6346764975902426e-01 1.5992561122063176e-01 -4.8040204403573483e-02 2.2514729480045048e-01 -1.1339222976361796e+00 -6.8276528571535877e-03 -3.5107843637160330e-01 4.4809584648049849e-02 -2.5781023655064850e-02 5.7104298085223770e-01 -1.3990920769922184e+00 -9.5092226296422666e-02 2.2898604310960309e+00 -1.1512085156848894e+01 1.5890678337025825e+00 -1.3931451678279089e-01 -4.9870947804635080e-02 6.6425345196473362e-02 -3.4405495243457096e-02 -5.2218103526206261e-01 -2.6981512344964220e-01 -1.4151487092221657e+00 1.3245953860227475e-01 -5.5394328149005023e-02 3.6588960604822525e+00 1.4778057236033360e-01 -4.1538035023771585e+00 -2.3761028849283548e+01 1.3939769368775103e+00 -2.5296402096660181e-01 2.7976794866266552e-01 -4.1419115843273535e-01 3.2615347076081869e-01 -1.2148609703327029e+00 7.5375740310334144e-02 2.5384204025234247e-01 1.3979024341044144e-01 -8.5633751501677935e+00 5.4321379462320429e+00 3.5063052677219897e-01 9.6217237986110149e-01 1.0650902201277290e+00 3.1161778128420980e-01 7.8666103305154478e-01 7.3829684735191137e-01 1.0240099257543129e+01 7.5236831499578159e+01 -5.2644460299092275e+00 3.6522600709722783e+00 5.1654815617181384e+00 -4.0581400420099953e+00 -2.1613862876661987e+00 3.0187072674953863e+00 1.7046584022548812e+00 2.2821167882780404e+01 -1.6668015532076314e+01 2.3107928398773083e+00 3.2765096612903288e-01 -4.1177102357518880e-01 1.7326372677644786e+00 -2.7630110088365329e+00 2.5996848353270430e-02 3.9472080269645504e-01 2.1383597938118271e+01 1.6044858483364871e+02 6.6943495912421076e+00 -4.2380434051082716e-01 -1.8682615956715871e+00 6.3848198011012931e+00 2.6447836398527826e+00 -1.6790328617252142e+00 -4.7979351699965189e-01 1.7849343881948407e+01 1.7167588356628784e+02 -7.7683370098489988e+01 3.6604706344174787e-01 -9.3855550984583715e+01 -5.9798563791880177e+00 4.1263951408461217e+01 -4.1846482520367523e+01 7.4201594918998381e-01 1.2815677339457579e+01 2.1817696950249360e+01 6.3450213685037511e+00 -3.1063194439362651e-01 5.1370259998048660e+00 -1.9349326843855209e+01 2.4204780398658703e+00 1.0580294708805560e-02 2.0262591227709437e-01 2.3925979543684601e+01 2.2801406871535121e+01 -6.7923700892049510e+00 -1.7601076625706416e+00 -1.2168877680084051e+00 -2.8139301145610087e+00 2.3152414738020561e+00 -9.2630893371584422e-02 -9.3784823991712041e-01 2.1774621455301258e+01 9.5034318991031395e+00 -1.8647871087318153e+00 7.0415644489909202e-01 -1.8085213044281616e+00 3.1808822793812208e-01 7.8440136802722082e-01 2.0701389048671093e-01 -1.6419522861634142e-01 -3.8106267545672779e+01 -3.0514364466984262e+01 -6.5346400160262874e-01 9.0988013694648617e-01 1.2681222561963068e-01 7.3765993551833731e-01 -6.9863743450497395e-02 4.5726023703790397e-01 2.5940043257524109e-01 -1.8281093685772930e+01 4.0603964754627746e+01 -1.0760781289300212e+00 6.4588804334368888e-01 -9.9885604431925223e-01 -1.9921615359686484e-01 1.9369865149306542e+00 1.5376601846739364e+00 -1.0789451460341954e+00 1.2084647657856294e+01 5.7460712464380777e+01 -1.1492275377347738e+01 1.9649476016620677e+00 3.5257178055055327e+00 -1.7744756330823463e-01 8.9329477706340299e-01 1.5873823924159871e+00 -2.7567630197204274e-01 3.4323758335998491e+01 -2.2323867417354222e+01 5.0449661731542488e+00 -4.5148051786995996e-01 -5.0406181362538405e-01 2.3446534603620535e+00 -5.6173772251568721e-03 -4.7513776735042890e-01 7.4787691507188625e-01 -2.3703572368894164e+01 1.0582930841693012e+02 5.5081586101993025e+00 2.1675102608467380e+00 -2.2735597297577463e+00 -2.8551220753286977e+00 1.1159251523985922e+00 1.6041624977961877e+00 1.9260941743421647e+00 -1.7859565377618367e+01 2.7396797838962812e+01 1.9276283513729595e+00 -1.6039366204010719e-01 4.4896859986752702e-01 -1.0488004384465199e-01 5.8372421673274744e-01 8.3273223558870502e-01 -4.1193187134625120e-01 -2.5236128885035214e+01 -1.6621653265838347e+01 -8.4035981018103882e+01 1.2461024693776235e-01 -8.2761142194442868e+01 -3.0126345702086667e+01 4.5055080839085392e+01 -3.7623188256350666e+01 8.2057174569238756e-01 -1.7589945813592749e+00 -1.3804611974099480e+01 -1.8315413899854844e+00 -4.3182771993731706e-01 8.6895377452220202e-03 3.6016868098684551e-01 -9.4432157429520713e-02 -2.0663804965545096e-01 4.4444820256816797e-01 -2.0642808585762094e+00 -1.3440640579204157e+01 
      </Row>
      <Row Index="82">
        4.2801989311975286e-01 -8.0626814296380473e+00 1.1242951515371260e+00 1.8829895059786850e+01 7.9257870512854538e+00 -1.8920651750756599e+00 8.9543903830698746e-01 -2.8059336934655148e+00 -2.0987123232133342e+00 1.8677440604973369e-01 -5.4421284483607768e-01 -1.6116177628575201e-01 3.0776275242860720e+00 -3.7371408925897243e-03 2.5995158925135526e+00 -3.4045006578219095e+00 -3.1474629779380336e-01 5.6999863732755784e-02 -4.0012050195419363e+01 -5.9809575365613226e+00 1.3557912919344342e+00 8.4690481547625734e-02 4.7721072310545907e+00 1.1066588619798430e+00 -3.0800310655083818e+00 7.0444730873711781e-01 -3.9144910370997366e+00 1.8284066160122125e+00 -8.5557262691342117e-02 -4.4991386973113450e+00 1.9544540120148568e+00 -5.2004104481131606e+00 1.4188261070103465e+00 6.4654312209532527e-01 3.4164351059270182e-01 -4.4756361926642008e-01 2.1117628619469642e-01 -1.3293233387505823e+00 1.4165543428474558e-01 1.3006219544316711e-01 1.8462992673329381e-01 -1.2734350121218596e-01 8.1165768831610574e-01 -2.9749041464796662e+00 -8.0120568170439199e-01 -3.2442657860362658e+00 -6.8485094256605805e-01 -1.1830783181373814e+00 -1.0971768139792393e+00 -1.1891868709461377e+00 1.7611494120444302e+00 -5.6946923148401940e-02 -1.4325199944872034e+00 1.1255984229987681e-01 1.1262315838418431e+00 1.5831038562261146e-01 4.1117041858207104e-01 7.3503388798598399e+00 -7.8282294217995907e-01 -8.6982961240945826e+00 -3.9040823506547127e+01 -1.1804005423416071e+00 -9.0234739260854957e-01 1.4174172955346525e+00 2.8645276212923605e+00 3.9598643080691348e-01 -2.5344381571870112e+00 5.3435143900496929e-01 -3.8956937785696475e+00 3.0100117519428959e-01 -7.9915648160099934e+01 1.2936228902312806e+01 -2.3201641058503433e+00 2.2868511679817004e+01 7.1060486768378155e+00 -7.4575158694228449e-01 -2.4267394441807044e-01 -6.5934766598736916e-01 1.7362967639360036e+01 7.6716085389807631e-01 -3.5319243673537475e+00 5.1654815633664892e+00 5.1426813733944158e+01 -1.0282298949723327e+01 -1.6956741284929611e+00 7.9627000807154564e+00 4.6104285661187436e+00 -8.8455968557072211e+01 -4.1998815407498135e+01 1.2803836214098794e+01 1.8449131684817139e+00 1.8894041319614679e+01 -9.2366101475176823e+00 -7.1562381918710996e+00 3.6248250561998416e+00 -4.9837371172241465e+00 -9.4251128747898974e+01 1.1312208022033872e+02 3.0659439600481626e+01 1.3092831624465290e+01 -6.2555250966596525e+01 1.0356959849343644e+01 -4.6365810700364030e+00 -9.6333083917168061e-01 8.4600332965905238e+00 8.7304475336827053e+01 1.0333448712749941e+01 -1.2297129247769635e+02 -8.1425616831829473e+00 -1.0270852663456897e+03 -9.8859477678317717e+01 -3.6808722763186985e+00 -5.3332690683729155e+01 -5.9504386487161760e+00 2.1811737358270079e+01 2.1779251910961811e+01 2.1762871392920260e+01 2.4403601606475065e+00 3.0475418679528826e+01 1.6975936657459872e+01 8.1059841202807252e+00 -9.8440854825868906e-01 9.3686963968302561e-01 -8.2686953230586283e+01 1.3966605881304723e+01 -5.9345025074098885e+00 -3.3250345451284029e+00 -2.0594242134360911e+01 7.6651112196295834e+00 5.3060034370143239e+00 -1.7284995887109820e+00 -2.1130156680403429e+00 -5.8248882152638544e+00 5.9049130384900081e+01 -1.5701127875383303e+01 1.8481626683878616e+00 1.0235898222268645e+01 1.4568331418829626e+01 -1.8228583215156124e-01 2.1899861744464451e+00 6.9035411329935470e-01 -8.6648785986891454e+01 -1.8699844198760047e+01 -1.1305727362641392e+01 -7.3477071602052479e-01 5.8746921955024050e+00 -5.7188772953779790e+00 -1.6319598589886368e+00 1.7697742679103090e+00 1.5054250557726515e-01 -9.2321602742345021e+00 4.1883529182788017e+01 -8.7997638855611058e+00 9.8579310865979641e-01 4.6382399759658810e-01 4.0705126800913831e+00 2.1028982890233330e+00 1.6248016084951300e+00 -1.0611169627405648e+00 3.8170895902038865e+01 -6.0631489028760143e+01 -1.1239396368328279e+01 3.1918950413641642e+00 1.1139097515379952e+02 2.6825830192994232e+01 2.6364959755713748e+00 4.5350498901460776e+00 -1.3544938452371049e+00 6.5471418394869715e+01 -2.0765343941656056e+01 9.8069486953511671e+00 6.8718131959656453e-02 -1.2559772113131089e+00 1.9290539552650898e+00 2.4471623498584805e-01 8.3635591788592523e-01 1.5876927164322030e-01 -2.8219366271678439e+00 1.6730307666039081e+02 -8.4113698755362520e-01 -3.6036608544472659e+00 -8.6841058514917506e+00 4.1331830018411644e+00 -1.7435878805099350e+00 3.4888468158181345e+00 7.8091547933538648e+00 -1.4420517285714141e+02 2.4025812659921030e+01 -5.5034533607772573e-01 1.3126093637369074e-01 -4.3018769046786076e+00 -1.0855804478715925e+01 2.2872604074174490e+00 1.3334209776592543e+00 -4.8254982261707724e-01 -7.2649872335503460e+01 -1.6658849657226534e+02 -1.5216622723588068e+02 -1.8387307838362531e+01 -8.7600459287536739e+02 -8.8029643110844475e+01 1.8358317986986435e+01 -5.1712247341312548e+01 -1.3679512484255689e+01 -1.1125635179518304e+02 -4.5930448552485466e+00 -3.9081545459742242e+00 -5.5311857804952069e-01 7.5862348563432525e-01 2.3152054454563227e+00 -6.4777553778789887e-01 -3.6076306017677112e-01 -1.7327953727257750e-01 8.7857937428329986e+00 -1.9716974359230388e+01 
      </Row>
      <Row Index="83">
        5.5131262721066843e-01 5.1366168073325440e+00 -3.5865740365293419e-01 -1.4206812179506187e+01 1.6502021865225538e+02 -2.0265622221303223e+00 4.9773359836870412e-01 -3.7832461733147227e-01 -6.8396416843866561e+00 -7.4687342536753798e-01 -5.4239242820370059e-01 5.1120803002627113e-01 -8.6822880265300739e-01 4.8313797971267319e-01 2.2604673611888573e+00 2.1507479763366888e-01 -9.3230831223229416e-01 -5.2872106812187667e+00 6.8249196166080623e+01 6.1951831642254858e+00 8.9647279795565415e-01 -2.3570705171293547e+00 8.0181514269780170e+00 4.5711001354477809e-01 -2.0730144808234494e-01 -1.0039781279751201e+00 -6.5798657664181519e+00 -7.6707730167483423e-01 -5.2980581848784425e-01 6.8002577957288963e+00 -1.6414329469611033e+00 1.9379617296281140e+00 -2.2000268214571747e+01 -1.1401757605450555e+00 -1.7283469846313579e+00 8.4825608713013168e-01 -2.9660305749092686e-01 9.5595662854614638e-01 -5.4218291837216270e-02 -9.1841661401986130e-02 -4.0707222278041399e-01 4.4409676208750692e-02 -7.6898210466071570e-01 1.1063594847993556e+00 4.2075100434904300e-01 4.5804746187778846e+00 -7.9270630840091769e+00 -2.0898517442364621e+00 7.7709655651173715e-01 -9.7048082483621556e-01 1.6211841712552761e+00 -1.6549059331796601e-01 -2.1814824486974405e-01 6.3222246178223784e-01 -3.6679449659166039e+00 -2.4930171361748235e-01 -4.9622266406764470e-01 -7.5637833819698921e+00 1.5409783593870491e-01 1.6485084272917675e+01 5.8724963733979951e+02 6.1417360323655457e-01 7.9123471276215962e-01 -1.2564024251647545e+00 6.8907059287312631e+00 -7.2233359682297993e-01 4.8507951605474431e-01 -2.7224396583527094e-01 -1.5532400971722211e+00 -7.2192032894953240e-01 -2.1009575587360416e+01 9.2407795279135136e+00 1.3838601444019298e+00 -4.9123859506330518e+00 3.2886795172418942e+01 -1.9352191980678914e+00 -3.6109708037874304e+00 -7.0021393888805017e-01 5.7328058774275164e+00 -9.2553511993025481e+01 2.9898835405227448e+01 -4.0581400340924496e+00 -1.0282298910049803e+01 9.3402843678617046e+01 2.8279144586907012e+00 -8.7789062503831055e+00 -5.0120875612481113e+00 1.1044281172039449e+02 4.2782675893542581e+01 -5.2836523649533774e+01 -2.1359931145332025e+00 6.8572599995121628e+00 -2.7484982864806785e+01 -4.3196812217823137e+01 -2.9424887963131665e+00 3.6613241777437588e+00 1.6527247672192024e+02 -4.5774298956779120e+02 -9.0870298697437974e+01 -1.4893328159742101e+01 -4.2466480560551275e+01 -1.3870947681114941e+02 8.9034612911905562e+00 -1.8137046106552077e+00 5.9899808876295229e+00 1.9350320152169616e+01 2.4835867096021758e+02 3.1754936260404099e+02 -1.0225299864479163e+02 -2.6500310180812903e+01 -7.7152383927303208e+02 -1.8209102018709565e+01 -1.6396227039254512e+01 -7.8283118283262610e+01 1.0818041048245416e+02 -2.5077960243253870e+00 2.8328779737864807e+01 2.3839649470912061e+00 2.7336456230863348e+01 1.9539478677277262e+02 7.2480214769224540e+00 3.6292793075856848e+00 3.8079325822953427e+00 1.0373356114077379e+02 4.7462138571401056e+00 3.6530547464139090e+01 -1.0943992144310914e+00 7.7843863515645353e+00 -2.1058811827462151e+01 2.2701866917687976e+00 9.9933408893313680e-01 -9.2710195241200877e-01 1.6006957217922172e+02 3.0692998859230922e+00 -5.8318617133706994e+00 8.0059267231862319e-01 -2.2837318646309086e+00 5.0522482598120526e+01 -2.3038285658003983e+00 4.4653001101774725e+00 3.3291606523267552e+00 -1.5600282600926607e+02 -1.6875176175381057e-01 1.0222844527421785e+01 -3.7928081171316994e+00 -5.9130440615035695e-01 2.5313306820352864e+01 2.3690067977713625e-01 -5.6499919615938587e-02 -2.0415577023249805e+00 -1.1558408923686147e+02 -1.0899257076527507e+01 -8.9900967686326112e+00 1.1609969810848053e-02 -5.3189273439904738e-01 1.2693769948202316e+01 -1.9432840026947868e+00 -9.5780465630669809e-01 2.6650584028681665e+00 5.0964523033580917e+00 -7.6122510529376996e+01 5.0769833067896307e+01 -3.2713726863365373e+00 -2.0391185374005314e+01 3.0174035075847695e+02 3.4322630399250755e+00 -4.2560997568249501e+00 -4.7518094557512427e+00 2.5335101144099826e+02 9.7908593584534174e+00 -5.6093892919570933e+00 -1.5866029189085076e+00 -2.9716329045945713e+00 -5.7995147549484045e+00 3.5319718327365734e-01 1.3874415133166795e-01 -2.6433266835782208e+00 2.2099082341269991e+01 2.2744005954931367e+02 3.1335007164212811e+01 -9.7578962273583469e-01 1.6830955534974873e+01 -1.6452229253088511e+01 1.1806608787511284e+01 2.6365991512558780e+00 -1.5764052361788359e+01 -2.0059202788896590e+02 -7.1189194015296380e+01 -2.1431736717932836e+01 1.4915935478274349e+00 6.7858753821499249e+00 -2.3372099764541815e+01 -3.8348719198546632e+00 -1.7945400030547063e+00 1.2769961096036440e+00 -6.7512401987187332e+01 3.7728331472102349e+02 4.7442922968215578e+02 -8.7332220259867597e+01 1.6383021413713251e+01 -2.2022868443232255e+02 1.0355333545171760e+01 -1.5345578161067181e+01 -7.0812742965690816e+01 1.5657380959232250e+02 3.3832629970552098e+01 1.9000336981959645e-01 1.1337787808813005e-01 -3.0464819833468675e+00 -7.7744082589836507e+00 1.0441271374463534e+00 1.1236766078909290e+00 -9.5602610789512710e-01 -3.0176332110147712e+01 7.0081742199323585e+01 
      </Row>
      <Row Index="84">
        -5.2871028190244662e-01 2.0352982567375477e+00 -3.2297962288023996e-01 8.1932196594392508e+00 -5.7403517943666429e+01 7.1488398101727348e+00 -6.7808786181837277e-01 4.5018086787582767e-01 1.2893799866137030e+00 -6.7919572821745922e-01 -6.7062761799919968e-01 -7.3000312891790031e-01 1.0169895616330962e+00 1.2924481342613724e-02 -1.0325071407375583e+00 1.2677145627994406e+00 1.0565302187036423e+00 3.0531476180706250e+00 7.0312779606348471e+01 -2.4005377269946759e+00 2.0578987157265308e-01 -1.3622913419094307e-01 7.6617700350133866e-01 3.9876471731221752e-01 1.0403328476249325e+00 -2.4286322814715106e-01 9.3374607581262126e-01 -8.8862992331187696e-01 -4.8727232349357052e-01 1.2253595933298129e+00 -7.7340949403248871e-01 -5.1737382572582646e-01 -3.8741187442689352e+01 5.6121558386810122e-01 -3.4441351046679713e-01 2.7605989069889247e-01 -2.0497396370927845e-01 -2.0938703202833045e-01 -2.0268667833369669e-01 -8.9926070759070775e-02 4.2480715779254297e-01 1.2384329816932982e-01 2.4569372618026197e-01 5.3049190705456795e-01 6.3108185046386467e-01 -3.3653121998414690e+00 -8.3908645279982636e+01 7.0422464216711944e-02 4.9406047496301803e-01 -1.8380104639436468e-01 -1.9729128831829055e+00 -1.1048345310004534e-01 -3.3057618106865766e-01 -4.5198502874276070e-01 -3.4290351964009460e+00 1.1339420304396469e-02 1.3562722010553285e-01 -1.0813235435550981e+00 1.3641620834116894e+00 1.5587357713286565e-02 3.4642992612693604e+00 -4.5509937759392871e+00 1.0589730835922029e+00 -3.3545986089295710e-01 -8.6222084632335749e-01 6.1970886779463363e-01 7.1659729293701280e-01 3.8781001541074955e-01 1.0967745138211598e+00 -1.2083092662238526e-01 -3.2936059920490671e+01 -1.5030317833083679e+01 2.4823056465881743e+00 3.5888830324779519e-01 -1.4247885897945025e+00 9.2451499084779414e+00 1.8758412529631390e+00 2.3669956877302600e+00 -1.4387351572375525e+02 3.4114591730060717e+01 9.0931862373356491e+00 -2.1613862876517795e+00 -1.6956741394498067e+00 2.8279144575776627e+00 2.5523465356301642e+01 -2.8045610548949877e+00 -8.0584748585250687e-01 8.5823888258554746e+01 1.3523045396143630e+01 -6.4791858273844355e+01 -7.3149780337809867e-01 2.2166562860881953e+00 2.2123358322575939e+00 -8.0392905237982113e+00 -2.8183739897946865e+00 3.7434452392335333e+00 -7.7970639568129513e+01 -7.9877616957337437e+01 3.2094350930467357e+01 8.7342695713103957e+00 4.9069819054149946e+00 4.0907518755480815e+01 -3.5471481105955654e+01 -1.6360478285527584e+00 2.3382739169583333e-01 -1.9751697163395892e+02 -1.6273585323707618e+02 1.4954542974030971e+01 1.2056484445730966e+01 -7.9827562894704442e+01 7.1904113232627097e+01 -1.4012089967051517e+02 1.9805205571985997e+01 -9.4025643288342131e+00 -7.7182593224834335e+01 1.3509202008186764e+02 1.6068589437531500e+01 -9.7151060319263873e+00 8.7761194821518558e+00 3.2144951161077007e+00 -3.0761263951880686e+01 -6.4195850945606847e-01 -4.1972722314562247e+00 -1.3925338395972722e+02 1.1564917954499208e+01 -6.4766286074554955e+00 1.1362770507069513e+00 -2.1205165364945060e+00 -3.8213200316740483e+00 8.8946203794478009e+00 -8.7221506626281153e-01 2.0712150336337141e+00 -7.1956039374650572e+01 -1.0912220680604230e+02 -1.0509577405135317e+00 -3.8043929652028430e-01 4.6402744594072942e+00 -5.7907481326818300e-01 -1.0689600300410232e+01 8.8517401116199171e-02 -5.5562570291560941e-02 -1.2882510514549814e+01 -7.9744563102947268e+01 1.0988226504610338e+01 1.0418951147762456e+00 4.3909370798007785e+00 -2.4615992243576557e+00 1.2436671405695563e+00 -8.8553731384058265e-01 4.3250068384324136e-01 -1.1301649653186360e+01 6.6869428137440607e+00 -2.9642568890321854e+00 -4.9361433014115308e-01 -5.2144911227597035e-01 -4.1803700232376286e+00 5.8071311800899981e+00 -3.6613370109861726e-01 6.1148819866943804e-01 -1.6268461030223989e+01 -3.2688135785918348e+01 -7.6086034414838153e+00 1.6930370595400124e+00 4.5913470251780399e+00 1.1223012862454343e+01 2.3729015171147459e+01 1.5133940335850140e+00 7.1821514131328357e-01 -5.9542765496018717e+01 6.1034070872074153e+00 -5.1974668283733578e+00 3.0873240455651935e-01 2.8001923439181837e+00 9.3401809922636403e-01 -7.9393382727073316e+00 7.2427346886500099e-01 -1.1459733968826831e+00 1.0324906684974320e+02 -9.6957757011269052e+01 -1.6531372236959669e+01 -4.9595982662401328e-01 -5.2033558948596443e+00 -6.4503268713408985e+00 1.6729134308421941e+01 3.9942313941109053e-01 1.8412600445811238e+00 5.6043575276232218e+01 -1.0438204560146914e+01 1.2992259293979259e+01 -8.7256619705393135e-01 3.5891764214909472e-01 8.2539829523057051e-02 -4.6120138859668032e+00 -1.4406593903333338e+00 -1.2592624775021477e-01 6.4411588112961908e+00 -6.7731778296483753e+01 7.6876292908659380e+01 -3.1710844280807775e+00 -7.0272307989846382e+01 3.9924813360481608e+01 -1.2493327665017316e+02 2.0646015638567032e+01 -1.6930505011789116e+01 -3.0114977871011433e+01 2.7442587021588256e+01 -3.3441016240847787e-01 -2.5271611709746367e-01 1.0302202505386076e+00 8.3770294056378714e-01 -5.6583040921645811e-01 1.1668365321468779e+00 -1.3284551549882622e+00 -2.0382700173215738e+01 4.7626756528139452e+01 
      </Row>
      <Row Index="85">
        2.5258195341646295e-01 -5.5793845604462433e+00 3.9570348512537024e-01 9.1161415848436320e+00 -3.6169120144005745e+01 1.3265321732815061e-01 -3.7584505871482321e-02 -8.6561474956090967e-01 4.5448405095031852e-01 2.7313309365682403e-01 -1.5966072105551721e-01 1.0860644092317262e-01 1.2028037081312775e+00 1.7514497873412110e-01 5.5400159022023387e-01 -3.0371899607578570e+00 -8.5487642968818989e-01 -7.9012985086154686e-01 -5.1792491973619491e+01 -3.8400454304108300e+00 3.5303131366808027e-01 6.6073393822588544e-01 -3.6670425479888857e-02 -2.0588038378413120e-01 -4.0984782129141517e-01 6.6121400635585872e-02 1.1646339570635718e+00 -5.5670978794536891e-02 -1.4408068874368851e-01 -3.7065700558834891e+00 8.0138692991361804e-01 -4.3692697868790731e-01 1.1461842150910059e+01 4.9084662989278405e-01 1.3493848753255033e-01 -7.3490739190628673e-01 1.1602318216139906e-01 -7.4091332771573559e-01 4.5417915451737345e-02 7.0679724928017773e-03 -1.7930809307516427e-01 -7.1523590195445852e-03 9.7610655505893906e-01 -1.6900045092865170e+00 -7.1808867010944688e-01 -3.8068960173357880e+00 1.5975865897517963e+01 -6.8304318613778392e-01 -3.2908856149175136e-01 -1.7324883613342479e-01 -5.5413007211718712e-01 -2.6986097678661447e-01 -2.5770381921914809e-01 3.9910405055227915e-03 -5.9777386246537390e-02 1.6232449443142266e-01 5.0654055138269005e-01 4.9694460787939025e+00 -2.7254581895467794e-01 -3.6460336782476688e+00 -3.2174618427890039e+01 -4.5404888653938791e-01 -7.7791194417029030e-02 8.3464270154498477e-01 -6.9506588907210975e-01 1.7885139155739416e-03 -3.3939331430334030e-01 3.4026881307828383e-02 -2.8675432654780586e-01 -1.1546580598116551e-01 -3.0255441981621697e+01 1.6728160079744967e+00 1.1494183278511343e+00 -2.1420793177770747e-01 5.1306888617647530e+00 5.1014260473627437e-01 1.7788193650201316e+00 1.4394772607926711e+00 5.4077826821025482e+01 7.5209493554138049e+00 -3.4447937368388555e+00 3.0187072654840446e+00 7.9627000860592432e+00 -8.7789062327965439e+00 -2.8045610451176968e+00 8.2495881033886764e+00 5.1576449966821034e+00 -2.6058745696915508e+01 3.1762644514360980e+00 -6.0217750541272324e+00 1.2375609355005539e+00 -8.1405867070536342e-01 3.2580675362873803e+00 6.3505141567878010e-01 6.8332783059218727e-01 -6.9453686919883850e-01 1.9694183099354973e+01 8.9513868936394260e+01 1.6089594147103959e+01 6.3886667723447479e+00 7.7564789562440204e+00 -8.5114789734899610e-01 -4.6695291783847714e-01 -1.1651295333982052e+01 7.9203649970232002e+00 -2.0588252569122027e+01 3.3850064328248322e+01 2.7238676133805434e+01 -8.5327243034327473e+00 -8.0135596770962579e+01 -4.4058188812246584e+01 9.9360149844994332e+00 -2.8816349839406623e+01 1.3218777530461976e+00 2.5236728013664788e+01 1.6794679736278248e+01 2.6494451179298721e+00 1.1315853588461300e-01 7.4667984726735659e+00 -1.7357326499762273e+01 6.9315930560330408e+00 -1.1604772913134489e+00 -8.8874698067420654e-01 1.6092556399670229e+01 9.3270191516106138e-01 -3.3943898307176141e+00 -9.8938970835874152e-01 -9.7618372701083445e-01 -2.4371006827826491e-01 5.9630141507308188e-01 -1.4577596554351948e+00 -7.7698748271183704e-01 -2.6479363922953780e+00 1.3424488285609624e+02 4.4723719813084983e-01 -1.0544194742328583e-01 -6.1046754921189574e+00 -2.6796968358024742e+00 1.1723824415316955e+00 -1.9411142749648014e-01 -7.7445002327982104e-01 1.9691585343882821e+01 -1.5822054778240386e+01 -2.8163141934876421e+00 7.4650064120637116e-01 1.8957786869261781e+00 -3.0543884326289117e+00 -1.1104693137596868e+00 9.8973467620040889e-01 5.8816056208674605e-01 -1.0609984146495435e+01 9.3244601468155697e+00 5.1094806459286701e-01 1.0569215461412307e-01 -7.8974107523035997e-01 1.0604280542082734e+00 1.2850021349142455e+00 1.3012212192955586e+00 5.3829064619976830e-02 -1.2506956027443266e+01 -1.8791979712246757e+01 -8.1359185895610331e+00 1.3566296806085711e+00 -6.5807565012855385e+00 -1.5306212073090499e+00 -2.8989103352179946e-01 4.5033230703925318e+00 2.0347449938228417e+00 2.0607027382122851e+00 -9.8998442289087052e+00 5.9589298552335670e+00 2.0486791620488934e-01 -2.1191899416574245e+00 1.7725452966274418e+00 -1.1661642026906627e-01 -6.1430030975592542e-01 -4.7257529307454771e-01 -1.7197785389369272e+01 -1.1492039458076945e+01 6.9614930668620900e-01 1.2090324097904068e+00 -1.5381839038375560e+00 -1.3999019866998381e+00 -2.8237301318073023e+00 4.9657063915993822e+00 5.5109900867622255e+00 7.5235210899497915e+01 -7.6436113037957512e+00 5.6739001941390370e+00 2.2621708340557678e-01 2.4694856364937436e+00 -2.5685019970044252e+00 6.4145052080033338e-01 -8.7672991925018984e-02 -8.1576224529094077e-01 -1.8909082959796251e+01 8.0922220879028146e+01 1.7351041308412505e+01 -1.4474588492638777e+01 -7.7044903539150084e+01 -6.5391042985471614e+01 1.9247765233656018e+01 -1.6778186996205637e+01 -8.7331077227512637e+00 -1.3939599552631989e+01 7.8867530615485961e+00 -8.4565987663904363e-01 2.9928533249791656e-01 -8.4818500108111650e-02 1.9585771703523880e+00 1.0804462151526195e-02 -5.6383738485580204e-01 -6.0619913460271846e-01 1.5521272629074385e+01 -1.1578957598916670e+01 
      </Row>
      <Row Index="86">
        -1.3729370602058866e-03 -3.9665401029024707e+00 -1.0467421705920188e-01 5.2992649679034685e+00 1.0356315099582616e+01 4.1756636509078571e-02 1.0399796066898759e-01 -2.4811518122407072e-01 1.1204007745737528e+00 -2.8396274957973633e-01 3.9650930287889274e-01 -1.1684731048775632e-01 6.5884125810026717e-01 -8.5363793173642011e-02 4.8136755367324874e-01 -2.3351150297671417e+00 -6.0300221695703726e-01 5.4778464394075854e-02 -4.6244899854606956e+01 -4.3486587756920674e+00 9.8400115945192024e-01 1.1536102478181287e+00 4.5039929204089724e-01 1.5481419535277419e-01 -3.2999522224243949e-01 -5.3758231304400539e-01 8.9405980379876837e-01 4.4265913715570271e-01 -1.3502170724459717e-01 -2.4556154820118792e+00 1.7752007026485828e-01 1.1781177977468360e-01 7.8748158877119181e+00 3.3988170111462246e-01 -6.0981977733085557e-02 -7.7800957618315891e-01 1.3315446510172535e-01 7.5692696373859905e-02 4.2284045775320855e-02 4.5211283369336952e-01 -3.4970547597802693e-01 -5.5738854625781986e-03 6.8803107399634422e-01 -9.6409062833279791e-01 -4.8576706907772405e-01 -2.3697047554263690e+00 -5.2693875337609626e+00 2.4887223265313807e-01 -2.1037340259242043e-01 4.2452047073943078e-01 -3.9174277359073528e-02 -4.0923334622877056e-01 2.5001859755313321e-01 2.0533056449499254e-01 8.6382561553142523e-01 1.2444842477956833e-01 5.2363561750128607e-01 3.3922582506245851e+00 1.9330064906050679e-01 -3.1815107347164826e+00 -7.9353746609957980e+00 -2.5713893634864315e-01 -1.0941888536629552e-01 6.2233753324651664e-01 -3.7713813774612892e-01 8.2333281495853949e-02 5.5089263220838125e-01 1.9420729815375085e-01 -2.0739946101550188e-01 1.9940641305892348e-01 -4.1741451331496521e+01 -6.9029948747702718e-01 1.2667293442777789e+00 -7.4354045157633664e-02 3.5437859456272918e+00 -5.3757156488345587e-02 1.7745612588538220e+00 9.0951681289038611e-01 4.7747841460110905e+01 1.3547040928722737e+01 1.6094815268046874e+00 1.7046584017438928e+00 4.6104285746205278e+00 -5.0120875486679779e+00 -8.0584747910553911e-01 5.1576450026056397e+00 5.7108424260518893e+00 -2.3578070646909936e+01 -2.4531507914840216e+01 -9.5739657681120889e+00 2.1936204282730085e-01 2.3813272278914344e-01 2.9535404320007892e+00 -2.2751290606552179e+00 -5.3873083616804873e-02 1.6645447184497781e+00 3.4411503443022866e+00 3.1157233331560235e+01 7.5718362344623316e+00 3.6229322916871460e+00 3.1063851817658161e+00 1.3070053031034412e+00 7.0295886825900078e-01 -9.5390627396891077e+00 5.9622533826889841e+00 1.7700154015187710e+01 -3.8218533193287044e+01 -1.9668045961782884e+01 -1.1611859535713998e+00 -6.1782639436666116e+01 -5.1168410296035916e-01 4.4658570726291856e+01 -1.8772909103735782e+00 5.4927892601081583e+00 3.9796823869194100e+01 2.6857260296541398e+01 5.4076784706737726e+00 -3.5225009453921774e-01 7.7213721267412101e+00 -1.7205984205089752e+01 1.3697907945468808e+00 -1.6884073248277818e+00 -1.8623135239627922e+00 2.8668623436667986e+01 2.8568743991469979e+01 -2.0625672860560371e+00 -2.2330817648502399e+00 -5.0587707579370544e-01 -7.6273396447408004e-01 1.2538595241494288e+00 -1.1774026087065821e+00 -1.2465441583963053e+00 -2.1402607089672529e+01 1.4997043294598775e+00 1.0092706210436253e-01 -8.4316979867958286e-01 -4.1501100460695284e+00 8.5565215192391086e-01 5.1963463154953260e-02 -1.4706478976574755e+00 -6.0118357666548328e-02 8.5073763682641754e+00 -2.4498781955313461e+01 1.1739891953939150e+00 9.2396909249094539e-01 1.5252800841158205e+00 -2.7119116415855160e-01 -4.4446505841017370e-01 8.8668741893251335e-01 8.1131687938776886e-01 -1.1773334946092291e+01 2.8986219313772150e+01 -5.8045978714380908e-01 -3.5655078223706915e-01 -3.0803905883681182e-01 1.8791616090946945e+00 5.0467756770539918e-01 -8.8867232982294087e-01 1.6480335327905857e+00 -4.3879908217993943e+01 6.8133305440064760e+00 -3.4447050649283462e+00 -9.5952661841534970e-01 -7.5673341911673937e+00 1.3024107275483416e+00 -6.9455192499196983e-01 1.2697063700640632e+00 3.4542935881810237e+00 6.5684149117576709e+00 -2.7225185125079406e+01 6.2116316063448185e+00 4.3766198441912407e-01 -9.8751556790352879e-01 9.1021373651142312e-01 -1.5101286097918560e+00 5.1004616862185437e-01 -1.7796177849876258e+00 8.2475586320179616e+01 -6.9457292972681728e+00 -1.0957991484658578e+00 9.4194767005719859e-01 1.7749801592223307e+00 1.4046280732625895e+00 -2.6608901376186509e+00 3.4948279012683772e+00 2.9244501530120139e+00 2.6928653392595109e+01 9.8939116336405277e+00 2.4971453377797843e+00 -1.6986339374138737e-01 2.4550229384518616e+00 -6.5950465677227044e-01 1.4876558393961545e+00 2.3673935303767912e-01 -2.9242221653499456e-01 -2.5786316554211226e+01 -3.2690550794403634e+00 -1.5369035005320882e+01 -4.5487968319675769e+00 -5.8586130554876796e+01 -2.2483190728287099e+01 4.9873027801864794e+01 6.7519903944873949e+00 -3.8520137679591153e+00 -3.1901277843666321e+01 -2.0835698472245010e+01 3.6746506559324121e-01 1.0690841160271702e-01 2.5796701721168547e-01 1.4067985811033563e+00 3.4526046341811473e-02 1.7820327825124244e-01 -5.8994627002675770e-02 1.3616292379773954e+01 -3.5782939806317465e+01 
      </Row>
      <Row Index="87">
        6.8520128802875789e+01 -1.2861412877042312e+01 1.4830509709358012e+01 -1.6795418640186545e+03 -2.4194871538694133e+04 3.3653476103285286e+01 6.4472215914094704e+01 2.9427640095385868e+01 -2.4237578955777280e+01 1.6514303317331269e+01 -1.6790142021763078e+01 -2.4628078052615820e+01 -8.1287263048143359e+00 3.1615633959043059e+01 -1.0954693910064496e+01 4.8686866228294093e+01 3.2140844514069613e+00 -1.8195528854761505e+02 2.6808732929056252e+04 2.9879819930721304e+01 -1.2933349761661184e+01 -2.0804503262475123e+01 4.5883585202584982e+01 -4.9062248312678136e+00 -4.5213774569079462e+01 3.6073822265790646e+01 -8.6381750574393664e+01 -3.2151124935492184e+01 -9.3969322531374928e+00 4.2650024877366377e+00 8.0336790662877320e+01 7.4580066901049577e+01 5.8748174166801618e+02 9.7136570710081287e+00 1.1087202776361664e+01 -1.3026160411154706e+01 4.1010226582322503e+01 -1.6568648232612343e+01 5.3048861604520425e+00 3.4296653716110995e+01 -2.4199435072165215e+01 -3.3136660115412724e+00 3.5210331439141429e+00 1.6040630446921568e+01 -4.4436793064523954e+00 1.2971102614838746e+03 -7.0334680778886832e+03 -1.3888012981420252e+02 -5.6902653350225592e+00 2.1535954665705503e+01 1.1778843969037644e+02 -3.1502127486747799e+01 -1.7772393054431461e+01 -1.4588612850094705e+01 -6.1275325922120828e+01 -2.2819194069723041e+00 -4.7264926676074481e+01 1.6285916338978019e+01 2.4892915346749753e+01 -3.1704611302656122e+02 -2.7373370224490654e+03 -2.9125375333763094e+02 -7.7768937907183059e+01 -2.5464833504530361e+01 8.5618719878902056e+01 3.7245069148853389e+00 -1.4101642990768202e+01 1.0132105743814178e+01 -8.1246584450993396e+01 -3.9489818232706668e+01 4.2142632442815038e+03 8.8535072909721407e+01 4.3718419345480072e+01 -1.2512967621569987e+02 -8.5078612389974296e+01 2.2496568336767379e+02 4.6176971384488944e+01 -1.0126023919146613e+02 -5.0460889221288096e+04 5.0595155775927888e+03 -6.2865442505006431e+03 2.2821168612372151e+01 -8.8455975685210433e+01 1.1044279646058567e+02 8.5823885119085972e+01 -2.6058748437813463e+01 -2.3578071414716391e+01 2.3865385444123912e+05 5.8812890203107518e+03 1.0542220280201640e+04 6.2185935096386288e+01 -1.4715427878723531e+02 -2.5570685397851230e+02 -8.7980074771017954e+01 1.0166637491337636e+02 -1.9269937007513482e+02 2.9608756476600392e+04 -6.4786971691797153e+03 3.2783679610640625e+03 -1.7067047732600042e+03 -1.3265096317359857e+03 1.1658466532462894e+03 1.2717437213293463e+03 -1.4462249612012906e+03 -5.9460933312377529e+02 -1.6352671635497041e+05 1.4936541138967914e+04 1.3006334409071353e+04 -5.1555076265902162e+03 1.1982627588576448e+04 -9.5002272604572772e+03 -2.7446927043503347e+03 1.1755770626188214e+03 -2.9120447375012523e+03 -4.5866348993439366e+04 -3.8383349854261769e+03 3.7180005787210539e+03 -4.5036867567540980e+01 -5.8073521335814200e+02 1.2505309515319784e+03 -1.6022252225520481e+02 -1.5028861791803718e+02 -6.7927613747650469e+01 -5.2947881611582823e+04 -2.9349823119069711e+03 6.8830439959466457e+02 -7.9573295868721800e+01 1.1453654868947342e+02 -1.4285974300205635e+02 1.1488094637149329e+02 3.1650497104570320e+01 2.0050231745941716e+01 1.6991333551332355e+04 -1.7351222053286106e+03 4.1541558189499119e+03 -4.1817502250198242e+00 -4.7861440888576908e+01 -3.6587483776616864e+01 -1.2596962482306375e+02 -2.2100742188979012e+01 9.4824747584034235e+00 -8.6361224593009567e+04 4.4839432255297434e+03 -7.7359655341738835e+02 -4.8591249553095615e+01 -1.9082470461120829e+02 -1.4060621051961207e+03 -4.5350186797120841e+01 8.9462505732921898e+00 -8.6381377073960302e+00 1.8617464329600334e+04 -8.5565289061138792e+03 4.3381217694794759e+02 -5.9851223732612816e+01 -5.9781957294559106e+01 -2.6906817369058263e+02 -2.8778395121985739e+01 7.3421237893530119e+01 2.8516092400300622e+01 -2.7862612613970414e+04 1.6635597469303757e+03 -2.7520597890554573e+03 -5.2808563038824246e+01 -1.6671938901584736e+02 -9.7180326343704110e+01 1.6867238797477330e+02 2.3267106702397243e+01 -8.7532256294231047e+01 1.6811997942771856e+05 2.4721114597506821e+03 -8.6121365653893884e+02 4.5829839742184063e+01 -3.7548543788841926e+01 -1.9843761554802768e+01 -5.2329033536385396e+01 -2.6962668173133650e+00 -4.0931790994736787e+01 2.4840236698488043e+04 1.5147775233629320e+04 1.9703399965387071e+03 2.1455325877948638e+02 4.2113434439872901e+02 2.6802830714103766e+02 1.4498732616309348e+02 -1.9020181820145467e+01 -2.9690838905914711e+02 3.8205203804518955e+04 -3.5940690088253468e+03 7.0026837143488228e+02 7.7061229467777594e+01 3.0196052663784940e+01 1.7261708060608362e+02 -2.7107942804170307e+01 -5.2456627357400976e+01 2.5021273257050780e+01 2.4815188041329384e+02 -5.6732773983129591e+03 1.9424698972181545e+02 -3.8122770534268197e+03 1.2127853249552863e+04 -1.1392955202960144e+04 -4.2110510433437421e+03 2.5046089587331799e+03 -1.9448060353869373e+03 3.9124650730974739e+04 3.5635267111280500e+03 -1.7315208698438071e+03 8.3901273797964677e+00 -2.2600764454890680e+01 -7.8499192898760910e+00 -1.9455461662744433e+00 5.4624704078966893e+01 -1.4510034686245490e+01 -3.2901831709900587e+04 3.4707044749690365e+04 
      </Row>
      <Row Index="88">
        -5.8735783440125552e+01 5.0253236073855078e+01 -2.3890850961368415e+01 -2.1084924550401047e+02 -3.5109641239710618e+03 3.6405313438229030e+01 -3.7186170976363428e+01 -2.5857015266747112e+00 -6.2333565512291898e+01 1.7952399432643233e+01 -1.2352900245283731e+01 -1.9609794780761149e+01 2.7304821452082251e+01 3.4201357756463914e+01 -2.4635824131751729e+00 1.2489540956681594e+01 2.8702715931372950e+01 -2.2057020724023459e+02 3.2283035341269788e+03 2.1954529019413755e+02 1.8958823860379873e+01 3.0490831171694822e+01 -4.6546465003923004e+01 2.7566664493876342e+01 2.8127812405378968e+01 4.3499546322667392e+01 2.2932703667902388e-01 -9.4681056601214237e+01 5.5011974887602264e+00 -7.7681762992724543e+00 2.3514386016722710e-01 -1.5731413998903008e+01 1.2301084321714588e+03 1.1792212875105179e+01 1.2179601917892796e+01 1.2723447609350842e+00 1.4720499976465362e+01 -5.7210283716060559e+01 6.4297293543636442e+00 -2.1738739907058061e+01 1.4005825072643347e+01 -2.8226438201371593e+00 -1.0079532105769687e+01 -8.5471891671331832e+00 1.3630571321991738e+00 1.7772858626951347e+02 -1.9641361141888992e+03 -1.1937798912552898e+02 -9.4402671693605953e+00 -1.6572153632332629e+00 2.8168983585257592e+01 -1.8426201090962739e+01 8.1903978687444550e+00 -1.0538060474492568e+01 -8.2566821871005232e+01 -6.8046018002486317e+00 4.0018123245869695e+01 -6.7548990766996837e+01 4.6786097165205611e+01 -5.9105278085829923e+01 3.9593997251799524e+03 -6.1368111424535506e+01 3.5982547813639400e+01 4.7408233856961033e+00 2.8229575574476716e+01 3.3251459349427421e+01 3.9271313254654254e+00 2.9527895845272280e+01 2.9051250993479698e+01 -4.2547123374580771e+01 1.6198365995092694e+04 -4.1841126518040710e+01 5.0265224985746052e+01 -6.4936914370802697e+01 -6.3667086715344340e+01 1.1962777339171868e+02 -1.0233971134981601e+01 1.2118472200581767e+01 -2.7969079319622010e+03 -5.4841325437476644e+03 -8.8988915657884752e+02 -1.6668016354092536e+01 -4.1998820649983827e+01 4.2782676267554052e+01 1.3523045442262294e+01 3.1762614325377285e+00 -2.4531510075445475e+01 5.8812896371439265e+03 2.6254380407390283e+04 2.3346092016652110e+03 2.8994111897459554e+01 -1.4283004073560642e+02 5.5309276600746671e+00 2.9307708734485772e+01 -6.0734386624395022e+01 -1.1629222062044818e+01 3.5728475721913492e+03 7.1038594940790463e+03 3.1176492024280719e+02 -1.1508586016143343e+02 -1.9481620443203064e+02 -2.7897204045605082e+02 2.0622694708113650e+02 3.0706051856407043e+02 7.4390896138094809e+02 -4.3329878955926415e+03 5.3572749929751080e+02 9.7205315044340532e+03 -1.4389254905428284e+03 4.2521468608195264e+03 2.1247336149960124e+03 -2.5359355010611248e+03 3.8743138104273135e+02 6.4620107279689626e+02 2.4727857341098106e+03 -9.0743567572895663e+03 6.9718915553903207e+02 -2.4458067792282378e+01 -6.9499751834064591e+02 8.6825593764899884e+02 1.1776661461337255e+02 -1.9174284652762253e+02 3.9294459969557906e+01 -6.2264836699003354e+02 -1.2167024148806857e+04 -1.7112071907869540e+02 6.6763637050823860e+01 5.9405510476790369e+01 -6.7130302719451720e+00 -3.3786462860811042e+01 8.3446636903103951e+01 1.0785766928595584e+02 1.9090944486111403e+02 -3.9624044840773456e+02 4.4727973857019322e+02 -3.9715704360611070e+01 -1.5948680556597537e+01 1.1013939177017892e+02 -1.8766018885248343e+01 -3.5809632759031416e+01 -4.8408895114696506e+01 -5.0868745095444137e+02 1.0452955920823151e+04 -1.3794787318794988e+02 -2.3498999697023244e+01 3.8426214151724707e+01 -8.0177167213201756e+01 -5.5243971686868463e+00 1.0517954587213382e+02 -6.0411213143118964e+01 -1.3186218516482040e+02 -1.1771821410958310e+04 3.9232190928282216e+02 -1.7787866555811306e+01 -7.0919457933865488e+01 -3.5963861966039985e+01 7.3207260407016619e+01 6.5881806049000261e+01 -9.8754572666903151e-01 -4.6557348030097783e+03 -7.7530886856927536e+03 -1.1463173914943509e+03 1.7224709965602049e+01 -2.7414979096791535e+02 1.0998373443433229e+02 2.8644726767000975e+01 5.4231030169271079e+01 -1.4923151845696339e+01 4.8134848176654632e+03 8.9516353551654611e+03 -3.5050059674795619e+01 2.6221223166864736e+01 -2.9709296451823320e+01 1.9969824481871910e+01 -2.2498531737073790e+00 -4.4669574566967995e+01 -9.1279611905422442e+00 4.5851702794763705e+03 -1.6197841902319497e+04 2.7567240696580848e+02 4.7768994809843306e+01 2.5644698933188596e+02 6.1783257133713320e+01 6.0144732092404070e+01 3.1826087326920998e+01 -2.2256305387854943e+02 2.0895276643550865e+03 -1.9879254094779491e+04 3.5515908031188883e+02 7.9787547440520939e+01 1.1729666027429630e+02 5.3805283226392930e+00 -7.6959125732944813e+01 -1.3685818785599895e+02 -1.7159126497434045e+01 -1.7542805997263640e+03 -3.0480268061144350e+04 7.4917381932671506e+03 -1.3622366067001706e+03 3.5698113403186408e+03 3.0365069870408079e+03 -2.6452309200967188e+03 2.5745609621012022e+00 1.5555325641476367e+02 -8.2880604590725852e+01 1.8603038490845323e+04 -2.0601797520030885e+01 7.6926311520859599e+01 -1.4599646922520307e+01 -8.0275866278992147e-01 8.9282706980687152e+00 3.3455314638095146e+01 -1.3197516687668394e+02 -4.7178255884255123e+01 1.8490176598294041e+04 
      </Row>
      <Row Index="89">
        2.0575319994736841e+01 4.5245964751670726e+01 2.8990373969644224e+01 -8.9228955009999117e+02 4.5490627793180902e+03 9.7863133879835207e+00 -1.3946375908280174e+01 2.0718829158337826e+00 -1.7975076594493657e+01 -2.2561317755986394e+00 -1.0293733008150276e+00 -6.5575777378103339e+00 2.6534087362936589e+01 -2.7012845450118763e+00 1.0074127933380048e+01 4.2879696561447417e+01 -1.8763907750235376e+01 -3.5355148915925383e+02 4.8735012742760227e+03 7.3508656894885704e+01 1.4632206167234415e+01 6.7439019377332734e+00 -2.8391318825590361e+01 2.3349977630101144e+01 -9.0330019145675582e+00 5.4426757331925986e+00 1.6290511426479497e+01 5.4011043073337284e+00 5.3006344244363390e-01 -2.0174497549141051e+01 4.1724317899821131e+01 8.2654579667463622e+01 7.7133281098123916e+02 1.9572538941948210e+01 7.2722358714620441e+00 -5.5954097731932961e+00 8.0586168756672123e+00 5.7211186034960004e-01 2.4031687005575009e+00 1.1986420073878833e+01 2.6045475260588319e+01 -4.7759689566306918e-01 -5.5601411521793409e+00 7.2622607113862614e-01 3.8745425846550461e+00 1.1422510468771325e+03 -8.4286815259993455e+03 9.1853954288916384e+00 1.1324570622417696e+00 2.9564881993637755e+00 4.4861361988555018e+01 -1.0259751689952978e+01 -1.4525881208571114e+00 3.0657911012667682e-01 -3.0492640002579719e+01 -8.5084776338466964e-02 -1.8410445069362524e+01 -3.3198987199558204e+01 -5.1036645829827684e+01 5.6112895327056049e+02 -4.1618980865209924e+03 -2.4721331750018003e+01 1.1875955720705328e+01 -1.5021054740898308e+00 4.2359374750133370e+01 -9.1077014350950662e+00 -7.3735083925362304e+00 5.6309288691973052e+00 -1.1606892412752495e+02 9.8364073102328007e+00 8.6192515831418598e+02 -6.6993342755960748e+02 -3.0797403844978305e+01 -1.2114171790672117e+00 -4.8198778419988230e+01 -1.5943668884268311e+02 -1.1718900754791051e+00 -2.7698124485482957e+01 -5.3971155329347393e+03 -6.5986832928417061e+02 -1.6338301568689449e+03 2.3107928640485760e+00 1.2803834534399357e+01 -5.2836526799394051e+01 -6.4791859614695966e+01 -6.0217748639221966e+00 -9.5739648004128171e+00 1.0542219705588393e+04 2.3346088312142524e+03 3.0536943147299069e+04 6.1847272504028822e+01 -4.7016905685142547e+01 -1.4410446942102817e+02 -5.0714786207864586e+02 1.0396543162227493e+02 -2.2187839157067435e+02 -3.7470065377118226e+03 -9.4397894217495605e+01 -1.4476844023577100e+03 -1.7610808478046179e+03 -2.4885353313431656e+03 -6.4811587994672800e+02 2.3584765442515895e+03 2.5060950032437586e+03 -1.5435041612591917e+03 2.4567308291532527e+03 -6.9736374975926228e+03 -1.2524534249182776e+04 1.7001345535381286e+03 6.8555917458300974e+03 1.4964825508750402e+04 -1.2799017672943082e+03 2.8748853562017312e+03 1.5007620658387634e+03 -3.8761068372602676e+02 -3.1163438469098646e+03 1.5787337920426435e+03 -5.9643913176448166e+01 -3.2991858453594318e+02 5.9840487158499548e+02 -1.5090985019160337e+02 -2.8945636850794457e+01 -8.1960732248544730e+00 -5.2895179114234634e+03 -1.9031660596978707e+03 -1.5257473054734874e+01 1.9479594280450669e+00 9.1322202724113595e+00 -5.1795552177086847e+01 5.1387160082120175e+01 1.9954837358605662e+01 2.1081370279515884e+01 -2.2715428474763175e+03 1.0192469122887511e+03 6.8785476542135825e+02 9.6489568835984691e+00 -1.3825463883354132e+01 -2.2353656984058034e+01 8.3052108231807807e+01 -1.0242663116560212e+01 -1.0468423071308369e+01 -6.0236976300985334e+03 3.3678142647589993e+03 1.4297116387906135e+02 -5.3737551650906525e+01 -1.4315619479447196e+02 -8.6003039639888448e+02 3.7445857915489796e+01 -6.6287201394723070e+01 -5.9222002313053054e+01 1.3429008612792240e+03 -2.8436231593646753e+03 2.8449974360960186e+02 -1.0319786400568447e+01 -7.6893532921603764e+01 1.5885087864131492e+01 3.1761244090364187e+00 4.1241635613704375e+00 4.8562467624530505e+00 -2.8959372841496952e+03 1.5183019467610575e+02 -2.0128575828448563e+03 9.4232090675099016e+00 3.8357500599956332e+01 -3.0713535015016714e+02 -3.0185292649925714e+01 -3.0452618020724024e+01 -1.5047243287353012e+01 7.2596236277846801e+03 1.2923828551098704e+03 -8.5032395181192044e+02 1.8303681652697612e+01 2.3215029479106306e+01 -1.5223622114848695e+01 -4.3357285088175558e+01 2.4921214419190925e+01 -2.5820639800977503e+00 8.3664990627463576e+03 -1.8113986910648173e+03 -4.5206326618705498e+02 1.5714395022206145e+02 -5.3057269742577887e+01 -2.6040895784799159e+02 3.3067358768398975e+01 -1.2077689635635103e+01 -6.0124817306702880e+00 -7.2855232448230781e+03 1.1459424416997936e+03 4.9592536887151073e+02 -4.9590502912402599e+00 6.0062153874987416e+00 4.6234937323308259e+01 -2.3797468302680500e+01 1.3186672209026938e+01 -2.6035612761938864e+00 9.3226065905985888e+02 -9.7650040336970196e+03 -3.9436844581182595e+04 3.1232302711308075e+03 8.9270746806754469e+03 1.5632630368987117e+04 -3.3848208799220756e+03 1.9644114719365803e+02 3.1846258353719995e+03 -3.2818375464863493e+03 2.5677078149594365e+02 -1.1670144640119963e+02 -5.6701362732328562e+00 3.3363652721753585e+00 -1.2403812934559809e+01 1.3382678382747095e+01 -1.5607197693014799e+01 1.4183592300370947e+01 -1.6181401289163612e+03 1.7866184276874480e+03 
      </Row>
      <Row Index="90">
        4.9536192999881201e-01 -1.7438559542809173e-01 1.5360590042149482e+00 -7.0776112049088624e-01 -3.0467945502264911e+01 -5.1317222244340244e-01 -1.8226420858063364e-01 -3.1961243197484990e-01 -9.2087088896427360e-02 -7.0463636960940912e-01 -4.2459477910828358e-01 -4.2006379472196187e-01 1.1913796543206558e+00 2.5181545395732141e-03 5.2736898208694138e-01 -5.1841237140900631e-01 -3.7458345725048048e-01 -3.2442480349072866e-01 4.0854541494641467e+01 1.1110201185563922e+00 -4.1173303908146436e-01 6.9842204147446241e-02 -7.6322610023207016e-01 -4.9894361031444401e-02 -3.1724287688009456e-01 -1.1014274517619640e-01 -3.6771574128584916e-01 -4.1661648207375601e-01 -1.5568274694878426e-01 -9.1150450047521758e-01 4.1087225309963635e+00 -2.4171142160048475e-01 3.1540747068083874e-01 4.5301311470337069e-01 1.3787210173124720e-01 -9.9872517471123246e-02 1.3311138832413860e-02 6.5364966585735496e-01 1.3973659341651778e-01 7.2068677103916912e-01 2.3324307772764996e-01 -2.9087872069968324e-02 4.9505670173448912e-01 -2.0048436575225992e-01 -6.7206194789095264e-01 9.4524897950327613e-01 -1.1085326653895038e+00 -7.5882705004081430e-01 -2.9367640898389169e-02 2.6162738461152912e-03 -5.9907412924143699e-02 1.7066901459426437e-01 -4.1406284052936415e-01 2.1818379873369143e-01 1.3472700143984184e+00 -4.5840420866636311e-02 1.2412869072628840e-02 3.7919155815933259e-01 -2.5111987498562804e+00 1.3212763638291847e+00 -1.8501466291910337e+01 4.3888959099779212e-01 -1.0504544758772316e-01 1.8488872935407086e-01 -1.0315856175805971e-01 1.5354908982298321e-01 -2.8671886355748627e-01 4.4179877779075616e-02 -1.9511598290582697e+00 -1.5217691559577862e-01 3.8361295693407733e+01 -3.4240536705716806e-01 1.6582664312376139e-01 -4.2555531772086397e-01 7.2658418020205318e-01 -5.4665669065286426e-01 1.3509753595463250e+00 -1.1811899752883663e+00 -2.0104384713010205e+01 -2.1606258739990380e+01 -4.8290653584314924e-01 3.2765096941496497e-01 1.8449131604022568e+00 -2.1359931287779546e+00 -7.3149780720088131e-01 1.2375609320314900e+00 2.1936204046321484e-01 6.2185936053551643e+01 2.8994111066165779e+01 6.1847273040129267e+01 5.5612372051611754e+00 -1.3609697863611920e+00 -1.3925986724175242e+01 -1.4435780821881634e+00 8.8608465490119528e+00 -1.5454129893870576e+01 2.3200589769479620e+01 5.5203514945354982e+01 3.2473754240182018e-01 -1.9093868327493704e+00 -3.3742078913052467e+00 -2.4109408467435869e+00 6.0505554960300953e+00 2.7266910984919104e+00 -3.7773914103107042e-02 -6.1210156810737473e+01 1.4153132170659319e+02 1.3768355283887217e+01 -5.3268873490951325e+00 6.3440916829608796e+00 -6.5137034265830778e+00 -2.6641079565538995e+01 -3.4976513914185636e-01 -4.0507040198425637e-01 4.8755040763193847e+01 -7.4016793714278279e+01 2.0247668329038788e+00 1.4268090426586300e+00 -3.4064526955409313e+00 4.9948632068009831e+00 5.3318177337389674e+00 4.6781279008597187e-01 1.0842616422405142e+00 -4.6514966088194342e+01 -4.1243504167732027e+01 -6.0778204036341776e-01 -2.7428523650860015e-02 -2.7644113951646432e-01 8.5993000138888931e-01 -4.4154354155886999e-01 -1.3300863061386323e+00 1.0437148446043401e+00 -4.6013640375763316e+01 -8.4030827927062376e+01 1.1734428136835131e+00 3.3200081732348985e-01 -1.1736014152189398e+00 -2.1783245355218241e+00 5.8392086138315058e-01 2.7875467068267629e-02 -6.3441869911776527e-02 -1.7481863127206353e+01 5.5833790899769156e+01 -2.2661022168231284e+00 -1.8229415575697627e-01 7.2794847188310996e-01 -3.0768211877832528e+00 -7.1024642592635701e-01 -3.5660847778534599e-01 -3.2244080398343300e-01 1.5869581987643869e+01 -3.3544187044918260e+01 -5.6807877759456460e-01 -3.0248473867668901e-01 6.1703540150119807e-02 -3.3595312743568684e-01 -1.4351493739098409e+00 -9.9712969287017561e-01 1.0126649022801173e+00 -2.8138797292695017e+01 -4.4190673175485244e+01 -6.1910223267348385e-01 1.3889687932128347e+00 1.4866624182375023e+00 -5.3110541215422842e+00 -4.0285771790392033e-01 8.7451816475338107e-01 -8.2011420079209785e-01 -1.8226843073555301e+00 2.4338626248046239e+01 4.2794066885019273e+00 6.8094908299218693e-01 -4.5690495628502958e-01 -5.9202008546583329e-01 -3.4499421939436559e-02 1.1265273187121241e+00 -8.5304748035531119e-01 5.2945431159636058e+01 -2.6303609100957601e+00 -1.9415316547424482e+00 -2.5843539517532133e-01 2.8300823798522146e-01 1.0956522799511283e+00 -2.0788335672424907e+00 6.7921408724200427e-01 -9.1146445557168221e-02 3.2470202162637989e+01 -2.0372527418618120e+01 -2.3294320459717710e-01 3.1341273825385230e-01 6.6580579740531221e-01 -5.2273779088952210e-01 -4.0795137208692722e-01 -3.6399125067010729e-01 -2.9547266228158264e-01 3.0292127140579396e+01 -9.3511328815004390e+01 -5.1524951420874572e+01 -7.3148917447309429e+00 9.2400236167701024e+00 7.6498766941693930e+00 -2.6526062932157124e+01 -1.1728454535885845e+01 1.6266415754995890e+01 1.9044327092691674e+01 4.0784949180455079e+01 2.6290636254840655e-01 2.3213247599508691e-01 -3.0546321024093026e-01 2.4458366135105442e-01 -1.2385384804723287e-02 4.6365991359739511e-02 -2.9670918303213512e-01 -7.2631014715513942e+00 4.7340495361347614e+01 
      </Row>
      <Row Index="91">
        -2.7395987653670406e-01 3.1115437422636489e+00 -3.3642785261478991e-01 1.5256481877382612e+01 5.9073535817225775e+01 2.6641295433256760e+00 4.1825217852639440e-01 3.2395449394584119e-01 -6.5297856740388482e-01 5.1207249199757054e-02 -6.1633385333641288e-01 2.7054206506319645e-01 1.2458589977609336e+00 -1.0441135414006888e-01 3.9749764331215509e-01 -5.4297882987056312e-01 7.0676164845008316e-01 -1.4082287604068142e+01 -2.3532357693543699e+02 -4.1213194929107733e+00 -6.8169308378417304e-01 6.8500178833677272e-01 1.3463585071475457e+00 -9.2950230463756034e-01 -2.3807766189370805e-01 -1.0469061657769032e+00 -5.3452565708322481e+00 9.4690401410589875e-02 3.5173753018521836e-01 5.9900180320454410e-02 -1.0807363962136876e+00 -8.9855523855806041e-01 -5.2860762135670939e+01 1.8512952424067564e-01 -5.1941283195991161e-01 -5.0539050749053160e-01 -5.8897170321580461e-01 8.9495288968197328e-01 -1.2977301844149736e-01 1.2243334972001918e-03 -3.6370574937205902e-01 -3.3337798750125991e-03 5.7630761650189224e-02 1.6693395995696676e+00 5.5599978749170020e-01 -1.0212149387422869e+01 2.0347628241215602e+01 1.4048620196577630e+00 5.4705734949849472e-01 1.7619266583741648e+00 -9.9847563177116783e-01 4.3949453495693158e-01 -7.2970812946702246e-01 9.9636561501529997e-02 3.4148261434683036e+00 2.8239694100260060e-02 1.7249537138677629e-01 -2.2530102645233452e+00 5.8827784573639752e-01 -3.5556088526976737e-01 -4.5125684119306477e+00 -8.3627077909335035e-01 4.8840049554605569e-01 1.0421389555845817e-01 9.7198381106001097e-02 -8.1971474619949669e-01 -2.9756525345493079e-01 -5.1204858893641481e-01 -2.7853805887159737e+00 -8.0210440912992009e-02 -5.9259910603997596e+01 2.4427951263865211e+00 -1.0299702372431785e-01 2.8855497978772746e+01 7.7637810299611374e+00 -3.5128256669900941e+00 -1.5033119193888231e+00 1.7594762767019811e-01 -2.7422361957299131e+01 -1.6926397919615226e+01 5.7818931360762136e+00 -4.1177101796967630e-01 1.8894041329340894e+01 6.8572599511294356e+00 2.2166562862908910e+00 -8.1405867170160962e-01 2.3813272553043693e-01 -1.4715427566444211e+02 -1.4283003996292808e+02 -4.7016904414215105e+01 -1.3609697822279132e+00 6.0019217600914146e+01 -8.2715625858855439e+00 1.6206798254438020e+01 2.6094348447268612e-01 3.8451859616851456e+00 -2.0711599309712028e+02 3.2954525139222213e+00 2.8031239905214278e-01 7.8914885762658553e+00 -2.8891454617461903e+01 -7.2899726321524279e+00 -1.1558272419137348e+01 1.6758838457723680e+01 -1.2860223293961752e+01 1.8238572694465580e+02 -2.7723801428023785e+02 -6.5439056974575635e+01 1.5163786130145272e+01 -9.5259697689949360e+02 6.3766326581228242e+01 -3.1300937071483141e+01 3.0027837548823339e+01 -1.5790671030149682e+01 -8.6914345235800170e+01 8.0430180024810113e+01 2.7251640669510380e+00 -4.2055701413258326e+00 1.4691699018384799e+02 -5.1051081458713021e+01 -3.4208288186684008e+00 4.5261782294352737e-02 -1.8525265335677612e+00 -1.2014291669603881e+02 7.5645447577421848e+01 1.5284841424400838e+01 2.3277574167738138e+00 -3.0808477405502344e+01 5.5608805250825100e-01 3.4451988943515346e+00 -1.7774376476988547e+00 2.2537795745978179e-01 -1.0625727261411157e+01 5.9031463478187923e+01 -1.1265384709914679e+01 -1.6504920039808610e-01 -1.4166851534366742e-01 -7.1891068980696673e+00 -4.6956835188106893e-01 -1.2356834082672425e+00 -9.9050199211403733e-02 -1.6335057189184329e+02 -6.9084102357454867e+01 1.1770275224430407e+00 1.6781590335661967e-01 -3.2218571488510861e-01 9.0257367263122887e+00 -1.1667951836602697e-01 -2.9585751090021717e-01 6.0705246571439986e-01 2.4152192724315682e+01 4.6338586343913782e+01 -1.0066304453649536e+01 8.0732307421458938e-01 5.2627451064768138e+00 5.1560084758352787e-01 1.8434485558302427e-01 -1.4585403639206862e+00 2.1254769587298172e-01 8.5479351969446725e+01 3.0359218148432774e+01 6.9957796306502402e+00 1.1099087782078980e+00 5.3198945746878287e+01 2.9709736641909167e+01 3.9995525024806398e+00 -1.2949638529617797e+00 -2.1522786669336327e+00 -3.2800741402481890e+00 -2.4510613051415021e+01 -1.0186368192326366e+01 -1.0544689731972758e+00 9.6254464923675869e+00 -2.8130422422034371e+00 -1.4518170014713832e+00 1.3348507006532992e+00 8.9023990270127307e-03 -9.7498685231996092e+01 4.1096954985907018e+01 -1.5179337670149380e+00 -2.9930024147778287e+00 -2.6074030681375941e+01 7.5347934184653784e+00 -3.6806188833498936e+00 -2.5714941118212247e+00 7.8937755007445256e+00 -3.6584223655078517e+02 4.2465504208244965e+01 1.1016102948526168e+01 -3.7994093308206089e-01 1.4451528405629688e-02 -7.3739107791402603e+00 -1.5823413274287077e+00 -4.7590313938886730e-01 6.5279364007217566e-01 -5.7866053029669274e+01 -7.1436730117635875e+01 -1.3463282582002307e+00 8.0958548249220410e+00 -7.7537840485477682e+02 5.4669642521540652e+01 -3.6101849402901934e+01 1.1846285708333625e+01 -1.3174052373200325e+01 -1.4547157533307927e+02 -5.9612573532000852e+01 -4.1418265132995646e+00 9.6120015570875239e-02 1.1569134687405005e+00 1.2051638360123920e+00 -2.2062347789291592e-01 1.4454960626966751e+00 1.1595362120400523e+00 1.2250295477525672e+01 -7.4517241194218329e+01 
      </Row>
      <Row Index="92">
        -3.2954554443552140e+00 -1.3888047327496622e+00 -3.3795838957655917e+00 1.9180755104846639e+01 -5.5341959564301305e+01 3.9023771488762815e+00 -1.5901335967424259e+00 7.1347537774930458e-01 6.2641922266838037e+00 3.4439304447479913e-01 1.2636201141286199e+00 1.1574422239360622e+00 -6.7866744428575032e-01 6.6950658216640702e-01 -5.3762045707290245e+00 2.9220151712358273e+00 3.8790575131279752e+00 8.5923807271992700e+00 1.9292903500754653e+02 -7.4240103656724443e-01 2.5393632031988478e+00 1.5360799717063141e+00 1.7381082672629500e+00 2.1589949474135812e+00 2.5282555591910181e+00 -1.0310560549088166e-01 9.1866024248092799e+00 -5.9741347913490916e-01 7.3346842084863795e-01 -2.3620237652935430e+00 -1.0671282682262557e+01 3.4279154026170318e+00 6.2381844237366749e+01 5.4424932435800599e-01 7.9837613180295364e-01 -8.5445837815054659e-01 2.8511647609302315e-01 -1.8314041148105753e+00 -2.8129571300553025e-01 -1.5508865870330002e+00 -2.9779912341933255e+00 8.8956865750432268e-02 -7.5631053449892283e-01 1.5637849918162772e+00 2.9932159130185312e+00 5.7325939701149764e-01 2.3215270482356033e+01 1.3869914790214892e+00 -4.8261264117535774e-01 4.1490921787394086e-01 -1.3636046444959220e+00 -9.7174660153487691e-01 1.5495935463671222e+00 -6.3513214665826823e-02 -4.8018761657278901e+00 3.2386624536724584e-01 1.8498878770295728e+00 4.3822531402338019e+00 9.7405689553660864e+00 -6.0138730279340393e+00 -1.3537171408404782e+02 -2.2082619595115922e+00 1.3235931151134706e+00 3.4472569415528920e-01 -4.0496373498334561e+00 6.4247906011386746e-01 6.8981165270811839e-01 9.7316369114052281e-01 9.2828002297457317e+00 -4.9334570552151824e-01 2.1425519956364575e+01 -1.1160307362922310e+01 1.7953702832171601e+00 -3.0337846574116156e-01 6.3654582372598725e+00 7.2531609998995510e+00 3.1600495892601463e+00 6.9998472036905319e+00 1.0641865435564895e+02 9.8978506986259163e+00 -3.5665557174427562e+01 1.7326372449324881e+00 -9.2366101920239316e+00 -2.7484982850212418e+01 2.2123358365670462e+00 3.2580675296171391e+00 2.9535404312847158e+00 -2.5570686529850354e+02 5.5309290513008520e+00 -1.4410446857893339e+02 -1.3925986729738094e+01 -8.2715626049839273e+00 1.1485819988630102e+02 1.1164100740332438e+01 -2.4369080944116103e+01 4.7984220918305965e+01 -2.4356782169273524e+02 2.4781238661457769e+02 5.9772905734471806e+01 1.3476356927764822e+01 3.9418590446617515e+01 6.5414618367687893e+01 -1.2131882221123531e+01 3.6672910873119434e+01 -1.1185154289979240e+01 1.8399911865555828e+02 -4.3998527313959630e+02 -6.0265333580362949e+01 7.7874027824871732e+01 2.5733985073579015e+02 2.5366250239981832e+02 1.7578396085773932e+01 -2.9825662889320167e+01 5.5994761149117416e+01 -2.3336608954122130e+02 4.0963523173624640e+02 -3.4026128179837542e+01 -1.0589079904632571e+01 -3.7227374141834296e+01 -4.0432106848652634e+00 -1.6348532557277593e+01 -1.8829457134686916e+00 -7.3496214422600588e+00 1.4807977849618328e+02 7.0618443396446935e+01 -3.6036821371235419e+01 8.7953277209251723e-04 4.2761369987856597e+00 -2.9615319105261435e+01 1.6575859161243294e+00 3.3103350420294770e+00 -3.2376577865175138e+00 1.3916721152155515e+02 -1.7604907287861664e+02 1.3200741358430186e+01 -2.7643997124620130e+00 -3.0739608982092932e+00 -1.7898511924630611e+01 -1.5893942555775062e+00 -4.5843104480659154e+00 -3.4957378997329158e+00 1.4803753130661028e+02 -3.2294675967384046e+02 6.6734873868399518e+00 4.6129718049366488e+00 -3.2624518459422234e+00 -1.1865036285440283e+01 4.6390097368430361e-02 2.5254755212883904e+00 2.9183344230275203e+00 6.2201291899309581e+00 1.2854854252499388e+02 1.6439199775144516e+01 -3.3596020436041951e-01 -4.4081337657357835e+00 -2.6756355662037095e+00 1.0048475741729394e+01 -1.7768459079393999e+00 -2.1295850479750720e+00 4.7178977828254574e+01 7.5918526971899155e+01 -5.4354372441018825e+01 -1.8460133940055687e+00 -2.5685450043014612e+01 -5.4241405389782159e+01 1.6497755874857631e+00 3.3206636455190566e+00 5.7222611350872157e+00 -1.2741645113552477e+02 -4.2726189229753800e+01 -5.6802047583179061e-01 4.1321021284939130e-01 4.5836286375949840e+00 1.8477974186586380e+01 -4.0938471460769534e+00 5.0337741330007590e-01 2.2498935579684129e+00 -2.8121942375029238e+02 -4.7520722763363665e+02 -2.6117266824245689e+01 1.3555285507878327e+00 -9.9858025111697017e+00 -1.7803096891651062e+01 4.0211352466311610e+00 -3.2828454075622204e-01 1.2459691903716354e+01 8.8165388332675491e+01 4.2286882620013785e+01 1.8993017656034681e+01 -8.2175981338075843e-01 -7.7496576881804913e+00 7.7746407008312985e+00 1.0088558766890401e+00 -7.0065308253814251e-01 2.3961343397589019e-01 -7.5946265955120907e+01 -1.9530898912576708e+02 2.2938643844956914e+01 7.1789970458695976e+01 1.7214452627775057e+02 6.0935507734693147e+01 1.0682126057359795e+01 -3.8837111626786694e+01 4.7189413166826597e+00 -2.9741952761007269e+01 -2.7037195438960008e+01 -3.1333238168820254e-01 -1.1128834605401607e+00 3.6733208750898134e+00 9.3465579400503636e+00 -1.0865471901687638e+00 -1.3753614637292055e-01 1.2047828840603643e+00 5.3989323061185388e+01 -8.5033261218684501e+01 
      </Row>
      <Row Index="93">
        -5.8734569142722943e+00 9.6033650460359752e+00 -4.7574138157507448e+00 8.7787819944198873e+00 1.3767121889733471e+02 -5.1453575345496549e+00 6.5955124593300596e-01 3.1827563275586055e+00 -1.7349961523505755e+00 1.3278388205234870e+00 -3.6082724225534962e-01 1.0664234194372852e+00 -9.3954539646282313e+00 5.5436673475289647e-02 -5.4425411781595496e+00 1.2345073483105580e+00 1.2810333919332777e+01 -5.4972155815491192e+01 -6.8654614609237274e+02 5.2502929969712691e+00 -5.0155107284469533e+00 1.8234303936480507e+00 -4.2677854512262883e+00 -3.7758540594064058e+00 1.9622147585305751e+00 -3.5241806307813306e+00 6.0957155569086012e+00 -2.8016110467269684e+00 2.9989239826278435e-02 -6.5370724236774436e-01 -2.1178110509707082e+00 -1.6724093335153611e+01 -1.5121562799886397e+02 7.5155872990450412e-01 7.8350927390360781e-01 -1.1988438485625821e+00 -5.2668952251953272e-01 1.2490421462555839e+00 9.0280019262698019e-02 -6.3521227788309087e-01 1.6195336807480771e+00 -6.6338178954407079e-02 -2.0206200714445774e+00 1.1360483511300856e+00 -3.6208872473583114e+00 -1.9393559610771263e+00 5.1736974243274830e+01 -4.5533791210325774e+00 1.7821230376471320e-01 3.6286051009098088e+00 -4.0709079655432028e+00 3.4263170197278292e-01 2.2531342856155695e-01 3.0206296164658264e-01 -5.4707744067970907e+00 6.4448504443370624e-01 2.1016617728464144e+00 -7.5689800984436424e+00 3.9742198613571702e+00 -1.3890341427987295e+01 5.3195608119362782e+02 6.8728779584951205e-01 -9.4075756725368753e-01 -3.8811239451042612e-01 -1.8247052485907833e+00 -7.2280431898741737e-01 -1.0793168189930707e-01 -1.1951118147506294e+00 1.1170219737020588e+01 -4.8363191038086706e-01 2.5860933812755218e+02 6.9837153102653247e+00 2.4561238469025826e+00 9.3602724743504950e+00 -1.8627893268424600e+01 1.4399234837712713e+01 -3.5861148516429733e+00 1.5777710693336422e+00 4.5537478807506926e+02 -2.5258860411372166e+02 -7.5435744355650002e+01 -2.7630110116986373e+00 -7.1562380791067426e+00 -4.3196812052904534e+01 -8.0392904800921272e+00 6.3505140137598559e-01 -2.2751290869030019e+00 -8.7980047151555027e+01 2.9307715616143426e+01 -5.0714786132253016e+02 -1.4435780575133634e+00 1.6206798378439778e+01 1.1164100666086837e+01 3.8855918275452188e+02 -6.9183969793517202e+00 1.0124026206007422e+01 -8.4896793033749418e+00 -4.0165713279144848e+02 -2.9606563911718467e+01 -1.3726905412222781e+00 1.0842665190428930e+02 -1.2189841369701257e+02 -3.5342454542675547e+01 -6.3007224431328801e+01 1.9551068686148348e+01 -2.5200425956201076e+02 1.2461800491915903e+02 5.7189838699800453e+02 -1.8248032995431538e+02 6.1052709224260775e+02 -9.0164837098577232e+02 1.1386255795865597e+02 -7.1060364946873477e+01 -1.4300484913810971e+02 1.7196058635136387e+02 1.0803764639723317e+02 2.0872046943054556e+01 5.3398323638918930e+00 -5.1014474417315796e+00 -1.7156150799283284e+02 1.4179993638315409e+01 2.4103083732429037e-01 3.5752354779635063e+00 -2.0205723017113814e+02 -1.9833178668470964e+01 7.9484663513908345e+01 1.0966649002362240e+01 -1.0655128249085465e+01 1.1158020135022035e+01 -2.3467505390696950e+01 1.3316391780230088e+00 4.6463020037291631e+00 -4.3980190834868336e+02 9.9196246457807899e+02 3.7530885477143116e+01 -4.2837365813389532e+00 5.2919005488338371e+00 -3.8337940748284382e+01 1.7241668892416158e+00 -6.8264251141500498e+00 -7.2073901751609881e+00 1.7699815461748403e+02 -9.8122057374273481e+01 3.2023740953632114e+00 -7.9741914266724656e-01 -1.2480863482537188e+01 7.9699540939021176e+01 2.9922915504017453e+00 1.5279974596423873e+00 -1.2331604523844764e+00 1.7457590140783213e+02 -5.2081559643675348e+00 -1.4529358660547587e+00 8.7462643992595090e-01 -6.9083065101406191e+00 -1.5628868618845672e+01 5.3465742768536444e+00 -3.2813069445203022e+00 3.9518074425746352e+00 -1.9699900889929268e+01 8.5437333397405382e+01 -2.1501871924536658e+01 5.5550526985722115e-01 -1.8173535408352109e+01 -1.8394288260450253e+02 -1.6470729045899759e+01 1.6440446314879671e+00 -3.9518014145357476e+00 -6.1222075456452330e+01 1.0032380576372725e+02 -6.0518837987592860e+01 -3.5748616968293989e-01 1.1766782152179417e+01 3.0352349341217177e-01 -1.0554531070863007e+00 -1.5912295976152890e+00 -3.8832287703790058e-01 3.1093445513901639e+02 6.1983353773948693e+02 4.6789997160203484e+01 6.3079067910076860e+00 -4.5750570768122017e+01 1.0907528229739469e+01 4.0576839011412318e+00 -3.9794134352426784e+00 -8.4858305718022997e+00 5.9913615970139585e+02 -2.0480996469510137e+02 2.9205444307365724e+01 1.5970180391873185e+00 -1.4075431424828082e+01 1.4334570566531681e+01 2.1663956838448257e+00 -2.3966884121975234e+00 4.0197172122924485e-01 -1.6966645067779973e+02 1.0186971753631076e+03 1.1377915706335007e+03 -1.7884670123457650e+02 4.8119642584383803e+02 -9.6510656577662257e+02 -2.2417954150410188e+02 -7.3766177708658827e+00 -1.5907393457181996e+02 -2.8514491843676569e+02 2.7950197526533351e+00 -1.1321031940100513e+01 7.3732742201295309e-01 7.0992866866934072e+00 5.7255532784582881e+00 -1.9271074708652369e-01 -9.3875974953839370e-01 -4.1680419922182637e+00 3.9555329168163091e+01 -5.0251549602762438e+01 
      </Row>
      <Row Index="94">
        1.7975750091130498e+00 1.2088447490262637e+00 1.5742783489403074e+00 -5.4445578895802313e+00 -9.5049565273873384e+01 -1.4885577603930231e+00 5.8755701482788258e-01 -1.3361108930216070e+00 -2.3779576439166381e+00 -7.9821717086274524e-01 -4.7241486761831547e-01 -6.7345269228001348e-01 1.8948781101769119e+00 2.2815293392651367e-01 2.0996913725768294e+00 -7.7201995679821112e-01 -8.7362094687639313e-01 -1.0821195887237280e+00 1.4604918740849661e+02 1.2617097991420780e+00 -4.2150181876645587e-01 -5.7915620527992839e-01 5.3665929180031757e-01 -8.9480232969485751e-01 -1.0503876603467084e+00 -1.2249394541748426e-01 -1.1796037967345185e+00 -1.2986179713184178e+00 -1.6432171181541211e-01 -9.8976134846059161e-01 6.8116425432142869e+00 -1.0596967052607553e+00 4.8924353828792420e+00 1.2278243668443656e-01 2.8810861025833945e-01 -1.3434009319783624e-01 -2.8509817320359065e-02 1.8742978864938942e+00 2.8345960424144928e-01 1.1150828426655495e+00 -4.5846011682234611e-01 -1.5758062062649028e-01 9.2955683932406985e-01 4.6144972022284314e-01 -1.7523810463151368e+00 4.5587352502782039e+00 2.3499856274820200e+01 -2.3569335842827455e-01 -2.9378387503632508e-01 -7.6868966778108394e-02 1.1501201678040394e+00 3.6529413650580234e-01 -5.7433288170130137e-01 4.8335899403256344e-01 2.5809356905272267e+00 -1.8453385125924271e-01 -4.1415676937099555e-01 -4.4111201964085067e-01 -6.3463277545167012e+00 1.0318063098504329e+00 -5.6277101674344436e+01 6.9518889543584139e-01 -1.0400073772652507e+00 7.8095500442265553e-01 1.7767950989422785e+00 -8.2720516659523202e-01 -3.5044553419471008e-01 -9.0274026036973876e-02 -3.7304792826408582e+00 -5.0507838255265991e-01 2.1255751192306533e+01 7.1153140724776733e+00 -1.4553874710506367e+00 2.9775350256113597e-01 3.2064269991272596e+00 -3.4963893500820227e+00 1.9201707202114675e+00 -2.7566344747687230e+00 -7.4915773939107339e+01 -3.8749158802625971e+01 1.2526355678786947e+01 2.5996861030864515e-02 3.6248250727650202e+00 -2.9424888345293425e+00 -2.8183739982729783e+00 6.8332783932771823e-01 -5.3873075637864032e-02 1.0166637377023869e+02 -6.0734389212076380e+01 1.0396543084866670e+02 8.8608465460575339e+00 2.6094348507492193e-01 -2.4369080934120266e+01 -6.9183970179017837e+00 2.3165419048368456e+01 -2.9839358480726645e+01 -6.9621880994668572e+00 1.3340915586111578e+02 -9.8748648506051495e+00 -6.5398695144487577e+00 -9.3505103304575599e+00 -4.7991266299245359e+00 1.5961337669266456e+01 1.2334911912350034e+01 -8.7321030714635430e+00 -5.3890191728789091e+01 1.0336004862172683e+02 1.6275050366234495e+01 -6.8857892247977102e+00 -1.9411079338398508e+01 5.3286048947680399e+01 -4.7381254367820347e+00 3.3163415850976911e+01 -7.4368250066484265e+00 4.5571057010007053e+01 -2.1665897926899430e+02 6.4072019754722476e-01 3.4610298214868784e+00 1.6900486657109415e+00 4.5399253872742760e+00 5.6111310688710176e+00 -2.0899233398049244e-01 2.1628959915868338e+00 -6.0720828585027220e+01 -4.9417035017420034e+01 -3.4869723466733262e+00 -1.4141155034450037e-01 -3.9256222559663456e-01 -1.5443772854230930e-01 4.7346445646894963e-01 -3.3691055577836533e+00 5.1856068596772786e-01 -1.2412083076571344e+02 -2.3221449208055242e+02 -4.0888180630232336e+00 8.1339493287202846e-01 -7.4570623634921596e-01 -4.5360843262508155e+00 2.1786891657852969e+00 6.7324715521964218e-01 1.0903510256523115e+00 -9.7653184130191732e+01 1.7887018220793541e+02 -5.1127786210417412e+00 -1.5069535936899783e+00 -2.7166209282989655e+00 -1.2294288803496919e+01 -1.2257873555155321e+00 -5.1545162824064539e-01 -8.1400923690849525e-01 1.0925086256332406e+01 -9.5827194031887259e+01 -8.9622936577648602e+00 -1.9609947774991188e-01 1.9502898124755603e+00 -3.3764932163900596e-01 -4.5868912770202339e+00 -2.1938407365468899e+00 7.0296732899275538e-01 -5.9625126396242990e+01 -4.7579599185571851e+01 1.2356080189148940e+01 2.6697678973351913e-01 1.3233602076625402e+01 -9.3411328264388658e+00 -6.5454038572365558e-01 5.9209252922714650e-01 -2.0030989840221398e+00 -4.6892510753441456e+01 3.3014085196014150e+01 9.6520227555189440e+00 5.4875054925215649e-01 -1.0126472212176481e+00 -3.1492393698658105e-01 6.9110802528145721e-01 2.6610320582892042e+00 -5.2242816889050236e-01 1.3953795643298906e+02 -3.0161181878397883e+01 6.2325798970309236e+00 -1.2248204341805589e+00 -1.6299836344949423e+00 1.7714030228888227e+00 -4.6490735684453028e+00 -5.0375892756765828e-01 3.1620705718676714e+00 -3.9332953247573442e+01 1.4177589077007269e+01 -3.5549271901555244e+00 1.9746728425049251e+00 5.9371440349215376e-01 -5.6738949536791239e-01 -1.6406059882369490e+00 -1.8289769766129802e+00 -1.2821641883449253e-01 4.5676405237293238e+00 -2.5461361616216209e+02 -9.3959153742005128e+01 -5.9551683604097594e+00 1.6344459347550355e-03 6.8499276894896013e+01 -1.0659678045228997e+01 -2.9474212163694524e+00 2.8471138725331819e+01 8.0632865095676607e+00 -1.8597088086451624e+01 4.4260928703897084e-02 4.9048707305707140e-01 -9.0177844297699039e-01 3.3253909457510777e-01 2.3850304967632141e-01 9.2433520558545945e-01 -1.0744276117247544e+00 -1.7546795271521919e+01 -3.0734191198389387e+00 
      </Row>
      <Row Index="95">
        -2.7176961107404018e+00 -6.8343659122326983e-01 -5.0441721961939123e+00 8.9492031355468953e+00 1.7564265134438369e+02 3.7970153369400976e+00 -4.1876962012155161e-01 2.2006275073542270e+00 4.2500885729509577e+00 1.7337973790506322e+00 8.3559334489981929e-01 9.6142989814173063e-01 -3.7170881823608966e+00 -1.2077882410691557e-01 -4.3460571340351510e+00 1.2527694961516005e+00 3.7087587725238791e+00 8.7280940294708671e+00 -2.8321054754575403e+02 -7.2771352348729641e+00 1.4157515467755886e+00 1.4018421658278126e+00 -1.3232353878788672e+00 1.2378022141934029e+00 1.9506472697170998e+00 6.4033157728614754e-01 6.6466391413995325e+00 1.0619601119984359e+00 6.1804155456613330e-02 9.0065972850169373e-01 -1.1638031062296989e+01 1.3605788450561249e+00 -6.5211165372320465e+00 5.8154187260483070e-01 -5.9805949726420948e-01 -1.6798240649697505e-01 3.8126628560070230e-01 -2.5168741176946989e+00 -3.9788789534995317e-01 -1.9232056945561782e+00 -3.6607870493457995e-01 1.2400227079993265e-01 -3.9246234374750227e-01 -1.7114640967577088e-01 8.6751614202036365e-01 -1.4486125811818965e+01 -8.7161766252597772e+00 1.4261589753032879e+00 1.7582916034168505e-01 9.6229158901380174e-01 -2.3348813179013916e+00 -5.5147753915010589e-01 1.0484587335646456e+00 -6.3880551969440269e-01 -4.7654080958350278e+00 4.7079076893766691e-01 7.9909289871594158e-01 1.7742294038854567e-01 1.2006895141331455e+01 1.5382067250412206e+00 7.9280044047338180e+01 -2.3045702360139568e+00 1.3364106700422189e+00 -7.6311483329465535e-01 -3.4039262542628528e+00 1.0045359282052821e+00 1.2517618705449487e+00 1.4317002921081312e-01 8.9174034815469128e+00 4.9204580235049988e-01 -7.5250284070925048e+01 -4.1212181922749664e+00 5.0182427501070102e+00 5.6935596780795095e-01 -2.2231807384021067e+00 5.9201285872381089e+00 5.9501831725645182e-01 9.8318523040088657e+00 4.4475147276158168e+01 9.2562860148518894e+01 -5.7203621972101768e+00 3.9472077872079048e-01 -4.9837371344051462e+00 3.6613242442535920e+00 3.7434452587270926e+00 -6.9453686952207550e-01 1.6645447117580678e+00 -1.9269937529199194e+02 -1.1629215554503636e+01 -2.2187839191751254e+02 -1.5454129892609410e+01 3.8451859523987437e+00 4.7984220922627244e+01 1.0124026338734332e+01 -2.9839358503953839e+01 6.2155938434624673e+01 -6.9455743221123726e+01 -1.2590004117205467e+02 1.2198767268910871e+01 1.5822759939482308e+01 2.8879401249097214e+01 1.3067522042967326e+01 -2.9186549409601131e+01 -2.8873547374825385e+01 1.2956081625008618e+01 1.2340111921121459e+02 -4.0128918862837781e+02 -1.6930623266184625e+01 4.4193239853051644e+01 4.6480026716700650e+01 9.1712348474572991e-02 3.4581136315699297e+01 -7.6912914867657491e+01 3.7170051755358642e+01 -1.6637473155426369e+02 4.9751648188258582e+02 -2.0526582330925521e+01 -9.1901173808028069e+00 9.8821588068015807e+00 -2.1531252264972750e+01 -9.5369291961011484e+00 1.6592724613316268e-01 -7.2192256870632399e+00 1.7045131820971801e+02 1.0815058572647365e+02 -2.5684133740805919e+00 -7.5366949243976222e-01 -1.0416025688082300e+00 -4.2824215838484179e+00 9.5544588883223369e-01 3.2802310313019749e+00 -4.3805484562506933e+00 2.6328673128644550e+02 2.1082135847672649e+02 1.3603781051923942e+00 -2.7048285243342756e+00 2.1629525412362227e-01 5.7388173139893297e+00 -3.1762666124399495e+00 -2.6720768547773264e+00 -2.2821426996926761e+00 1.1365194096160303e+02 -3.9996653211911052e+02 1.0447575183642584e+01 2.7819987855911203e+00 2.6958811438939847e+00 1.6029415492451108e+01 1.1141041036783008e+00 1.9662321692410856e+00 1.5851971418983837e+00 -2.1453446147534123e+01 1.4013965457098527e+02 1.2919704109042868e+01 1.2018112464875785e-01 -1.0925928415194903e+00 2.7573163001115972e+00 6.5993042983667003e+00 2.8795027925915839e+00 -2.8188885480033017e+00 5.3327987621767534e+01 9.4721675874303401e+01 -5.3379924322990462e+00 -1.7068052101215310e+00 -2.0349199285420923e+01 2.1853838892385198e+01 3.0255870218206269e+00 3.4953542268472620e-01 4.7561786740623546e+00 4.4117655954700695e+01 -7.4605554921588919e+01 -1.8381503395443083e+01 -1.1619475617396364e+00 2.2452710869913517e+00 1.7660780193725714e+00 -1.4794449149637927e+00 -3.2282186728659461e+00 2.8619268538952740e+00 -1.5930850133949980e+02 -1.5490658894968755e+02 -3.8268432714121445e+00 4.2716746742369764e+00 -1.5823141184973699e-01 -8.4541591397220941e+00 6.6450259498013793e+00 1.7348113707212911e+00 8.5268206234460315e+00 -6.7560431096514378e+01 1.9087454231390439e+01 -6.5435970135604293e+00 -1.9169155086252445e+00 3.2752495550357708e-01 1.8863585817338162e+00 1.3731608554303421e+00 1.3802998425439874e+00 2.8510895107811507e-01 7.3499245900442475e+01 4.0101352711603613e+02 2.0081234102953294e+02 3.4476823724930583e+01 1.2939080103017982e+01 -4.1474695581322521e+01 4.9031900006210975e+01 -1.6619874175106460e+01 -4.9083396518762029e+01 1.2446760581819035e+01 -7.0116942756593787e+01 9.2319565832184258e-02 1.2472127200743444e-01 1.3930681077288440e+00 1.8388363288671514e-01 -4.6542593634407936e-02 -3.6351001344760547e-01 9.5499683339994590e-01 3.2030539702886252e+01 -1.0036360289409838e+02 
      </Row>
      <Row Index="96">
        1.2517866146089318e+01 -2.4287076688215166e+01 5.0365913861332956e+00 -6.1737044670930482e+02 -1.0275662033825269e+04 -1.1763535974264198e+02 4.2878817025682110e+01 -1.4076416405084728e+01 -6.1485422340749210e+01 -1.6112300665272585e+01 1.9715390000019802e+01 -2.9722900437636781e+00 2.1693764605854085e+01 -8.8263432738554926e-01 -1.1586219646418101e+00 -3.0586034563290013e+01 -7.8739095802608063e+01 -1.5218438068154501e+02 6.5700313358089770e+03 1.8125394695229488e+02 -3.3590607623560572e+01 2.3285962616708815e+01 5.5944547107220615e+01 6.3057278154205676e-01 -2.0241986077807425e+01 2.1030501571312925e+01 6.6737818321722443e+01 4.8902491380110860e+00 -3.2557735317077459e+00 -2.8399409110134002e+00 6.3662837845021386e+01 4.4958474344428396e+01 5.9354106195791974e+02 -2.4521725114317633e+01 4.4777263079340628e+00 1.5616799471335980e+00 1.3985972061615030e+01 1.6749439364124726e+01 3.2437401182201029e+00 1.0518500596642639e+01 4.3735840607332648e+01 -1.3164600642675168e+00 -7.3965882271004242e+00 -2.3912463452492375e+01 2.5934261662514473e+00 7.6980817076243693e+02 -1.3842539822478575e+03 2.3119935958300630e+01 -3.3070861380483620e+00 -6.9576028454466723e+00 6.9842609034109500e+01 6.6099703665735881e+00 1.2005896538074296e+01 5.2318428621015300e-01 -2.0207265639482648e+02 -8.0523089449504823e+00 -1.0123621527204918e+01 -7.9001669799522745e+00 5.1515914275414616e+01 -1.3897800377747626e+02 1.4978259908075044e+04 3.4625484526348089e+01 -5.0751388921430106e+01 1.0651014054260941e+01 7.1504173341086414e+01 1.0207670864028273e+01 -8.2746117849735583e+00 -5.0900882421157583e+00 9.4618412430174430e+01 -7.0680680037554566e+00 2.1860316467059433e+03 9.4951826597132822e+01 6.2959140302688127e+01 -1.5558812515396858e+02 -5.6692230093351100e+01 2.9666845272332398e+02 5.9211206626622818e+01 -4.1285854888208213e+01 -3.9458989618451524e+04 7.6451360108796871e+02 2.7384655614384428e+03 2.1383598399153797e+01 -9.4251128742849687e+01 1.6527247503038961e+02 -7.7970639265628677e+01 1.9694181936828286e+01 3.4411493588931172e+00 2.9608757458642183e+04 3.5728475430332028e+03 -3.7470063613573438e+03 2.3200590178878457e+01 -2.0711599241409931e+02 -2.4356781923374365e+02 -8.4896905555425519e+00 -6.9621871402452484e+00 -6.9455743702186169e+01 6.3710460236534604e+05 -1.0588346593025153e+04 -2.8417599880994449e+03 -7.6360573706556386e+02 -8.5556444895258755e+02 -2.9098360722631137e+03 1.0199858094059830e+03 -3.5150624666991234e+01 -4.3069489520068720e+02 -3.0988258333791538e+04 1.3821182247726443e+04 1.3260025445273157e+04 -7.1252351830609441e+03 5.0254072659546982e+03 1.3085390837818410e+04 5.9620715992811247e+03 -1.9404109570280571e+03 -5.2899459791274248e+03 2.4755566945737039e+05 3.1272648272148513e+03 2.5370326973479241e+03 1.1634836788806186e+02 -1.0605129569476474e+03 1.8900764627998915e+03 3.5292690583919693e+01 -1.3012600606716114e+02 6.3366501211817138e+01 -4.4004090337192174e+04 -4.9759834432655998e+02 -4.7087657186493743e+02 -4.1225942851391949e+01 9.2074850583216175e+01 1.2056956235343023e+01 -1.5982752823791236e+02 1.6029565601402815e+01 7.8300176053655903e+00 1.3204498512306018e+04 -7.6557567816481505e+03 -2.7607879083160879e+02 -1.2425252324871460e+01 -3.9806214561074739e+01 8.1715580588555895e+01 -2.9742794614127661e+01 -2.2752982331166152e+01 8.0274067597099474e+00 -4.3442102204773546e+03 -4.6358281356201041e+02 8.2239074429206084e+02 -2.7921501524516540e+01 -8.1418899645796046e+01 -1.0376622822132776e+02 -2.7486719797670958e+01 8.1296507763385705e+01 -1.6285210145979363e+01 5.1715595544634853e+03 -8.2538172479285117e+02 -1.2947728284213226e+03 -7.0513471921602800e+01 2.3877493468811736e+01 6.1843839344335720e+01 -2.1004964137723405e+02 6.2666126265207311e+01 2.5580282803777358e+01 2.1318626343108714e+04 -1.7408889345240314e+03 3.4093443516210318e+03 -3.2715834069427331e+01 -2.7835115222631430e+02 4.0761744387209365e+02 -5.5364839254147228e+01 -3.5503223744899479e+01 5.4262173423103377e+00 -3.6182318889246962e+03 1.2588481675973162e+02 1.9660862358322872e+03 4.0146365625643305e+01 -7.6459022150695091e+01 -7.4876842403260525e+01 1.5073855369524972e+02 -4.1068160274521063e+01 -6.8372118700591358e+00 -4.0634074624255300e+04 9.5742438658663668e+03 8.1766089010282303e+02 1.3473253082118711e+02 3.6245093900546186e+02 4.7303773967718250e+01 2.3680416832968376e+02 7.7405674602850411e+01 -2.6523259699268965e+02 -5.8350351592310071e+03 -2.5878722890065983e+03 -9.4792294267844409e+02 2.8006725814292622e+01 1.2507411937748839e+02 1.7452248543238966e+01 3.2093471465137554e+01 1.5756310151112757e+01 -1.0450309285988624e+00 3.3035388015381061e+04 7.8438436134689291e+03 2.0679285813132352e+04 -6.4214554042634854e+03 4.5626643417997993e+03 1.8055041328397419e+04 4.6959787071007759e+03 -1.9211304283870045e+03 -4.4823367641184959e+03 -3.5651691197685653e+05 1.5770070153561319e+03 -2.5117805124754636e+02 2.7930457786911575e+01 -5.3704763424656278e+01 -3.8366617365846025e+01 1.2797510758810198e+01 2.3388583237998482e+01 2.7475788537354674e+01 -1.2936801538429008e+04 1.4261781640786403e+04 
      </Row>
      <Row Index="97">
        1.7117403407164602e+00 -1.5644455166091120e+02 -1.4908178921094077e+01 1.6671344083938748e+03 4.7919244753123930e+03 5.8984401743515150e+02 -5.0251071547660104e+01 -7.5331646387579667e+01 1.5131906832403274e+02 2.6898755091712331e+01 1.7979154301759259e+01 -3.9881968720437726e+00 -1.3289020204018561e+02 9.3002265790876450e+01 -2.8852347443344797e+01 -6.9145014760761114e+00 2.2952763464709278e+01 3.6187535171987838e+02 -1.0600001435938497e+04 -8.5491792317328827e+02 7.4405392484770346e+01 -4.3698876929023776e+01 9.0818148362644820e+01 -1.7461069999116177e+00 4.7333939588301071e+01 2.8972451383415319e+01 -1.9349178243210190e+01 -1.1805895898155806e+02 -1.0998051875398232e+01 -4.0899615011083370e+01 3.0830290692258586e+01 -1.7254357650956081e+01 3.8787607624943485e+02 1.8076357450584101e+02 -6.0135851069808268e+00 5.8508260653002253e+00 4.2190668908326188e+01 -9.5953672593852815e+01 1.0972547370301299e+01 -1.6781146278407221e+01 1.0551754155076196e+01 -1.9171902398041141e+00 6.0984485942460587e+01 -1.5535322367282788e+01 -2.5283128997643871e+01 4.0648610666244349e+02 1.4024187289005931e+03 3.4083852206024676e+02 5.2353569573037930e+00 3.3902647340255498e-01 4.2283531445746576e+01 -3.8499803037262268e+00 3.4658543762167653e+01 -4.5334904502212794e+00 -3.4158182601540466e+02 3.1462055714597739e+00 2.7533714751404489e+01 1.5451221005212614e+02 -1.5387012460987535e+00 -5.1970589477088652e+02 -1.1225771663199721e+04 -3.0653142642306284e+02 5.8283299120805310e+01 6.5294586401599304e+01 -6.9414860921190211e+01 4.0524643916354137e+01 -2.1379892587591570e+01 2.7019535811344202e+01 2.2544156819480304e+02 -9.3707173626010785e+01 4.3327843033624058e+03 1.3545528353424424e+03 7.9040461369673750e+01 7.1265996495058062e+01 5.5744732391467551e+01 3.8037340436826139e+02 8.3998871208207731e+01 2.9651302774792569e+01 9.2046091618745995e+03 2.0166873802184273e+02 -1.7648636875977099e+03 1.6044858434729417e+02 1.1312207374714490e+02 -4.5774299396690913e+02 -7.9877618581862734e+01 8.9513867649597870e+01 3.1157232687623377e+01 -6.4786977238320178e+03 7.1038594530914006e+03 -9.4397663254319923e+01 5.5203514540966253e+01 3.2954480641933515e+00 2.4781238995607100e+02 -4.0165713596079854e+02 1.3340915530328843e+02 -1.2590004009256945e+02 -1.0588346946045087e+04 1.6089260183852204e+05 1.5854284495861298e+03 5.3403829556578262e+02 -1.5034236812973177e+01 -2.1303088263735305e+02 -6.5959738514648075e+02 1.4034692463462402e+03 1.8321708427160320e+02 1.8544567644653748e+03 1.3227063384005040e+05 -2.0366286982996178e+04 6.1068522573757236e+03 -1.2889095140600912e+04 -2.0508122029262129e+04 3.6861207947427820e+03 -2.1428505935622343e+03 4.2116190135512597e+03 -3.9976757596040115e+03 -3.3614171006431694e+04 1.4705544792808359e+02 -1.1394725227617014e+03 9.5184726978821527e+02 -3.5452240464257548e+03 -1.0364158028315219e+03 -2.0142154472833093e+02 -8.1392002966659413e+02 -4.7359468768518418e+03 -4.7403297879217025e+03 -5.9920535048790043e+02 -1.3227233467489157e+02 -1.3219601756724296e+02 -6.9087445940295765e+01 5.4464595727328515e+01 2.5867474133259108e+01 -5.9961790055920851e+01 -3.6121231349732261e+02 -3.8771236753851099e+03 -3.1315196117523328e+02 3.3900237905255814e+01 -1.9143167000143876e+01 -3.4696359936887166e+02 -6.1366236898827140e+01 4.8985312427689166e+01 4.4656010341417812e+01 3.2369454227001625e+03 1.9668127010203956e+04 -5.1705405322863953e+02 1.7734462020005205e+02 -5.0948419267777354e+01 9.1310185307869688e+01 -1.3051254665002489e+01 6.1576920359106687e+01 1.3103368042647821e+02 3.4881635469077155e+03 -2.3901919985920649e+03 3.5915891050151549e+02 5.4395763393209450e+01 -3.1758279724017484e+01 -1.7950888945488259e+00 1.0055644019024987e+02 6.9936320814117835e+01 -2.2753212376122889e+01 3.1643846907117404e+03 4.0844931093510240e+02 -1.5960294620088353e+03 -3.2754590787158804e+01 -8.8636849205293402e+01 -8.0042256987342330e+02 2.0714990453748942e+02 2.0813382020795990e+02 1.1000611606220082e+02 -3.3956066973556881e+02 2.4918551079770550e+03 3.2428642174220136e+02 -4.3170613879763373e+01 3.5174914489631192e+01 1.1403605256228184e+02 7.2413797209776021e+01 -1.0380538460647855e+01 -2.2134970648556269e+01 -8.0954766685939394e+03 -6.1019290883619688e+04 -2.0218310030539578e+02 1.5469586070647804e+02 -5.4582107233624788e+02 -5.3628361515369943e+02 8.5231885209209474e+02 3.1701239973338801e+02 -1.2949239613254531e+02 1.0805227095716975e+04 -1.2106656119967345e+04 8.3355503137502819e+02 1.2629359279420123e+02 8.8680839665757958e+00 -1.3199477661747733e+02 -1.3617241144194850e+02 -2.1740204056696280e+02 -2.0436893758303995e+01 -3.2981417411509901e+03 3.0553214516873850e+03 -2.1071811512543703e+04 4.5579173203664714e+03 -1.1534901156916596e+04 -2.3756960041049184e+04 3.1803444888778868e+03 -3.9862240254575090e+03 3.6514732991167830e+03 -6.1786325953864143e+03 8.4922294583852108e+03 -1.6912220385927435e+02 -1.8552967206724134e+01 5.7439222294104127e+01 7.8299492373731425e+01 -2.4171780895335928e+01 -7.0031613974433640e+00 -4.7744241958702332e+01 1.5514837033870485e+03 6.7113394251640557e+03 
      </Row>
      <Row Index="98">
        4.0622201066180210e+00 -9.4178801391120288e+00 4.5362118067627932e+00 3.6693477908238765e+02 -2.3273239746785362e+03 7.4985114200854298e+01 3.3118809767938018e+00 2.0129159939582664e+00 3.9190973365439604e+01 -8.7640556511563013e+00 -8.0329209156851924e+00 7.9269135569038696e-02 3.5817868607370357e+01 -2.3294065715957526e+00 -7.7710434671465549e+00 -1.7624681596047012e+00 2.3100221957516851e+00 1.3568368212254995e+02 2.4765299173457993e+03 -9.7276502792004152e+01 2.0246020353466321e-01 -8.5940980977072168e-01 -9.4245935449713958e+00 1.4364032925257565e+01 -3.8765276485471496e+00 -1.7662932681656898e+00 -3.9469439899466465e+01 7.0038381061340242e+00 -8.8624336118033398e-01 -5.5695118897993723e+00 6.5310736955018029e+00 -3.2527296257606508e+01 8.2572946109941313e+01 1.9367216811720105e+01 3.7091224323788552e+00 7.4529834922176974e-01 1.7498515397386143e+00 -2.9602335083192228e+00 -1.0770831576301116e+00 2.4851147908130269e+00 3.5163065247872396e+00 7.6206656424284880e-01 2.1608998733955587e+00 -3.0245827545428483e+00 2.0501221012402198e+00 -2.4945972921064526e+02 -2.7809246532246652e+03 -4.9411768855028839e+00 7.7191517734716086e-01 -4.3188912582768495e+00 -2.6826228610061335e+01 -4.8851776460518757e+00 -9.3388392202821002e+00 2.3086054315187798e-01 -1.0335931559527921e+01 3.5491604139290822e+00 -3.8052545634987904e+00 1.5320089805791469e+01 1.1328424415753958e+01 -2.1954764639710862e+02 -1.4075014077395656e+03 -8.1449208315310997e+01 -7.9776507321841716e-01 -1.8695126099031647e+00 -3.9330835317611445e+01 5.7188594302427447e+00 -2.9876779048362820e+00 1.7006376551308149e+00 -3.4967965374568429e+01 5.1021824549779531e+00 2.3792105047884911e+02 -2.3996439892177233e+02 7.0986333304984868e+00 1.4107434010553106e+01 -5.7098690721491266e+01 -1.8452245050701645e+01 1.1152071146337157e+01 7.5264146506349920e+00 -9.9626926249240387e+02 -5.6507002967446533e+02 -1.1751442320619724e+03 6.6943495721921424e+00 3.0659439857903521e+01 -9.0870297939427473e+01 3.2094351249970636e+01 1.6089594162311066e+01 7.5718360243841012e+00 3.2783680952448240e+03 3.1176502153477730e+02 -1.4476844145790812e+03 3.2473774456278903e-01 2.8031244562809832e-01 5.9772905596770855e+01 -2.9606563405560081e+01 -9.8748649870272374e+00 1.2198767003583484e+01 -2.8417599376186990e+03 1.5854285006767277e+03 2.6498206350447767e+03 3.8436740294306776e+02 7.0895996164088501e+02 1.9157344588477933e+03 -5.2876959217731746e+02 -7.2281767337825090e+02 4.5257848497445366e+02 -1.2426034891035447e+03 2.4406331917566549e+03 2.1010839509077914e+03 -4.0260381853288450e+01 -2.2208037643800035e+03 -2.4491036028553317e+03 -5.6597145302114563e+02 2.6011849495743718e+01 -1.5265769240601998e+01 1.9490038230297614e+02 9.2003058037607445e+02 6.0632061780100275e+02 -1.3283390367992985e+02 1.9473715623564442e+02 -3.6344498128348260e+02 -1.2089455218429799e+02 -2.6724527241098471e+01 -9.0902810749615426e+01 -3.8487554011344273e+03 -3.8272646822973434e+02 -4.9724535156666661e+02 1.5227871489442709e+01 2.9067977475588123e+00 -2.4693790421999751e+00 2.1017753102807262e+01 -8.9691441909407814e+00 9.3930782697865460e+00 7.3149764371391939e+00 2.0403612274332545e+02 1.3702325998364418e+02 2.3785449448120377e+00 2.7867552955620113e+01 -5.9205841372695659e+01 1.2379512788921826e+01 7.1915988613393473e+00 -2.4943639304495608e+00 -6.6222614532225225e+02 -2.9580571078998855e+02 -1.6809904402882921e+02 2.7291407285721530e+01 7.8582687982184780e+01 -6.9510515628632447e+01 -6.2407899907939282e+00 -1.6948788407408006e+01 1.6944481933992680e+01 1.5980759277958168e+03 -1.1140430638371708e+03 2.2584460470661361e+02 -4.8291136574568654e+00 1.7891743756686992e+01 1.6578275804934265e+01 2.4533010938992504e+01 2.7801805047384356e+00 3.8298049195208854e+00 -1.4731783378289911e+03 -4.6031109111612750e+02 -1.6824016038068755e+03 2.7953723503411162e+01 6.7213797823520053e+01 -2.6280110453717202e+02 4.9494729101107836e+01 3.2054736165077792e+01 6.7811906208608761e+00 5.9348166389784055e+03 4.7261543199830885e+02 -9.6836952741904980e+01 4.5276900614831144e+00 -4.1658575878188913e+00 -8.3158629736901730e+00 -3.2332570980269956e+01 4.3070848199812950e+00 -4.2246166224859802e+00 5.0160536583676731e+02 -1.0288006989953367e+03 -6.6038566099050286e+02 -1.0513151956647008e+01 -1.0823996411016924e+02 -1.9133311748321471e+01 4.8842126487275038e+01 2.4404789076916131e+01 -6.7266483592917439e+00 -8.5244336132256126e+02 5.7505990954921799e+02 4.2333189583102194e+02 -1.4409285127724161e+01 -3.7623050846601018e+01 2.9405430554380132e+00 -2.8772359372519531e+00 1.1788296362265164e+01 -6.6644487833524693e+00 -1.3468937796593018e+03 3.4067047900758507e+02 1.6853566651535375e+03 -5.0344761948639359e+02 -2.5530690252725717e+03 -4.9782309589788547e+03 -1.5431975011519489e+02 7.1460886290197004e+02 -5.3006423306465877e+02 -1.2078883836103632e+03 2.7758961564017972e+02 -1.2262520312899990e+02 -1.8474567661419314e+00 1.4270510407774317e+01 9.1483523891077194e+00 3.4186511656296492e+00 -6.8309311695896771e+00 3.7786762636725371e+00 2.3326649703025703e+02 -7.2692452373722148e+01 
      </Row>
      <Row Index="99">
        -2.3449886155522037e+00 1.8138757618786485e+00 -2.1923371410733239e+00 2.1342402907291671e+02 7.3577618487382097e+02 7.9590715981748446e+00 3.0111027833569892e-01 2.7650240155735872e+00 -1.4169330533454627e+01 4.5972290569522194e+00 -2.4682419207924861e-01 -9.6226465470815015e-01 2.4805411620193013e+01 1.0945269370745252e+00 -2.1724162872018637e+00 -5.8739331649543942e+00 1.9915368265719735e+00 1.3696153169646095e+02 -1.0553077887370514e+03 -1.6660206617689951e+01 -2.2802640147463364e+00 3.0199813662135622e-01 -9.7421949131477206e+00 -4.4739075408909255e+00 3.1197354385156686e+00 1.0127090071189002e+00 -1.8355213566268048e+01 -1.9494483694350906e+00 -1.0642106100095248e+00 -1.5043621604459076e+00 -1.6569885630334511e+00 -2.1386265277681559e+01 -1.8260633882563980e+01 2.6141079709164785e+00 -1.9016259233002586e+00 -8.5354517951205366e-01 3.0039596983817773e-01 -7.2868125328435545e+00 -7.8037167993421974e-02 -2.3949183366236753e+00 -4.1168105517190270e+00 -3.8931844373790270e-02 1.3682974285694818e+00 -2.3391811193473586e+00 -1.0247445456791979e+00 -2.9243064877641700e+02 6.2295880089800903e+02 -6.1579868343806936e+00 -1.4257898236252515e+00 4.9361533133526336e-01 -6.8535313847148132e+00 3.2884842293579108e-01 5.0911887193153360e-01 -1.4391175229169946e+00 1.4758362389057766e+01 2.9942484598407226e-01 2.4039916432100199e+00 -2.6406921395023275e+00 4.7610438123854237e+00 -3.0253907297246769e+01 -4.2232512321615638e+02 -1.3875333186781228e+01 9.4004610274132983e-02 -1.7071203036395382e+00 -1.0453726986559886e-02 1.7999508813947038e+00 1.6708054855219838e+00 9.7929372263682701e-02 -5.8612022849021628e+00 -1.7584933419881246e+00 -1.9367397210324717e+02 4.3732257880107923e+01 1.1190213154808646e+01 8.0461875665278058e+00 -7.0398138278778788e-01 4.4834872418925844e+00 4.2329860079549615e+00 8.4008997936728047e+00 9.3394593460184205e+02 2.2602999128377178e+01 1.1561969609721382e+02 -4.2380438776263540e-01 1.3092831545290210e+01 -1.4893327728223085e+01 8.7342697235028517e+00 6.3886668818410737e+00 3.6229322334887311e+00 -1.7067047980561167e+03 -1.1508579658808421e+02 -1.7610808725899778e+03 -1.9093867979511359e+00 7.8914883052612481e+00 1.3476357027597530e+01 -1.3726892039622811e+00 -6.5398698443456453e+00 1.5822760223839737e+01 -7.6360572600606065e+02 5.3403830522723320e+02 3.8436740667722432e+02 3.8835134718226050e+02 4.9616976332645805e+02 5.4936638534165229e+02 -4.0573202068635862e+02 -4.7144552024547789e+02 3.7620864208249913e+02 4.0421661129683883e+01 -3.7108968412771446e+02 -9.0592549890855139e+02 5.5933307864214635e+02 -9.9565338209466063e+02 6.8803223811027931e+02 -6.7888546372842347e+02 -5.1588352568829194e+01 4.5114931615367561e+02 -6.9327658584174060e+02 1.7032389219417496e+01 -2.3301616635777646e+02 -1.3321318619602785e+01 1.2114178597980106e+02 -2.0533106047304497e+02 2.7922268129277057e+01 5.9657060004671649e+00 -1.3701870214639307e+01 -1.9800065833693952e+02 1.2871932932194926e+02 1.0131516646900855e+02 -1.4954685114336304e+00 -2.5238063649521791e-01 1.3896811902014235e+01 5.4624558956407627e+00 -1.3848816270429589e+00 -1.3040367689859687e+00 -5.0989657860001898e+01 1.7694674303648546e+02 -2.5656072912962149e+01 -4.6221471001788172e+00 -3.3228614738202396e+00 -8.0770842729834840e+00 -2.3876564605742310e+00 -1.6524395215552623e+00 -3.2519593731219176e+00 8.4119716453214164e+02 -9.5192588723843073e+01 -2.1139749629783182e+01 -6.1887885551822555e+00 3.2560526216606377e+01 7.1846890905659166e+01 -7.3041461319803602e+00 -3.3407702921644011e-01 -4.4516157736659068e-01 2.4428694673063001e+02 5.8753809909764811e+01 3.1825515639393416e+01 2.8108706822352048e+00 9.7182680733731104e+00 -1.2042473449928366e+01 7.1119573804351006e+00 1.5524683080792286e+01 -4.4635598743422484e+00 6.6189427489158697e+02 -4.8249060011465190e+01 2.3159855274769734e+02 -1.5441168778848180e+00 -1.3479370700944855e+01 -2.1583467538921695e+01 1.1478750847466699e+01 8.9414364098747949e+00 3.3617862355525290e+00 -9.3753741774055561e+02 -7.7201837775901367e+01 -3.8632938508413702e+01 -2.5594224241383436e+00 -5.6632811211338776e+00 4.4109234615534660e+00 5.2900680330102432e+00 -8.2920182849867228e+00 1.7248559481397727e+00 -1.1551685743519192e+03 -6.0053021951606297e+02 4.5833550106876828e+01 -4.5995719946569459e+01 -1.6222851196724619e+01 4.7065768224551839e+01 -3.2041187786318076e+01 1.6033566080889972e+01 -1.8748691489028033e+01 5.9801974855150070e+02 -4.6444883666612441e+01 -7.3208188640153821e+01 1.6501470046507620e+00 -1.2711489513688775e+01 -1.3176158230040073e+01 -2.6820326397091776e+00 -3.1816382257826490e+00 3.3930996513777245e-01 3.4554620640081703e+02 6.1775087853877721e+01 3.2274874405155947e+02 2.0378876080518594e+02 -1.3356212226234766e+03 -7.2528692958827833e+01 -1.9894202438150501e+02 4.2796989282841980e+02 6.6077514628608398e+01 -2.2728624112233956e+02 -9.9860686159594820e+01 9.5881711078389031e+00 1.1539176524963750e+00 4.5425551296673277e+00 2.3055845941249684e+00 -1.4862965090361824e+00 1.0881651556004734e+00 -3.6480524473149671e+00 2.9430221343290088e+02 -3.8560620467201841e+02 
      </Row>
      <Row Index="100">
        2.6368165208053327e+00 6.9294749483121905e+00 -6.3616522785582674e+00 3.2223483564192611e+02 1.0384098869831196e+03 2.4261825587655736e+01 3.9871749669948144e+00 1.5857598785374307e+00 -2.5436199452107360e+01 5.9504181321057885e+00 -2.4789329938681437e+00 -1.0553305336943311e+00 6.7029194499493769e+00 6.0816171229345217e-01 -6.1460091035454818e+00 2.9996452243437943e-02 7.6335390573226505e+00 1.8501750353141506e+02 -5.1853583081282022e+02 -4.5602249598169927e+01 -4.9029995318629176e+00 -5.5737632038502873e+00 -7.6241941287202337e+00 -3.8504789615593520e+00 2.4646171188471104e+00 1.6291446586388929e+00 2.9663748158363887e+00 8.9306705359718497e-01 -1.7265730157658368e+00 -3.2370035536057458e+00 1.2833143135571845e-01 -2.7898077598027157e+01 -1.2658203720470283e+02 8.5091778663566231e+00 -2.0672838931143360e+00 -7.2362573737962066e-01 1.1384814429048902e+00 -1.0145180677491876e+01 -5.3904800237152983e-01 -1.8137588962920077e+00 5.5229982767218644e-01 3.2576456006435350e-01 2.1394118969645790e+00 -2.3958375181618976e+00 -2.1123847124965778e+00 -4.7568522758895415e+02 -9.4027650798215973e+01 -5.5585845102023654e+00 2.9872493571889436e-01 -1.1208391671283380e+00 -2.0083436959554007e+01 -1.2659757318491760e+00 -2.6355068514113489e+00 -1.7592318881718967e+00 5.9901964310220137e+00 1.5098437382205248e+00 -1.9228704168319188e+00 -4.3658930234878923e+00 1.3370978266638417e+01 -4.4900879059723138e+01 -1.4746239065292229e+01 -2.2301103346719650e+01 -1.7631367960805679e+00 -8.9745084791866958e-01 -4.5288847629763298e+00 4.4748315945980082e+00 3.0501357745138247e+00 7.2349704382935798e-01 -1.0783587628274915e+01 -1.1153867536811646e-01 -7.8658545442342330e+01 -3.0111975403698636e+01 1.8172036844494997e+01 -7.6918931190593867e+01 -1.8076974228673862e+01 -1.8563921854195041e+01 8.5753656933805189e-01 1.4305131019482360e+01 3.6114732806462875e+01 3.2950601627623200e+01 1.0414231789126461e+02 -1.8682616857506351e+00 -6.2555250691646506e+01 -4.2466479002952838e+01 4.9069821838119978e+00 7.7564792541632066e+00 3.1063851349124718e+00 -1.3265097011207074e+03 -1.9481613143780203e+02 -2.4885354022974425e+03 -3.3742079019008937e+00 -2.8891454683701653e+01 3.9418590149402320e+01 1.0842665578417443e+02 -9.3505107773825671e+00 2.8879401557313486e+01 -8.5556440845374709e+02 -1.5034288611166630e+01 7.0895997193488097e+02 4.9616976110091349e+02 2.3235292287847928e+03 1.2780665662389110e+03 -6.5681122551602255e+02 -9.4004278079066967e+02 6.1013962970249099e+02 -1.2982974899538485e+02 2.1214448720104883e+02 -1.1366505333666573e+03 5.6547845374852625e+02 1.4157827923890596e+04 7.2928297440419578e+02 -1.1675866845747287e+03 -1.8642810012441407e+02 4.9272108850786105e+02 -4.0104107978744105e+02 3.2064539364804000e+02 -8.1893279191062902e+01 -3.6171347440224139e+01 -7.0192072289776729e+02 1.1699300102961689e+02 3.0583694212558271e+01 8.3496622165286460e+00 -2.6708832410468027e+01 -5.5511959964208654e+02 2.3939757582142107e+02 1.3070587779725611e+02 3.3939054575766967e+00 4.1515077035328432e+00 4.4927797772283668e+01 1.3270095734321874e+01 -6.3116684548107678e+00 5.9373491703111743e+00 -1.4575784396629024e+02 -1.4191557133894338e+02 2.6531558787443387e+01 -8.9517476268015326e+00 1.6384024674123339e+01 -4.6006332804225167e+01 5.4060509363249274e+00 2.4656413009642200e+00 -4.6092151463504338e+00 7.4458061721377408e+02 -1.6862731236600666e+02 2.2078481313925295e+01 -7.2995437272972570e+00 -1.9169377301286295e+02 7.6720939524628193e+01 2.4700297024423890e+00 -6.8993347575924737e+00 -1.2927613992729903e-02 2.8168690474196046e+02 -4.9482480221207005e+01 1.1381774495486752e+01 1.7867524258628027e+00 1.6191896410928166e+01 -2.2429438312508864e+01 2.0412560639288216e+01 1.7928190729926747e+01 -2.4066795234264147e+00 8.7015597190597327e+02 1.5704140493295563e+02 2.0023816038666286e+02 -7.4182069422910502e-02 -4.5716577214171593e+01 -1.7990060456868105e+02 1.1761550369961810e+01 1.5721976750136932e+01 2.7560726485573355e+00 -1.1543107499423058e+03 -6.5665054146578768e+01 -2.2081155215619216e+01 -2.2830589488810427e+00 2.0790542794766225e+00 -9.3040398974608252e+00 -8.5075119514565358e+00 -8.4204702221997962e+00 2.2969533117380958e-01 -1.3911745314893196e+03 1.0512840991815938e+02 6.9652923804225793e+01 -1.5246322566992522e+01 -4.1390392521108151e+02 -6.2449077488740798e+01 -5.2883285548481922e+00 2.9472113432603919e+01 7.9457496554250611e+00 -4.7600448970694617e+02 2.8285577465669485e+02 -1.3063088427486946e+01 -2.5257934070742749e+00 -1.6499297243098226e+01 -2.1982752153401179e+01 -2.0973459301330877e-01 2.7469667166782017e+00 -1.6245725145887491e+00 1.6056756237649824e+02 6.0275157755462328e+02 6.2494195179420240e+02 5.5385980712080723e+01 1.1288393901738509e+04 -4.2741738058612555e+02 -5.6453874066336766e+02 7.4701907203296321e+02 -1.7393378513177109e+02 7.5039843081845902e+02 -3.8945324694551880e+02 1.9359391485693322e+00 9.4468488856250588e-01 2.0990633864810277e+00 -3.9496618126524616e+00 -6.4598537965838787e-01 1.1500889233629739e+00 -7.9576134289764013e+00 1.7976620733836643e+02 -5.6613244138416235e+02 
      </Row>
      <Row Index="101">
        9.5328245497082378e+00 1.4270725799114871e+01 3.5197944534521639e+00 3.4250303655988137e+02 2.8435360170192307e+03 1.0801141521823007e+02 1.4863909576272135e+01 9.4917912119416314e+00 -5.3979659369679212e+00 -8.1275056286122371e+00 -9.5792604911693191e-01 -2.0057316416143749e+00 1.5144589665330614e+01 -5.8352277719756485e-01 -4.0193796498766403e+00 2.5886281516864074e+00 6.3176608685789688e+00 3.3008795872527116e+02 5.4129241942957433e+03 -1.6400727240470766e+02 1.4273037203344245e+01 3.1230343949481743e-01 -3.6153937203641220e+01 1.3916801099047145e+01 -1.4591582387881674e+01 1.6503623503280096e+00 -2.3997633352400044e+01 1.0753214590825412e+01 1.6043626480673083e+00 -5.1035918178049542e+00 9.9606675602252039e+00 -5.5291878450553668e+01 -5.5391608517755139e+02 3.2218257425170435e+01 5.8625147524037402e+00 -3.0592800393185371e-01 1.5535496505011679e+00 -5.0720740054789397e+00 -1.0623662198630086e+00 4.4727409562635714e+00 1.0920068219449149e+01 4.6552533112593864e-01 -3.8396625863152134e+00 -1.6891843283960952e+00 4.9666751661500257e+00 -5.1737496591487434e+02 -5.1561277063451962e+03 2.1789669149023723e+01 -3.2265761842224947e+00 2.6776422498319334e+00 -1.5953031039826271e+01 -5.4298734479380730e+00 -7.7796189640124922e+00 -1.8590079385239235e+00 -1.1780392313237826e+01 4.1783510954798757e+00 -1.3009072740903857e+01 -5.6385513853321996e+00 1.8052742308111874e+01 -1.5189277193654152e+02 -3.7298046828412389e+03 -1.2162222207995435e+02 -8.6670727529768712e+00 -5.2431769599976121e+00 -2.1324583489680059e+01 1.0871991342371516e+01 -8.2363445862348890e+00 3.0448458455705376e+00 -6.9933998683397363e+01 5.2622125053162279e+00 -2.5896453620804846e+02 -4.4861097565460932e+02 -1.8216017151070929e+01 2.1691702661712043e+01 -1.2557506172252943e+02 -9.2556858475384502e+01 -7.5711121274829267e+00 -1.4397659066385668e+01 -2.1634764198604612e+03 -1.7397057685495201e+02 -4.1779654777888572e+02 6.3848196584049584e+00 1.0356959112963523e+01 -1.3870947600848740e+02 4.0907518816934967e+01 -8.5114735761133353e-01 1.3070054824597648e+00 1.1658463686175119e+03 -2.7897195618919665e+02 -6.4811598647350365e+02 -2.4109409354484654e+00 -7.2899739761238038e+00 6.5414618205065949e+01 -1.2189840851102305e+02 -4.7991275178397217e+00 1.3067523197781156e+01 -2.9098360792024177e+03 -2.1303095142041548e+02 1.9157344794445200e+03 5.4936639413050091e+02 1.2780666004958221e+03 4.8629935914727403e+03 -7.3716453457080638e+02 -1.2274213991837869e+03 7.8261264036606781e+02 2.9989555538066993e+03 -5.4887109994944531e+03 -1.1299602261972777e+04 2.4871673320211794e+03 1.2500165212039265e+03 9.6912871271184104e+03 -1.8148227819829967e+03 9.5762597339710203e+02 1.9424611477944975e+03 -1.2983052773181116e+03 8.2538946828748931e+02 9.7590217202566055e+02 -2.1530713677702749e+02 2.1804877774387592e+02 -7.0504839620114399e+02 -2.6541225921234036e+02 -4.3996502098364694e+01 -1.5160531182793267e+02 -3.0855225835331075e+03 -1.3008003857832512e+02 -3.3342620708602044e+02 -9.2323036336000968e+00 5.9097059802443255e+01 -6.2176109845860992e+01 9.9648141872846878e+01 -8.2494163338999034e+00 -2.0249359497968094e+00 1.5320144837909756e+03 -1.4209557202336765e+02 6.8881459489824692e+01 1.3104317777468824e+00 2.8584674568010087e+01 -6.6478905365958781e+01 1.0616586488697223e+01 -1.3437656409571943e+00 -5.4587435514854228e+00 9.8180533737146015e+02 4.4634995844353398e+01 -5.4156370773125673e+00 -1.0608695681437787e+01 2.6548893392744503e+01 -1.7128592879121243e+02 1.1587833087133276e+01 -3.0599502727329288e+01 -2.9194817096906434e+00 6.1016300997365033e+02 -9.8792485224614927e+02 1.8792974902509013e+02 -1.0854383576254776e+01 4.0764226062339731e+01 -3.7380482242377184e+01 6.2494076052535419e+01 5.3718746140799780e+00 4.1920286853845723e-01 -1.1254591747779923e+03 2.7654627697273827e+02 -9.6799670476916606e+02 -2.7151114197604276e+00 7.7740620519582990e+01 -6.1564402134917304e+02 6.7426211614360795e+01 1.5403116827210246e+01 -4.4731670736309752e+00 3.6685349844278917e+03 3.3757643105609168e+02 6.3765599403328267e+01 1.1512606483680681e+01 -1.8684168957031943e+01 1.6296574221742048e+00 -7.4029838481876254e+01 7.7245988354708501e+00 2.3541263418322753e+00 -3.1546534249489196e+02 -2.1162716359301912e+03 -3.7539448966752752e+02 1.3936868571612301e+01 -1.2574583458088819e+02 -2.4390156644765801e+02 4.0138726616992358e+01 2.2517614980716445e+00 -9.6876563850590401e+01 -4.3079012809127908e+03 1.7129487198484712e+03 1.7238024662832322e+02 -6.0959631489975550e+00 -8.2093497910846054e+01 8.4738458038809313e+01 -3.9762711473467789e+00 1.9722623251056035e+01 -2.6075814843648004e+00 -5.4000870717235375e+02 -4.0826942915780710e+03 -1.1542976083025718e+04 1.6848633369039123e+03 3.5095675582882609e+02 3.7938042663925253e+03 -1.2223759831995744e+03 2.1080591867585399e+03 1.0728420030251641e+03 -1.7637891457079968e+03 -5.0691295048323934e+02 3.9011604209670949e+01 -7.5938633219434450e+00 2.1548292162972231e+01 5.3502722606970288e+00 -7.2799598431640433e-01 -1.5424270844250110e-01 9.4607874565945167e+00 3.0892969400318685e+02 -7.5084661889076563e+02 
      </Row>
      <Row Index="102">
        3.2655294683073546e+00 -3.8026246890029824e+00 2.6769678749641628e+00 -2.3666133249018731e+02 -5.1271368349045861e+02 -2.3085603679398723e+01 -5.5305656741680309e-01 -2.6959848919285605e+00 3.9218397264339160e+00 -4.3010632653224965e+00 2.5784453582042777e+00 3.6994556149369373e-01 -2.8814977426829955e+00 -1.3766321736627161e+00 3.4011676531232631e+00 3.9741282547700791e+00 -4.7099948628599577e+00 -1.7543135838342323e+02 1.0547899772889259e+03 4.1200065710408914e+01 5.1564228811376722e-01 1.7208449118748699e+00 2.5873139750323695e+00 2.4321930867285690e+00 -1.0044276585707892e+00 -1.7584441407329621e+00 2.6294333178555462e+01 1.8926120080511479e+00 4.8900106967377610e-01 -1.8354655424553812e+00 2.9146988451141311e+00 2.3418119425723262e+01 1.4944188890685973e+02 -2.7555545546001454e+00 1.9211409620037614e+00 -4.2142417311839608e-01 2.3415384106215242e+00 7.3761785294666335e+00 5.6663555140055166e-01 3.5913813707535489e+00 1.6029622998763671e+00 -1.7751441059010453e-01 -8.0570336304602885e-01 3.9856971895005699e-01 -5.0101651731384322e-01 3.1094977050483567e+02 -3.8231113283988884e+02 9.8367989504744457e+00 8.0191229805838304e-01 -3.6996131177863845e-01 1.0965427324613749e+01 -1.6066873386493352e+00 2.6627651932999639e+00 1.3889860950260005e+00 -1.7134062677006114e+01 -1.3817873753154295e+00 -1.5201649304351283e+00 2.9545301732988065e+00 -1.0815676472119208e+01 5.6782090949566964e+01 4.9607674492291790e+02 2.6563021940694700e+01 -1.0683010080399091e+00 1.9194924691835933e+00 4.5142343894458214e+00 -3.0130278128436423e+00 -3.7784028912028722e-01 3.0142057415064372e-02 2.8408924279885639e+00 1.5404084443950374e+00 3.2369043652046901e+02 -2.6418048984222651e+01 -6.6897418146495653e+00 -1.0530037622247619e+00 3.6022307579542030e+00 -2.9082063601171587e+01 -9.3345785973204087e-02 -6.4617915877892074e+00 -2.9094669225941419e+02 -7.0850881569137073e+01 -1.3031371414273508e+02 2.6447837043644498e+00 -4.6365810374272769e+00 8.9034606916466146e+00 -3.5471481298746724e+01 -4.6695300238275550e-01 7.0295896433976246e-01 1.2717437270606538e+03 2.0622687566560126e+02 2.3584765678823055e+03 6.0505554529578482e+00 -1.1558272229900467e+01 -1.2131882313541269e+01 -3.5342455991377633e+01 1.5961338007419101e+01 -2.9186549637362674e+01 1.0199857941894188e+03 -6.5959739839746271e+02 -5.2876959515411784e+02 -4.0573201935582279e+02 -6.5681122446185998e+02 -7.3716452076727921e+02 6.4597100647253785e+02 6.6231610513809994e+02 -4.1136344169471636e+02 4.4685851104367373e+02 -2.7823505686042154e+02 9.8170766685554918e+02 -4.6485978141430689e+02 1.7378796573650106e+02 -3.5579420313323789e+02 1.6333341900224418e+03 2.6929242937078249e+02 -3.4396063328389732e+02 1.1277424461031569e+03 -4.0584722873021519e+02 1.4740751711794201e+02 3.0002220112567734e+01 -8.6337901160251988e+01 2.7250424086998112e+02 -1.3862913138346741e+01 -1.1734277793847287e+01 1.9817065658377075e+01 9.1191662060055387e+02 -2.0998039613608989e+02 -1.1054077242608582e+02 7.6586133756386232e-02 -1.1742540023260517e+00 -2.9432098955961777e+01 -8.6572563848959643e+00 2.6326614388699894e+00 3.3305467513055742e-01 -3.0224084215806215e+01 -1.0617266027993131e+02 4.2587473545302288e+01 3.6403441842985691e+00 -1.0895475874246813e+01 1.4176621915855321e+01 1.9691681981670712e+01 -3.8265547599102545e-01 1.6343123852271055e+00 -6.8824505839113453e+02 4.1390097388592221e+02 1.1962807099822385e+01 -1.0206843785182400e+00 -2.5107827852758419e+01 -4.7428652875011267e+01 -6.2267361247728559e+00 2.1322356902549000e-01 -4.2496990983120924e+00 -2.9887755287150867e+02 -2.7494932689281683e+02 -1.3100121033457981e+01 -3.3666682065219597e+00 -1.1795813236298272e+01 7.3052987760829637e+00 -1.4783969428921466e+01 -1.3258535824736288e+01 4.6607441844003406e+00 -1.1235880106331024e+03 1.2840388010982497e+02 -2.4544751691789324e+02 -9.4704595073425502e-01 1.0193896101759492e+00 3.2304136747719383e+01 -4.2048789155536042e+01 -1.4334348925750669e+01 2.2548790548621582e+00 8.1364635084391375e+02 1.3725378362500851e+02 5.7978829421766534e+01 3.1878325313258857e+00 4.0892066876390345e+00 8.6715376795355041e+00 2.1019777285832220e-01 7.6089137992828970e+00 -2.5114259947518209e+00 1.8156828547676923e+03 3.8445992722366282e+02 -2.2839508697994006e+01 4.3119941432795571e+01 2.7283312200793262e+01 -1.8695638778678614e+01 -2.9992067828413440e+01 -1.5497663040838962e+01 1.7665360427925179e+01 -2.0401169797792738e+02 -6.4968131692992756e+01 8.2341086034157343e+01 -9.4491801612029747e-01 3.7364469250208003e+00 2.0240107010561928e+01 7.6186857161137596e+00 4.7068413867588319e+00 -1.0709764490691214e+00 -3.6032871461407922e+02 -5.2768198028786492e+02 -7.7840141616523488e+02 -7.8469020223827641e+01 7.0857199357634374e+02 6.5433206192851367e+02 9.8454316607300211e+02 -4.0767068803657384e+02 9.2841473771759837e+01 -1.9753415763596422e+01 1.0531070243472888e+02 1.5604234659685403e+00 -8.2324434586553252e-02 -3.1749323559845131e+00 5.4985048190022052e+00 1.3792859134071005e+00 -4.3610459744035657e+00 5.8676525721789403e+00 -1.3308459670072551e+02 2.3356315971705757e+02 
      </Row>
      <Row Index="103">
        9.5209571464020115e-01 -1.2226939641612944e+00 3.0802624027303409e+00 -1.0565887701390056e+02 -1.7757654404452223e+03 -1.7981394617428748e+01 -5.6737338178510868e+00 -1.1228881462613089e+01 2.0149780941862332e+01 -1.7035794851275092e+00 -5.4861766770671494e-01 3.7002731649528187e-01 -9.8955360053219010e-01 1.2830399310856615e+00 6.2139434221089154e+00 7.2265592632423932e+00 6.3338359405133815e-01 -1.8607438211792032e+02 6.4225499869084319e+02 4.0776816635875086e+01 9.7240757363169905e-01 -3.5994628146680139e+00 9.7302150966911682e+00 -5.1317293718212476e-02 6.5812493392133042e-01 -2.1927698780718288e+00 6.8484489259581096e+00 -7.0632199887141411e-01 1.2377814752019276e+00 3.9504796513201654e+00 -1.6930695112881153e+00 2.9721847396928752e+01 3.1478139199981342e+02 -7.4566276006701173e+00 1.6541125648320758e+00 2.1488028164123421e+00 -9.3839444175148401e-01 5.9828828581296847e+00 2.4457558085711639e-01 1.5866066887494412e-01 3.3315419829027633e+00 4.6696209170393743e-01 -3.2823111618427263e+00 4.1932293537065561e+00 2.8733307975420530e+00 3.8745926218550267e+02 7.2988351005354662e+02 2.5507041996197017e+00 3.0086686297044025e+00 -3.3124980126262926e+00 4.5980331401417232e+00 1.0875304610759500e+00 9.1018144793389411e-01 4.3678394076503224e-01 -1.7408762147905691e+01 -4.8818863801677637e-01 -2.1652035626143089e+00 1.1342447291274631e+00 -1.1806928329709649e+01 1.5722295480904768e+02 -2.1277556554564489e+02 2.4690099465761183e+01 4.7079645189539967e+00 6.5380142205759384e+00 -7.5051610338937325e+00 -5.6223390995023284e+00 -2.4200537161834816e+00 -5.9502469543640035e-01 8.6991010394484647e-01 -4.5365440837139204e-01 4.6568183948469056e+02 -2.5212195794742371e+01 -1.9779342300504737e+01 1.5397291622601188e+01 2.0899161701927369e+00 -6.3810980682344560e+00 -1.2532281692514468e+01 -1.4240593351154914e+01 6.5518736268314626e+02 -6.7925390021113799e+01 -1.1866627885217895e+02 -1.6790327682084216e+00 -9.6333100258834747e-01 -1.8137060711742379e+00 -1.6360481707265961e+00 -1.1651295653268326e+01 -9.5390626641301814e+00 -1.4462249424464962e+03 3.0706039456371582e+02 2.5060950741184797e+03 2.7266910541677358e+00 1.6758838765350845e+01 3.6672910911109796e+01 -6.3007228067643098e+01 1.2334912566836294e+01 -2.8873547937375236e+01 -3.5150676205352283e+01 1.4034692518877846e+03 -7.2281768392346430e+02 -4.7144551903499041e+02 -9.4004278223686413e+02 -1.2274213687287747e+03 6.6231610726677786e+02 1.5922859487398478e+03 -7.2877152701146565e+02 1.4101650964945213e+03 -8.0705437172944039e+02 2.2940066570401364e+03 -5.5030997401684249e+02 -1.4951792391397667e+03 -6.0080626187307291e+02 7.0345384866682821e+02 4.7152064107306910e+02 -5.3511675540625674e+02 1.5876329616627368e+03 -2.4610993554533536e+02 -7.6831298483688443e+01 3.0476479216495566e+01 3.6293381028528984e+01 2.2922413849524617e+01 1.6098533356455675e+00 -1.0986365309980961e+00 3.3929115639520177e+01 1.3551708373066504e+02 -2.1663090195663017e+02 -1.3284828925480542e+02 1.0226313978771572e+01 -1.9921705789231055e+01 -3.7242640248778457e+01 -3.8178661839843846e+00 -2.2133243583497970e+00 -9.4030304184678215e-01 -1.8030922860606224e+03 -3.8849523882692995e+02 -3.5881255178670699e+00 8.2975147529877500e+00 -6.8582341274618557e+00 1.0117306433763588e+01 8.1341100477360495e+00 9.0016240954933977e+00 8.4693653843600352e+00 -7.8114253784441462e+02 1.3002731526567004e+02 -8.5395309766136052e+00 1.3526455499378311e+01 -1.7662258264490447e+01 -7.6110170575121629e+01 -4.3806056469084069e+00 2.6256236583487791e+00 4.0779157116631666e+00 8.8731549748379621e+01 -2.7656226649644458e+02 -4.6018875912035583e+01 3.7853091000172618e+00 -9.1891543736019230e+00 -2.0036340264812679e+01 -1.5512432672938029e+01 -1.1241048369878193e+01 -2.0836664139334005e-01 2.3418291048126412e+02 5.9933705444149382e+01 -2.6444515031536719e+02 3.6644963360849658e+00 4.6886324251727274e+01 6.2996954011852267e+01 -3.4568618099888226e-01 -9.8373346353928888e+00 -5.5175887864923538e+00 -2.3309743549240156e+03 1.8452886364502046e+02 8.7851589857580620e+01 -1.2008005918634463e+00 1.4673256104147185e+01 3.4641203347920964e+01 4.6851918365915708e+00 7.5653573345930916e+00 2.2911648923214827e+00 2.5868971969047561e+02 -1.3843670183270970e+03 -1.4767414982549417e+02 -4.6207665154477908e+00 -5.6173621719201037e+01 -5.1708484140557786e+01 3.7642365771812877e+01 -4.0950359927186668e+01 -5.6647608186660818e+00 7.3329134198802421e+01 -5.3201496038347250e+02 2.1241134462400078e+02 -2.1508191023506811e+00 -9.3688822047597569e+00 8.3973115341741504e+00 -5.8617543599157216e+00 -8.7569429458949344e-01 3.1428601679742769e+00 -9.3018393843743252e+02 -2.1015209115018988e+03 4.8305611610619781e+02 -3.6422096378741685e+01 -4.6823914809600319e+02 5.8888326771946595e+02 4.5309500511310034e+01 -1.1107765489268936e+03 2.6385984811764104e+02 -4.4412178975815186e+02 5.1939874305295098e+02 8.9198270858950366e+00 -1.0377259795077407e+00 2.6065931403059750e+00 1.2184839914098678e+01 -1.0938132757592456e-01 1.7181940858410250e+00 7.6504499220181970e+00 -6.8086958586534479e+01 5.9426402183863809e+02 
      </Row>
      <Row Index="104">
        -2.0541679756588707e+00 -2.2694422215255372e+00 -6.0081775933898598e+00 2.1866777032883419e+02 2.5939629770592010e+03 -2.1540175838694637e+01 -9.6578001270287928e-01 1.3375305009275664e+01 -3.1080726135226030e+01 7.3189173789281945e+00 5.9192091509612066e+00 -3.1053312123133878e+00 2.5556956824603219e+01 5.5576915279086467e+00 -5.7679014688104253e+00 -1.2748111518380711e+01 6.5825406582061987e+00 1.1935185302805621e+02 -1.6914034601492083e+03 -1.3803746950721210e+01 3.1847204257002488e+00 2.8293198448620238e+00 -1.0788226587796686e+01 -4.8885654388595707e+00 4.7582676769971748e+00 2.8190998911185829e+00 -1.2318455790909866e+01 -1.1738005932818826e+01 -2.8121542326464919e+00 -3.0413727909794943e+00 -1.0786393275021737e+00 -2.2257200247676337e+01 -1.9376756416216995e+02 4.3129663482261549e+00 -3.9523133227264395e+00 -2.4032520771140184e+00 4.5218497796249721e+00 -1.6199373681719695e+01 9.9860533537862750e-01 -3.0823932635946569e+00 -2.8715203497310995e+00 -8.7923288828862844e-01 -2.1606807628287266e+00 -5.0914567721110870e+00 -2.3879456904285803e+00 -2.4737238778800656e+02 -1.2977103980622239e+03 -2.1236808128434035e+01 -7.4921123803336513e+00 3.2817083027719036e+00 4.7342076880011632e+00 -2.2759790859292193e+00 7.3850832082407578e+00 -2.5745270412222183e+00 -3.7181125200598217e+01 -4.9477023861911107e-01 -7.7822280774845165e-01 -3.6689820626207492e+00 9.6241581965162482e+00 -1.2425774570223803e+02 1.5665409465511036e+03 -1.3004799614002863e+01 -6.8350422544636169e-01 -1.0044708971221613e+01 1.6334934066370128e+01 9.3850589593883988e+00 2.3804517674947894e+00 2.9912860878679828e+00 3.6968790240852627e+00 -8.3913965613149060e+00 1.2848077750678226e+02 -4.6006042942205170e+01 2.1015042284186421e+01 -6.4382060514708428e+00 -7.9010516905946133e+00 2.6248009558355772e+01 1.3462843288194144e+01 9.0079392806247043e+00 1.3173818944659729e+02 3.5428833279369974e+02 -6.5571784821840993e+01 -4.7979352505681105e-01 8.4600337449264771e+00 5.9899821120561683e+00 2.3382778756052147e-01 7.9203652065555268e+00 5.9622532260348571e+00 -5.9460925761077669e+02 7.4390909258310967e+02 -1.5435042085757077e+03 -3.7773671818973398e-02 -1.2860223386963582e+01 -1.1185154605537178e+01 1.9551070737073854e+01 -8.7321033737281937e+00 1.2956081443373165e+01 -4.3069482804197833e+02 1.8321712284515070e+02 4.5257849129653573e+02 3.7620863955439995e+02 6.1013962246184087e+02 7.8261261210688917e+02 -4.1136344153873523e+02 -7.2877152019769187e+02 1.0528163670452082e+03 -7.3418965019918869e+02 2.9653837436020613e+03 -2.1323474970733400e+03 -6.7017820957642584e+01 1.2084411803941748e+01 1.4891474166491421e+03 -3.3418735500019130e+02 -1.2662432747655083e+02 3.3262931675861216e+02 6.2834619394148660e+01 -8.0105099867676131e+02 3.6217634677144997e+02 6.0915227665379987e+00 -1.2290288581639288e+00 -1.9546421612386311e+01 1.0221331269567955e+02 -3.0487075135784032e+00 -2.3628314767536320e+01 6.1479627248029283e+02 1.1440497850635450e+02 1.8447163541956616e+02 -2.2427530204442135e+01 4.5015258523562807e-01 6.5152206668307144e+00 5.7077754599599082e+00 3.9284389230551398e-01 -1.8354208948587676e+01 1.1500663345442154e+03 1.5911492694227004e+03 8.6310806080117331e+01 -9.7907483265318493e+00 -1.4507970694736287e+01 7.7823748028113187e+00 -7.9324738441647398e+00 -1.2454472025818738e+01 -1.1870081836599457e+01 1.4886887635163389e+03 3.9552664034114059e+02 1.3365128871701017e+01 -1.6387092375515770e+01 3.2839330177976080e+01 1.6046085832265726e+02 -6.4615002748428196e+00 8.1053507797133477e+00 -5.0841649041410761e+00 -2.7343918280875369e+02 -5.5937988480176827e+01 6.6205185828184767e+01 1.8629410144884329e+00 1.5881523462576297e+00 -8.9605645925148565e+00 2.4303462362840818e+01 1.6963140593132621e+01 -2.4755674995151189e+00 -1.0636562581279286e+03 4.6269933336347094e+02 4.8960966810347372e+01 -2.7582274874346414e+01 -7.4160668565938977e+01 5.5827297337172268e+01 -9.0702253419196381e+00 5.7053804751213955e+00 2.5597881966493787e+00 8.5699665863520568e+02 -5.0111236450771685e+01 -4.1394258929940406e+01 -4.8020000033277599e-01 -1.0341470377395126e+01 -1.6054566535894992e+00 -3.1572286464827357e+00 -9.5036717288351404e+00 1.2132095959143481e+00 9.5921506866617710e+02 1.2119320806632422e+03 1.0377460019170576e+02 -1.3758300245284847e+01 1.4236995969915370e+01 -1.6848427751508666e+01 3.3691774245519809e+01 3.9798401674764435e+01 -1.7490630648752074e+02 1.1571697002650189e+03 -9.9605942118959501e+02 -3.9331145678181201e+01 2.1796380466760155e+01 5.0933882688409540e+00 -2.4985492446170156e+01 -5.0909004998402452e+00 -1.3972568581319152e+01 2.9056363476601064e+00 -1.5638446538167773e+02 2.7808910394832110e+03 -6.5410334077379753e+02 -4.4032627830585994e+02 -6.0043516380501660e+02 9.1204041734081329e+02 1.5919353489812147e+02 5.8865184592735295e+02 -6.0301746480473219e+02 2.7771601514387294e+02 9.2060546719377754e+01 8.0029818677168407e-01 6.6202725271953113e+00 -6.0050831717742881e-01 -7.0589075397541601e+00 2.8075306872229433e-01 4.2948305632100725e+00 -1.2189446845346993e+01 4.7855756234493327e+02 -3.8907726534925683e+02 
      </Row>
      <Row Index="105">
        -4.2716922760302623e+01 -3.7436300051536819e+01 -4.4807824044619338e+00 5.5389367917989148e+02 2.3952117655804381e+04 1.2711011669061099e+02 -1.1192429268896376e+01 -1.5109394693966351e+01 4.8197769779206283e+01 -1.5457746197715892e+01 1.1943649717614036e+01 3.5560186851937033e+01 -7.7637686842812400e+01 -3.5275497161188078e+01 2.9342555730943744e+01 -3.3670001456666796e+01 -3.9907248419913230e+01 -4.3793119238462532e+02 -1.1397437337236628e+04 -1.7628092674047770e+02 7.2902551803414099e+01 4.6031771186571120e+01 -2.4861339853784557e+01 9.0985706009466405e-01 -1.4854479027456158e+01 -1.8181780811279168e+01 1.2893342419274268e+02 3.7873038108345860e+01 1.5264536492755724e+01 1.3932865554466844e+01 -6.1135126232695256e+01 -2.8381057366292225e+01 -1.6524138811603189e+02 4.9071676169259263e+01 4.1573780066155450e+00 1.0307700099034264e+01 -2.8333073344707373e+01 2.2160633673402486e+01 -4.0185601874172789e+00 -3.4058814836238980e+01 2.2228337445048965e+01 -1.8224664553640650e+00 -2.4676499183547179e+01 1.6968698831187794e+00 -9.2367370493957424e-01 -2.5872098609938985e+02 -8.6447707777850155e+03 2.4525491372082433e+02 -2.2085674538882813e+01 -8.9175666588853346e+00 -5.2769779538523835e+01 7.0559772644545831e+00 4.8890749345834479e+00 1.6156818148454022e+01 -1.4252453513478395e+02 -1.1561943262238174e+01 2.2886325001877989e+01 3.1757886755540760e+01 -5.3622125486799632e+01 6.4647153933750815e+01 8.5835080136280340e+00 1.3937685491506775e+02 1.9254011713012392e+01 2.0967786593575966e+01 -6.6751258831013246e+01 -6.8686159570334780e+01 1.0270880283928680e+01 -1.4411269687479976e+01 6.7610734686735668e+01 3.9977037750710991e+01 -2.1202780054747245e+03 -2.1469488140093163e+03 -8.4514806469903647e+01 2.0479787610680796e+02 -1.0319465673260856e+02 -4.0661166481844407e+02 -6.4178628968847832e+01 4.0615227963119153e+01 7.8966019909537863e+03 -6.6329043327486834e+03 1.5017396781992866e+03 1.7849343369460101e+01 8.7304480264720041e+01 1.9350329712731764e+01 -1.9751697013667996e+02 -2.0588249965186137e+01 1.7700155445990468e+01 -1.6352671688179186e+05 -4.3329876529015601e+03 2.4567303308154223e+03 -6.1210156532385774e+01 1.8238572869050040e+02 1.8399910971030477e+02 -2.5200423807019430e+02 -5.3890192346357054e+01 1.2340111621515882e+02 -3.0988257738105684e+04 1.8544561819668088e+03 -1.2426033655964661e+03 4.0421666908866428e+01 -1.2982974287979596e+02 2.9989554109551755e+03 4.4685849145401880e+02 1.4101650523922401e+03 -7.3418954430066378e+02 2.6533133726505545e+05 -1.9133478467842669e+04 -1.9614541481840908e+04 5.7003758182937408e+03 -4.2636044161411546e+03 -1.4798969122077021e+03 6.9371305381678076e+03 1.8816497218276531e+03 3.5851657108668760e+03 8.1246946591550746e+04 2.4292794994761707e+03 -1.1414871506912168e+03 -2.9773714626143061e+02 4.3101751378562471e+02 -6.3159972302795177e+02 -4.9594768518301532e+02 -6.6864609176923750e+01 -1.8596602399222445e+02 5.7299297333452851e+04 7.5070570883727100e+02 -1.4738615674423054e+03 -6.3734671237014453e+01 -1.9506981701659970e+02 -1.4259812198087457e+02 6.2094195905511384e+01 1.7563083486656346e+01 -1.4477142955549942e+02 2.5894876820375212e+04 -2.5967054497809067e+02 -1.5811119293532997e+03 7.3181790773598454e+00 4.8130885359554668e+01 1.9470812916278373e+02 2.0955671295671385e+02 1.0488804877798273e+01 -7.8307587959647860e+00 -1.5256920037961085e+04 -8.7674839798919857e+02 6.6533071769890375e+02 1.9427479471368301e+01 1.2725695752189495e+01 1.0152245031259954e+03 9.2618272415435058e+01 -4.7108884446068615e+01 4.0178521532097875e+00 -2.8918056598632596e+04 2.3882623302933698e+03 1.9694517461308278e+03 1.2220777130298814e+01 -4.2429942662548274e+02 5.0697376976022497e+01 7.9174209055586900e+01 -6.6339629328463801e+00 -1.3276549959834139e+02 -2.9025628997031599e+03 -1.1181334346805234e+03 -4.2094461748007989e+03 3.0577873622962411e+01 4.3672311882569920e+02 1.8334499566279624e+02 -1.6041872475178025e+02 -9.7863847187049771e+01 3.8649247618373920e+01 -5.0524084345573254e+04 -1.1011906925169751e+02 -1.9959607203277992e+03 -1.2611454574628436e+01 2.1566570149036124e+02 1.0269020526588429e+02 3.4566892505976284e+01 3.9786909272879996e+00 9.6432991931825384e+01 -1.2125405158810318e+03 -1.5316373042945306e+04 -1.5459902229363215e+03 9.9976886452052952e+01 -2.4819663810695056e+02 -6.7967163780863848e+02 3.5450696696780483e+01 -5.1935345564233103e+01 3.6160021020029023e+02 -2.4713298778991628e+05 5.9959587183166295e+03 7.1949168649222702e+02 -4.8182965878710093e+01 4.5464046073611826e+00 1.7033798813790781e+01 2.3112671284354292e+01 8.4761735591131583e+01 -2.3791239936392230e+01 -2.0729131957186386e+04 -2.0293876232587718e+03 -1.8417384747702716e+04 5.2747798254804602e+03 -3.6790055493911514e+03 -3.2273846142489247e+03 6.2392981711345219e+03 4.1780268150208781e+02 3.4744898161485917e+03 -1.9342272940279450e+04 -3.8325475759291789e+03 1.3237544639615628e+03 -2.1330585985633661e+01 -4.1570919668060498e+00 -1.2357159395920814e+01 1.0045287956900136e+01 -7.6356575986655585e+01 4.4916992048907559e+01 2.5796320346103086e+04 -2.8296362230947354e+04 
      </Row>
      <Row Index="106">
        4.3315111614152158e+01 -2.1598128711319441e+02 7.0275165610495606e+01 8.6054876503655396e+02 -2.9254417795498332e+04 1.1794576060666975e+02 -3.1313009395321842e+01 2.6484031695712702e+01 2.6457596770809732e+02 -2.2437795890483585e+01 -2.3850490143339524e+01 1.7269811856803699e+01 1.0161315541875956e+02 2.6546249148276548e+01 -4.7323106738405357e+01 9.1864450049913557e+01 -5.4874927672353806e+00 -4.2039660498658486e+02 -4.0821554777002493e+03 -6.2910579123588604e+02 3.2564570796550015e+01 -5.9750777107778987e+01 -2.3372898144408123e+02 3.9248980561131738e+01 -6.0249571051825921e+00 -2.2407276943512443e+01 -3.0219062909948116e+02 -2.3184111822190680e+01 -1.8787758385137749e+01 -1.2188377297370607e+01 1.5728716700563700e+02 -5.6022097867753473e+00 5.2293136917138690e+03 7.6334401733983896e+01 -1.0909142935831369e+01 1.2457597362925753e+01 7.9491361723985392e+01 -6.7862668093686125e+01 4.3291073688743609e+00 4.3992968920887847e+00 6.6305125141429016e+01 -1.0354766117831105e-01 3.4663093602267182e+01 -3.5217960002037216e+01 -9.2480581931322376e+00 7.7602627591398050e+02 2.8096594231431936e+03 -1.6643592555305122e+02 8.6277493520992721e+00 -6.3013953554391264e+00 -1.5852008285853799e+01 -1.0389442817584786e+01 -9.0100859175030052e+00 1.1710819914277181e+01 -1.3692654075755127e+02 -1.1046452863637285e+01 -3.4147774663964697e+01 1.6604980228864679e+02 4.0713650680790124e+01 -8.5840413576059291e+02 3.1167466483013974e+04 -3.0459700289517457e+02 1.5104176420664132e+01 -3.9848682544168355e+01 -1.6963092619856781e+02 4.1378427470639338e+01 -3.8714414084838126e+01 -7.9091447671847064e+00 -2.1763257890285831e+02 -2.6628237691866843e+01 -9.7469081903086771e+02 -1.4647391338357102e+02 8.1678166733993066e+01 -1.8895834074521554e+02 2.4737273800962430e+02 2.3612212125899040e+02 1.3538979051073852e+02 -1.7092994840120127e+01 2.4660917594852217e+03 1.1923825638095012e+04 -9.4173073758695682e+02 1.7167588561329802e+02 1.0333462454807886e+01 2.4835868613468483e+02 -1.6273584939575571e+02 3.3850064479614389e+01 -3.8218535649654541e+01 1.4936544559761285e+04 5.3572834570257692e+02 -6.9736375150016538e+03 1.4153132414202685e+02 -2.7723800535364762e+02 -4.3998527682543227e+02 1.2461800476251665e+02 1.0336004929340839e+02 -4.0128919472272116e+02 1.3821183525010245e+04 1.3227063448392242e+05 2.4406331538840982e+03 -3.7108979391328467e+02 2.1214413968984445e+02 -5.4887114560936770e+03 -2.7823495491280664e+02 -8.0705408911737322e+02 2.9653835661952103e+03 -1.9133481230746664e+04 3.3349297563757829e+05 7.4831157534659244e+04 -1.9783966639300816e+04 -6.4501038059340281e+03 4.4847525208709776e+04 3.9348269777117189e+03 -1.2662786042143385e+04 -1.3545318129211275e+04 1.1821406763945066e+04 -4.2564289955601074e+04 3.8908468997635064e+03 -1.0818771606429530e+02 -3.7759061266153913e+02 -7.7771059264485848e+02 5.1967391975835471e+02 4.1043561039999128e+02 -2.3732080691789133e+02 2.1588842719118809e+04 -2.0392129563775125e+03 4.1139574491680833e+02 -1.3837745226714281e+02 -5.8917360085062683e+01 2.5017990651490436e+01 -1.2909779976052988e+02 8.9154053458742311e+01 -2.5126861446538896e+01 9.2875928327825386e+03 1.5806614877068187e+04 1.4417473570131096e+02 5.8661103704272037e+01 3.9875831460441987e+01 -7.6803405723811011e+01 3.5729770322313925e-01 3.0863292539022325e+01 -1.1646902974039278e+01 -6.7971670021870859e+03 1.6076899709530233e+04 -5.7140912122826558e+02 2.0293643617321544e+02 3.3053364138628240e+02 2.0521371740818722e+02 -7.8744731368024077e+00 -6.0332093103556531e+01 1.7781668308411349e+02 -1.3796987699450343e+04 -2.7494379032124202e+03 -7.1525278708507540e+02 3.2532155842025290e+01 -1.7331064186376170e+02 1.6900613502893248e+02 7.2416588203027999e+01 7.7527221795312883e+01 3.4758615868075651e+01 -6.4100996082879137e+03 1.0228526057857613e+04 -1.3998759108540544e+03 1.6117125707386828e+02 -4.3232016680808738e+02 1.0656746785131534e+03 -3.0723653265486064e+01 7.8685276016092132e+01 -8.6650098602497110e+01 2.2727539837062417e+04 -4.4601929063757416e+02 1.1227958255251287e+03 -3.3849272716250567e+01 -4.3102915898285573e+01 -6.1632166365103330e+01 2.7574325575840248e+01 1.1241717054997814e+01 -4.7339121790876789e+01 1.0365190222194884e+04 6.2252519131648056e+04 -1.0461260704105371e+02 1.1049306781201915e+02 2.4491371620260179e+02 1.8721577867994176e+02 6.0438861725681386e+02 2.5757857389362812e+02 -9.6238124789561789e+02 1.0152318270698825e+04 2.2728737001449335e+03 1.0087529441738152e+03 3.0683916860193676e+01 2.5724261289025162e+02 -3.6977869769417521e+02 -6.7603808428488264e+01 -7.7134779340239675e+01 -6.8620176494014231e+00 -1.9115889269769657e+04 1.3675214817027815e+05 8.1198546517934432e+04 -1.9460500844909271e+04 -7.0306905218504216e+03 5.0274769006641982e+04 4.0748904574836779e+03 -1.1584652768608732e+04 -1.5211216869491873e+04 1.9727301218641922e+04 -4.9024780593295109e+03 -4.5985733350637963e+02 -3.4430389616150933e+01 -5.3028170646395360e+01 -4.9948193902967347e+01 4.6580222074541211e+01 -3.5049801433893059e+01 -9.4046653878278448e+01 -5.0579005452005799e+02 -4.8906916103998547e+03 
      </Row>
      <Row Index="107">
        -1.3590758886065828e+01 -2.2374572004615402e+01 -1.1758708262981600e+01 -6.3989188548483071e+02 -6.8501857568390173e+04 -2.3259244569447696e+02 -2.5634357273756905e+01 -1.5105757191150587e+01 1.8439012825613463e+02 -8.4789133770374292e-01 -5.7743081233196342e+01 -1.3557210530211705e+01 1.3336959876222500e+02 3.1671760840408645e+00 -1.2302754380854662e+01 6.3165005362833654e+01 1.4726129018345091e+01 -1.3499057959353086e+03 1.9919179639560294e+04 5.2327068909180070e+02 -1.1144956757467708e+02 -3.9081358643663009e+00 -7.2106302516755932e+01 4.0934126759554012e+01 4.0097012177003052e+01 9.7138181437185267e+00 -1.5392332211506437e+02 -7.2909802085213293e+00 -4.3446459228107415e-01 1.3430563744917890e+01 -1.0608842260357051e+01 1.2990463666502910e+02 5.4930028935776063e+03 -1.4732359798107973e+02 1.0502581871062830e+01 8.4504005744902315e+00 3.6109176903319167e+00 1.6240585737867804e+01 -1.4798498308250601e+00 3.0216281894165604e+00 -3.4994641144068737e+01 5.2420663020037637e+00 1.7624655852746596e+01 1.6884196001949022e+01 -2.3820423817836854e+01 6.2873684297810541e+02 2.8241513685905382e+04 -3.8311035693973372e+02 3.2585636537944083e+01 -2.1451519714786627e+01 -1.2561779873965315e+02 -1.6348526015425545e+01 -2.5646477010084787e+01 -7.0266425681325018e-02 3.4530616739887046e+02 -4.6815831491991844e+00 1.1954818652310095e+01 2.9578119030396909e+01 -1.9414845234121458e+01 7.3994174424944504e+01 3.5667175166878653e+04 2.3892682537681509e+01 1.5625201567889713e-01 6.0199422365521968e+00 -1.9445188576581899e+02 -2.0201705433735938e+01 2.8230200596654786e+01 4.7668956961449904e+00 -1.6585100495526513e+02 -4.3206206726459868e+00 1.0396619681773069e+04 2.5053639753045445e+02 2.9609072474476079e+01 -1.3091439775910112e+02 3.1103080509847496e+02 -9.8332779825517747e+01 3.6786849297413568e+01 8.8871126724658964e+01 -6.8211231205207878e+03 -3.6645506849304138e+03 -4.5152386598274461e+02 -7.7683368613373062e+01 -1.2297128113417421e+02 3.1754937680793228e+02 1.4954547509774329e+01 2.7238672542982435e+01 -1.9668050090138188e+01 1.3006338919049918e+04 9.7205318937953562e+03 -1.2524533774674812e+04 1.3768358052157474e+01 -6.5439043944443711e+01 -6.0265339813307037e+01 5.7189836948284562e+02 1.6275055566875267e+01 -1.6930636880150189e+01 1.3260026785430808e+04 -2.0366286317567865e+04 2.1010838062640569e+03 -9.0592566799878796e+02 -1.1366509996260465e+03 -1.1299602748854555e+04 9.8170784528024342e+02 2.2940070754080903e+03 -2.1323478042810357e+03 -1.9614544734809911e+04 7.4831156300557341e+04 1.5948931133745727e+05 -2.5390678201390707e+04 -4.4330862356975995e+03 7.9200422471602666e+04 4.5301895605954323e+03 -6.7504702448160642e+03 -1.8705709308369827e+04 4.0203815999913577e+03 1.4242221730147885e+03 -6.4486325955172069e+03 7.2886689350552501e+02 -8.8169723372991939e+02 2.9863434281381174e+03 7.2563922237944257e+02 1.5739149652289149e+02 5.4980375178343252e+02 2.4456076626332477e+04 -4.7545719759129443e+03 -1.6237809505230980e+03 2.5035699165687296e+02 -5.0917359373124782e+01 1.3850938881376533e+02 -2.4752173078852371e+02 1.9717059374367100e+01 1.6727230684971343e+02 -8.7044602512351703e+03 -1.8887574816731135e+03 6.5989795166654744e+02 -9.7453725170271088e+00 -1.6340639772912255e+01 -1.2607808413769817e+01 3.9112554095615110e+01 2.9974276240824896e+01 -3.8730553773936105e+00 -1.6630700154552953e+04 -1.1065453278956120e+03 -1.2494233078213292e+03 2.0027741153059694e+02 2.6961914777598577e+02 -1.2528875648714748e+03 -8.6514099457992415e+01 6.8865295476632269e+01 1.2801369740435439e+02 -1.5205128992048558e+03 -8.1176483155449969e+03 6.0846427041606512e+02 -1.2085963568601173e+01 -1.0193666120187845e+02 1.8998699314979604e+01 -1.2239524230268324e+02 3.0236002717798886e+01 -1.1184005812268985e+01 -9.4416571154436097e+03 -3.7780004845455987e+03 -1.4444452042913263e+03 1.6782585096531255e+02 -3.1231563863730116e+02 1.3565481178284067e+03 -1.2903062616032730e+02 1.1127700674365505e+02 1.4211833160855349e+01 2.9006686494834357e+03 4.6202199329570867e+03 -9.7810149473475758e+02 1.0396079279160229e+01 2.0004152704030275e+01 -6.9070943238330074e-01 6.5722829711367922e+01 -2.0518877795943112e+01 -1.4819759377344980e+01 1.6634654021058232e+04 2.9249413209576680e+04 -3.4238532348052831e+02 -2.0555394264634924e+02 2.7088998127431842e+02 9.6091856020063847e+02 -6.8220872217094313e+02 -1.3939395436025615e+02 5.8951953116409550e+02 -4.6950856383121172e+03 -9.6290707512209192e+03 1.7732964695575647e+03 -7.2563591210466257e+01 2.2980578619072912e+02 -2.0289039503734966e+02 4.2672880632322631e+01 -4.5812639847025366e+01 -2.0687911773717133e+01 -1.3004489056643099e+04 4.7492363358512594e+04 1.6310775678758940e+05 -2.3223801135264468e+04 -4.2028124296963642e+03 9.1233870894742358e+04 3.9706818533574133e+03 -8.6149700295145904e+03 -1.6274906831064211e+04 1.3390299086538842e+04 8.4192020418606480e+03 -3.1497433868643463e+02 4.0168686085737136e+01 -5.6790668538117608e+01 3.3130767480312528e+01 1.5305402426035343e+01 1.5324756673432216e+01 -7.8776120217371499e+01 -1.0500558607908445e+03 8.9995564372432036e+03 
      </Row>
      <Row Index="108">
        -9.3544103909444800e+00 3.4260656382235084e+01 5.5637996639702578e+00 8.5947581708205689e+00 1.1957119003600703e+04 1.4122662613851887e+02 -9.6977114841229195e+00 1.7450155554910907e+01 -4.3778835040961440e+01 -4.9811635652935138e-01 6.8531593636717210e+00 -5.2317141454815896e+00 7.6856237899160078e+00 9.8244107662770368e+00 -1.2482970942829020e+01 2.9472052292294393e-01 2.5321111144257884e+00 4.6244300165040113e+02 -2.5923282257171286e+03 -1.4200117829045473e+02 1.3518635208930959e+01 9.4649591442588097e+00 -1.3039712636358303e+01 6.2139963369745708e+00 1.1909158719297618e+01 8.6437447383218569e+00 2.0013605879221359e+01 -6.7997826969167097e+00 3.2320319464467957e+00 -3.3104311029096607e+00 3.3798069105260993e+00 -2.4940521570544661e+01 -6.4749703622792003e+02 4.3411252976341927e+01 7.3486582142754742e-01 -2.4900915308844560e+00 -2.6419045873390132e+00 -1.2438242764527718e+01 5.5586337861205948e-01 2.6791467922595018e+00 -5.6685884059143063e+00 -2.0767305417459880e-01 5.2788204451707088e+00 1.1157706570506889e+00 3.0696479615878616e+00 -6.6792898063164466e+02 -6.9646183961018278e+02 8.4112821815789971e+01 -4.5141904470281133e+00 1.5140367076454822e+01 2.2387969296958659e+00 -3.0980402942278311e+00 5.4812093016695194e+00 -3.1016676688420262e+00 8.6553688165062340e+01 5.7150117636613800e+00 8.4504166095966706e+00 -2.1240909566887389e+01 1.4650130404305401e+01 3.5333075018514592e+02 -1.1417972161992375e+04 -8.5551765399701836e+01 1.3153150986537280e+01 -4.1449363664997065e+00 2.2444236378131251e+01 1.0317182223962355e+01 2.2665109386654798e+00 6.6839743765794868e+00 -2.2896002075054867e+00 -7.2777582863002976e+00 -1.3987639739938036e+03 4.3520420576350512e+02 2.9739331613158839e+00 3.3456013595623517e+01 -6.6583595692776726e+01 -1.0453564784923941e+02 5.4657196616633428e+00 5.0778245245099356e+00 3.7674621195891377e+03 2.8524541680879520e+02 1.0884825839324549e+02 3.6604646369577343e-01 -8.1425661866906012e+00 -1.0225300313259504e+02 1.2056483022804365e+01 -8.5327237253273367e+00 -1.1611850402595962e+00 -5.1555090488819187e+03 -1.4389256239483220e+03 1.7001344855560019e+03 -5.3268883114019232e+00 1.5163782039245916e+01 7.7874030347091946e+01 -1.8248032550897545e+02 -6.8857908389862104e+00 4.4193243942138054e+01 -7.1252356496076409e+03 6.1068520602463095e+03 -4.0260356034583424e+01 5.5933311881000941e+02 5.6547858337681305e+02 2.4871674709874360e+03 -4.6485982322995142e+02 -5.5031008213354278e+02 -6.7017747108886880e+01 5.7003768942116185e+03 -1.9783966381848393e+04 -2.5390678280761262e+04 8.2027209374873346e+03 3.6109141028162289e+03 -1.4271969447060250e+04 -4.1933702204141891e+03 1.7758672010450784e+03 6.0979000928014448e+03 -7.4744990335892126e+03 2.0002248517924005e+02 -1.6477994707320904e+03 -2.9407097819413281e+02 3.1099345547529134e+02 -9.2353587075838641e+02 -3.0089489812082616e+02 -3.6074481738010952e+01 -1.9828883310206461e+02 -7.0813372901746770e+03 3.8977946775384203e+02 -2.0458206579908438e+02 -2.1802140722177878e+01 4.2859171481555677e+01 -5.5034914554710213e+00 1.2535715564661821e+02 -2.1934258501775190e+00 -5.2667995648381316e+00 7.6442802866001148e+02 8.4013941647664410e+01 -1.5214895334421681e+02 -1.1640013036802156e+01 5.5240380268260196e+00 -4.1312502881850378e+01 8.0312828618781928e+00 -2.0259915097598086e+01 -6.4099141295987794e+00 4.2129984913657636e+03 -1.0389519382861909e+02 7.9992805513662461e+01 -4.7544386174291660e+01 -3.1343295214192040e+01 1.6677396042579494e+02 9.2881150307985081e+00 -2.2333221326412911e+01 -3.1404947420951657e+01 4.2265191912422888e+03 7.1433859040414245e+02 3.6465559691372619e+02 -8.4628768787612740e-01 1.5511492549412651e+01 -3.5904439420439303e+01 4.0427275121186625e+01 6.1007351459752552e+00 -9.0090956730635092e+00 4.5810916825836175e+03 4.4737254452949855e+02 4.8391920921284600e+02 -3.1974319956600390e+01 -1.3438501302185614e+01 -5.5367825939647742e+02 6.0264408706916583e+01 2.5073124255703135e+01 2.4496468611385808e+01 -1.8146197195251843e+03 -4.0302743398063467e+02 -3.5240700972924969e+02 5.2102195144250221e+00 -5.2344150652752433e+00 4.3000624470296316e+00 -2.3291132529579045e+01 8.3956848531519270e+00 3.2424699139044879e+00 -7.2919739077195991e+03 -8.9518423669095173e+03 1.2777316873581367e+02 -4.9839592330197291e+01 8.0052188701731211e+01 6.1624317581410196e+01 -2.1511155961578982e+02 -3.8920446932650535e+01 1.4754159703101391e+02 1.9423264607190879e+02 1.9579186146990396e+03 -4.5057193487520271e+02 4.7618289339336570e+00 -4.4283273960958468e+01 1.0257529725958193e+02 -1.8267734179740728e+01 -1.5156331376016169e+01 4.7177500349121146e+00 5.8821443329623435e+03 -1.5228064026692329e+04 -2.7895412915218036e+04 7.3357829294338844e+03 3.1901294998719864e+03 -1.7806728002863019e+04 -3.5994559003894101e+03 2.2999228020185051e+03 5.7273165556554650e+03 -6.2018271724728402e+03 -1.1956678053267624e+03 1.0375062879336065e+02 -1.2230176632391704e+01 1.5540565607271436e+01 7.7689200352431280e+00 -1.8478734136646171e+01 4.0853056375678118e+00 1.6503988072592620e+01 2.9301326896595765e+02 -1.3680162639862342e+03 
      </Row>
      <Row Index="109">
        2.5579973379599863e+01 1.4546372136439550e+02 -3.0405255664330525e+01 -1.2451135257972637e+03 8.9837538937001664e+03 6.7419184065477793e+01 -3.4313576680800452e+01 3.1628100288489804e+01 -2.6436514912001394e+02 -9.6645089027649647e+00 9.2250226524065049e+00 -7.0067491156512460e+00 -1.4106299709356608e+02 1.2818696453563662e+01 -6.7723582449018622e+01 1.4289851918272416e+02 5.0058426772895473e+01 2.6571452429582132e+02 7.7893821253635015e+03 -9.0426140279660103e+00 -2.4880311596606816e+01 -1.0686953238371203e+01 -9.7190891919809360e+01 4.7027773467945906e+01 1.0102834132372219e+01 2.4206922126165864e+01 3.1224441934221250e+02 2.7836848365720936e+01 -9.1831540587168092e+00 1.0560086200104706e+01 2.2397060345691216e+01 1.2834938389435410e+02 -7.5986692173532356e+02 -1.8588204529305585e+00 2.0328566275657067e+00 -2.4732539992705824e+00 8.1024241082541266e+00 -3.7092342618989207e+00 -8.1606917146507385e-01 1.5094036778269924e+01 1.1832925621833056e+01 2.8801957383948036e+00 -4.5712134863142637e+00 8.6794795810365031e+00 5.3088545079745018e+00 -5.0051096075720125e+02 -3.7157977385386203e+03 -7.1851685914001337e+01 -6.3039418048892912e+00 -1.2731030780762921e+01 3.8492186558664343e+01 -2.0908454347556173e+01 1.4199503160596150e+01 -5.2113160426238778e+00 -1.1181462029505201e+02 7.5743684140343532e+00 -2.5499586608191365e+01 -9.1642331795539434e+01 7.1656731503426272e+01 1.0712697410898109e+03 1.7440630531574880e+03 -1.3873845286305274e+02 1.6697197472798031e+01 -1.7148789263772926e+01 1.2260079753995495e+02 3.2934761724398861e+01 3.0583974628400522e+01 1.3013063489914451e+01 4.8171299946283852e+01 7.8121359604138547e+00 3.2243703178117726e+03 -8.7722169864397003e+01 9.6053184844537796e+01 -1.2692886755481886e+03 -1.4597678782523144e+02 -2.0433046431385617e+02 7.8582721656076075e+01 3.6354315946948191e+01 -5.5288653066132392e+03 -2.1654507382015436e+02 4.3715261042024940e+02 -9.3855551893522531e+01 -1.0270852678557567e+03 -2.6500306032568915e+01 -7.9827564163675362e+01 -8.0135595760320840e+01 -6.1782638487344485e+01 1.1982625864906533e+04 4.2521463303382625e+03 6.8555914723454043e+03 6.3440900180584130e+00 -9.5259697693698058e+02 2.5733984866342485e+02 6.1052711259867806e+02 -1.9411079358882361e+01 4.6480027948152156e+01 5.0254069641412680e+03 -1.2889096055544756e+04 -2.2208037233853206e+03 -9.9565338212151744e+02 1.4157827993396397e+04 1.2500164345941917e+03 1.7378795505927064e+02 -1.4951792781694166e+03 1.2084483130065081e+01 -4.2636032262886674e+03 -6.4501020540057762e+03 -4.4330845340058295e+03 3.6109134915549894e+03 1.8510844613955982e+05 -1.5287142971338850e+04 -9.2509541536082907e+03 -1.9455385494915569e+02 3.6841889622422514e+03 -7.9524145733568002e+02 -1.9877296949696267e+03 -1.6143354439007235e+03 -7.7764340870502608e+01 -1.2401754601608553e+04 6.8113390068613426e+03 -5.9038633385230298e+01 1.9060244067207702e+01 -6.0238323566166017e+01 -7.7183630235154415e+03 -1.3237797239680233e+03 1.8468376833817456e+02 2.5258293891525071e+01 2.8351453510430292e+02 2.3610176939752637e+02 6.4685893930136217e+01 3.6314259060837713e+01 7.6172018700356176e+01 -1.3747060963122640e+03 -2.3473569341505613e+03 9.2701797507500817e+02 -6.6981730216637757e+01 4.5958514151290547e+02 -7.8153766512710718e+01 8.7261970078736326e+01 -4.9237811043266447e+01 -3.5929307553979029e+01 1.9354433979230573e+03 3.1130615783517715e+03 6.9609707478820928e+02 -1.5823292410498163e+02 -2.1152118971884338e+03 -1.7757439601804072e+02 1.4219504615284313e+02 -2.6981824194793049e+01 -8.5171846176924987e+01 3.8247835535800550e+03 -1.8445433650599007e+03 2.1311215570487548e+02 -4.1286568176332672e+01 -2.7036634152074112e+02 -1.3346752723571262e+02 4.4090942755667143e+01 -4.8506941899038431e+01 4.6828058877707214e+01 6.3989607179230079e+03 9.3718512980366359e+02 1.2066638844890699e+03 -7.4408918847036290e+01 -1.1044387836856076e+03 -1.2149287751154575e+03 -1.1739971676344840e+02 2.6143694959499406e+00 5.1574987716547639e+01 3.0055094601743986e+02 1.1758915051531512e+03 -3.3423225125267345e+02 4.3907973844160438e+01 8.4926638055389049e+01 -1.0527414150690311e+02 -6.8471792980280043e+01 3.0215480151826565e+01 -2.2679390383895274e+01 -6.1828269239322981e+03 5.1314553196799325e+03 1.1348980135140737e+03 4.1720097899335047e+02 -1.8772835241509019e+03 -7.6114001477602164e+02 -9.9302651227516208e+00 -1.4206388167381984e+01 2.5692280702650510e+02 -1.3063756420620152e+03 -6.0861900312569924e+02 -1.5589983151212800e+02 -2.0811090593773315e+01 5.6406134823578032e+02 -2.6599948383074661e+01 4.3487525106451358e+01 2.9526308135494332e+01 6.2455599911691024e+00 4.9395656720921397e+03 -3.4199966579165780e+03 -1.0492442865635036e+04 3.9830344722346331e+03 1.5795232222047451e+05 -1.0207863672722284e+04 -1.0046643962960356e+04 1.2840153278370201e+03 3.1859918694699427e+03 8.4874466627485817e+03 6.1606937254835223e+01 1.4376172968866763e+02 -8.7467153450052137e-01 -1.0836765756185414e+02 -1.0643505879468584e+02 -9.5444102406248739e+00 7.6872162681479494e+00 -2.6243895408333628e+01 -3.9262836038183154e+03 4.0935180864494896e+03 
      </Row>
      <Row Index="110">
        1.3389125499591515e+01 7.3323779474106004e+01 -4.3033091413018383e+00 -3.0895748895924407e+02 -5.4687581153677456e+01 1.0399223032849798e+02 -1.7074840414957634e+01 2.2408318237349704e+01 -1.5650183055133687e+02 8.3820421589351213e-01 1.3842376747550194e+01 -4.1080891318559907e+00 -9.6269166230955079e+01 1.5468920291436016e+01 -3.6792176281584133e+01 8.3945438441583860e+01 2.3839641903838128e+01 8.5673270088178106e+02 1.9624418199120111e+04 -8.6872800619469899e+01 7.8114879835892850e+01 3.5383819634570202e+01 -4.4635392092813703e+01 -7.3282589497204116e+00 -1.2619177946553178e+01 -1.2319782865500429e+01 6.8525939908686269e+01 2.9223355482544122e+01 1.5836591341457847e+01 -2.8722087703966736e+01 1.4309690380536040e+01 2.3470664338225106e+01 -3.5790823651658848e+03 2.7746961033692060e+01 8.5435732669286608e+00 -7.2020865349865062e+00 -8.2210343812569135e+00 -3.7826907902679068e+01 -1.6458883213273623e+00 4.3103698743306040e-01 -3.5363807698457549e+01 1.9729853685570617e+00 9.0551743648553611e+00 2.2938936619981178e+01 1.6594826590865523e+01 -8.1015100801266999e+02 7.0550317970412616e+03 2.3533571180485012e+02 1.6500467977148105e+01 4.2125823398187549e+01 4.8449262952376870e+01 -1.3145475635367845e+01 3.9532309299688642e+00 -6.5861343858573775e+00 2.2684697254117418e+02 3.9792559849823093e+00 -1.6683122437396833e+01 -2.0808713822588448e+01 2.5527681770117169e+01 4.5550067788121669e+02 7.3083862895601022e+04 5.6642548299120406e+01 3.1683473138105271e+01 1.4064502321990133e+01 9.5440138593006139e+01 -1.1480086184365241e+01 -5.2444377102369302e+00 9.2491491951425999e+00 -4.4683266204807751e+01 5.0278462372398280e-01 5.7268443405725120e+03 3.5299650942759240e+02 -7.1854608802447189e+01 1.3942101154679767e+02 -3.9539633133418465e+02 -2.1365044255348187e+02 1.3278609562744244e+01 -1.3944375463506340e+01 1.1410024798153747e+04 2.4588171482133293e+02 -4.9896377333634155e+02 -5.9798545014602311e+00 -9.8859466608408184e+01 -7.7152380405853910e+02 7.1904120001887165e+01 -4.4058186477109352e+01 -5.1168579588886587e-01 -9.5002234754086803e+03 2.1247343590782257e+03 1.4964824782974865e+04 -6.5137024467465148e+00 6.3766331794934388e+01 2.5366248755389023e+02 -9.0164832587562910e+02 5.3286045711609162e+01 9.1709445301233927e-02 1.3085393374827872e+04 -2.0508122577356131e+04 -2.4491035206560528e+03 6.8803208720644432e+02 7.2928270757646328e+02 9.6912863931173433e+03 -3.5579411636033274e+02 -6.0080607875153623e+02 1.4891473658676869e+03 -1.4799004241746163e+03 4.4847530154647320e+04 7.9200428797463639e+04 -1.4271971371069325e+04 -1.5287144846790585e+04 4.2843934043314838e+05 1.5843499766529758e+04 -2.7064330591745265e+03 -1.0979961859587947e+04 1.0914782930910336e+04 3.8001627804689128e+03 1.9738451603735302e+02 -3.1035459821533630e+02 8.8607995595735633e+02 -3.7520418751426091e+03 -6.4033836396457775e+02 -8.1129034476480982e+01 -1.7270823282149973e+02 3.1062336535937269e+04 -1.3457543419461831e+03 8.7291549564375600e+02 -1.4049071633275901e+01 1.0433392726103193e+02 -2.4176279416203784e+02 1.6336044168856913e+02 3.3222037994028128e+01 4.8385156114365557e+01 1.7448095814547269e+04 -1.6681409618213977e+04 -1.0439970547070459e+01 -1.5732638791918435e+01 -8.2449566015025084e+01 -4.5009988338762196e+02 -4.7629268271989133e+01 -7.8767895413616358e+01 -3.8944781789814883e+01 6.3255379524711807e+03 8.7999171374808793e+02 -1.0285878865580162e+02 -8.4348323457492057e+01 -2.4702428851644800e+02 -1.8185110090428170e+03 2.4080903946974104e+01 -5.4404763376088987e+01 -4.7306005307842554e+01 -9.9425959878482390e+03 -1.3228556381948947e+03 4.7409907843216206e+02 3.2813811524359167e+01 7.6265941946083331e+01 -2.7486720626197712e+02 1.0404526175117286e+02 -2.1506199067141527e+01 -2.7764978060856755e+01 -1.0626215705532813e+04 7.4314140946147381e+02 2.8529567282100919e+02 -5.5766037035080153e+01 -9.1007045970139188e+01 -3.4319311802197185e+03 6.5377710201343007e+01 -2.1047418927465102e+00 2.4051253039711469e+01 1.4566892915826535e+04 1.5418017499367852e+03 -1.0439355216129188e+03 4.3975900301358486e+00 2.2798390793532235e+01 4.8013561872103310e+01 -9.8482348176392520e+01 7.1887720773509329e+01 2.4998101420874441e+00 1.3964374297616596e+04 1.8982043566741268e+04 4.4574683474008634e+02 -6.1995570706599146e+01 -6.4431961469432281e+01 -4.1791297785513711e+02 -3.6352019940364369e+02 -1.1761523909325577e+02 -7.5314462790814673e+01 6.2031312533838809e+03 1.4207654714080854e+03 -9.6298712576548860e+02 -3.9780648492209366e+01 -1.6731910210270689e+02 5.5418557447942203e+02 -5.0611429981312540e+01 2.1290997918225969e+01 -3.0404988808725193e+00 -1.1549688692279509e+04 3.0909196180299408e+04 6.7230909957313736e+04 -1.5318290392597561e+04 -1.5404173538071542e+04 4.1125713945205096e+05 1.6774307132825630e+04 -2.2134351853108046e+03 -1.2667144686118287e+04 1.5269255915494869e+04 2.0181419000136291e+03 2.8469744599012392e+02 -3.0465448775300956e+01 5.9907646058711748e+01 5.1196660638986344e+01 -1.1338622368349554e+01 4.1785481213094499e+01 1.9434063121358122e+01 3.4619214989081415e+03 -1.0885411011237031e+03 
      </Row>
      <Row Index="111">
        -1.1961557685538082e-02 -7.3451189817964405e+01 -1.7392481605807006e+01 -8.3926308415844687e+01 4.3774563305987249e+03 -3.7895201346774115e+01 2.6110867201142810e+01 -1.8517704446730249e+01 1.5489751138168913e+02 -3.3325196582407486e+01 2.2523423595992242e+01 1.5469928427087552e+01 -1.9640914799548773e+02 -2.7577175042009543e+01 1.9073273738044161e+01 -2.5251367440167087e+01 -2.4785202616792958e+01 -5.4645961097737018e+02 -3.7154088975604066e+02 5.3864387190707475e+01 1.1756530315614782e+01 9.1845331295237997e+00 1.4258567640538297e+02 -1.1170087757106909e+01 -7.1472263559599778e+00 -4.1274944928979494e+01 2.2581853458280239e+02 2.1480721448390216e+01 -9.0633868126133166e-02 -3.7123438450526010e+00 -3.8721842734604706e+01 7.8559856077648874e+01 -7.8496712518289132e+02 5.1384402660472915e+01 -1.2199955619780667e-01 -3.0800504324993199e+00 2.1790937308162029e+01 5.7125360225369718e+01 2.7824347439860730e+00 1.4997162763963559e+01 1.9649967857982119e+01 -3.8155621193221805e+00 -1.4898423866328130e+01 -3.8571682757938106e+00 -1.7382792797926413e+01 9.5276538826378965e+02 -3.7242557010759720e+03 3.0816090783820118e+02 2.4588925981843204e+00 -1.2396885280986680e+00 -3.6640800806112566e+00 -1.8619003336229341e+01 1.5982228600464609e+01 1.3329535283893279e+01 -3.9762911859422456e+02 -1.0033787219384635e+01 4.7940874946153160e+00 5.6511889425929667e+01 -4.7865976679300729e+01 -6.0480946930008940e+02 1.5495738283374412e+04 2.9093466381127189e+02 -2.1636647742020166e+01 1.5942676230550489e+01 -5.1336069613903007e+01 -2.7576955316830524e+01 1.0617096231645164e+01 -7.9750655618205197e+00 3.4941059910305512e+02 2.0767846509873664e+01 -1.0066849025308329e+03 2.3680805101118813e+02 2.6168808731192939e+01 6.8746157287532697e+00 -1.8524663919670274e+01 2.9991144612377298e+01 -2.7762054214261028e+01 -4.5736577472802065e+00 4.6319324622430140e+03 -5.6588922009097632e+02 -1.3763167324924434e+03 4.1263952170505817e+01 -3.6808682814153144e+00 -1.8209097790881060e+01 -1.4012089885936871e+02 9.9360158394061600e+00 4.4658570989063080e+01 -2.7446918327351723e+03 -2.5359354557961051e+03 -1.2799019147567160e+03 -2.6641079142288230e+01 -3.1300935038845182e+01 1.7578392976254008e+01 1.1386256018765783e+02 -4.7381248501141755e+00 3.4581135119193249e+01 5.9620720811700339e+03 3.6861207568306049e+03 -5.6597142606165153e+02 -6.7888547134002215e+02 -1.1675867219353167e+03 -1.8148228641535757e+03 1.6333341923481357e+03 7.0345386411988443e+02 -3.3418734307349746e+02 6.9371297527071838e+03 3.9348276351572067e+03 4.5301902836075169e+03 -4.1933704474085334e+03 -9.2509546314211348e+03 1.5843499538929163e+04 2.4863533257770498e+04 2.0993171907327069e+03 -3.7423417743486639e+03 1.1953887376348786e+04 -1.7711337772336981e+02 2.4255529243382625e+03 -1.1672752719638635e+02 -5.5595333579954536e+02 1.4968472280503474e+03 -6.3618497675280389e+02 -1.9824183779561452e+02 -9.2732107021893569e+01 1.9274561521159834e+04 7.3624424046375941e+02 -3.6102873306279071e+02 -6.0888047583364042e+01 -2.9776849871792365e+01 -1.0649318465332453e+02 -1.0488213853781969e+02 8.6860623780985762e+00 -5.1089120974451973e+01 5.3021392768563237e+03 -2.4091806946850465e+03 1.3689686465790263e+02 -1.2036389087568962e+00 3.3871790694065567e+00 1.6697298943967326e+01 9.6899712034006541e+01 2.5324793192248087e+00 1.8214033545913260e+01 1.7288247801910879e+03 1.3899581767319760e+03 7.7341176442569122e+01 1.0737581199739735e+02 -3.2245122442356660e+01 4.7846789724095288e+02 -1.0266131533359294e+02 -1.0090029886510392e+01 4.2805638830595854e+01 -5.2963709556707181e+03 -2.3847319474286633e+02 2.8920733723719604e+02 -2.9847329300535428e+01 2.1872961485933047e+00 7.1784253345773323e+01 -8.5984852779356572e+01 -1.1981393675716708e+02 4.5586377232391655e+01 -1.5484098258432699e+04 2.6008116803364828e+01 -1.9325435503401559e+03 -1.3610258007291193e+01 1.6657760030557256e+02 8.1463529492977813e+01 -1.8166868259306466e+02 -1.1181718443838678e+02 3.4965766220977002e+01 3.3606600263625369e+03 -4.8750109274894930e+02 2.5176877967237670e+02 3.8538905851939615e+00 2.3403051046989276e+01 1.7953111516719218e+01 -3.8117682233183587e+01 3.5850871066676731e+01 -3.1410967314394142e+01 1.8530493141935673e+04 -1.7958078397400459e+02 -5.2435869802226080e+01 3.0772946880256484e+02 -1.3742768239308498e+02 -4.1985213404575552e+02 4.0978880189404765e+02 6.3335813468305489e+01 -3.3723911996631841e+01 4.2492647313205080e+03 1.0651619216753170e+03 2.5088766357634449e+02 -1.0100390222371971e+01 -6.2500626928202109e+01 3.0689089630290255e+01 4.4728261687843769e+01 5.2855992847839502e+01 -1.1775618506943829e+01 -5.0165053901644424e+03 2.2809428208507316e+03 8.4670862648477778e+03 -3.8015177750591688e+03 -8.4396627392661121e+03 2.0196400209027102e+04 2.1875034085591855e+04 1.0880605516883281e+03 -3.4770036532611412e+03 2.5097919717854820e+03 -1.5898222367324963e+03 8.7919116505298675e+01 5.8695502480004507e+00 1.4453667178059426e+00 3.1734243271043205e+01 2.8580389481480594e+01 -3.7732407901181432e+01 1.8977465396746993e+01 3.2749872036238467e+03 -4.8084949566419036e+03 
      </Row>
      <Row Index="112">
        8.6556314646337285e-01 5.9219030816168015e+01 -7.1306475792733863e+00 -3.4469301854805963e+00 1.7766597993227697e+02 4.6936974118360837e+01 -3.8053882081067059e-01 -1.6502680346913507e+01 8.6634883315073239e+00 -1.7077393019529133e+01 7.1814978368451632e+00 4.6199521359892515e-01 -1.3928024549338033e+01 -3.0334542015871580e+00 2.0156172029133650e+01 -2.8610854350233240e+01 -1.0535215892508859e+01 -1.4465706125407087e+02 5.8410446277568626e+03 2.8969988577008849e+01 -1.8423764604905898e+01 1.3575439254462328e+01 -2.1886555318659319e+01 -2.1244522709726996e+00 2.0799575895595105e+01 -1.5725232026931508e+01 3.0364696965960320e+01 1.5073796563552988e-01 2.2063687549134556e+00 1.2800113953534037e+01 -1.8670800408692003e+01 7.1107938760014804e+00 -6.8332652635221712e+02 1.3054508027631698e+01 2.6582605445190666e+00 -2.9295285692958259e+00 -8.8514329323106722e-01 3.7226466460291391e+01 2.3053362397288595e+00 4.0280386325459290e+00 -1.2213925343853589e+00 -8.9894693813501192e-01 -2.0140355475493720e+01 1.6326209115758047e+01 4.2344432593490637e+00 6.4751056018136296e+01 -2.4493355790569449e+03 5.5634058315526772e+01 -1.0384323099799417e+01 1.2527409600572810e+00 -2.4654257390539755e+01 -1.0111695097233740e+01 1.8767265195314714e+01 3.5918865010316239e+00 -8.7510000466128986e+01 -4.9727263290930637e+00 -2.7958431632413934e+00 -5.4981709788273662e+01 -4.3092792859951487e+01 -1.3259382039653246e+01 -1.4692248319292266e+03 -4.9375879057042667e+01 -6.4946072266306754e+00 1.8716243066246591e+01 -1.8226446532474736e+01 -2.6659707026884117e+01 2.2815660880396624e+01 -5.4797301949538753e+00 5.8725634759989703e+01 3.1403866714757100e+00 1.3222328650900126e+03 -2.9882592463036178e+02 -2.2430409465505193e+01 -6.5344037909235340e+00 -8.8743374357451103e+01 -5.2694031506959618e+01 -2.0267638206360381e+01 -3.2862027441688369e+01 -4.2611303175831126e+03 -7.8333054701236688e+02 -5.9280683258442878e+01 -4.1846482319637076e+01 -5.3332691162142510e+01 -1.6396228425444860e+01 1.9805205084417402e+01 -2.8816349535984372e+01 -1.8772904971991000e+00 1.1755769106816879e+03 3.8743127555926185e+02 2.8748852994976751e+03 -3.4976481734415721e-01 3.0027836561147410e+01 -2.9825664949710017e+01 -7.1060366460444413e+01 3.3163416924705587e+01 -7.6912916107167007e+01 -1.9404109769838888e+03 -2.1428506290274063e+03 2.6011864192162022e+01 -5.1588331848500957e+01 -1.8642805265425773e+02 9.5762603357778846e+02 2.6929241001173671e+02 4.7152059480104754e+02 -1.2662428769393236e+02 1.8816498126800461e+03 -1.2662785786067672e+04 -6.7504702729496785e+03 1.7758671960623417e+03 -1.9455374467001729e+02 -2.7064322542971090e+03 2.0993172846090397e+03 7.8064455610839423e+03 1.2143273891555184e+03 -3.8982375273430489e+02 -6.4053748537621559e+03 5.5153075202907348e+02 -1.9638521028442040e+02 -1.1824009958933289e+01 5.2265618721988949e+02 -4.0162993669673739e+02 -9.7648169039282138e+01 -1.3202101912973791e+02 -2.1181677877188486e+03 -1.3775819957302353e+03 1.3890822256397223e+02 1.3167799820450938e+01 1.3682779486240179e+01 -6.0742531467338381e+01 4.1161167777466602e+01 -3.9567277467777440e+00 -3.0473045754729988e+01 -1.0261443508675147e+03 1.1155993161114297e+03 1.5847550876553873e+02 -8.5731864267819340e+00 -3.4618798943020010e+00 -1.5968674154875771e+01 2.7960065575982547e+01 -1.1301777943560630e+01 7.6187945107742641e+00 -1.1936188870092815e+03 5.1443160960935857e+03 3.0109158681327244e+01 1.5958136172733068e+00 3.2643075679112371e+01 -7.8151033215304778e+01 -1.2115994642055739e+01 -1.0865082597278780e+02 -4.3771454468679849e-01 1.8906182559832523e+03 -7.2234164955824126e+03 2.2080283768217487e+02 -2.3983071072263744e+01 4.1533873076405143e+01 -4.7714132270597474e+01 -4.3313275127674629e+01 -3.3463432034936034e+00 1.8668531510101474e+01 -1.6027842090875492e+03 1.1087287877464842e+03 -2.6345073055506685e+02 -3.7966458326547588e+01 -8.2715024951663509e+01 -3.5963333693264997e+02 1.9434703859103365e+01 -5.7735777904156045e+01 2.9066509103069507e+01 -1.5582662825121806e+03 2.1207994873008283e+03 -4.5590326122072656e+02 1.5750055480370269e+01 -8.3572556665549200e+00 7.6759771719662240e-01 -2.7528789985125172e+01 2.9008333198911522e+00 4.5302418214433722e+00 1.6193512742005696e+03 -4.9108048987673055e+03 -8.2978453705323773e+01 3.0588174291081529e+00 -4.1616469971886545e+01 -8.6500546595051674e+01 6.4243618596728538e+01 -2.5418253953892815e+01 -1.3094372218150738e+02 -4.7983551914439477e+03 -1.9888483782726689e+03 1.8668252386523818e+02 -1.3023001201896705e+00 -3.6045294852014194e+01 1.2415844445061430e+02 -4.5497892823104849e+01 5.5348282812598484e+00 1.8448980012684160e+01 2.0845123738772236e+03 -1.2819478618507874e+04 -8.7681291347427723e+03 1.6115236177589322e+03 1.5052526020876940e+00 -3.3458634909145439e+03 1.3898891314060857e+03 7.0687855538627573e+03 1.3828646567662690e+03 -1.0116231164361234e+03 9.5094958734663896e+02 4.0395962538004937e+01 6.4126765745177181e+00 5.2398184760094608e+00 5.4586501229921875e+00 1.0224649455744837e+01 -1.2828828201412534e+00 2.5252869400983400e+01 -8.5641427020847459e+01 1.0887661257929346e+03 
      </Row>
      <Row Index="113">
        -1.2127246572010254e+01 1.9428177189209180e+01 1.6138942437825676e+00 -2.4919408478954665e+01 9.2316072895834768e+03 5.8472872692514358e+01 -1.0369070996438126e+01 2.0510394824359516e+01 -4.0753473225080711e+01 5.6437147927780025e+00 1.1773283292618668e+01 -7.3719229568227007e+00 1.6137667292703014e+01 1.3044633588774266e+01 -9.6512883849966045e+00 -7.8829902294273779e+00 6.6176215534744642e+00 3.4568954164889010e+02 -2.2776781530661383e+03 -9.0179306019810198e+01 1.2468292869832972e+01 1.0196297965273832e+01 -4.1842941097345339e+01 6.7268444145779149e+00 1.4157104353409549e+01 1.1185589980351864e+01 9.6866399849643585e+00 -1.8106283494255592e+01 2.8978974616398716e+00 -6.8420590487930895e+00 5.1152990546954982e+00 -2.0345320135112615e+01 -2.1765843037849095e+02 3.1910917780584803e+01 3.5533015311699501e-01 -3.1540823348807976e+00 2.7493981079719845e+00 -2.5168629379679007e+01 2.0443222251578810e+00 1.1902304377101629e+00 -7.2021351433890004e+00 -1.2411699465093653e+00 2.5239997500886346e+00 -2.9864017445890454e+00 -1.0298041741217219e+00 -5.4483482110807063e+02 -8.0890277943632714e+02 3.1600371119678073e+01 -8.9035414937079764e+00 1.4336388774167176e+01 1.3408557184261667e+01 -7.4740793495803164e+00 1.2451552756699030e+01 -3.9103144726436074e+00 7.4955862198782143e+01 3.6187574187644058e+00 9.2517586415839581e+00 -1.3279737034762789e+01 1.8437413813772423e+01 2.5862673425219225e+02 -8.4188959877963862e+03 -7.7177095141203637e+01 9.3229578936456114e+00 -7.9599265155932262e+00 1.8749094097930648e+01 1.5079303872357499e+01 2.7620665225254628e+00 1.0056097828322011e+01 -1.2834618042597754e+01 -1.2987639806720097e+01 -1.2634633934021213e+02 3.3947578318633742e+02 5.5632394720068987e+00 1.4409658831434172e+01 -5.6226901266269124e+01 -8.4451510243876498e+01 6.7190420238075959e+00 2.2839109515023921e+00 2.4230930041043248e+03 6.1258231888918999e+01 3.1826874075715750e+01 7.4201542500980988e-01 -5.9504422958689247e+00 -7.8283121563657915e+01 -9.4025653247551055e+00 1.3218781038784115e+00 5.4927898150701822e+00 -2.9120458136730667e+03 6.4620101115095804e+02 1.5007620222622527e+03 -4.0507103028727975e-01 -1.5790674270662990e+01 5.5994763062240978e+01 -1.4300484562530892e+02 -7.4368262140261692e+00 3.7170054552571912e+01 -5.2899463344097076e+03 4.2116188797097338e+03 -1.5265752998630887e+01 4.5114934382252011e+02 4.9272118333633966e+02 1.9424612459508564e+03 -3.4396066228514286e+02 -5.3511683096979220e+02 3.3262936718797380e+02 3.5851665263628875e+03 -1.3545317958342288e+04 -1.8705709334446557e+04 6.0979000890868047e+03 3.6841894463270360e+03 -1.0979960411544196e+04 -3.7423416094544109e+03 1.2143273905117949e+03 5.0319475664004967e+03 -6.0040245633502809e+03 -6.1794471674903230e+02 -1.2399133597618857e+03 -1.8246408833517472e+02 2.1718373765312128e+02 -7.7399155348791271e+02 -1.1290577542795404e+02 -4.2094386074161157e+01 -1.6009599955928888e+02 -4.8967931462346824e+03 -4.2894126764710620e+02 -1.4753366959766572e+02 -3.1062687682170349e+01 3.5496290227114514e+01 4.0427599672768508e+00 9.3090301004538631e+01 4.4852113489029843e+00 -1.4800553757266584e+01 1.3658193649643035e+03 9.8258072074142490e+02 -4.6963744251903080e+01 -1.4773978446595137e+01 -1.4069350170087660e+01 -2.2259851022789007e+01 3.6969321157236337e+00 -2.4676219713165302e+01 -1.1705145897607187e+01 3.2262094041777782e+03 4.6679138731382409e+02 4.3559119913365976e+01 -4.4907653414898483e+01 -1.3593554443581070e+01 1.4200638701729804e+02 2.1058928045715675e+00 -8.4010765362616979e-01 -2.8321355435766137e+01 2.9874709077278239e+03 -1.3234087578659455e+01 3.3330873920859085e+02 -3.6434400664865407e-01 6.6410236271622125e-01 -2.3452759989914739e+01 5.0782104919307557e+01 1.7967647089109278e+01 -9.6102368900351962e+00 2.7113800213216382e+03 1.7374927424181624e+02 3.6909179420258386e+02 -5.0006149782901652e+01 -9.6244309461438206e+01 -4.2780438558386305e+02 5.4022032987784883e+00 2.5892470206013869e+01 2.6275120483252081e+01 -1.1563540230881335e+02 1.2872160210957372e+02 -2.9186837225980435e+02 7.2454170266826363e+00 -1.5492477173934049e+01 1.5215675209465189e+00 -1.9183383496434288e+01 2.0829861513921557e+00 1.1520768700068400e+00 -4.4489497966439376e+03 -6.8433357630055743e+03 1.8512056834070290e+02 -4.3209010353852236e+01 1.3420206869282174e+02 8.9779754959719412e+01 -2.1049217971823339e+02 -2.5506321869220386e+01 2.0286689320012556e+01 3.2495049652121151e+02 1.9109951643780369e+02 -3.5327912632698826e+02 2.5349201986874732e+01 -1.4218438274586333e+01 8.4681765091788066e+01 -9.8005921913013481e+00 -2.9761301163275668e+01 6.5054004282813764e+00 4.4634705394722987e+03 -1.0893153434965057e+04 -2.0845860953854157e+04 5.4419936435523668e+03 3.2106940863306399e+03 -1.3820829025715531e+04 -3.1469778565094603e+03 1.7366318681487887e+03 4.4242160298543222e+03 -4.5741815459296340e+03 -4.2629708138087032e+01 7.2810139711446794e+01 -2.3526160593356735e+00 7.5277968755585647e+00 6.3330930125166063e-01 -1.4142310409216757e+01 7.6850757183059315e+00 1.5499164732927966e+00 2.0783697895023096e+02 -1.7515993332837166e+02 
      </Row>
      <Row Index="114">
        4.9511477355199673e+00 -8.1005789511256580e+01 2.2038377262385666e+01 3.2919189270664356e+02 -4.0688362217569629e+03 -2.2617215139058828e+01 2.9849938303630097e+01 -1.3508907610753340e+01 9.9207487929792023e+01 -7.4032409263404759e+01 -9.3458481608195001e+00 -1.8908808974037242e+01 -2.7105260229865053e+01 -1.6609648305090239e+01 2.5535191501551928e+01 -3.1043353555563954e+01 -5.6179580454578172e+01 -4.9457893557781790e+02 1.4238255530198076e+03 2.1136111375937730e+01 -2.4888096712451215e+00 3.1260207648922581e+01 1.1765990222327895e+02 1.9798984142509596e+01 -4.7890742581185478e+01 -1.0230313693138442e+01 3.4855876564481150e+01 1.6510761651530999e+01 -1.6466209537642726e+01 1.4876637700863284e+00 7.0172601503331634e+01 -7.3473748536080166e+01 -7.2508062060008888e+02 4.1327309044183096e+01 8.1574640404753609e+00 -2.8207265071614529e-01 1.7329031230610781e-01 1.2645651170106115e+02 1.1370882086465599e+00 5.9955338869227930e+01 5.3340975440385591e+01 -1.7995469418168568e+00 -9.3279700792267022e+00 -1.0863414009822009e+01 2.6768665032318495e-01 8.4866282346032312e+02 -1.0076571345552291e+04 6.2939741576226197e+01 2.1660693892845302e+00 -9.0837326662399391e+00 -2.1842240945728349e+01 2.8905242355143415e+01 -2.0423010022017792e+01 1.7487140312828544e+01 -3.3093619070683781e+02 -6.0919244971607611e-01 -4.9687404783491473e+00 5.0279724526844575e+01 4.3603464391205762e+00 -4.5636195902622694e+02 1.7191003551099806e+04 4.4101108824646644e+00 -2.1563299975082401e+01 4.8810818062595445e+00 -4.5290705120551308e+01 7.1562080509514658e+01 -7.4064568260255328e+00 -8.1716237211357274e+00 9.5647828209573618e+01 1.4124629365437386e+01 1.8317637119377760e+03 -1.5247990582292878e+03 5.0231255874378292e+01 -4.2187545294793381e+01 -1.9976957482540456e+01 -8.2762656699095714e+01 6.6553914168553874e+01 -5.0407098777392804e+01 4.7379848048489075e+03 -3.5254899929625317e+03 -2.2592544115304991e+03 1.2815677801674481e+01 2.1811741856301524e+01 1.0818041254069249e+02 -7.7182591678550580e+01 2.5236727388491261e+01 3.9796823110590836e+01 -4.5866347652618249e+04 2.4727858952416282e+03 -3.8761056624601042e+02 4.8755041837739881e+01 -8.6914340833307961e+01 -2.3336609146953504e+02 1.7196057634448346e+02 4.5571058995245494e+01 -1.6637473617081631e+02 2.4755566979711709e+05 -3.9976754266703856e+03 1.9490036116825195e+02 -6.9327661252493317e+02 -4.0104119635076722e+02 -1.2983053550081625e+03 1.1277424792754689e+03 1.5876330559927669e+03 6.2834548388562098e+01 8.1246945613517193e+04 1.1821406021464500e+04 4.0203811354588470e+03 -7.4744988739152759e+03 -7.9524203675664558e+02 1.0914780816728116e+04 1.1953887121366986e+04 -3.8982365790053041e+02 -6.0040244492619786e+03 6.7607667825642694e+05 1.5982482272838304e+03 7.2526663370894748e+03 -2.0522069491480386e+02 -1.0140578969287569e+03 1.6567374535530851e+03 -5.1457696331572299e+02 -2.0661946414113140e+02 -7.9575793212014929e+01 -1.4197587092738686e+05 -1.3830057661595674e+02 -7.3046518680520239e+02 -4.6140820884182062e+01 -5.2825436792714754e+01 5.3616465377338955e+01 -2.8635259671178119e+01 -7.8142257292798234e+01 1.0198028763653511e+01 -6.2214855408431031e+04 -2.2271414060441311e+03 -3.3003808299514822e+02 -2.2587503040794976e+00 6.2326789696730884e+01 5.9561079499711923e+01 1.3109600313048031e+02 -4.1681079412001054e+00 2.2475530563134299e+01 2.6454617628890264e+04 2.0991265996591101e+03 -6.1508145779887855e+02 7.6141508775307713e+01 5.1796269149199361e+01 2.4115938443630512e+02 1.9511841569196804e+01 -4.0895629739839592e+00 3.6349048071827497e+00 4.1305684279198700e+04 1.2575059624721616e+03 -3.5392358872515615e+01 -8.3448400416684024e+01 -6.6619209644952207e+01 1.1236491766596009e+02 -2.3295733169075416e+02 -2.5569362565108736e+02 1.3602417014427212e+02 2.8939140740809147e+04 -2.9249933649587183e+03 -4.6999341530406091e+03 1.2539707187567217e+01 1.4169710993054287e+02 8.0774425324901222e+02 -7.1948631235434505e+01 -3.9084976204882082e+01 -8.6201409206228163e+00 -5.7450386221882480e+04 4.1352013376768446e+02 1.3558916817501449e+03 4.5601572252587047e+01 7.2223700912563800e+01 -8.0801330751182832e+01 -6.4965887623252684e+01 4.2477065946017092e+01 -3.6333156453380809e+01 -3.6765773130639049e+04 3.5147995091661323e+03 -1.1599184828490652e+03 1.8307761670323799e+02 -2.3410227727382880e+02 -3.1843736675471519e+02 3.6152271436412639e+02 7.4735408075447239e+01 -3.1925230747672776e+02 -2.6854333536488015e+04 -1.6700323898700299e+03 8.2905650549984421e+02 -8.1856276284850082e-01 5.0873947288915588e+01 -1.7856801910812010e+02 9.2377104249459080e+01 4.5575831762485677e+01 -1.7293680828341166e+01 4.1305035949886194e+04 1.0381331326800086e+04 9.8957528677405899e+03 -7.1586603265949361e+03 -9.9479810462921523e+02 1.5098011727870697e+04 9.5673195269129719e+03 -2.4768175552248940e+03 -5.5506996670232838e+03 2.5522785149410972e+05 1.7716037935269906e+03 -2.0056215615388993e+01 9.7150122394959908e+00 7.5813207730753618e-01 2.2974280247215745e+01 6.0220582430930847e+00 -1.4713624148065492e+01 4.7264973793760873e+01 3.5034097168220756e+03 -1.7707646740444534e+03 
      </Row>
      <Row Index="115">
        4.4129064081083129e+00 -2.4740736665495206e+01 3.3668348018041797e+01 6.1246983750854270e+01 2.4516042616430495e+03 1.4488444395799911e+02 1.6481476379640299e+00 4.2695633395692312e+00 1.7081372002807711e+02 -1.6723914853583750e+01 -4.0148086328439540e+01 6.2611954317339951e+00 -5.1904137445522792e+01 -4.0709769487833256e+01 -4.9733019426858583e+01 2.8876417523347300e+01 4.4981321973384183e+01 2.6393584861034469e+02 -6.8542203521223519e+02 -2.1931420808025450e+02 3.8301887688194256e+00 -1.5344750808513623e+01 8.4930547400342789e+01 1.7812866487765419e+01 -2.0834059490093328e+01 -1.6795622596981048e+01 9.1485046772002534e+01 6.8463722676113449e+01 -2.0755033143350374e+00 -5.9356739684335480e+00 3.5364697128388798e+00 4.0423933129364741e+01 -1.1625160712841025e+03 2.7124181315737815e+01 -1.6126950601601493e+00 1.0430911637730787e+01 -1.8408626497959631e+01 1.0882542259316637e+01 -9.6156247287181031e+00 1.7661067408748579e+01 1.3041119391444226e+01 5.1203665538749306e+00 2.4769256404351836e+01 -7.1622429743001703e-01 6.4631727210689860e+00 -1.8587811142024293e+02 -1.6911025099978069e+03 7.8779698834364353e+01 2.6860958858994763e+01 -1.5581220728448898e+01 -8.2388064996197954e+01 1.4361267740478731e+01 -5.5395058475767570e+01 8.4014528226318248e+00 3.4716238429260557e+01 1.4291927627327027e+01 -7.0423380361221746e+00 5.3579978910251356e+01 1.3998190879092090e+02 1.5984244736582332e+02 2.2074820317805643e+03 2.1709348774007836e+01 1.3643558631271610e+01 -8.8727427004311039e+00 -9.1787049768887897e+01 1.4606894553468720e+01 -3.8689386375474832e+00 -1.9617038019725683e+00 3.6949405560720152e+01 3.9532123561622825e+01 -5.7386953274876578e+03 6.3491388847181952e+01 3.7862328502427424e+01 1.0558771034993697e+01 3.5739141901431140e+01 -1.5348157515902130e+01 3.2726641999173509e+01 9.1199154187898685e+01 -7.5028018711163895e+02 -1.8498623020601808e+03 -5.2405488597278600e+02 2.1817696723790171e+01 2.1779253021784825e+01 -2.5077954332227819e+00 1.3509202051045523e+02 1.6794680293887431e+01 2.6857260730680366e+01 -3.8383351979705549e+03 -9.0743567039720365e+03 -3.1163438996448385e+03 -7.4016794407735446e+01 8.0430180816004395e+01 4.0963523397535346e+02 1.0803764994743892e+02 -2.1665898102532788e+02 4.9751648511389772e+02 3.1272647768722672e+03 -3.3614171032734084e+04 9.2003060335240411e+02 1.7032395437545347e+01 3.2064539190461619e+02 8.2538946844377551e+02 -4.0584723819387546e+02 -2.4610994684103963e+02 -8.0105098133345678e+02 2.4292796322298236e+03 -4.2564289935096218e+04 1.4242222315826129e+03 2.0002245938240458e+02 -1.9877298661569421e+03 3.8001624959733986e+03 -1.7711340625761193e+02 -6.4053748379436420e+03 -6.1794472728071923e+02 1.5982483366059369e+03 3.6858129122440791e+04 -1.4601808507242822e+02 -1.8100883194935085e+02 1.1609809724220327e+02 5.4384661414888797e+01 -2.4022277437276534e+02 5.7331728741212885e+01 -1.1940929119937451e+02 1.7883159253615886e+03 6.4118349546411746e+03 -6.3465461616357788e+02 3.4376096133048776e+01 -6.7557747260667384e+01 -5.2465743138261132e+01 4.0672222383662636e+01 -5.6245623029405309e+01 2.3739713630933124e+01 3.8673219637243310e+03 -1.1861877447022538e+04 -7.3464820720954435e+01 1.4259030375034786e+01 6.8197281584023585e+01 -6.6830212660337565e+01 -4.5423428487948144e+01 4.2898224876415640e+01 1.8120313411695470e+01 1.6584063170814943e+03 -2.6776241669644136e+04 1.8313123157713562e+01 8.9330956497129137e+01 3.2895661593909608e+01 1.8505185807203816e+02 3.6148542853832623e+01 7.1405277284979547e+01 4.2382344903430749e+01 2.2960999533848371e+02 1.2729466509724531e+04 2.3124359146982897e+02 4.2585833505592667e+00 3.3210864550957922e+01 9.0449319822946563e+01 5.1826150118626970e+01 -8.8381725939361019e+01 -1.2435523761981266e+01 1.5274500182005577e+03 -2.6953283685295028e+03 -7.3374653534637764e+02 1.6177463918848082e+02 3.4401885241887794e+02 3.1960765548510193e+02 1.4210375915260011e+02 9.6989389970658522e+01 2.3830236169646014e+01 -1.8850860777251146e+03 -4.9319380476530641e+03 -2.8218556639476446e+01 -8.5631017843330781e-01 6.6540592079109047e+01 -3.5595816315151751e+01 -6.5077877548030301e+01 6.1388523372062238e+01 -1.0046799289422566e+01 -6.0711182780684903e+03 1.6564733266755720e+03 -5.7325309461033612e+02 6.3224077315829163e+01 -3.3214957820324344e+02 -1.7430528969686929e+02 1.4194825182345085e+01 -2.8923681460833876e+01 5.3246607426147830e+02 -1.0202746377781868e+03 1.2306955704476684e+04 1.6801911586546339e+01 -1.2651955945726559e+02 -7.8932642141560791e+01 -5.8225879387908208e+01 6.9556434019657900e+01 1.1080875781573786e+02 -2.9954369043180122e+01 6.9038928683893755e+02 5.3310716434818169e+03 3.9706915288221644e+03 8.0537986307528570e+01 -1.8812647043258698e+03 3.3628033205760294e+03 1.1801571156599493e+01 -5.7302239742651573e+03 -8.3873224805276868e+02 -1.8168322379584424e+02 -6.8942861434890910e+03 -8.1775683193221198e+00 -2.3391539874599403e+01 2.2145869988009792e+01 3.5365729957714301e+01 -2.3860120579828560e+01 8.8935047479380955e+00 5.2123916327880579e+01 4.1858258407504695e+02 -7.2806898227189367e+03 
      </Row>
      <Row Index="116">
        9.5287771001554820e+00 -2.5767983032562256e+00 1.5434920163659172e+00 1.2475273499209561e+02 1.8876327962189207e+03 5.3813086698100150e+01 2.5143587935073697e+00 -1.0128749608158003e+01 1.8538741567577915e+01 -9.5322914787397774e+00 1.5514259565974511e+00 4.8180080435687103e+00 -7.4933540260808513e+00 -5.8414273965390819e+00 4.9544927528631275e+00 -8.6025162388147578e+00 -8.7987238412279112e-01 -4.8020381491643093e+01 8.7806719016572163e+02 -9.0624157802960511e+01 4.8632778836744279e+00 -4.6042434842378643e+00 1.7853877539596638e+01 -3.4686520890528669e+00 -8.7482575602324815e+00 -1.2909851177677666e+01 2.1330471568830944e+00 9.7463046581753563e+00 -1.8750138031615506e+00 2.0660879503054730e+00 2.6786177891598015e+00 -2.9858351936441068e+00 -4.6505025596758469e+02 2.4933833926820370e+01 8.6473224080012301e-01 7.1082255563172225e-01 7.3739610237264515e+00 1.0749234789505586e+01 3.3271601360709724e-02 1.0174317589354942e+00 1.5058288837299642e+01 -3.7176962650866052e-01 -7.4628289173386122e+00 1.2600930691714893e+00 1.2389493775248184e+00 3.1310775063708297e+02 -7.7334462645958592e+03 3.0452107364248377e+01 -4.2612389574795770e+00 -8.5977280424606306e+00 5.7266859159154677e+00 -1.5663503811139547e+00 -2.0187146445186901e+00 4.1782042163532260e+00 -1.3257171479712179e+02 -6.4909725022529230e-02 -1.1089085397927493e+01 -2.6967153549355896e+00 -4.0048166947156005e+00 -2.5032250663613308e+02 4.6088913983018901e+03 -6.1424290478987913e+01 -3.1031746518203098e+00 2.4568456722865157e+00 3.8498595301955163e+00 -7.6209474225966147e+00 -5.3012667662592108e+00 -2.0738688469321254e+00 7.2965036160218801e+00 7.2975885957121704e+00 3.8250969223817901e+02 -7.5781277204361368e+02 -6.7396970255819681e+00 -7.6367513903924191e+00 -2.4663562209075280e+01 1.4212926438964473e+01 -9.9139647194421769e+00 -1.7749088530726606e+01 -2.4934524074309593e+02 -5.6948681457141720e+02 -6.6882922428564234e+02 6.3450215209367551e+00 2.1762872502570644e+01 2.8328781010983221e+01 1.6068589805623727e+01 2.6494451549823488e+00 5.4076783491670639e+00 3.7180009431510880e+03 6.9718920031994639e+02 1.5787337722561961e+03 2.0247671726153316e+00 2.7251647998823216e+00 -3.4026129377067122e+01 2.0872046608980810e+01 6.4072069448793911e-01 -2.0526583579840796e+01 2.5370328413601937e+03 1.4705548332891340e+02 6.0632061971000667e+02 -2.3301617153069171e+02 -8.1893299419395134e+01 9.7590214286746095e+02 1.4740752177999201e+02 -7.6831282843645027e+01 3.6217633849585229e+02 -1.1414874478522433e+03 3.8908469360573436e+03 -6.4486324931367762e+03 -1.6477994965158830e+03 -1.6143355788311710e+03 1.9738415127802449e+02 2.4255528831617826e+03 5.5153074582611907e+02 -1.2399133779855729e+03 7.2526663815003703e+03 -1.4601810430021868e+02 3.7678570822189613e+03 -1.6174238338742924e+02 -5.3088447706717488e+01 3.4706375794607897e+02 -2.6229600859568154e+02 -8.0764459018424816e+01 -1.2341666742749990e+02 -7.8731893922336167e+02 -3.7684691455428060e+02 5.1032908842367397e+02 -1.4198356863251419e+01 -2.8622706053021830e+01 -3.6271030022187915e+01 7.3909281297707619e+00 -9.7023583554484816e-02 -1.3121186287024376e+01 -1.0116560802941167e+03 1.1108002000457175e+03 1.0119897085969168e+02 1.0348188537644907e+01 1.1964352280702769e+01 1.8498034518108398e+01 1.4227245471721858e+01 1.1217001302028919e+01 8.5116724722188728e+00 -4.9986366974150951e+02 9.9303127666982255e+02 4.3024466906470479e+01 1.0194417054195428e+01 1.1893961601398587e+01 9.4688349376082442e+01 1.9333801413317588e+01 -1.5716185417235511e+01 5.4342832078555290e+00 -2.7001490437169705e+03 -9.7163444633927884e+02 -3.5933626065613134e+02 -8.9350896538703530e+00 2.6085973459365050e+01 4.3708831408905098e+01 4.5744045650035702e+01 -6.6750643280782000e+00 2.5567109572812043e+01 -3.8870701396893419e+03 -2.4115498239011140e+02 -1.1777038707406937e+03 5.7445876123233717e+00 6.4674594438014992e+01 1.4918154092292758e+02 2.8143610140234216e+01 -1.6115493851394007e+01 -3.3445747847920586e+00 4.3564308412902883e+03 4.8837248808037111e+02 5.4729659826521493e+02 4.5713230487041390e+00 -4.5971317892813204e+00 -2.3595277174995317e+01 -4.6558230132220899e+01 4.2388834198390386e+00 -1.2657143435009960e+01 6.2707285127805226e+03 9.1054225240760388e+02 -3.2553491595135984e+02 8.3419118833170501e+01 -1.1987864768164764e+02 -1.9050739640538109e+02 2.6211573979264676e+02 4.6746881344905105e+01 -1.5288114696676442e+02 2.0752732511289332e+03 -3.1620279427757487e+02 2.0193697162378885e+02 -2.9133936344056792e+00 5.3641448491648589e+00 -1.6771428301067090e+01 -8.7266025796789108e+00 1.5023163190514332e+01 7.7625361418012062e-01 -3.4561778070881846e+03 2.3453509491063205e+03 -5.7312420579358295e+03 -1.6586142765052584e+03 -1.4160099050915535e+03 3.2434565104740614e+01 1.8158642181311013e+03 4.9151333423926440e+02 -1.5443361536648767e+03 1.5597080311784812e+03 5.6719823807640137e+02 -3.6685866095694564e+01 -3.6699732973806931e-01 -2.7884297263033133e+00 -1.0087363867303793e+01 8.9451552697715400e+00 -4.8930889683809795e+00 1.0236392285222792e+01 1.8977658041549768e+02 3.5849545499663134e+02 
      </Row>
      <Row Index="117">
        6.4987544548236675e-01 -3.5877428538163016e+00 -4.5623936119818254e-01 -1.6006560971710371e+01 -5.8918283658937162e+02 -4.0424992297532896e+01 2.5467628918392080e+00 -3.4894501372363429e-01 -9.2910017428399705e+00 1.7570381972977993e+00 1.0555402086932084e+00 1.1274415245646026e+00 4.6586639731720965e+00 -1.3864810551729214e+00 3.1284369791674109e+00 1.4937411425707126e-01 -1.2789348607433340e+00 -3.3544156313379403e+01 -3.1870395267253048e+02 3.7560553141608324e+01 -1.2464685052495081e+00 -1.3335217432425048e+00 -6.4287873498109196e+00 -2.2502923287941687e+00 -2.4633838779910118e+00 -1.0199738238372653e+00 -8.5237568775234536e+00 1.0346599227973283e+00 2.2852079187813246e-01 -8.3636815098898865e-02 4.3685956314339336e-01 -8.6026986097564873e-01 1.5448002774356979e+02 -1.0685140223302458e+01 1.6432558167521094e-02 -2.7336001079091332e-01 -3.6426694501291834e-01 1.0256644581346892e+00 6.3494546283024977e-02 -2.3871373490934533e-01 -7.0656145080255328e-01 -1.4383789494130561e-01 -8.8502728593453917e-01 -8.4030077980088436e-01 -2.4950658859478736e-01 1.7824269625322756e+01 7.3033314510470382e+02 -1.8541632012117915e+01 4.3842698773280731e-01 -6.5232369672355617e-01 5.9322790829327605e+00 1.1256661105778347e+00 6.7301711504651873e-01 3.0346129440589409e-01 1.1728769307570985e+01 -9.2263710075956173e-01 -2.3217765360643394e-01 1.8715272404806300e+00 -2.1260732294690001e+00 -1.0292905928598984e+01 -3.8690958026789804e+02 2.1080652983417838e+01 -2.6661203753431999e+00 -6.2236880895432223e-01 4.9456999006636702e+00 -1.9357802536180007e+00 -8.6720479696827546e-01 -1.8487754359241935e+00 -8.5377001087639393e+00 1.0725213703412533e+00 -3.8942935432264562e+01 -6.5527984993995290e+00 -2.8621482492061059e+00 6.8765793894044691e-02 4.2381773035626793e+00 5.1390755445550340e+00 -4.3450911109301043e+00 -3.9911240135860337e+00 2.2442649994681210e+02 -1.7192056154008753e+01 1.0374955732490116e+02 -3.1063192988155075e-01 2.4403603250537458e+00 2.3839650070385687e+00 -9.7151060001605458e+00 1.1315852466499932e-01 -3.5225010836820303e-01 -4.5036837071073336e+01 -2.4458065559828128e+01 -5.9643910469995774e+01 1.4268090586073576e+00 -4.2055699915993685e+00 -1.0589079915198459e+01 5.3398321838341154e+00 3.4610298539937849e+00 -9.1901174518568780e+00 1.1634837649365409e+02 -1.1394725176482193e+03 -1.3283390446748271e+02 -1.3321319455210322e+01 -3.6171351428689562e+01 -2.1530713989234883e+02 3.0002221132658796e+01 3.0476482171774620e+01 6.0915206764314149e+00 -2.9773716887129603e+02 -1.0818773414599809e+02 7.2886688700989521e+02 -2.9407097510664784e+02 -7.7764364009418983e+01 -3.1035465404017498e+02 -1.1672753447005059e+02 -1.9638520927411963e+02 -1.8246408606086644e+02 -2.0522069161419324e+02 -1.8100883181369522e+02 -1.6174238485556407e+02 7.8793001068901617e+01 1.5858321386436728e+01 -5.6614271989087470e+01 9.8774897516867256e+01 1.8517985852526227e+01 5.0257478044041278e+01 1.3245491935668724e+02 3.6017119913609505e+01 4.6038460652229787e+01 1.4799407486629761e+00 2.9474867516637460e+00 9.3445069364252866e+00 -1.7914425969108670e+01 1.1302722180776623e+00 1.2035659334127660e+00 -4.6161514468895621e+02 -4.9319054129468455e+01 -1.0709751131341736e+01 1.1672142162518107e-01 -5.7746902782256342e+00 5.5630229184091604e+00 3.3799594264789068e-01 7.1223451495352030e-01 -3.2139735370365907e-01 -6.4422446160260506e+01 -1.1901519250980300e+01 -2.7490307804807799e+00 -6.1792126553589251e+00 -7.6634609173278250e+00 -2.8130378152539663e+01 -2.7915467308975792e+00 5.2074267940232817e+00 -2.9265643768068594e+00 -1.6487529243437484e+02 1.2705556775905620e+02 -4.7912664785313609e+01 1.3960502166518141e+00 -6.6734559888379863e-01 1.0903976185715010e+00 -1.0879948018961713e+01 3.2436585486958336e-01 -8.1990893212300620e-01 2.8374872430433243e+02 1.1634118960250362e+01 1.4510403112385916e+02 -2.2416436593001876e+00 -6.2059619010368579e+00 1.4779677400255377e+01 -2.0998431803555594e+01 -8.4309209494601731e+00 -5.1909561865924623e+00 -3.3116151420645929e+02 -5.5163599104169862e+01 2.2074240085636234e+01 -1.0972622439407616e+00 -3.7595356719749020e+00 9.2999521679456620e-01 9.1869261861408518e+00 -1.7483531880216141e+00 9.4006736942845870e-01 -6.9635751670791251e+01 4.1555534520763302e+02 2.7552195442163509e+01 -1.0596180321413884e+01 8.4789661975653416e+00 2.0537201162879001e+01 -1.6715930120898591e+01 -3.4087053854704195e+00 -1.9488467741419001e+01 2.2666859165043911e+02 -4.2955806556842617e+01 -1.5465815168867266e+01 2.0242088935392086e+00 -2.3381241849064338e+00 -6.6181575588631318e+00 6.2486054563928519e+00 3.2186292883947392e+00 -2.4105800584045767e-02 -2.4164969270087386e+02 6.6326865758607789e+02 7.2092893201008337e+02 -1.9955231452871223e+02 -3.3234666336092126e+01 -1.9690377561695925e+02 -5.5741661068642379e+01 -2.0563604850524686e+02 -1.1604618557178651e+02 1.0236913751031261e+02 -7.9399234979926774e+01 -4.4588553565491607e-01 1.8958991397970095e+00 -8.3759587466976271e-01 -1.5160872025496728e+00 2.0677567789392768e+00 -3.3119338737816761e-01 -2.4383653410355635e+00 -5.6911292740481386e+01 -2.3848587155819665e+01 
      </Row>
      <Row Index="118">
        -1.6776378793080404e+00 -5.7086604953746587e+00 7.0193220502869735e-01 1.0165896372303359e+02 -4.2112863541753904e+02 -9.1397737968406858e+00 3.8656986114952474e+00 1.2879092028627326e+01 4.6594771511498152e+00 2.9617475472869828e+00 1.4584247734261813e+00 1.2498881544320000e+00 1.9883461324678592e+01 4.0045938353448829e-01 -1.4716272192374049e+00 -1.9272007537399361e+01 -9.2846524387368845e-02 -6.2433033898721078e+01 -1.9097492580731985e+03 -5.3065008608199946e+00 -4.6227065277313955e+00 2.7869739296845228e+00 -2.8009940167519815e+01 -8.7841882217473284e+00 5.6065885591503024e+00 -6.0173336785737206e+00 -4.8310230040194256e+01 -8.9619900708341689e+00 1.6352781184507421e+00 -4.4148643816902222e-01 -4.2540593305605796e+00 -1.1600157846506136e+01 1.8870766249519238e+02 -2.2365921809959559e+00 -7.7033849601434667e-02 -2.3335999056104697e+00 -7.5459395971518006e-01 -1.9116766401799801e+00 7.2109950643380216e-02 -7.2996929982910785e-01 -1.8966223271318086e+00 -2.4541852095397232e-01 1.3607845993954015e+00 3.8099446699809505e+00 7.9593729108410116e-02 -8.5567721896515650e+01 4.0049447093255185e+02 -9.4136580359700019e+00 2.0979941552917580e+00 1.1124012627021330e+01 -1.0167276452440888e+00 9.2184507833178175e-01 6.2330584199898298e-01 3.8696212365904614e-01 5.8685272434991020e+01 2.9113098821822447e-02 -1.2551800150737336e-01 1.7534001571112636e+00 -2.5084930362098135e+00 -4.4086271587701503e+01 -1.9418597158073410e+03 -1.0862958432440024e+01 -2.2651712084077475e+00 -6.1858373816827061e+00 -9.1241710777695584e+00 -5.8321390592320270e+00 -1.9393100848516105e+00 -2.3813066359425408e+00 -3.5468226704390986e+01 -3.2036070586106931e+00 -3.4456582419273582e+02 -6.2997651682939022e+00 -6.6356074497029063e+00 1.1158941401755146e+02 1.5665346033969399e+01 -1.1452424654813512e+01 -6.0720200918354212e+00 2.4285841096264473e+00 1.2917673462274252e+02 7.3495291649758315e+01 4.1048412693047794e+01 5.1370260187348391e+00 3.0475418485278169e+01 2.7336455505188496e+01 8.7761194579593393e+00 7.4667984513149612e+00 7.7213721360894834e+00 -5.8073521924532224e+02 -6.9499749233076727e+02 -3.2991856824816568e+02 -3.4064526765816754e+00 1.4691698991870282e+02 -3.7227373636116823e+01 -5.1014486125043899e+00 1.6900484964940148e+00 9.8821591638319415e+00 -1.0605129826223065e+03 9.5184732336502998e+02 1.9473715492537758e+02 1.2114178934803248e+02 -7.0192071857104895e+02 2.1804879551316725e+02 -8.6337903804689404e+01 3.6293375738148853e+01 -1.2290284313907875e+00 4.3101752802468400e+02 -3.7759073650379969e+02 -8.8169738261103248e+02 3.1099350655959512e+02 -1.2401754558892973e+04 8.8607994023706942e+02 -5.5595335956340716e+02 -1.1824001340393867e+01 2.1718377847617248e+02 -1.0140579532970569e+03 1.1609808889312649e+02 -5.3088457621546695e+01 1.5858319384588075e+01 1.7516852781738362e+03 -1.2598288274501804e+03 3.0544311923872108e+01 6.6963405638388878e+00 2.1159556879248353e+00 -6.5584441527428862e+02 4.0470586593691240e+02 2.9919631609274802e+01 6.9378079062278744e+00 -2.7116505518286431e+01 -2.5776335135103864e+01 4.6982754781996654e+00 -1.1383709475556213e+01 -3.5781760754498650e+00 9.1253423887566896e+01 8.0848732101662472e+02 -1.0691539600872802e+02 -1.8291964731862809e-01 -1.0083063719991128e+02 -4.4228712239517336e+01 -8.1749744687247627e+00 -1.0584223569603925e+01 -4.6863824288412648e+00 -6.7125723784943250e+02 -3.5584340405914190e+02 -5.0971403745854332e+01 -1.9494964171501308e+00 9.5713833088297179e+01 -4.6956646896333041e+00 -1.1148051774548549e+01 1.1068021142659563e+00 -1.3305031131137923e-01 1.9656065622031747e+01 2.0026704152214188e+02 -5.5346038381001563e+01 5.2580882262331201e+00 6.6092095961568702e+01 3.7296354969275853e+00 8.4615123481787151e+00 1.0142364602798498e+01 -1.9696329073237799e+00 5.6020772105889046e+02 4.7161246690686676e+02 1.2974847959954786e+01 -1.4715633977275857e+00 -1.8555397329103698e+02 8.5304082386868288e+01 9.1143733245137923e+00 -2.3659157817743335e+00 -3.4242016171378964e+00 5.6930920139650698e+02 -1.8814195379779267e+02 7.2298503232104849e+00 -4.6661532166593140e+00 -1.8906435914203030e+01 -6.4569374037982925e+00 -1.7189900085275553e+00 -1.3475066874409132e+00 -6.4568543673128076e-01 -6.6781925096701889e+02 -6.4340340530506785e+02 -9.0534284987379579e+01 -5.4742851467097779e+01 6.7194428600716492e+01 9.5843516167635926e+01 -7.4863007059444072e+01 -1.5760863123331131e+01 -6.1101696589062584e+00 -1.2138790192180122e+03 2.8505787846943713e+02 4.7903194825237733e+01 7.5445801973971527e+00 -1.9690892516344320e+01 1.5529507048083360e+01 -9.7801853992505130e+00 -1.0140005697427398e+01 1.8346871454820075e+00 -2.7208018372918013e+02 8.5327917861118146e+02 -7.6131846977260830e+02 2.6027967167290961e+02 -1.0074229446554264e+04 -5.5437799734678129e+02 -3.7390716489330919e+02 -3.2448955943229308e+01 2.2531872803489256e+02 -1.0337909813101724e+03 -4.4621309491722769e+02 -2.3659875110037003e+01 1.9353189685828056e+00 8.8264558312374888e+00 -3.7645720731761223e-01 -1.0046831406090431e+00 5.6344544654829463e+00 6.0139199237019056e+00 3.8618831318270765e+01 -4.8952849966865364e+02 
      </Row>
      <Row Index="119">
        5.8366768871756136e-01 3.3383110218227671e+01 -1.8005646100016293e-01 -1.5446360504979566e+02 4.7211919067834788e+02 1.4493079560697794e+01 -9.9788303770066022e+00 -1.1106303109613265e+01 -1.3390679415764225e+01 -8.1177679231734494e+00 -3.9280590512812745e+00 -4.5731743291847238e+00 -1.3989808631183337e+01 -2.4238110764722691e+00 4.3660978771446253e+00 1.6850813064873819e+01 -6.8599053049674694e+00 -2.5787092039719937e+01 5.0744737254278189e+03 1.2192788575096603e+02 -1.0266603162010284e+01 4.9570091716723894e+00 2.2586664159590129e+01 1.4110572598718816e+01 1.4165823291119457e+01 8.9049881980040482e+00 7.2456983377069264e+01 -6.3254749726730664e-01 -2.4977642295891656e+00 4.5685279078784333e+00 1.9858645324119948e+00 1.4008163139095814e+01 -6.1840654680750959e+02 5.1993297699644359e+00 -6.4592203349872079e-01 7.1689325560083716e-01 2.2258296948546104e+00 4.0895410229339788e+00 2.3150499110667511e-01 2.1251558878896049e+00 -4.1365161912654003e+00 2.8603443639196868e-01 -3.3323959714042530e+00 1.0003058719653382e+00 4.4589463392846937e+00 1.5752811267888865e+02 -1.0560785044026361e+03 2.2371469107215376e+01 -3.9689928087574344e+00 -9.2217630993243347e+00 -2.4761880299026586e+00 -1.8128985285367696e+00 9.2631083953499926e-01 4.7262967564479652e-01 -6.7066122469810580e+01 -3.0780399441066990e+00 1.5237041727816614e+00 -2.8187793621488662e+01 -4.7743705814953046e+00 5.8707426892654894e+01 5.6516828572861141e+03 3.4547196372609037e+01 1.8472484008927923e+00 6.2367495598385787e+00 1.3951646394585364e+01 5.3409225382174643e+00 9.8209638442559193e+00 6.8433271999195995e+00 3.4403115144684421e+01 -1.8497814123377054e-01 8.8053303154516470e+02 1.4107341159463431e+01 5.2062693612616844e+00 -2.8073171179192286e+01 1.0411481708073188e+02 -7.8503644624461231e+00 1.5387095134048819e+01 8.0912169529046665e+00 -1.8087720237154863e+03 -8.9534252329840638e+02 -4.7716719091569757e+01 -1.9349326771124677e+01 1.6975937178729509e+01 1.9539478744412190e+02 3.2144951988661887e+00 -1.7357326577311674e+01 -1.7205984295355147e+01 1.2505311010207884e+03 8.6825592035432783e+02 5.9840487412508446e+02 4.9948633532659894e+00 -5.1051080916384649e+01 -4.0432114552807548e+00 -1.7156150836337258e+02 4.5399258632267703e+00 -2.1531253187703534e+01 1.8900765165740929e+03 -3.5452240510410520e+03 -3.6344498394052539e+02 -2.0533106529995320e+02 1.1699298775138664e+02 -7.0504841447113142e+02 2.7250424611879987e+02 2.2922426460450566e+01 -1.9546427831306687e+01 -6.3159983670595830e+02 -7.7771056673952171e+02 2.9863434666256330e+03 -9.2353588661900460e+02 6.8113389343945682e+03 -3.7520420630657368e+03 1.4968472200110555e+03 5.2265618779878002e+02 -7.7399156739995499e+02 1.6567374819923975e+03 5.4384659414598794e+01 3.4706375899098566e+02 -5.6614270848168900e+01 -1.2598288221603470e+03 3.4922989324809796e+03 -1.3079088819453389e+02 -2.2497381117168089e+01 -2.3672460529288252e+01 2.1110029797405005e+03 -8.8636984258902453e+02 -6.5294701924794936e+01 3.3043494830383366e+00 1.5097272689999954e+01 -4.6012618357092833e+01 -1.2095177588130284e+00 1.1594880015289755e+01 1.3373770085719233e+01 1.4341661978481134e+03 -3.0628894562106184e+03 9.5623772467529506e+01 -7.0652030649277475e-01 6.2896116319429893e+01 1.3076363959992887e+02 6.3532199306925605e+00 5.9127352631748264e+00 3.4091557410323201e+00 -8.2993747157775942e+01 7.3536689560633386e+02 5.1487768377104658e+01 -4.4809018221365582e+00 -6.3686950164661539e+01 5.7387596468275660e+01 3.7627436957523059e+00 -1.8853680974552461e+01 -7.5790753972243579e+00 -5.5636566458879679e+02 -8.6856244068244996e+02 9.0942073724247166e+01 -7.1636024742386955e+00 -3.7731220531783038e+01 3.7749151596672164e+01 -1.6427374631664900e+01 -1.3075271164028692e+01 -2.9983779468352711e+00 -2.1868911310016119e+03 -1.1098752802142044e+03 -4.0173550937171967e+01 1.1961075405559118e+01 2.6916488741166904e+02 6.2940477782336325e+02 -6.0302892558895564e+00 -7.5303530180923417e+00 1.0828590751364288e+01 7.0162241315027131e+01 6.1203114654048113e+02 -4.2294202119690453e+01 8.2321381520849020e+00 1.2445181220709856e+01 4.2824252729842556e+00 8.6178117984801474e+00 1.0393074668392137e+01 1.0302674891953707e+00 2.2600408430655953e+03 -1.5526497703297946e+02 6.6838322525403782e+01 5.7301077612290840e+01 5.0345114248557365e-01 -1.5546395422731075e+02 7.6025738485323387e+01 2.6536292700066802e+01 3.0683277093687977e+01 -1.1742250554359737e+02 -3.1064447532995837e+02 -1.4480115102486889e+02 -1.1309995367644831e+01 -1.3574247444580578e+01 -7.4580481549493925e+01 -8.2122516099989298e+00 -1.5153759865702341e+00 -2.0370765236941679e+00 6.8689972351660253e+02 -1.5090773762193448e+03 3.0567852817942962e+03 -8.4804138859442503e+02 5.5261420280079092e+03 9.4245102450213471e+02 1.1798724053663418e+03 4.3860636577758351e+02 -7.9643866366713542e+02 1.8584153570760245e+03 7.3100832310771887e+02 3.0239288027781754e+01 -2.6298720031627454e-01 -1.4093967624106533e+01 -5.0546114464941461e-01 -3.4670795736056945e+00 -6.3632821676004596e+00 1.6762334895056483e+00 1.9301650653005964e+01 7.2799763612378842e+02 
      </Row>
      <Row Index="120">
        -1.1149349554516785e-01 -6.4858051655899942e+00 1.6821578516471902e-01 2.5856920713209320e+01 -3.6174251064095961e+02 -5.1619529099104099e+01 1.5821870943682512e+00 -7.9986097460412964e-02 -1.2249974975523799e+01 6.5205839119210189e+00 -8.8612425088298730e-01 7.5753225151502335e-01 5.5238472684962119e+00 1.0556026664016545e+00 2.4552993160941412e+00 -3.6192850947320778e+00 -1.3229579402858462e+00 -1.0448483806256490e+01 -8.2957577570541685e+02 3.8156053280287587e+01 -4.9520112890754575e-01 -1.5428758478842468e+00 -3.1359240562136250e+00 -3.6423502762547004e+00 -1.8093870112676247e+00 2.1374321366576936e+00 -1.2898742958117168e+01 -3.2494594545232314e+00 -2.3788917252282715e-01 -1.6527302912735991e+00 3.8459872320079427e+00 -4.1331745944967224e+00 2.3998115186109089e+02 -9.9907919610343114e+00 -1.4159081060843945e+00 -3.9539816105995840e-01 -6.9749976202700736e-02 -4.7509443860814642e+00 1.9390952438331510e-01 -1.5706309383498827e+00 -1.0239240670375693e-01 -1.4837751702095492e-01 1.7935109514872494e-01 -3.4215112121372613e+00 -1.4852933377757580e+00 -2.0848038508104992e+01 1.0181961735499976e+03 -3.2874627366957085e+01 3.5172866788192891e-01 -6.3077450983084304e-01 2.7842140961496753e+00 2.7610193875980040e+00 -1.9208101433836833e-01 -2.0221114517810612e-02 1.9084429031508762e+01 -3.4365753624610029e-01 6.6209029317857437e-01 2.4754810727926708e+00 2.1026288001395699e-01 4.4370706499218500e+00 -4.3150028835723458e+02 2.8554679277188200e+01 -8.2627571839391223e-01 -1.0404034379205669e+00 5.3665448482814782e+00 3.0351782824114970e-01 -9.1230770315919330e-01 -1.7423191464909564e+00 -1.0936885009475446e+01 -1.7195070192105417e+00 9.8759614266477911e+00 5.4084090854591210e+01 1.9533646036086076e+00 -3.0631816710865678e-02 1.2006436231253701e+01 1.4341314967180978e+01 -1.1771508328904186e+00 -1.8319955565434312e+00 1.9566964924838157e+02 -2.8498240856157338e+01 6.0211383541857685e+01 2.4204780351266604e+00 8.1059842427646345e+00 7.2480215460791442e+00 -3.0761263892442273e+01 6.9315930204552298e+00 1.3697907423148141e+00 -1.6022249279673497e+02 1.1776662933391344e+02 -1.5090984418465177e+02 5.3318177634983810e+00 -3.4208286909575776e+00 -1.6348532486756170e+01 1.4179993472431420e+01 5.6111310627501609e+00 -9.5369292737879849e+00 3.5292695958420495e+01 -1.0364157905940126e+03 -1.2089455397286386e+02 2.7922266610948554e+01 3.0583688805201717e+01 -2.6541226394874548e+02 -1.3862911444272754e+01 1.6098581484034185e+00 1.0221330879205273e+02 -4.9594770641418108e+02 5.1967388621425346e+02 7.2563921721518682e+02 -3.0089489311296541e+02 -5.9038654019316027e+01 -6.4033843329634601e+02 -6.3618498889693785e+02 -4.0162993605902852e+02 -1.1290577156413974e+02 -5.1457696028440341e+02 -2.4022277634387430e+02 -2.6229601115793503e+02 9.8774897465670804e+01 3.0544313770591089e+01 -1.3079088937719462e+02 2.5004331647355201e+02 3.5549115588032251e+01 6.4152501197334203e+01 5.4760362157689087e+01 -1.7445113170339198e+01 5.8857176799262561e+01 -4.9417931690172168e-02 2.6422990203354857e+00 1.7731611746210035e+01 -2.2873212755235830e+01 1.3314209240829644e-01 -1.5433831637017303e+00 -1.1483175185689106e+02 2.3268259371944501e+02 1.3244752415297398e+00 -7.1117418484635264e-01 -1.1651364363363029e+01 1.0352713638760179e+01 -1.2751260176135482e-01 9.8590663061612460e-01 -1.3169953671697221e+00 2.1641674416582646e+00 -1.4020866211039174e+02 -2.2452957197314390e+01 -5.5012147835688641e+00 -3.4298084657689287e+00 -5.0593813429431975e+00 -1.6336696582282343e+01 7.8616314691683655e+00 -3.2715910285453802e+00 -1.5474360330827039e+01 1.8317806769122581e+02 -2.8586322312779885e+01 5.4765100163544584e+00 -3.8661315127296803e+00 7.2493493663491790e+00 -1.6958764092423273e+01 1.2305569740579195e+01 -4.7259996479977513e+00 7.1298176746975514e+02 -7.8085407747686986e+01 1.7621883705325672e+02 -2.8146200541906410e+00 -2.3970217063728001e+01 5.5363060526681991e+01 -3.3290042162423092e+01 1.3080691794852939e+00 -6.7943745269511453e+00 -2.9162385144541076e+02 -5.9810796786203355e+01 1.1561812708133402e+01 -4.4124444338905455e+00 -6.4389417723396036e+00 -7.7397708367197993e-01 2.4778761494127068e+01 -8.6143734587535317e+00 3.4650550994047711e+00 -9.5907367775346938e+02 2.7238647453728299e+02 6.3920365594440000e+01 -1.8905169363548666e+01 -2.1442821057730725e+00 2.3094654008088298e+01 -2.7496507523335922e+01 5.2174303683449139e+00 -3.3128316225161171e+01 2.4721995615626474e+02 -2.3071669328617281e+02 -3.0599520161506007e+01 6.7709849979474726e+00 1.5853744760341897e+00 -1.7931202345714212e+01 3.0838565659987580e+00 -2.2756838363283443e+00 7.8476206791620484e-01 -1.1014808007435204e+02 1.3518122161272870e+03 7.2506629389094064e+02 -2.1861258957460103e+02 -6.0554506126612324e+01 -4.9767045734766486e+02 -3.9663300153402798e+02 -3.6354634813029998e+02 -1.1443601295931508e+02 3.1974876725431568e+02 3.9819796436695007e+01 -1.2574865218538246e+01 2.6149689211786722e+00 -4.5245820347378984e-01 -2.4238716103823279e+00 2.9293844053475997e+00 -4.1504144982659597e-01 -3.5662506810633658e+00 -8.2418340115710208e+01 1.0874016422133811e+02 
      </Row>
      <Row Index="121">
        7.9771623543267811e-01 -1.7224008792298662e-01 6.1717111668679081e-01 5.8235037779941194e+00 -1.3970663807420306e+02 -7.0915276152072284e+00 -7.2971931191197825e-02 1.2317308487618490e+00 9.0301442290824241e-01 2.1963727068627836e-01 -8.6311162049255841e-01 3.0530734382351454e-01 1.1411756141781950e+00 -2.8064152180578783e-01 -1.2910379575266973e+00 2.6047118382162182e+00 3.8731308527383135e-01 3.6111178005537568e+00 -1.4098186825449832e+02 7.4485157633864105e+00 1.6913355973031940e-01 -8.0615830747962858e-01 -1.4300238057725743e+00 -1.7927561261982333e-01 -2.9471777440736646e-01 -4.0874407013606628e-01 -2.6983938126527391e+00 1.0268758830933145e+00 -2.2440928814143035e-01 4.3238066611456816e-01 5.0934574601163973e-01 -7.4505140946143911e-02 3.7403333139214510e+01 -2.5949629282901938e+00 -4.1682058285901746e-01 -1.7002023569708058e-01 -3.2549224856438741e-01 -1.7496061516119976e-01 -1.7310367845148988e-01 -1.0314822798976575e-01 4.1665708119649025e-01 1.5458614048666597e-01 1.8254239994527666e-01 1.9193110970559246e-01 4.6603975027716160e-01 -8.3853906914919207e+00 2.7659919256985108e+02 -6.3883352797379445e+00 6.2713991404245917e-01 4.3736010514004420e-01 -1.7597290651178312e+00 6.4499067817489053e-01 -7.9639823901954387e-01 3.1154451214232992e-02 6.2421930311734286e+00 2.9835939754709351e-01 -9.3206857838698809e-01 1.2491020689718887e-01 4.7576806545482953e-01 8.4351677606110229e+00 -2.0196054085973333e+02 6.0308015380858224e+00 4.7327973510882082e-01 -1.0760238062542751e+00 -1.2003675543813466e+00 2.9916386029372166e-01 -2.4672271832614534e-01 -5.5565224875947905e-01 -4.2898426570361892e+00 4.6000344355564932e-01 -9.8531058203433076e+01 1.2495051761504783e+00 1.9622391793328475e-01 -1.1516385527884268e+00 1.6667505102545874e+00 2.5824230863051412e-01 6.4212070098956286e-01 9.8323230149603402e-01 2.0068645179235136e+02 6.9322635625396515e+01 2.9132119946536477e+01 1.0580299266379489e-02 -9.8440848915970491e-01 3.6292793235079444e+00 -6.4195850428524182e-01 -1.1604772804152201e+00 -1.6884073187358672e+00 -1.5028861766672441e+02 -1.9174284557757528e+02 -2.8945637675496300e+01 4.6781278581248742e-01 4.5261818734047665e-02 -1.8829456952436914e+00 2.4103085479312014e-01 -2.0899235002200101e-01 1.6592727368102889e-01 -1.3012600553623750e+02 -2.0142154388216343e+02 -2.6724526989356946e+01 5.9657060366243222e+00 8.3496615141330324e+00 -4.3996502599922252e+01 -1.1734277825796909e+01 -1.0986363309211029e+00 -3.0487074664128091e+00 -6.6864610153061221e+01 4.1043561054273209e+02 1.5739149783262371e+02 -3.6074482030237931e+01 1.9060235722280538e+01 -8.1129043261140566e+01 -1.9824183879081710e+02 -9.7648169253466108e+01 -4.2094386138658649e+01 -2.0661946198238002e+02 5.7331728983548999e+01 -8.0764458990809089e+01 1.8517985875626174e+01 6.6963411091978742e+00 -2.2497381386813714e+01 3.5549115667135965e+01 1.7052504629590064e+01 1.6721318065089910e+01 -6.7532301020743034e+01 1.1062918689370495e+02 1.1540023419464887e+01 5.4165231358265320e-01 1.8247896912125725e+00 9.4986751578493056e-01 -3.9498305329465726e+00 1.7163392539443290e-01 6.0025616069798349e-01 -1.5432103364258364e+02 -4.6473725427732333e+01 -8.6024669846733754e+00 1.9669691898385894e-01 -7.9943979996943426e-01 1.3395017349207592e+00 1.8862006051388569e-01 -4.7531036521468906e-01 -1.0937167037534228e+00 9.9564453046781523e+01 -1.7585984438235573e+02 -3.8887269414935872e+00 1.1666637373814026e-01 2.3933181083743875e+00 -3.4602631958894108e+00 -1.1031512559599719e+00 -2.8424964252331151e+00 -5.9666712996889615e-01 5.0222836652621481e+01 1.3307001833650384e+02 -6.5674220891942241e+00 4.9691249472325350e-01 9.2357663296752435e-02 1.0877271156336974e+00 -1.0278580519853009e+00 6.6565748125927282e-01 -6.4633684612558195e-01 2.0443277443269471e+02 7.9200723846193796e+01 4.5028908948807839e+01 1.2313265232837471e+00 -5.3604560842985620e+00 5.3970196705037701e+00 -1.5198565735841925e+00 -1.0603542946331856e+00 -3.4904244607061656e+00 -1.4846711589243773e+02 -8.0604690152671537e+01 -1.4807161376011209e+00 -5.9600094641683199e-01 -4.7717976629974146e-01 -7.3904891304846387e-01 1.8698150719471585e+00 -2.5252421276097725e-01 8.4220129604005178e-01 -2.0073836989887786e+02 4.0747195563935713e+02 -4.8843852619961581e+00 -4.5504242848817320e+00 -2.2032153152854335e+00 2.5827362929958326e+00 -4.4412828896599095e+00 -7.6153537581145159e-01 -2.5464168292951328e+00 1.8356918019220575e+02 1.4748882995959866e+02 -1.0365432687582143e+01 -1.6141802068047681e+00 -1.3311765930066031e+00 -8.9743610588982392e-01 1.0275433618503484e+00 2.1099753156243253e+00 4.1512540110946361e-01 9.0334573356012697e+00 3.8897205735776095e+02 1.3877473300751603e+02 -2.0348067786748182e+01 1.7732214489976517e+01 -6.3780246896693505e+01 -1.4974768564977606e+02 -8.0557349109037176e+01 -2.0081993842838529e+01 -2.6652230760353746e+01 -1.2562612484196008e+02 1.0483750677132755e+00 -8.2908740156915428e-01 3.1730869050096483e-01 -8.2323689633125086e-01 2.0873403214419817e-01 -9.9987032068071358e-02 1.7595747340078560e-01 -4.1960567276246934e+00 -1.1779675483598103e+02 
      </Row>
      <Row Index="122">
        4.3009539487986137e-01 -9.4734986950432543e-01 -1.9745147414289121e-01 -9.0151301963574042e+00 -4.2691828164883339e+02 -2.0267620216390004e+01 2.0177778135896762e+00 2.3930799371659184e-01 -5.9106202923908313e+00 9.1795236970752692e-01 -8.8787138751908112e-01 5.7701608434789797e-01 1.6973881912170725e+00 -6.0327391900202920e-01 1.0334836751710306e+00 2.1270826480703633e+00 -8.4247173843465362e-01 -2.0166373412089229e+01 -1.2565877634669113e+02 2.6475966037880166e+01 -1.9985785917776155e-01 -9.5494667947097078e-01 2.3230927731617150e+00 -8.9009128080890787e-01 -2.0641997551982265e+00 -1.0488831005557842e-01 -3.9714318913614761e+00 8.3715032150247892e-02 8.2539157331076751e-02 1.0208940860792381e-01 -5.7696238462352056e-02 -9.0964190239151321e-01 1.0634451065130537e+02 -6.4358992146537783e+00 6.5735912359194515e-02 -1.1835719992592431e-01 -6.8340645686363644e-01 6.7720560691843046e-01 -1.3780660057191874e-01 -5.6272523314735778e-01 3.8413818916089326e-01 3.3845950532489733e-02 -3.6652890011747097e-01 -4.0495023360472260e-01 3.1192719961310900e-01 1.5166832107146490e+01 5.3091237205970799e+02 -1.1007338055127011e+01 1.0296517563554808e+00 -1.1926783898179849e-01 1.8525443875347190e+00 9.0452890294270993e-01 -1.0691646630724150e+00 -5.1373560479541780e-03 5.9436034292211843e+00 -4.1295361573460587e-01 -3.2824981907061535e-01 -1.6286126169806658e-01 -1.8705395543888663e+00 -1.6066048987254362e+00 -2.5478745117434707e+02 1.7676164332657713e+01 -1.1745850257137058e+00 -7.8134888426092708e-01 3.6775862634750789e+00 -6.7035623104942132e-01 -8.6170677049220323e-01 -9.6735838097717775e-01 -4.7218376116286187e+00 5.1365858547767473e-01 1.1445199988382683e+01 -1.7228697468162721e+00 -1.0080184937698675e+00 1.2704144350152546e-01 3.2198887911090424e+00 4.5873618425609166e+00 -2.7880945510836046e+00 -9.8882257480948388e-01 1.9358526856721596e+02 3.1876477637988273e+01 6.2656113311984427e+01 2.0262592334266571e-01 9.3686974011126267e-01 3.8079326147549182e+00 -4.1972722183681554e+00 -8.8874700165984422e-01 -1.8623135364966412e+00 -6.7927589989844819e+01 3.9294457895932283e+01 -8.1960693956968953e+00 1.0842616494902328e+00 -1.8525264218578634e+00 -7.3496214574438952e+00 3.5752352925761031e+00 2.1628960291752231e+00 -7.2192257537094511e+00 6.3366507008357530e+01 -8.1392002714344483e+02 -9.0902811734516035e+01 -1.3701870995357641e+01 -2.6708835426757773e+01 -1.5160531395376921e+02 1.9817066631315868e+01 3.3929118003084625e+01 -2.3628316642010894e+01 -1.8596604016716014e+02 -2.3732082317374352e+02 5.4980374115866925e+02 -1.9828882969314660e+02 -6.0238338212596034e+01 -1.7270827585938332e+02 -9.2732111667630392e+01 -1.3202101757376420e+02 -1.6009599730784944e+02 -7.9575792663830669e+01 -1.1940929058857917e+02 -1.2341666862350712e+02 5.0257478030850123e+01 2.1159571015680285e+00 -2.3672461397026538e+01 6.4152501145570255e+01 1.6721318060442655e+01 4.1310456202573690e+01 4.8245008312472237e+01 2.3798749417499067e+01 2.1339410339789310e+01 3.2901406174253527e+00 3.2596314610759691e+00 4.0264828161360704e+00 -1.0366933084984634e+01 1.1210778034844799e+00 4.1252014380217350e+00 -3.5806781141362762e+02 -6.5612652180584988e+01 -1.0649434884805475e+01 3.9289120558798629e-03 -2.8459614168077536e+00 5.8337698135155733e+00 7.3286377861464058e-01 3.8625167899675006e-01 -1.1606493026832894e+00 -1.4382031404337454e+01 1.0823938683140568e+01 -5.1280384941151169e-01 -3.3532892116834843e+00 -4.9132265348756619e+00 -2.0725952299741721e+01 -1.6752283918768285e+00 1.8846497708687111e+00 -3.1253700737913785e+00 -6.4864842851201502e+01 7.4152405617511135e+01 -2.8681532093632541e+01 7.6901375597394939e-01 -7.2223177528894666e-01 -7.3281685614574599e-03 -5.4216451056203496e+00 2.6455203892010282e-01 -2.4655955662472806e-01 2.0116326402483173e+02 1.8559410300780655e+01 8.0248456917693147e+01 1.7695736972579503e+00 1.6415272769084197e+00 1.5919449091775149e+01 -7.3457675243478739e+00 -4.6633872483570489e+00 -7.0989344348524241e+00 -2.7345565851567505e+02 -2.6952641879934617e+01 1.5393854592896560e+01 -9.5744803985461302e-01 -1.4685180560082358e+00 1.5032129754463313e+00 4.6383663001839075e+00 -1.4228862926810395e+00 7.4505043892748013e-01 -8.7888931558088188e+01 3.5674826286794541e+02 1.1814082880542060e+01 -4.9921107716150246e+00 -2.9106943574931847e+00 4.1419626635816655e+00 -4.0462785932052441e+00 -1.8738357021904175e+00 -4.1990926920954337e+00 2.1192926919716595e+02 -6.3313585032408810e+01 -7.8167411334402459e+00 3.7997205380792032e-01 -1.8089127127186657e+00 -4.2696895546112046e+00 2.0761475392135367e+00 1.6491086296378681e+00 -4.0185857067511677e-01 -1.3441065362735753e+02 1.6847839698222685e+02 5.0314024800286415e+02 -1.3192884537137598e+02 -2.7260373841410711e+01 -6.4491250383528353e+01 -5.6679517950087877e+01 -1.5021200341712884e+02 -8.5347519811270672e+01 9.6968736329381500e+01 -1.0253834953908836e+00 5.9944178607234733e-01 7.0844895801579355e-01 -3.5158889803706828e-01 -1.0333647571678599e+00 1.3230597586224180e+00 -1.6347209637122795e-01 -2.9642623233822292e+00 -3.2084584638160074e+01 3.1274999160099821e+01 
      </Row>
      <Row Index="123">
        -4.4711320824479117e+01 1.9760371119282354e+00 -1.8520820969406486e+01 5.5407176594599150e+00 2.2818651436191285e+03 -1.0914065512407387e+02 -3.8658824266403826e+00 1.3780661527166558e+01 8.9369637596315442e+01 1.1313441995555331e+02 3.8767514492668596e+01 -3.3017868336742140e+01 -1.1603307368443711e+02 -2.5448061280153134e+01 -1.5534432224021657e+01 1.9510402457941382e+01 -1.8589440793410176e+01 -1.6914489074546145e+02 -4.3325660062123097e+03 1.6898087676624527e+02 1.0890815702035979e+01 4.8536895835878624e+01 3.9073631869126302e+01 -6.0332765100463355e+01 4.1344829510995353e+01 4.7001361789245493e+01 2.7752727468800731e+02 2.6386478334969802e+01 1.1241590906773126e+01 -2.3586777763834107e+01 -9.3510195396767813e+01 1.4971505255534430e+02 2.4447017655354866e+03 3.2535442002078526e+01 -6.0134842514080447e+00 -8.7081038389324021e+00 2.2066263968241401e+01 -1.5829001881602844e+02 3.5963421721926352e+00 -6.0120278718505801e+01 3.5190452895119961e+01 -3.5761221040735904e+00 -2.2359631501964031e+01 -4.0296646145798150e+00 -1.2704314610486108e+01 3.4220718420256162e+02 8.2745384660070704e+02 1.8578650995304179e+02 -1.0259771623892448e+01 2.3838962192447070e+01 -1.9238126313562589e+01 -3.2080281709794690e+01 4.0164279231531665e+01 -3.6100787961060746e+01 -2.4955362737274845e+02 -1.4179224236489290e+01 1.6315145449574391e+01 -6.5776740795690554e+00 -7.2609193412490640e+01 -2.3200370851172920e+02 2.4747339669390542e+04 3.4001256287067901e+02 -3.4821163776334263e+00 1.3749348615984900e+00 -5.3290595842515387e+01 -2.6224488099449985e+01 2.0464984836366042e+01 3.7354403932450623e+01 2.3290717790786584e+02 2.3752767433650149e+01 5.1581639501405880e+02 1.7669018942581170e+02 -1.4906869550373870e+01 -3.1135933598328847e+01 5.3520926252531353e+01 -2.8380886701936106e+01 -4.1376930235357747e+01 1.2530305749386065e+02 -4.1168577609630302e+03 3.8652341086228807e+02 3.9657610747840372e+03 2.3925980114404112e+01 -8.2686945157329319e+01 1.0373357439751271e+02 -1.3925338111671226e+02 1.6092557666724890e+01 2.8668623017203259e+01 -5.2947880139406472e+04 -6.2264794899395201e+02 -5.2895182230973442e+03 -4.6514964887329953e+01 -1.2014291175876770e+02 1.4807977099161235e+02 -2.0205721697240102e+02 -6.0720828157938911e+01 1.7045131342888817e+02 -4.4004089318893530e+04 -4.7359470138788129e+03 -3.8487553519417415e+03 -1.9800070920274675e+02 -5.5511974444392035e+02 -3.0855228866391262e+03 9.1191665795763583e+02 1.3551718930177154e+02 6.1479625390951082e+02 5.7299295903721941e+04 2.1588844513787833e+04 2.4456079232479173e+04 -7.0813380756468760e+03 -7.7183643692275809e+03 3.1062336483625539e+04 1.9274561685256187e+04 -2.1181679821398893e+03 -4.8967937355559425e+03 -1.4197587000984215e+05 1.7883158859287068e+03 -7.8731878284778213e+02 1.3245494164477736e+02 -6.5584437511849683e+02 2.1110030423637472e+03 5.4760390219525732e+01 -6.7532299510372795e+01 4.8245025631685266e+01 1.3214992311580107e+05 4.0031277350548135e+02 -9.7366326558985747e+02 -4.1542335215648222e+01 2.6749519176431932e+01 -1.0086889608367346e+02 -1.1877672535023589e+02 7.5387494450094948e+01 -1.1515891013283266e+02 5.9297053570393240e+04 -2.7452460306447983e+02 -7.6260836412956451e+02 -8.8777635828632189e+00 -1.3966242402698117e+02 2.4521168773761019e+01 8.3168930895092444e+01 -5.1958606347347356e+01 -5.9206214097910234e+01 -1.8436343757496797e+02 -1.4271237642790657e+03 7.5547726839757524e+02 8.2016889916784592e+01 7.8453514958207961e+01 7.4202188818430295e+02 -8.6694589568949596e+01 4.7830120496473334e+01 4.2228559393606702e+01 -4.6387483606464695e+04 3.9530138030361268e+03 1.8740114007587545e+03 2.7788999657512520e+01 -4.4613406084652524e+01 3.9130958830937743e+01 7.8469183898551819e+01 2.8339904844642257e+02 -2.7117048115996624e+02 -4.3114955928408541e+04 1.1213658822382567e+03 2.9295972966301488e+03 -1.1432656691070282e+01 -1.8505423181885271e+02 1.4312303523032483e+02 -2.8290819862724493e+02 -1.3417430526993303e+02 6.6356946767731642e+01 -2.0568890721737938e+04 -9.4382185865449719e+02 -5.9378916251612827e+02 -2.4611334300555384e+01 -1.9336303090181900e+01 9.3559921254200162e+01 1.1686797923038648e+02 -1.3137551436890271e+02 1.3602445273122396e+02 4.6477142016665079e+04 8.1208548474638810e+03 -3.9750421759454184e+02 2.0158178543747763e+02 2.4213971616304480e+02 -4.0331504219162161e+02 1.6029634034736455e+02 7.0541793239186021e+01 5.8525878158001888e+01 -4.8175465361627466e+04 5.0604562147520483e+01 -1.1928761755833402e+03 -4.0597824406192558e+01 9.7375634227064438e+01 4.4781788507934834e+01 4.8931197899888502e+01 4.6848296202904748e+01 -1.5670395911136438e+01 -9.8637990673230961e+03 2.5199735672999610e+04 3.4964719174207981e+04 -6.8250396735102449e+03 -7.8443357596593787e+03 3.7525139102033863e+04 1.8409465403636790e+04 -2.1057871458224377e+03 -5.8398337312333069e+03 -4.6191509272528812e+04 -1.3701850329951326e+03 1.3324344395405597e+03 -1.5000063829116698e+01 -7.2327378357490176e+01 -5.5697497887536173e+01 2.0453582516379520e+01 -6.7972683522357329e+01 -1.0470735462149605e-02 1.2934761552367811e+04 -1.2986230628699383e+04 
      </Row>
      <Row Index="124">
        2.5375269514112233e+01 -5.6605473028817869e+01 7.5477545398553048e+00 1.2719768487318652e+02 3.4374199377477053e+03 3.0805262431397068e+01 1.8885478888047146e+01 3.0963786068646186e+01 -8.7582742611084541e-01 -4.5404890065992731e+00 2.6214218818699010e+01 8.3500531432919161e+00 6.6275823263877101e+00 -9.6745977070468889e+00 -3.7076537176695638e+01 2.4696961995778111e-01 2.1254188281673123e+00 1.7966653729026439e+02 -6.3476420064948061e+03 -2.2556029746446620e+02 9.2420746633151794e+00 5.4242408809219569e+00 5.8102973782221397e+01 -2.5606639240194575e+01 -3.2628537645238254e+01 -2.1542627554289538e+01 -1.6027553280553548e+01 8.1300442332951448e+01 -6.6005495255994902e+00 -3.7633760900789639e+00 -2.5100105650800288e+01 1.4329443690017797e+01 -3.1137314957339549e+02 -4.7975700458750907e+00 -9.4347788201121148e+00 -4.2258860781230396e+00 -5.6070010073453886e+00 1.5553796153038787e+01 -3.8997857659592228e+00 2.8479341137403935e+00 -4.5175785958490451e+00 1.9068011103414051e+00 5.4538194333731553e+00 -3.3193068535583734e+00 1.1686637233004149e+01 -1.2875563809956657e+02 1.0924581572148672e+03 5.3119871699324904e+01 5.5027457006599434e-01 2.1457290177728282e+01 -7.6518565072560705e+00 1.0070988143994896e+01 2.5811696049951109e+00 2.0051172287037389e-01 1.0759381262905663e+00 1.2602157099441740e+01 -2.8624463640803729e+01 5.6599520803950767e+01 1.0703877800915507e-01 4.9237412496258912e+01 -1.6786967408393673e+03 1.6611623408493372e+01 -1.3413658989018884e+01 -1.7324275235442883e+01 1.1206136219007979e+01 1.1486636596425353e+00 -1.7876281799485973e+01 -8.8465008522812241e+00 1.6893047147268589e+00 1.8543819479107938e+01 -1.0346980740733125e+04 1.7698357986955671e+01 1.2533969012387317e+01 5.1822835898259655e+01 1.7488602981757140e+01 -8.8504528233006567e+00 3.8445749009722206e+01 2.6064899595077968e+01 2.1477484857869567e+03 6.1436386383698891e+03 5.6347516482189531e+02 2.2801407290128619e+01 1.3966608755989000e+01 4.7462136680842377e+00 1.1564918078878691e+01 9.3270342839011278e-01 2.8568744982125665e+01 -2.9349826121722172e+03 -1.2167024102153024e+04 -1.9031662394289160e+03 -4.1243504539957222e+01 7.5645448104060051e+01 7.0618444635124433e+01 -1.9833175477776507e+01 -4.9417036515417081e+01 1.0815058920120717e+02 -4.9759837485563821e+02 -4.7403297566970068e+03 -3.8272641891837702e+02 1.2871936012346254e+02 2.3939760514975569e+02 -1.3008000117417942e+02 -2.0998043108152706e+02 -2.1663095752086571e+02 1.1440503847791300e+02 7.5070582197571639e+02 -2.0392126197690086e+03 -4.7545718309109143e+03 3.8977942453852569e+02 -1.3237800129457353e+03 -1.3457541675216910e+03 7.3624422007530484e+02 -1.3775820550654191e+03 -4.2894127895717230e+02 -1.3830050012269930e+02 6.4118349800422002e+03 -3.7684690005891025e+02 3.6017120619706049e+01 4.0470588231930742e+02 -8.8636985556127252e+02 -1.7445105445904723e+01 1.1062918722398783e+02 2.3798748282880133e+01 4.0031292223883793e+02 1.1847979004340445e+04 3.9508451326622162e+02 -6.6312605637970975e+01 -4.9963747962494381e+01 -7.3821918377416296e+00 7.4513309314308188e+01 -5.0714066208676876e+01 -6.8851043625738185e+01 -4.4766440790519118e+02 9.0210733308341150e+03 -2.1028044801128721e+02 3.0131244122423197e+00 -3.2900212700478733e+01 -2.6121544967347290e+01 -1.0571520631773637e+01 -2.7531209399811967e+01 3.4051348525268321e+00 1.3431277751601756e+03 -7.5326350211291574e+03 1.2352082462108228e+02 2.2847006506202412e+00 -4.2300764753774274e+01 1.8291564897581702e+02 5.2864569042576477e+00 -1.1238601755111905e+01 2.1950110000888799e+01 5.1434178824955598e+02 9.4192453053038334e+03 -1.8558067433454562e+02 6.7379722870697609e+00 3.0418212575372308e+01 3.3724958011618583e+01 6.3146861687319273e+01 -4.8694206915280134e+01 1.8048480470903648e+01 2.5239374956307001e+03 9.2199826921030181e+03 8.3781065964465961e+02 -4.9493942122825587e+01 -1.8250555659033125e+00 1.9133298134340907e+02 9.8320372609723563e+00 -4.4127257460532746e+01 1.8371934973358293e+01 -2.1508520064318291e+03 -7.6148138616479700e+03 -6.2803735374502139e+01 -1.4630058133410611e+01 2.3394875745478203e+01 -4.2760598942695651e+00 -5.7856163052375450e+01 2.2728557599417822e+01 7.0151235591089467e-01 -1.5359702886422165e+03 1.8350937954140383e+04 -7.8229858168633655e+00 -1.5442828521366273e+01 -1.2551828463515267e+02 -7.8123410509109817e+01 2.7760437210136210e+01 1.8061453895123094e+00 2.9959864982107888e+01 8.7041642608374855e+02 5.8910619975160807e+03 -2.0461688425613102e+02 -5.5700811590532794e+01 -3.4943566364148865e+01 -4.2429308358128765e+01 8.3124996738799382e+01 1.1209568240255339e+02 9.5420915762570075e+00 9.3800165577325970e+02 1.6626118711661969e+04 -2.7022906915177973e+03 2.9398515841279334e+02 -1.1542071826716688e+03 -1.7146078389638151e+03 1.0411990022257971e+03 -9.9799858146062184e+02 -6.1669652122300386e+02 -9.8569908406352624e+00 -9.6382768937320579e+03 1.0413356097837671e+01 -3.1348563711879251e+01 8.2630646637748182e+00 -1.5342976109948779e+01 -1.1890824566595125e+01 6.5613937223297398e+00 8.0259524271677947e+01 2.9485320686317664e+01 -9.5509220699966645e+03 
      </Row>
      <Row Index="125">
        1.0544678231691353e+00 9.0595516453142579e+00 -3.9149642563721159e+00 4.3764238922586628e+01 4.6510035439184867e+02 -2.8159369589153851e+01 -1.0892172045128774e+00 -7.4714693266517429e-01 -3.0050467239739760e+01 1.1081110073855998e+00 2.3289583885760354e+00 8.6417373411848857e+00 1.4470701362580570e+01 -5.4083864689498140e-01 2.1285173857156394e+00 -3.9350652777991826e+00 1.3523284670945941e+00 -3.2278098508460062e+01 -1.8110847620777779e+03 1.4512675895147453e+01 -7.8600430077947294e+00 -4.6669612573323702e+00 -1.1963616643966859e+01 -1.5315780892355072e+01 8.3591907005518173e-01 -1.4899591441968965e+01 -1.2099686802626820e+01 1.0684071107935627e+00 -1.4308769089682585e+00 4.4362946831497538e+00 -2.5848714129565167e+00 1.3346026105066358e+00 -9.8932536339892067e+01 -8.4545671519422854e+00 -5.1763205424658452e+00 -6.9312148789597927e-01 1.7368409946651582e+00 7.8895031172609311e+00 9.7248463628645254e-03 -2.6184508124449479e+00 -2.6616208622887143e+00 -2.9350410509351654e-01 -1.4518919442799998e+00 -8.2094560878203993e-02 -1.5839276907490785e+00 -6.7597328770051718e+01 6.4928611689071420e+02 -1.6004354575665204e+01 -1.4323569116510271e+00 -1.4969367818148100e+00 4.2298303235005719e+00 2.6433854460822044e+00 3.3503220527388402e+00 3.8471894273748841e+00 -8.0901651987906007e+00 -1.5712525955713361e+00 -5.4811348623787426e-01 -1.3855183603501702e+01 -7.1159264983845105e-01 3.1905057608889820e-01 6.8396149220356631e+02 1.3035225702629587e+00 -2.9680977312115520e-01 -1.1955912460163987e+00 1.6136486134635131e+01 -1.8299744133673780e+01 1.5127131970599175e+00 -7.9714279618998845e+00 4.5841117215402392e+00 -2.9878749677077998e-01 -3.1897202613697573e+02 -3.5320181483728618e+02 1.1740332774052719e+01 -1.0024567536484028e+01 1.6025725417125614e+01 2.7204412841369958e+01 -8.9408087881355360e+00 -4.8017167142448525e+00 2.2233061967844233e+03 2.9026628706336680e+01 2.2341700834369112e+02 -6.7923700683740771e+00 -5.9345022189409065e+00 3.6530547893383300e+01 -6.4766284878093074e+00 -3.3943897617115137e+00 -2.0625672996334252e+00 6.8830445808495870e+02 -1.7112069535502360e+02 -1.5257489149968478e+01 -6.0778197188809324e-01 1.5284841542671145e+01 -3.6036821633407044e+01 7.9484663988487966e+01 -3.4869723465237250e+00 -2.5684135182840500e+00 -4.7087653715350439e+02 -5.9920534635194258e+02 -4.9724534905477140e+02 1.0131516589036355e+02 1.3070587428825598e+02 -3.3342621586679053e+02 -1.1054077239266687e+02 -1.3284828739892868e+02 1.8447163603701364e+02 -1.4738616264638667e+03 4.1139580687641865e+02 -1.6237808613107463e+03 -2.0458208870472362e+02 1.8468372551492348e+02 8.7291549089659065e+02 -3.6102873498675064e+02 1.3890821426438904e+02 -1.4753368556626882e+02 -7.3046516395556500e+02 -6.3465462091732570e+02 5.1032909116263272e+02 4.6038461330367994e+01 2.9919633262580646e+01 -6.5294700654200170e+01 5.8857177969291691e+01 1.1540023445062701e+01 2.1339410842582243e+01 -9.7366327174721664e+02 3.9508450400834386e+02 1.3032967479979416e+03 -7.7573164735156031e-01 -7.2786421944038011e+00 1.2781277487492176e+01 -3.2465194290175411e+01 8.2694146475119528e+00 4.7838621398748309e+00 -6.1867535896010922e+03 1.0335273022012034e+03 1.1798570671946095e+02 -2.9909431266278350e+00 -1.0194555376346557e+01 2.6449938295042557e+01 -2.9649458658971408e+00 1.6040272901830783e+00 2.3375329863099217e+00 -1.0128690770658707e+03 2.7246402179900542e+02 -1.1617577145769883e+02 -1.5808262595290207e+01 -2.2774152804313417e+00 6.6754317382121371e+01 3.2971039898579875e+00 1.0836830478178823e+00 -3.7508445178419123e+00 -1.9605778758411179e+02 3.3273121556004935e+02 -1.2980899784229041e+02 4.5916236082389270e+00 2.1997418560005826e+01 2.6071390356228221e+00 5.7103278594612945e+00 3.9051349870139465e+00 2.0550622375452349e+01 4.6958233886518428e+02 2.0844331994498862e+02 8.2270615588326109e+02 -7.6352723751983804e+00 -6.3024612557956516e+01 1.6178898109664533e+02 -7.9574595495961944e+00 -1.3024354467406177e+01 -4.0224017188609338e+00 -2.0906887344101160e+03 -2.3966828335185346e+02 -3.6449636230951410e+02 -5.3892062815537898e+00 -1.1725245501843574e+01 -7.4936214408530759e+00 1.4784631509971746e+01 -5.6281746036404190e-01 -1.5007835129570910e+01 2.4517504095801487e+03 1.2441354820308211e+03 1.9019362601938838e+02 -2.1958280227605986e+01 -1.8340771687635424e+01 3.0102155681850661e+01 1.0826055906692801e+01 9.9115448229149017e+00 -3.9990682398675318e+01 1.2546630017895482e+03 -4.8212529241652373e+02 -1.5172348792696175e+02 4.6404951253514923e+00 6.4838371689406813e+00 -2.3080620143206488e+01 -8.6257933271335787e+00 -6.4258203405084302e-01 4.1066632997529382e+00 -1.2493939779179636e+03 1.2644701737704072e+03 -7.5043519103205483e+02 -2.4773939420852327e+02 7.4563386622102783e+01 1.2807046968340023e+03 -2.6148315340209865e+02 2.8223347392428076e+02 -2.6419348391715221e+02 -1.0280429591209850e+03 -1.6513382844924735e+02 -2.6039270091460111e+01 3.3778246373578895e+00 -1.5476021004349967e+00 -4.2823806083356750e+00 3.0843569911657225e+00 2.5994799842049972e+00 -3.9242634035276751e+00 -3.3161242766754086e+01 -1.5617967486869676e+02 
      </Row>
      <Row Index="126">
        6.1739849960333881e-02 3.5654206588324797e+00 -2.5438531716169166e-02 -1.5274141445519263e+00 -1.8668911811894702e+02 1.3413187521027377e+00 -1.2068383652846038e-01 -4.5771560040486214e-01 -2.0524718793566308e+00 8.3804768269807095e-02 -1.1795385725003840e+00 5.5739860952578724e-01 1.3150996576263552e+00 -2.4104824572252129e-01 -1.0494336737041792e+00 1.4726768725105472e+00 7.8946797865671670e-01 -9.2068171013602296e+00 1.1072620762389982e+02 4.4547216467452486e+00 -2.7015263489881125e+00 -8.5313439603696251e-01 -5.6879754064073573e-01 -5.7932074203320472e-01 5.3801432431209761e-01 -5.7750915579347506e-01 1.1162235301736700e+00 -3.4522795782887039e-01 4.8564292144931187e-01 6.1665933226484526e-01 -2.8611023291230708e-01 4.1405313503116759e-01 4.4708847014214825e-01 -4.7470117010886526e-01 1.0171443915294667e+00 4.6887655473990364e-01 -5.3015369063285789e-01 6.4244280890027539e-01 -8.3401836650701888e-02 -5.2854673732276236e-01 8.6162753944674364e-01 9.0093648246825309e-02 9.6987562944725880e-03 -2.6297149738923054e-02 2.1722931043597526e-01 -2.1414811516592636e-01 5.9247606844681229e+01 -1.4559682618594998e+00 9.7734784743553504e-01 -6.1532280210043666e-01 -1.1483048299439478e+00 3.0818863773602123e-01 -7.2521468108652742e-01 8.5730030630523757e-02 -2.0182704749457798e+00 1.8783692262708640e-01 1.6314416951581867e-02 -2.9514996803441971e+00 6.2276033251620788e-02 1.1349834685142355e+00 -3.7035802568497260e+01 4.2635299351844180e-03 6.2261626701966277e-01 3.5677920261009666e-01 -5.9160212380939436e-02 -1.1549319014386228e+00 2.2713270314236955e-01 -5.9961618571877651e-01 7.5314392072419167e-01 2.1495030719305031e-01 4.9609140158520177e+01 -6.3739462229266906e+00 -4.5293747801763118e-01 2.4320322874950762e-01 -3.8544526155882295e+00 2.5099937982543565e+00 -9.5744684712264716e-01 -2.1344521789792270e-01 2.9656848958341470e+01 -1.9558158329395532e+01 -2.5414760306655353e+00 -1.7601076640516489e+00 -3.3250345419932046e+00 -1.0943991902818198e+00 1.1362770518630612e+00 -9.8938972352147148e-01 -2.2330817735620725e+00 -7.9573289601166465e+01 6.6763635664527101e+01 1.9479612688625139e+00 -2.7428519626801665e-02 2.3277574416081421e+00 8.7949973379863877e-04 1.0966648959910664e+01 -1.4141152690523118e-01 -7.5366954405800524e-01 -4.1225940929037051e+01 -1.3227233543083619e+02 1.5227870997352170e+01 -1.4954689422750636e+00 3.3939045620624313e+00 -9.2323045425369514e+00 7.6586640838655740e-02 1.0226314893070910e+01 -2.2427530885651414e+01 -6.3734674952162095e+01 -1.3837745407643041e+02 2.5035699164374233e+02 -2.1802141101563322e+01 2.5258291369286127e+01 -1.4049077692641688e+01 -6.0888046889187329e+01 1.3167800828857192e+01 -3.1062688244954934e+01 -4.6140820227266772e+01 3.4376095664494891e+01 -1.4198356766515872e+01 1.4799407768476618e+00 6.9378080608839809e+00 3.3043495982020588e+00 -4.9417980366926129e-02 5.4165231647688028e-01 3.2901406514436724e+00 -4.1542337715436588e+01 -6.6312605093351522e+01 -7.7573173088603653e-01 1.0527662328449614e+01 -1.0971937409385646e+00 1.1312620417174202e+00 -5.4849350585665295e+00 7.9337186235766488e-01 6.0003967683080912e+00 -8.2155343474037181e+01 6.4663528467534078e+01 -5.3251910602435331e+00 4.0760867177171534e-02 2.7921332217795225e+00 -3.1056419412630021e+00 1.4865003043922833e+00 1.2072491136345198e+00 5.2412308429711674e-02 8.3485908857520386e+01 -1.3013488962378688e+00 -4.9607918186393363e+00 -7.5686722864841971e-01 -1.7651288034676327e-01 -3.9628355624972755e+00 -1.7418474017338781e-01 -5.4147959732618078e-01 -9.3350196499755178e-01 7.9430721735116094e+00 -1.0923575027883317e+02 3.1398543728664663e-01 1.9075605962332454e-01 1.3861309257827088e+00 -2.6259606551320758e-01 -1.3942236369982162e+00 9.4052584782194004e-01 -1.4034140196535256e+00 5.0643608976817632e+01 -7.3388497649510555e+01 -1.5900478289900093e+01 3.9694667875251843e+00 1.3438303486793757e-02 -1.3386909946003698e+01 2.4659142717699112e+00 1.9744067625349118e+00 -6.5158984962779698e-01 -1.1584663861189620e+02 5.6729656889480793e+01 -7.8343360746439430e+00 -1.7853735257342618e-01 1.1787830171737141e+00 -8.2563936298674889e-01 2.5924771315303801e+00 -6.3071792978635655e-01 1.1809436444704058e+00 -1.1830475603234299e+02 -2.1946318507281154e+02 -9.2332825328204535e+00 3.5130979656444397e+00 -7.4823754625754191e+00 1.4794635566176169e+00 2.3381703761802939e+00 -1.8688765156933349e+00 1.0386779721217644e+01 1.5958202074447772e+02 -2.3413855378244989e+01 1.2233877611121443e+01 -1.3485240189537357e+00 -1.5565150040581557e+00 3.2716447940731541e+00 -1.6653426474729258e+00 -9.3759361417617981e-03 -7.3225061855215756e-01 -2.2955431120790308e+01 1.2532069293575246e+02 2.2622313973525735e+02 -1.7582868354885733e+01 3.0800046050986726e+01 -1.3259791631656157e+01 -7.3714734783324985e+01 4.6988171642960914e+00 -1.2783339574971881e+01 2.3580739276521854e+00 6.1630582596975607e+01 -5.1953461065547235e-01 1.0865404551152551e+00 3.1788275102541097e-01 5.5420558138033849e-01 -1.1690503320644741e-01 2.9233822897317907e-02 -7.2529298317738267e-01 1.3861968990669473e+01 4.6153437147258423e+01 
      </Row>
      <Row Index="127">
        7.4323262610026930e-01 2.7500979681016773e+00 -1.9787567231129088e-01 -8.7058394537510821e+00 -1.2900349218633096e+01 -6.1332524717959647e-01 8.6042057138929451e-01 -8.5283507847670137e-01 -5.5864756874983996e+00 -4.0536225198471554e-02 -9.1636379305321203e-02 1.3192344102379394e-01 -1.0449295656441748e+00 2.6384841049416591e-01 1.2947643872825942e+00 3.2918242470779298e+00 -1.2269609126364855e+00 1.9560468061502831e+01 3.1881307104893301e+02 2.7804544190606997e+00 5.7747916610762218e-01 1.2661348157192576e-01 3.9571503497594458e+00 7.0110064645932280e-02 -9.7706250300562858e-01 -8.3598576670169678e-03 -3.7525003150838074e+00 6.3274763861816874e-01 -3.1718638598965754e-01 2.6007190056863294e-01 2.9610576438913938e-01 1.3643134490827720e+00 2.2142234260311852e+01 -7.0465905417778707e-01 -1.6153904796089691e-01 -4.4035698047737881e-01 -1.6979763748582855e-01 5.7823036656486959e-01 -6.9082277513081713e-02 1.9399617327492980e-01 3.5753826930984189e-01 1.0862017504500954e-01 -6.7938356252707521e-01 -2.7790410742217375e-01 -1.7015717869732327e-01 -6.9215737148226708e+00 1.4673996240706799e+01 -9.9455672712569765e-01 3.5317416404009094e-01 -9.5557009280894789e-01 1.0943388455468241e+00 -3.3248165448238987e-01 2.7940574220269143e-01 -4.5403899649002266e-02 3.5981113251932015e+00 -2.5450358799606165e-01 -9.2666134292840785e-01 -1.8446367550883911e+00 -9.5722429519941699e-02 1.0511162664354345e+01 -5.9289603502829181e+01 4.1314558796941625e-01 -5.1534108958035585e-01 6.1821888737791708e-01 3.4257436819477958e+00 -2.1585234541951914e-01 8.6484971001216426e-01 -2.8774074684807793e-01 -2.5261201667834356e+00 3.6359709245848748e-02 -3.5496427578681278e+00 -6.3761941995945719e+00 -8.4520241288929210e-01 -2.3185065124136599e+01 1.1890254770745514e+00 -5.7418026113721652e+00 -1.4873125021195248e+00 -1.8463484837871216e+00 -1.0416132084273613e+01 -5.1844290514371792e+01 -4.2230834718811820e+00 -1.2168877731941947e+00 -2.0594242170394750e+01 7.7843863522782613e+00 -2.1205165482812873e+00 -9.7618372365082173e-01 -5.0587706987100156e-01 1.1453653959114445e+02 5.9405508227403516e+01 9.1322192813971697e+00 -2.7644114933372299e-01 -3.0808477432024141e+01 4.2761369987159075e+00 -1.0655128154851418e+01 -3.9256223399103574e-01 -1.0416025456239710e+00 9.2074848647606984e+01 -1.3219602159729914e+02 2.9067979087524236e+00 -2.5238055786226710e-01 4.1515084854212887e+00 5.9097059951232126e+01 -1.1742541344873985e+00 -1.9921706356376674e+01 4.5015299025917799e-01 -1.9506981025479149e+02 -5.8917352728779917e+01 -5.0917353045800233e+01 4.2859169238914305e+01 2.8351453924380695e+02 1.0433394230328474e+02 -2.9776847035082369e+01 1.3682778954572859e+01 3.5496288444899562e+01 -5.2825435689011385e+01 -6.7557746375994839e+01 -2.8622705472257849e+01 2.9474868109150285e+00 -2.7116505990746191e+01 1.5097273097663528e+01 2.6422990412585365e+00 1.8247897153914510e+00 3.2596314937303834e+00 2.6749526683125623e+01 -4.9963746880888266e+01 -7.2786419908668449e+00 -1.0971937317743201e+00 6.0335344104200431e+01 -1.2983292353278076e+01 4.2447020649757405e-01 2.6444566370002853e+00 6.5798566863854091e-01 -7.7872007904379188e+01 9.7792544802035664e+01 1.2042236097694598e+01 -1.9140886527952961e-01 3.4980254172537855e+00 1.2195839962738546e+01 3.0210653635081206e+00 5.4344004448784089e-01 -1.5700837584289717e-01 1.8504983092684648e+02 5.9018458395469906e+01 -1.7303895797360838e+00 -2.5673971361384313e+00 -1.0880252284168478e+01 -1.0651643731057447e+01 1.4608050917488100e+00 3.4751237978309923e-03 -1.0900234152546204e+00 4.0219766402515233e+01 -6.1357974184648583e+01 1.7919475375810180e+01 -8.4506029209262135e-01 1.0939910907424746e+01 -4.4384961945788746e+00 -1.6264722569032521e+00 4.2580986148062827e-02 5.4509022059658152e-01 -8.4320304936100001e+01 -4.1579478339462639e+01 2.5570329467907413e+00 -1.5554378117995400e+00 -2.1907906877648600e+01 5.3853390367169141e+00 -2.5050275581984849e+00 -2.0734647889163149e-01 8.7739437612888338e-01 -4.5868896281302455e+01 2.8512242890129983e+01 -3.8379407107479437e+00 4.7922759289548467e-01 -1.7216959776755857e+01 4.4371602108725483e+00 -9.2145889822674576e-01 -1.0740380604676882e+00 -3.7147582243611432e-01 5.4082434348133575e+01 -4.6059090243736534e+01 -1.2283663576844106e+01 -3.4723931088598317e+00 2.7086189294274845e+01 -1.0104497212497876e+01 -3.1869904074906081e+00 -1.4154134787757755e-01 -1.0485596245338083e+01 3.2087328930349219e+02 1.0800144933238698e+01 -1.0348488005612580e+01 -1.7672221228730578e-01 -2.4468754796929034e+01 2.3609050794533175e+00 6.0518819324425976e-01 1.3933488627175183e+00 -4.1692780837406929e-01 2.7026726678548584e+01 4.2860896815181292e+01 -8.5014923610994572e+01 4.6555352975161178e+01 2.3343572624478531e+02 4.6454879582707520e+01 -1.5849677323581435e+01 3.4806780822779267e+01 4.4743439887998420e+01 6.9090131928811388e+01 1.4779771835540988e+01 6.2865976922739453e+00 -3.8336176395995381e-01 -2.6364796151112735e-01 -1.3213278295301443e+00 7.8040418112510235e-01 -1.6644023671610046e+00 -1.0809877392786689e+00 -1.2214864242653455e+01 3.2255868831580003e+01 
      </Row>
      <Row Index="128">
        -3.1263381974898530e-01 1.3118113305918415e+00 1.0136009077640296e-01 2.1655051053333807e-01 -1.7988199652069454e+00 -4.7278161183727185e+00 3.6864954221212320e-01 -9.5596978729450655e-01 -3.3589099407241640e+00 1.3804452250158987e+00 -7.4550459708938099e-01 -5.4320050598255509e-01 -3.3187884685729383e+00 -6.9512428520319858e-01 4.1447096627968953e+00 -3.8987683781126616e+00 -5.4298374250821979e-01 9.4555769714162494e+00 -7.7476961357258620e+02 1.3656048659020597e+00 -4.4372667311202472e+00 -1.6497233398667105e-01 -1.9791569575139563e+00 -1.4942925739780022e+00 6.0730300701749995e-01 4.5572069079162780e-01 -1.1371153256089023e+01 9.2218038943405389e-01 3.1254098516877971e-01 2.2846510529450264e+00 9.3794804142837851e-01 -9.7446108606753512e-01 2.2950676660691869e+00 -1.1139615449762426e+00 -7.1767310474997181e-02 1.4375624520137986e-01 -4.8746693676932118e-01 3.6202980424201536e-01 1.0968626151742167e-01 6.5878080608355882e-01 6.2916599543415686e-01 -1.5852414945170923e-02 -3.7829122773084878e-01 8.9095227761176332e-01 -1.1210952382832513e+00 -2.0670297517355422e+01 1.3734333591052186e+02 -3.1623758072029373e+00 5.7905911577860625e-01 -4.5465272651983035e-01 -6.7105207335528028e-01 7.7206316083487891e-01 -3.9094874701214727e-01 2.1006344536683152e-02 1.9347318914054981e+01 -1.5511858707109358e-01 2.3609390079633930e-01 -2.0960757487431114e+00 -5.0471197994690531e-01 3.8704491919918738e+00 -2.2365366079780264e+02 1.2270178770434639e+00 -1.1481424838833409e+00 9.8862647715222574e-02 1.1036046955230470e+00 3.5468610656750882e-01 1.0561898257117128e+00 -5.0327864316592752e-01 -7.8313514428237907e+00 5.9943573570753905e-01 -1.0433736322332632e+02 7.1342095693195233e+00 -4.2206834358362038e+00 4.2761505986466375e+00 -1.5091149991391006e+01 -5.2401624090589571e+00 -7.1588760095184014e+00 -4.1319264857802818e+00 1.9110390395711596e+02 -1.3730637413904708e+02 2.8910301905819210e+01 -2.8139301228382210e+00 7.6651112116856552e+00 -2.1058811811035469e+01 -3.8213200241062495e+00 -2.4371007335257516e-01 -7.6273397017794409e-01 -1.4285974383612020e+02 -6.7130290003483424e+00 -5.1795551822934272e+01 8.5992999491317579e-01 5.5608806226094742e-01 -2.9615319077516375e+01 1.1158020180157610e+01 -1.5443774267868704e-01 -4.2824215643180539e+00 1.2056955551306942e+01 -6.9087446662553575e+01 -2.4693791835083232e+00 1.3896811679435922e+01 4.4927797382310963e+01 -6.2176110626607560e+01 -2.9432098734564313e+01 -3.7242639726429189e+01 6.5152203210940378e+00 -1.4259812135329304e+02 2.5017990671207173e+01 1.3850939353360138e+02 -5.5034924014857367e+00 2.3610176871998056e+02 -2.4176279543104462e+02 -1.0649318473271018e+02 -6.0742531306473261e+01 4.0427592318085974e+00 5.3616466746603976e+01 -5.2465743233834019e+01 -3.6271030004249212e+01 9.3445069596037307e+00 -2.5776335149184064e+01 -4.6012618183612297e+01 1.7731611752742047e+01 9.4986751448927509e-01 4.0264828420183001e+00 -1.0086889568960942e+02 -7.3821925886168174e+00 1.2781277440291376e+01 1.1312620633026409e+00 -1.2983292363409191e+01 6.5652557203866763e+01 -5.7550816037241077e+00 -3.7085581388500488e-01 2.3195175943816464e+00 -8.6425647625574925e+01 2.2634279497817863e+02 -2.2915198645999183e+01 8.6541673054419310e-01 6.9205461485778841e-01 -6.5700900738542600e+00 1.6139074102115547e+00 3.1997759310564331e+00 1.9044519846280590e+00 1.0352696068131911e+02 1.6689558146313971e+01 -1.5103528178987062e+00 -1.5983920906575719e+00 -7.6772413854703245e+00 -1.1448934372322000e+01 6.0940455867059740e-01 1.4182685883264616e+00 -1.9360809832542314e-01 8.1226902973294045e+01 6.2255466212197291e+01 -1.1727537669460276e+01 2.6472755179605556e-01 2.1559235520098241e+00 1.1094276831977027e+01 -4.8331339489234608e+00 2.8017621447042105e+00 1.4627433179396043e+00 1.6233543859320162e+02 -1.6473197925991985e+02 4.3780060085978391e+01 2.1850027618119006e-01 2.3867301881572388e+01 -6.6969503493984860e+01 -7.1189217562752845e+00 -1.4478862142786451e+00 -1.2128733011569928e+00 -7.3631701973101428e+01 -1.4631681716169737e+01 -2.1167614666829593e+00 -3.6246441842598187e-01 1.7996645925390453e-01 -2.1634713873181738e+01 2.8083180147164457e+00 -4.1054419527553385e+00 -1.5132766156451112e+00 2.8239903684097044e+01 -1.0672810524943711e+02 -1.6759829881521625e+01 -1.2887970698747974e+01 -6.1946425502709985e+00 3.7083639469808602e+01 -1.9956585818230238e+01 -2.7506251233443044e+00 1.5083620701146945e+00 2.3516251329774681e+02 -5.8867777941271470e+01 -1.1575753464648074e+01 -8.7990016765196488e-01 6.6211206037721411e+00 -1.7065570043582522e+01 3.7197632829261948e+00 2.3431684201192970e-01 1.9481956503664222e-01 1.7409923480899579e+02 4.0908307194386208e+02 1.6236950384645303e+02 -4.2863650100865751e+00 1.8624371912857208e+02 -2.7650647233902691e+02 -5.9783215190980428e+01 -2.2145388933465341e+01 2.2880820740609167e+00 -8.1928225870469760e+00 -9.2527892887687120e+00 6.5690102149640905e-01 7.6490768766819173e-01 -2.1190251675646445e+00 -5.3310652971886512e+00 4.9596261967266320e-01 -1.2763503006462549e+00 -2.0139381119410160e+00 -1.6482051109558448e+01 7.7589524468956812e+00 
      </Row>
      <Row Index="129">
        1.0989308634115564e+00 -5.4070165530373160e-01 2.9182662958376682e-02 1.4599103004393896e+00 2.0228549460623418e+02 1.1230679814399005e+01 4.2567803936908710e-01 4.4492038361534014e-01 -2.5460741298948868e+00 4.9653534588656612e-01 -1.1909117071306818e-01 -9.3776071779047676e-01 4.7594623539663061e+00 9.7761386301788866e-01 5.1545988394264342e-01 1.2346446049427975e+00 2.7550245737731416e-01 1.7245155854795541e+01 1.4589729484726084e+02 -1.5046921360527524e+01 2.7305685988347941e+00 2.6213025562427950e-01 7.4898299875955416e+00 1.6532765843587565e+00 -1.3346675692650853e+00 1.4977673531713904e+00 -5.0373063123158204e+00 -2.2782824585284803e-01 -4.4720349360413891e-01 -1.5994313677075382e+00 4.2714511987290926e-01 -6.5743908246835758e-01 -6.6015549266416258e+00 3.0597941177123955e+00 -4.7054372955877000e-03 -2.9005372419113584e-01 7.2908013890727474e-01 -1.2508897959299234e+00 -1.6083244174132671e-01 9.4017919717468734e-01 -3.9902622655087328e-01 3.8222638357037875e-02 8.0755041386404969e-01 -8.5150240520690090e-01 -5.9723512849956251e-03 -1.5711914523297310e+01 -1.9577324511079178e+02 4.7962242278109972e+00 -3.0483605403210490e-01 4.3684316280853608e-01 2.4362978239380517e-01 -1.4028260305211770e+00 -5.1974473549439293e-01 -1.0326667058785823e+00 1.5142498400982163e+00 -1.2334842202980922e-01 -8.4489677267951835e-01 1.4938989049819702e+00 9.9131876790199414e-01 1.5742472377548367e+01 -7.9360483116040541e+00 -5.9837613920540393e+00 2.6211287680310741e-01 -4.6785584727862384e-01 3.3352901509561974e+00 1.1076540526290697e+00 -1.0662135415035197e+00 8.9455075460674571e-01 -9.8764484106858639e+00 -9.7304776683523153e-01 -4.6157816555288548e+01 4.6330158438993152e+00 -2.0520330578461188e-01 2.8191300866703841e+00 5.4003093088900869e+00 -2.8069973775296937e+01 2.8610946278475384e+00 3.5809525692168898e-01 -6.5282349622001902e+01 8.3318067032771467e+01 5.6425313812733293e+00 2.3152414703026007e+00 5.3060033727072664e+00 2.2701866053316735e+00 8.8946203585045680e+00 5.9630142669376518e-01 1.2538595375923351e+00 1.1488092437875113e+02 -3.3786464428533918e+01 5.1387159061426928e+01 -4.4154355487768576e-01 3.4451988256289905e+00 1.6575859748802158e+00 -2.3467505354828546e+01 4.7346442587249138e-01 9.5544596911027035e-01 -1.5982753679008999e+02 5.4464595262417674e+01 2.1017753524235502e+01 5.4624566621165229e+00 1.3270097893764323e+01 9.9648144540779299e+01 -8.6572572064846511e+00 -3.8178680695897889e+00 5.7077766876804947e+00 6.2094212599812863e+01 -1.2909779914106196e+02 -2.4752173828670078e+02 1.2535715775084755e+02 6.4685904771642882e+01 1.6336046430348122e+02 -1.0488213736774549e+02 4.1161167203886848e+01 9.3090302788256110e+01 -2.8635264070572987e+01 4.0672223245649889e+01 7.3909279617272432e+00 -1.7914426062212581e+01 4.6982747832895484e+00 -1.2095178538453695e+00 -2.2873212818918731e+01 -3.9498305264663838e+00 -1.0366933172531102e+01 -1.1877671597328026e+02 7.4513309907450548e+01 -3.2465194038415575e+01 -5.4849350604876257e+00 4.2447025228238999e-01 -5.7550815831337090e+00 4.3386970447484074e+01 -1.6085188304248783e+00 5.5726940228275712e-01 -2.0164011653303078e+01 2.1013744799012153e+02 -4.9426238395477959e+00 7.5884530253736271e-01 -2.2110871142878352e-01 -1.1716834672748746e+00 -1.6513284082395341e-01 -8.0390927790788957e-01 -2.4563199716855721e-01 -7.0770617194537863e+01 -6.9896137957503015e+00 1.2563849283999389e+01 -1.2068571321271990e+00 -1.7038821043367989e+00 5.3521475004783383e+00 -1.7321991018606724e+00 -2.6654547754432056e-01 -5.4574373514617847e-01 9.2340146723739508e+01 -1.0735230631559148e+01 8.6260021684233834e+00 -2.6587761629570295e-01 1.2172216893607128e+00 1.8114111711872738e-01 1.4964279564395312e+01 -3.1924574593258170e-01 1.1954677708429680e+00 5.5364789294826551e+00 1.5593324876486440e+02 -2.6055828784589039e+01 1.9195769712660948e-01 1.9384024643386027e+01 8.2784465599888790e+00 1.7559372982713722e+01 3.0557160384634017e+00 -6.5925858875348808e-01 1.2486124030469318e+02 -8.5142270447340707e-01 1.3076897814513586e+00 8.8272922759028871e-01 2.3136123235576633e-01 -1.4045998901042367e-01 -1.9791680177504663e+01 2.0307131282286672e+00 -1.6674587360245980e+00 1.7068899979490743e+02 4.4615484360597395e+02 6.6762414230134937e+00 -2.2315722713792907e-01 -5.1912954315039315e+00 -5.7200423549453063e+00 -9.0988594234048374e+00 1.8320402289122022e+00 4.4381001247494787e+00 -1.5567241650042607e+02 3.3457245229189539e+01 1.2119060449939752e+01 9.9394649028833371e-01 1.3566969967458533e+00 -3.4845824370373464e+00 -4.1090769465501182e+00 -1.7812027133799155e+00 -4.2268257354947991e-02 4.3533671280438284e+00 -3.3904463113765109e+02 -3.0333617795675235e+02 1.0006942398871057e+02 6.8805846277050705e+01 7.9693260080438023e+01 -8.1786683602807074e+01 3.9213603594377616e+01 7.3319406956302601e+01 -1.0722758299897487e+02 -5.1076074910521228e+01 1.3747263297379737e+00 -1.0003257982387339e+00 -4.2398091377970237e-01 6.2551292439131578e-01 -1.7899316584166824e+00 2.2951972021294083e+00 -5.8365473928293454e-01 -2.7736104790547500e+01 -2.2509584910650798e+01 
      </Row>
      <Row Index="130">
        -6.4097457539169422e-01 1.2081677360408278e+00 -5.3136475064454913e-01 -5.4230219052001303e+00 -1.0397379857019132e+01 -4.0080250057122591e-01 3.6809457510554822e-01 4.7491624669885546e-01 -9.4586411165610684e-01 1.1400208560493326e+00 2.5038852630137143e-01 4.5466144069175485e-01 5.4328051833579138e-01 2.8684863443084646e-01 -6.0358170698288660e-01 2.1440489486929550e+00 1.1226073790277269e-01 1.2141185309255889e+00 8.1843347604357888e+01 5.9714814416962625e-01 5.0050671875577635e-01 2.5907823044379330e-02 -1.9367289004016630e-01 -2.5375664131056652e-01 -2.5336046887297708e-01 1.9694944067580167e-01 -1.2941161154859628e+00 -8.1155670539792135e-01 6.9088384137339176e-01 3.4588234625235259e-01 -1.3407033379390860e+00 -4.0145975858604288e-01 1.5528944912659199e+01 1.6107218758138586e-01 1.9171300422891946e-01 1.4214553846034761e-01 2.0413743546069441e-01 -1.4647045720080261e+00 2.8923923492595094e-02 -1.4067418322898453e+00 -1.0207274215516122e+00 -1.1306737399336653e-01 -3.2628590323150064e-01 -5.7083390161602665e-01 -1.1595142058204289e-01 1.7351850917964384e+00 1.3213143613265515e+01 6.8484258440953738e-02 -5.7804685981369275e-01 2.0052768335007443e-01 6.1739342129684438e-01 -2.8432489961345708e-01 4.5751618975067343e-01 -3.0145139319425107e-01 1.4551458794667269e+00 -4.6455196319981718e-01 4.9671548572611307e-01 -1.1927835245185245e+00 2.5890206239434832e-01 5.7127997411669185e-01 3.1499235825207506e+01 2.7437893139104785e-01 -1.8716777870879142e-01 -1.4701590940287756e-01 6.6214731590481180e-01 -2.6382175687154708e-01 5.9490791292192757e-02 4.3562553156156980e-02 -3.0967334044979822e-01 -5.3446201177561048e-01 3.9467974078613679e+01 -1.2918964998090061e+01 -1.3859503670545126e+00 9.5318750560181797e-02 -2.9807304623345772e+00 4.6985538806117688e-01 -2.1459148018422578e+00 -6.6835373670785903e-01 1.4699169561373765e+01 1.8047518041233303e+01 -2.7217829608111970e+00 -9.2630897446643046e-02 -1.7284996099156160e+00 9.9933409162031239e-01 -8.7221506779071944e-01 -1.4577596642328654e+00 -1.1774026134800679e+00 3.1650497546038281e+01 8.3446636343337559e+01 1.9954838336361036e+01 -1.3300863071624356e+00 -1.7774376521002750e+00 3.3103350417442527e+00 1.3316391749037741e+00 -3.3691055531998293e+00 3.2802310210060752e+00 1.6029565376012584e+01 2.5867473416369251e+01 -8.9691444535404798e+00 -1.3848818111320322e+00 -6.3116685654375289e+00 -8.2494165626530034e+00 2.6326616399099692e+00 -2.2133240667638674e+00 3.9284358628330818e-01 1.7563083887701396e+01 8.9154051864747188e+01 1.9717058891335455e+01 -2.1934257747230181e+00 3.6314261198046097e+01 3.3222036984875757e+01 8.6860626954885038e+00 -3.9567273477857814e+00 4.4852112826431867e+00 -7.8142257411437299e+01 -5.6245623055853088e+01 -9.7023588742786160e-02 1.1302722170010586e+00 -1.1383709617370869e+01 1.1594880148668810e+01 1.3314204507439520e-01 1.7163392485264040e-01 1.1210778096817555e+00 7.5387494272996264e+01 -5.0714066059473225e+01 8.2694146118610661e+00 7.9337186670439941e-01 2.6444566417799251e+00 -3.7085581843555815e-01 -1.6085188308343561e+00 7.1951600108620521e+00 1.5122153611203979e+00 5.7150038323466106e+01 8.6394391490734932e+01 5.3242368905956816e+00 -2.5733141458123443e-01 6.7578530983840324e-01 3.3683043108287620e+00 4.5432940185092840e-01 -2.6932239397084023e-01 -4.8758428520609265e-01 -2.7759934756113324e+01 4.6345848629349348e+01 2.2424056382405979e+00 -7.7754001046459920e-01 2.6484019914073542e-01 4.9712428554573762e-01 1.0484277171163683e+00 3.1102231205463038e-01 -6.6588473429166584e-01 -6.9975508667761460e+01 -4.2729149854490061e+01 -1.7238234261822072e-01 7.1889499096657539e-02 -3.7352024956385321e-01 -3.3809858241511392e-01 2.7607284856538428e+00 3.9725958125734460e+00 -1.3765923006789547e+00 3.6758445319923339e+01 -1.3074487032004981e+01 -3.8354904091397657e+00 -8.4926827256855453e-01 -1.3404298343586447e+00 -6.6430606266121686e+00 -1.8211949317964198e+00 -1.3422480428037886e-01 9.4937116869793670e-02 8.8765875316281495e+01 2.7781184329833195e+01 -5.3347545048961820e+00 -2.6291476282811599e-01 -1.1004615421566086e+00 1.0005917562154991e+00 1.8644386953936305e+00 -3.3338599664868482e+00 1.2310161160908533e+00 -3.7859376964499461e+01 4.6465362109643266e+01 1.2246763059531531e+00 -1.4940397842439617e+00 6.2799891425863734e+00 6.6597797531023843e+00 -1.0738515644472937e+00 7.7926131967204793e-01 -2.0319579206507057e+00 -7.2232001941938023e+01 -4.9107997487397370e+01 -4.1790209085911556e+00 1.4308317392740584e+00 -3.4805615078926166e-01 8.7121291557073732e-01 -1.7543084041108159e-01 -1.2406558114342623e+00 -2.5245051998726353e-01 1.6514090959430177e+01 -9.7879348263796828e+00 7.8873553288541416e+00 2.9450764431338041e+00 2.5910166534324162e+01 3.7709047658987458e+01 9.1263721952918786e+00 3.7564234517169002e+00 2.4995574209408575e+00 5.0904935810130155e+01 4.7594628071666833e+01 -8.8971441176446975e-01 1.0553966197838349e-01 -1.0524236649817698e-01 -7.8217906989125152e-01 -1.8797634634097629e-02 -4.4290429992789626e-01 -4.9419525712175982e-01 -6.7412002068948080e+00 5.3469806761324250e+01 
      </Row>
      <Row Index="131">
        1.3189412555408175e-01 3.0786721544736935e+00 5.4689613108719470e-01 -3.0934080514498419e+00 -1.2794868102408032e+02 1.7337160657931747e+00 2.7660563839724261e-01 -6.0703673016820403e-01 -1.4997712855778644e+00 -3.9104995276909849e-01 -9.7528714593168431e-01 -1.2370683443919006e-01 1.8037747530282218e+00 -1.6348574958267126e-01 1.0814800852823225e-01 2.4726725846441440e+00 -5.4372659032435422e-01 1.3208676311990075e+00 9.8240361089001198e+01 3.6969699656292789e+00 -1.5826461486696104e+00 -1.1102531893126284e+00 1.5596162505035345e+00 1.4797383252088991e-01 2.6275285030407597e-01 7.5403536756013523e-02 -6.0110590532576680e-01 -3.6867757815544749e-01 2.5375774031637377e-01 1.2306947883462271e-01 1.2893610753149218e+00 -8.9507444680066328e-02 -2.0651940518540641e+00 8.4539693685606210e-02 6.0704656391615686e-01 3.0385567799343960e-01 9.3428062723859284e-03 4.6560647398422694e-01 -1.1574081234976319e-01 6.1402689667584021e-01 7.6476672580048444e-01 7.3459065398870038e-02 7.1675700799566755e-01 -3.3180052502700619e-01 1.6356964660528206e-01 -3.1273616006840257e+00 5.5735709361362382e+01 -3.2709801455401788e-01 1.2366134103036046e+00 -6.9463788309968777e-01 -6.1140170506482150e-01 1.6072645130682739e-01 -8.8543418813501285e-01 -2.7561065461110701e-02 3.2871220971646835e+00 3.6858522826601625e-02 5.3182415512528047e-01 -2.3174759500156554e+00 5.0061995055376940e-01 5.2822398697304607e+00 -4.5273612713341208e+01 1.0591823301819194e+00 5.4909333349443856e-01 1.7340497780837083e-01 7.9466084707094442e-01 -3.9029587516260400e-02 1.3527996869632197e-01 -3.4558701475404519e-02 -3.1689500876651238e+00 1.6860937798240405e-01 4.7262459680706343e+01 -9.2707762548481867e+00 2.1941833966979796e-01 -1.1177768431025470e+00 3.5378283433601609e-01 -2.1464340301960476e+00 -8.0111911519518286e-01 -1.0274121940936567e+00 6.1948119165209391e+01 -5.6040000933581879e+01 -4.2139823468799023e+00 -9.3784824532684197e-01 -2.1130156990598152e+00 -9.2710195316794852e-01 2.0712150291642217e+00 -7.7698750419438078e-01 -1.2465441700875410e+00 2.0050234248250973e+01 1.0785766734716526e+02 2.1081373195709602e+01 1.0437148412853960e+00 2.2537796359558371e-01 -3.2376577803868045e+00 4.6463019564132022e+00 5.1856069736162036e-01 -4.3805484786953048e+00 7.8300169069881065e+00 -5.9961790874063979e+01 9.3930775152184651e+00 -1.3040372274294501e+00 5.9373485612695731e+00 -2.0249365037495863e+00 3.3305520209754036e-01 -9.4030217248055958e-01 -1.8354209832923072e+01 -1.4477142956228454e+02 -2.5126867688123866e+01 1.6727230232240166e+02 -5.2667984144976998e+00 7.6172021305812336e+01 4.8385149259059546e+01 -5.1089121069888989e+01 -3.0473044755272827e+01 -1.4800553210519588e+01 1.0198027490986419e+01 2.3739713827735187e+01 -1.3121186587131888e+01 1.2035659262055236e+00 -3.5781761509947501e+00 1.3373770140851601e+01 -1.5433832669900660e+00 6.0025616572037332e-01 4.1252014491237325e+00 -1.1515891258802367e+02 -6.8851042989330381e+01 4.7838620074135179e+00 6.0003967722322038e+00 6.5798567877573078e-01 2.3195175819000724e+00 5.5726941525580287e-01 1.5122153602519444e+00 1.0502489066559260e+01 -1.8982972043467998e+02 -8.1496490609755909e+01 -1.3217945716907860e+00 1.2687295193454573e-01 2.9857481984343508e+00 -7.4624796164334839e-01 1.1908623383307462e+00 1.4051348988529775e+00 5.0031395179004168e-01 4.1445887607390205e+01 8.8855113748077201e+00 -3.0677077279615332e+00 -7.7973867618255432e-01 -1.1875432412712144e+00 -6.0704407438847738e+00 -2.2854934665457449e-01 -5.7865637628883304e-02 -1.6288548677558907e+00 3.0846264105683076e+01 -1.9901818416250535e+01 -2.6792978303419659e+00 -1.6214790957641489e-01 7.8657477842853041e-01 -1.0878798041685513e+00 6.8697961857684220e-01 -2.6008399790717363e-01 2.2169680300990855e+00 7.8813890771652950e+01 -1.1153759295203963e+02 -1.3298668572055249e+01 2.9179826649634357e+00 6.3950251330530818e+00 -8.8108459298377966e+00 2.8595118485868483e+00 1.9164039284109435e+00 -7.3067335335944961e-01 -7.7780847473754136e+01 4.7662670676012567e+01 -4.4114758734231145e+00 3.6399721213581149e-01 1.0591743300008147e+00 -1.3391498010764735e+00 -1.8659597849102880e+00 4.0213685513063835e-01 -2.8905530583187304e+00 4.0317806787497830e+00 1.4329092381577738e+01 -7.2923668719899979e+00 1.3185164284382211e+00 -4.3788527816614078e+00 5.5963470744015922e+00 -3.1233748400766430e+00 -3.2984666740186963e-02 1.5973471005492991e+01 1.6971432815317968e+02 -2.7523124243147322e+01 4.9324891846026730e+00 -1.0831625191073186e+00 5.7172759274226337e-01 1.0155887048921386e+00 -3.6491694065557567e-01 -1.0281368078573827e+00 -1.0234454361914516e+00 3.7392867335402116e+01 -2.1812872092934242e+02 1.2166093676821856e+02 -1.6740150532032256e+00 7.2074789190940464e+01 4.9378437852446666e+01 -5.5407132857602150e+01 -2.9083113825620678e+01 6.9815666125990816e-01 -2.3433555420251651e-01 8.8014119426569536e+01 -1.3702998828581081e+00 1.8313026570575630e-01 -2.0752866523640545e-01 8.1164102803142035e-01 -3.3052721422078646e-01 4.0067215485675689e-01 -2.7727981111595454e+00 -1.2920619598148580e+01 9.7027808915004996e+01 
      </Row>
      <Row Index="132">
        -4.3015234423109035e+01 -2.0895637382069935e+01 1.8990892364361116e+00 -2.1048671347666459e+02 2.0387142501463542e+04 1.5359697860566627e+02 -3.1189846904028400e+01 5.1646452677961406e+01 4.8557152971136475e+00 -1.0128802550398426e+01 2.3522470972667861e+01 -2.5762191876100701e+01 -9.2479651456815191e+01 1.0302593597498841e+01 -6.1869165620679723e+01 -4.6088624592086489e+01 -2.0438095415636781e+01 3.6397246456647190e+02 -8.9045709427794536e+03 -5.5687067646611126e+01 3.3318860652497335e+01 7.6241225983460851e+01 -5.9422966669688691e+01 2.7888778070243916e+01 4.7964924266099160e+01 7.6225399131101767e+01 2.3085258933550904e+02 -1.6505714146786708e+01 1.6125106634490066e+01 8.3854322127053820e+00 -5.3427658627726487e+01 8.0919658296890702e+01 7.0088903811658383e+01 8.4971975154040194e+01 4.3243682803487218e+00 3.6888068401480041e+00 6.6666649838589365e-01 -1.1760113518762225e+02 3.3501235253692698e+00 -4.4954000383940439e+01 4.2509354756415632e+01 -3.0300184149978762e+00 -1.2930730358987603e+01 4.7793027956458900e+00 6.5478321098285051e+00 3.7324022665252414e+01 -1.1246661156853104e+04 2.2867988572238619e+02 -3.0664320359051317e+01 2.2298080706453675e+01 4.9466815425237883e+01 -1.9843069660122453e+01 3.4127992457080467e+01 -1.3679369084123508e+01 -2.1879026892369075e+02 -5.3818007768482587e+00 1.4010362785979313e+01 1.4028453655502062e+01 1.5040970481333488e+01 -5.9874667523119570e+01 1.6660318884655630e+04 4.8226842410259742e+01 2.0677942553682676e+01 -2.0787785121350822e+01 6.7492793153660955e+00 4.5956643833958111e+01 2.2469873104670825e+01 5.1892525201022863e+01 1.5898752961622745e+02 -2.1505930427874254e+01 2.7801748227678763e+02 2.3488425041099240e+03 5.2935784644409978e-01 5.5990661978270509e+01 -1.1275968724843187e+02 1.7887032874253555e+02 5.5344157773933716e+01 1.3284717389377064e+02 -3.2154873703486315e+04 4.3860872839620297e+03 1.4538280441233546e+03 2.1774621605224766e+01 -5.8248886096407659e+00 1.6006957339181099e+02 -7.1956039346745456e+01 -2.6479356843023538e+00 -2.1402606992080678e+01 1.6991333342553335e+04 1.9090954992691695e+02 -2.2715429697631153e+03 -4.6013640621495412e+01 -1.0625728739655528e+01 1.3916721276220642e+02 -4.3980190225523927e+02 -1.2412083227776094e+02 2.6328673399008903e+02 1.3204498505425323e+04 -3.6121232535904710e+02 7.3149935236833699e+00 -5.0989651653905469e+01 -1.4575781280601359e+02 1.5320144697082314e+03 -3.0224098241552610e+01 -1.8030923108909490e+03 1.1500663602935492e+03 2.5894876900815318e+04 9.2875932284612354e+03 -8.7044598700214192e+03 7.6442792552100673e+02 -1.3747059423661849e+03 1.7448096015605945e+04 5.3021392529123405e+03 -1.0261444757069680e+03 1.3658192999779701e+03 -6.2214855307453443e+04 3.8673220244099653e+03 -1.0116560671898696e+03 -4.6161514088160186e+02 9.1253407727810554e+01 1.4341662087990571e+03 -1.1483174330688587e+02 -1.5432103250950647e+02 -3.5806780901111608e+02 5.9297053753695567e+04 -4.4766443659752258e+02 -6.1867535867623665e+03 -8.2155342806134513e+01 -7.7872008238904527e+01 -8.6425646308842033e+01 -2.0164013594046082e+01 5.7150038627389208e+01 -1.8982971959246700e+02 1.5934251510581010e+05 -4.2616731871463890e+02 -1.2895117788443681e+03 -1.9745117179599980e+01 -3.0077826152285525e+01 8.8864327381539624e+01 -3.1816599672384818e+01 -7.1845960709896417e+01 -8.4236820749697216e+01 -1.1432750703196332e+04 -2.2330692914952233e+03 1.8524223581681290e+03 -2.8440098791494492e+01 -3.0619144430042070e+01 1.1513509242437904e+03 -4.7174965736908234e+01 2.9825703778011672e+01 -2.1756044875683187e+01 -4.0993679019814910e+04 5.7033546427699184e+02 9.0177728171346826e+02 -3.6999175779658088e+01 -1.2544506525702309e+02 1.3461063061794266e+02 -1.5479032392359215e+02 2.6839126708024372e+02 -1.9505862549651323e+02 -1.5635306573706912e+03 1.4829813851657382e+03 -2.9929946321420721e+02 -4.6688506112569101e+01 -5.2080992276278266e+00 2.4132948303467128e+02 1.5823066841277068e+01 -1.4643228869158747e+01 3.5693095385947800e+01 1.1359937234647438e+05 -6.7973804432363249e+02 1.1297299542030378e+03 2.4757141793731179e+01 1.3084996602505271e+01 -1.4461344673571148e+01 3.1789630002897661e+02 -8.7140643267175335e+01 1.3197531946612926e+02 -5.0475209883652045e+04 3.6724570259143002e+03 -1.6138874389820558e+02 2.6500523302674787e+02 3.4155203716341930e+02 -3.8405456312020488e+02 2.9678043963937580e+02 1.0889400737236900e+02 7.3799598136583882e+01 -7.4219960940567791e+04 1.9739386647574138e+03 -9.4652329509529227e+02 -2.6860054984587123e+00 9.6947562345098049e+01 9.3421131252009218e+01 -3.1220402603419643e+01 9.8255349403684136e+00 1.3072858679174715e+00 1.5728587305987370e+04 1.0768122731536729e+04 -4.8615382935812158e+03 2.3782489435855950e+01 -1.5622436498995812e+03 1.9355360294534690e+04 5.4156763055133679e+03 8.9066473249651358e+02 -7.0794661250367199e+02 1.4500225719264679e+04 -1.0732483979363246e+03 -6.3686675293388362e-01 -7.8806556449926575e+00 -5.1696575356849621e+01 -6.0205353709679187e+01 -3.6815322045350243e+01 -2.5521430397649851e+01 3.0411986772702221e+01 -2.6515219025741717e+03 1.5925395799649118e+03 
      </Row>
      <Row Index="133">
        4.1341514023439764e+01 -8.1468924334893956e+01 3.8789428517950682e+01 7.5917264086715477e+00 1.3961046871804901e+03 3.0307975600806056e+01 5.0738470954041489e+01 1.7026861153212960e+02 -2.7697371803915155e+02 6.8384837075492413e+01 6.9852238799795799e+01 2.3662401855384118e+01 1.6819972245733615e+02 7.2864211876401654e+01 -1.7362008383148719e+01 -6.4238195746573638e+01 -1.0742940298727569e+02 1.3399344172078099e+02 -4.3280853931400325e+03 -5.3192285082764329e+02 -4.2531955870134603e+01 -1.5897961137053054e+00 1.7347463908300273e+02 -4.9228482220330164e+01 -3.9596232715979774e+01 2.1488601128430957e+01 1.1599998194120417e+01 2.1786479313952491e+01 9.0335902091537719e+00 -1.3585744816409374e+01 -1.1798982194883835e+02 1.5426231504768793e+01 9.7570596596343103e+02 -1.1510216174861085e+00 -9.5197589805816136e+00 -2.5087078843751016e+01 -3.3577640649845932e+00 -4.6356255414517634e+01 -8.7751605450334580e-01 -6.9360201348952117e+01 3.8673907351416005e+01 -2.2425608403247770e+00 -1.6426953418334215e+01 -4.7413588261142365e+01 -6.5890632557782482e+01 -2.5263593910541749e+02 -2.4977750419162217e+03 -8.0115623598012988e+01 -3.7053467804283486e+01 4.5945187118437815e+01 7.2624701086782920e+01 1.3049638015087005e+01 5.3201521195820405e+01 -2.4246389514743946e+01 -3.3818216798287176e+02 2.8904890622985569e+01 -6.5739133649691439e+01 1.4105781092995556e+01 -9.8291597093089848e+01 8.7229591398396110e+01 -7.1029153068650339e+02 -2.8871243264283862e+02 -1.8502066669013058e+01 -1.4845269463774957e+02 1.9437096342112659e+02 1.0858054858003726e+01 -5.3853008204639281e+01 -2.3748574474684418e+01 6.7846477276247654e+01 -5.0614996989715166e+01 -1.7048280856071528e+04 -8.0590110462974417e+02 2.2244640952683056e+01 1.3829473460021291e+01 -2.9054308309941052e+02 -6.3644762104282847e+01 -1.0705423921771317e+02 3.0877048783825316e+01 4.5765668256095178e+03 3.1129575102139628e+04 -2.7082292560931683e+02 9.5034321264999040e+00 5.9049131133636820e+01 3.0692991819096278e+00 -1.0912220678014089e+02 1.3424488296318589e+02 1.4997041241204272e+00 -1.7351223577524870e+03 -3.9624034089642646e+02 1.0192469048432481e+03 -8.4030827499452030e+01 5.9031463584951382e+01 -1.7604907229797661e+02 9.9196246275662929e+02 -2.3221449193179672e+02 2.1082135797806055e+02 -7.6557568665247090e+03 -3.8771235087197747e+03 2.0403611839082623e+02 1.7694674676658752e+02 -1.4191557840481755e+02 -1.4209557148613854e+02 -1.0617266187329935e+02 -3.8849522948892729e+02 1.5911492660269460e+03 -2.5967045715092172e+02 1.5806614759771146e+04 -1.8887575910301684e+03 8.4013993056236643e+01 -2.3473569950917954e+03 -1.6681409734312190e+04 -2.4091807440669613e+03 1.1155992786252211e+03 9.8258076323502132e+02 -2.2271414507044465e+03 -1.1861877454384512e+04 1.1108001791486922e+03 -4.9319054863730756e+01 8.0848732726113576e+02 -3.0628894691915407e+03 2.3268259518549218e+02 -4.6473725648871635e+01 -6.5612652118114141e+01 -2.7452462792527149e+02 9.0210732819571767e+03 1.0335272969865182e+03 6.4663528614361212e+01 9.7792545008833258e+01 2.2634279510276718e+02 2.1013744837678956e+02 8.6394391729124024e+01 -8.1496489777291572e+01 -4.2616734875614929e+02 1.4632036943517491e+05 2.9010368096306956e+02 3.2488454935323631e+01 -2.1675586953035099e+02 1.4583761673377785e+02 1.3277991350073455e+02 -2.5670519927802232e+01 -1.0471990227468270e+02 4.4358417158694501e+03 1.7090667398972728e+03 -2.4843694129097912e+02 -1.2512588956026376e+02 3.5553312712055686e+01 4.2765617564813419e+02 -4.1855220983708477e+01 1.1263065360343109e+02 -4.2268200273116086e+01 3.6184159457188798e+01 2.5975132768151784e+03 8.0271124776070792e+01 -2.6651524131670072e+00 -7.0049292592039819e+01 -1.2701371744533571e+02 2.2923103991764083e+02 2.2355031119494808e+02 -6.8781840108700905e+01 -9.7711320981651079e+02 2.5764833354772869e+04 -3.7274439789945427e+02 -2.7025919413974464e+02 -3.0083529398934263e+02 1.1726993242430763e+02 9.6838105704498815e+01 1.1268192227429580e+02 -8.0981472662667230e+01 3.9331276081058604e+03 -7.0012369516550370e+03 -7.1973784700513261e+02 -3.6258167307929966e+01 -6.6563767410538503e+01 -1.5165692905139622e+01 -7.7653826445257152e+01 -2.1240584235588051e+02 1.1146009119663402e+02 4.2463685868307657e+03 8.9703404842003190e+04 3.8012363879210625e+02 1.9974675865833066e+02 8.3188807897635343e+01 -3.1070065151935864e+01 1.3337997620962688e+02 1.0390198587974839e+02 -2.5802172592928787e+02 4.7656085151007719e+03 -1.0708326325446607e+04 -2.3409442956524799e+01 1.3887523715679293e+02 -9.0970219611692755e+00 -4.4969952088984542e+01 -3.2028456086636652e+00 5.1307773850383143e+00 5.0804214344966852e+01 2.0897864887561300e+03 7.2674210360631405e+04 -2.1348735127676382e+03 -2.6721143366217609e+02 -1.5402369465834699e+03 -1.9107963019495975e+04 -2.9083745505804554e+03 1.7970666511279624e+03 -6.4503609643814093e+02 1.8324829981863732e+03 1.0702574065225822e+03 -3.3666018888575351e+01 8.0177177432701569e+01 -2.6230125474274843e+01 -1.2937778858878576e+02 2.1053996443777152e+01 -4.4485595371246710e+01 -3.5765514925790740e+01 1.1505473801921171e+03 -1.5783281168032610e+02 
      </Row>
      <Row Index="134">
        -8.3943706325025147e-01 4.1465781481496151e+00 -6.4511913218444761e-01 -3.8861785070210317e+01 -3.3777618010758124e+02 4.8897078359475756e+00 3.0708253360086246e-01 2.3418193163484489e+00 -1.5236293329625710e+00 3.5327301961240476e+00 -4.4716388586948597e-02 -2.8147643163943030e+00 2.4945362609937547e+00 1.6566358954756186e+00 -2.2331699071339131e+00 8.2343920798246018e-01 1.0268314456006919e+00 -3.3449480374088125e+01 5.9950346950841674e+02 -1.2928120764985636e+00 -1.4573045312940280e-01 2.4077480215495708e+00 -4.4495641334554250e+00 -2.3657402980534812e+00 7.3779233754023310e-01 4.0420460987633078e+00 4.1898102121131160e+00 -4.4125122144770756e+00 -1.1857853933377100e+00 -2.3331687745621821e-01 1.1343512032590581e+00 1.7214720192728237e+00 -8.0707217452689292e+01 9.8911240403627687e-01 -8.2579323114435965e-01 -6.9822867557672907e-01 7.6668419611036143e-01 -2.6313028862067656e+00 1.0693026482023527e-01 -6.4068540198082857e-01 -3.1512096127285076e+00 -2.4959051655574349e-01 1.7599513262118194e-01 -8.5073524007316337e-01 -5.8313942597806090e-01 3.5400574641656931e+01 -4.9243852511649197e+02 -5.7116050662340854e+00 -2.5629520195469979e+00 1.6819899799111226e+00 1.8550253496866702e+00 8.6463697291117825e-01 1.1987037084405365e+00 -2.2100564104898872e+00 -1.8414371019542159e+01 -8.2622954405973736e-01 7.1890655811642845e-01 -5.5357612294067735e+00 2.5445035684320487e+00 -3.3254335016647929e+01 1.7215914477131446e+02 -1.2105041881950491e+01 -1.6370095277384016e+00 -7.0868577763181761e-01 8.0250651576545895e-01 3.0226041934986041e+00 1.5194331020348497e+00 1.1331135473943732e-01 1.0058885559301586e+01 -2.6203682456943334e+00 3.1700229357661192e+02 -6.7508478685494538e+01 9.7435304993821958e+00 -1.3308446106482734e+01 -2.9420009330060566e+00 1.2861168025582288e+01 6.1951082109150093e+00 1.2036089786588025e+00 1.8712842848387663e+02 1.1551273194547321e+01 -5.9222236697843982e+02 -1.8647871066736008e+00 -1.5701127876682222e+01 -5.8318616728756751e+00 -1.0509577196072541e+00 4.4723716609750741e-01 1.0092702708757217e-01 4.1541558429699071e+03 4.4727974114641256e+02 6.8785476838914019e+02 1.1734428532384309e+00 -1.1265384686292464e+01 1.3200741282159385e+01 3.7530885309423738e+01 -4.0888179862989693e+00 1.3603779448751294e+00 -2.7607878642513106e+02 -3.1315195530322569e+02 1.3702325883884805e+02 -2.5656073573775245e+01 2.6531557309789036e+01 6.8881457944875137e+01 4.2587474284993334e+01 -3.5881235271602163e+00 8.6310804629076898e+01 -1.5811119459692745e+03 1.4417472289419578e+02 6.5989794193440082e+02 -1.5214894939138313e+02 9.2701797732955583e+02 -1.0440009843282063e+01 1.3689685753329587e+02 1.5847550918510012e+02 -4.6963741266297319e+01 -3.3003808579220936e+02 -7.3464822743141099e+01 1.0119896907163638e+02 -1.0709751140872498e+01 -1.0691539561421087e+02 9.5623772036652639e+01 1.3244752811386178e+00 -8.6024669841196975e+00 -1.0649434856841784e+01 -7.6260838106756273e+02 -2.1028044879649678e+02 1.1798570612881667e+02 -5.3251910709058929e+00 1.2042236106452037e+01 -2.2915198668531730e+01 -4.9426237364191365e+00 5.3242368922031993e+00 -1.3217945406396590e+00 -1.2895117796923514e+03 2.9010368403716075e+02 4.5527363509730890e+02 -2.9258265829906223e+00 4.7155994810980246e+00 -4.6114792057560408e+00 -2.0007066600472712e+00 -4.2384602213302740e+00 -3.0829101596407162e+00 -1.6376324606013804e+03 1.0653044586608303e+02 -1.0955148287934207e+02 -1.1183702720093145e+00 3.2801074828184937e+00 -2.3852987731621397e+01 -2.3796694498034867e+00 8.6410528888277316e-01 -7.4676464702278622e-02 9.4503426578274230e+02 -3.5053601397258353e+02 2.4978135209184256e+02 -4.1352641858634076e-01 -1.0894008703577128e+01 -6.3847621465214615e+01 -8.9751085235269130e+00 9.8253285884160420e+00 -2.9951101917688341e+00 -1.9124876187577320e+03 3.8738368256843387e+01 -3.9165501228755238e+02 -2.9045477231209462e+00 -4.9487892995453421e+01 1.5887434972057235e+01 -3.4525960088078023e+00 1.9331277420828030e+00 1.1266755704736511e+00 2.6506142933656306e+03 1.7463440295310284e+02 -2.2651549259415879e+02 4.8407373564796519e-01 3.0547547994774504e+00 2.8251488849263296e+01 6.4336225595152428e+00 -9.2107237474685881e+00 3.4793596273098850e+00 1.9618387700403255e+03 1.3433424883669795e+02 1.9990560896175248e+02 1.1330473656752750e+01 1.2315468759139549e+01 1.1140576301748979e+01 5.8611283066378519e+00 -2.5052665459838579e+00 -1.7146646169331092e+01 6.1770657998340380e+02 -3.4624604519444983e+02 1.5547919710449059e+02 5.5655192354574865e+00 -4.4290844173760888e+00 7.2656512377443505e+00 -1.9183426943009181e+00 -5.1416101855957095e+00 2.4431102931180249e-01 -5.4467364068198367e+02 -5.4525234494562028e+01 -4.1222494928693067e+01 -1.4617412278787367e+02 7.5188608507694516e+02 -6.5161870126974691e+01 5.0976543583060149e+01 1.6647370188790120e+02 -1.3066180126883182e+02 -1.5451100775063060e+02 2.5528092579256855e+02 -2.4594754652521452e+01 1.9673747081949386e+00 5.3971029621961586e+00 1.1929637842785601e+01 1.3018440537671889e+00 2.5043916154601220e-01 -1.6417866672427408e+00 -1.9192435714364734e+02 4.1291642541484299e+02 
      </Row>
      <Row Index="135">
        1.0052219110896665e+00 -1.0006444656682314e+00 5.2448181989964127e-01 -1.9493271666577812e+00 -4.5681441076144296e+01 5.8770437046291812e-02 3.0741936689628302e-01 -1.8452726397680657e+00 -4.3745018174952399e-01 -9.2427033781716822e-02 -3.2885419914341957e-01 1.5050153608206474e-01 8.3452879168504346e-01 -2.3633356943046763e-01 1.0660665222421883e+00 -1.6417629391951793e-01 -5.3192373636593260e-01 -5.1158643068309573e-01 5.3553453230530188e+01 -1.0068311312055793e+00 1.8202613334549578e-01 -1.1059288367061122e+00 1.1403801386297066e+00 2.6542934220704328e-01 -7.0116500480599520e-01 2.0626550438344982e-01 -1.9595341638652144e+00 1.0401389598195512e+00 8.7432932591235080e-02 3.0662562651952641e-01 6.2058120651471871e-01 3.3827520905207820e-01 -6.0874075552972897e+00 -1.6491584657313019e-01 1.7920281742462896e-01 5.6554446798993574e-01 -1.1931830246283770e-01 3.4765306514509264e-03 -5.4337723111016034e-02 1.2151804579773051e-02 2.6389002036145470e-01 3.5075954081527833e-02 -1.9492058788534106e-02 -3.8566730960920204e-01 5.1056168857319228e-02 4.7264309017799988e+00 -1.3676226155075778e+01 4.1594335411187888e-01 1.1766907029042883e-01 -1.2741042788739865e+00 5.5345786089660898e-01 1.4485798626840424e-01 -5.6351761046987403e-01 -8.4871912848288322e-03 4.8498889946985457e-01 2.7982454515339039e-02 -7.2286800617276759e-01 8.3744148928649631e-01 -5.5259326568928646e-01 -1.3647388457554115e+00 -1.9199365383146130e+01 5.4340565966185694e-02 -2.2109058068403131e-01 7.2359758255377560e-01 7.5926427045327305e-01 -2.0261222159200773e-02 -7.7270269512240586e-01 -9.4970193271108005e-02 -1.8133314219070717e+00 4.1139383021550824e-01 -2.6842498741095525e+01 -4.1301315504666594e+00 -2.6097630053668883e+00 2.0672178841492439e-01 1.1164574130809797e+00 -1.4559087892257310e+00 -1.9856391657582699e+00 -1.6029661838050480e+00 -1.0170004896444112e+01 -1.1254877096398037e+01 3.2573115979539011e+00 7.0415644669180555e-01 1.8481626744090889e+00 8.0059266101088156e-01 -3.8043929823614864e-01 -1.0544194894809511e-01 -8.4316979705788819e-01 -4.1817486945872133e+00 -3.9715705377370455e+01 9.6489573482019608e+00 3.3200081550313065e-01 -1.6504919250361549e-01 -2.7643997078588995e+00 -4.2837366145927742e+00 8.1339493514227756e-01 -2.7048285210441345e+00 -1.2425252424157122e+01 3.3900238109477229e+01 2.3785448986326969e+00 -4.6221470698889346e+00 -8.9517477012415743e+00 1.3104320306873385e+00 3.6403441809752746e+00 8.2975147412321206e+00 -9.7907483778859206e+00 7.3181783484687912e+00 5.8661100568341112e+01 -9.7453767690073825e+00 -1.1640011873797146e+01 -6.6981730669663960e+01 -1.5732643027415710e+01 -1.2036394288666323e+00 -8.5731860135554765e+00 -1.4773977589377720e+01 -2.2587511628606052e+00 1.4259030552871247e+01 1.0348188338505764e+01 1.1672139229904888e-01 -1.8291951467293188e-01 -7.0652047971834775e-01 -7.1117421993127339e-01 1.9669691559457636e-01 3.9288860624195898e-03 -8.8777654466783815e+00 3.0131249051359532e+00 -2.9909431557237554e+00 4.0760856789328059e-02 -1.9140886246708533e-01 8.6541672817239235e-01 7.5884532411597050e-01 -2.5733141684086247e-01 1.2687294380711134e-01 -1.9745116948788109e+01 3.2488454993028135e+01 -2.9258265931300969e+00 2.2166005432308737e+00 1.9095573056779998e+00 3.8318289497019009e-01 5.2986272804536005e-01 3.0277364996438201e+00 1.5521860291833343e+00 -2.5698460942853217e+01 -9.9041466013393915e+00 -1.2317284711031675e+00 -1.6807162959623823e-01 -2.1302163796642049e+00 -4.2651545251874268e+00 1.8121328034352757e-01 -4.2046062042983656e-01 1.1838199174494557e-01 -7.4783540009228773e+00 1.1844267197963660e+01 -4.5910852057069178e+00 2.3491057935167420e-01 4.3514291313158537e-01 2.8380624226807072e-01 -6.1313642380478850e-01 4.0654547802376162e-01 -5.6897526743607718e-01 2.2455548344916906e+01 -1.1477863153119756e+01 -2.3300960227861083e+00 1.7839378359724984e+00 1.3087608115085352e+01 5.8377489786298327e+00 5.7099496891634161e-01 3.6027485497375289e-01 -8.3746475732876391e-01 -3.7683467801458619e+01 -2.9642790399724959e+00 4.1962109532446306e+00 -1.8721966353002695e-01 -2.8208042478664197e-01 -3.3424782268666320e-01 3.6432301453604587e-01 -1.2135957218633497e-01 4.1342054500480258e-01 -9.3920861581500503e+00 5.3246166554847036e+01 -5.1902621183404705e+00 -9.8669632798215512e-01 -2.6427719679180655e+00 3.6296170663209715e-01 -1.8795880947508081e-01 -1.1850330230643411e+00 1.4820809474488073e-01 -1.4679302894171698e+01 5.0625580625786370e+01 1.1118162672963194e+00 -9.8743791919565327e-01 -1.0529694666133835e+00 -2.6498293489790647e+00 4.4943770303311936e-01 1.4280055628561357e+00 -1.9937746200977546e-01 9.4905308249180962e+00 1.0539131418669996e+01 -1.4823920692060945e+01 -7.2481811231535982e+00 -5.0134187709850494e+01 -1.8827847090342289e+01 -1.8783063843105907e+00 -1.6147670075455455e+01 -2.5706746567022352e+00 2.0506727370147928e+00 -1.0900439252092074e+01 -3.2898235022283417e-01 -5.9390707037275448e-01 -4.9005175162562664e-01 -6.2177742338172770e-01 5.0726353587116302e-02 -7.4228562085975258e-01 4.8933915837122299e-01 -5.9373046371083271e+00 -4.8996915312870710e+00 
      </Row>
      <Row Index="136">
        -3.1348305981731994e-02 2.6021767101596716e-01 1.2207724381918172e-01 3.6215300083875945e-01 5.2027532303052219e+01 4.4408123831627577e+00 -5.1374407574765080e-02 -3.1126871021972042e+00 2.0973830101498958e-01 -2.7362013239837468e+00 -9.9128508178600716e-01 7.8195477878238151e-01 -2.1659788883657836e+00 -7.0725451860931987e-01 2.5800387626701315e-01 1.8951507852319862e+00 -2.8733338580887846e-01 6.8290514471878083e+00 6.6828438418032817e+01 -7.0788089266003151e+00 -2.0245290579796893e-01 -2.6535618302659927e+00 8.2484305700425586e-01 2.8881055459334233e+00 -1.9232688377074278e+00 1.4859835766036245e-01 -2.6141628615013346e+00 2.2189236335913374e+00 1.8467921377715157e-01 3.3542515161120594e+00 4.6061115361636684e-01 -2.2757665919974315e+00 -3.5076512315532341e+01 8.7787993226560612e-02 6.6917862232842706e-01 2.3877622478200391e+00 -2.0681154924182721e-01 2.5612559331747189e+00 -2.3749864086813388e-01 3.4700658406731583e-01 1.5586926707996156e+00 1.0177759656399432e-01 -7.5083154128744334e-01 -1.8122472826488085e+00 3.7977251510529886e-01 2.0326765617655553e+00 -8.0708006545343039e+01 1.0824981543593841e+00 1.7026799149349969e-01 -4.2277713646736768e+00 -3.2189445212335444e-01 2.9814799128423297e-01 -1.3038997562314489e+00 8.3847911722771262e-01 -4.4651338616152287e+00 1.5450140412798663e-01 -2.7354371956185175e-01 6.1367846228765899e-02 8.4810011533556828e-01 1.3956740156581802e+00 6.1706733830245810e+01 -2.5516536524212183e+00 2.5701693650689661e-01 1.1719282754117546e+00 -5.3168310462223811e-02 -1.3132546549998492e-01 -3.9549423561750019e-01 2.6078217288885730e-01 7.0467121989582804e-01 1.2681478321527095e+00 -2.7740470653806284e+01 4.2028294555408525e+00 -2.3001456039221821e+00 -8.5101644438640847e+00 -1.3335927468708917e+00 3.6824658944672404e+00 -1.0302914632893625e+00 -3.2061297831068800e+00 8.5149184431691197e+01 -1.3148869499531051e+02 -2.2123176534403910e+01 -1.8085213060842988e+00 1.0235898229877193e+01 -2.2837318202968504e+00 4.6402744575346890e+00 -6.1046754883682155e+00 -4.1501100421587998e+00 -4.7861440550975431e+01 -1.5948682291652005e+01 -1.3825465094949578e+01 -1.1736014192255158e+00 -1.4166850458933533e-01 -3.0739609331338165e+00 5.2919006366750549e+00 -7.4570623153720828e-01 2.1629524256072141e-01 -3.9806212617519122e+01 -1.9143170890641812e+01 2.7867553173393361e+01 -3.3228616282313559e+00 1.6384024581353344e+01 2.8584673699711882e+01 -1.0895475762333986e+01 -6.8582340727827757e+00 -1.4507970572639747e+01 4.8130884622826329e+01 3.9875839883563273e+01 -1.6340630355698977e+01 5.5240346025441438e+00 4.5958513913135886e+02 -8.2449562470905875e+01 3.3871815762262187e+00 -3.4618800260874210e+00 -1.4069352882960111e+01 6.2326793313436440e+01 6.8197281842424886e+01 1.1964353142798927e+01 -5.7746901672924249e+00 -1.0083063727093497e+02 6.2896116762709866e+01 -1.1651364283502478e+01 -7.9943977645279352e-01 -2.8459613428057358e+00 -1.3966242045279023e+02 -3.2900211742072202e+01 -1.0194555217187997e+01 2.7921332308218871e+00 3.4980253897666103e+00 6.9205461307139693e-01 -2.2110876172586558e-01 6.7578530121613256e-01 2.9857481897916096e+00 -3.0077826645487562e+01 -2.1675586925527216e+02 4.7155995318275608e+00 1.9095573116501001e+00 6.1271059091961760e+01 6.3099826974871860e+00 -2.8019674399395167e+00 5.9534922292528778e+00 4.6058359645926608e+00 9.3583355814027072e+01 -1.2522099587083744e+01 2.7902628417614892e+00 5.3779007624419739e-01 8.2854941695879631e+00 4.1612110926948134e+00 1.0022543964060553e+00 -1.1233038355466942e+00 4.2906082979148485e-01 4.2265821915336119e+01 -2.5574931348290505e+01 4.8966634909027107e+00 -9.6999414960694796e-01 -3.7980173870665510e+00 7.2098386760143285e-01 -3.1887703727044547e+00 -5.0405642089356624e+00 1.7600844015876755e+00 8.0041153306696970e+01 -1.6411363456457821e+02 -2.9064454028085379e+01 3.6118937381750356e+00 1.0807693456628840e+02 9.3129879736924579e+00 6.4724584370973410e+00 2.0135420025477910e+00 1.1458181694769913e+00 8.7132282686168878e+00 2.5281470022355961e+01 -7.3676568819478234e+00 4.8691357680103742e-01 8.4699662694801106e+00 1.4437503706520971e+00 1.0411972513416279e+00 2.9001278864162328e+00 -1.3428336121921955e+00 -1.4513942723062200e+02 -2.0634999568322348e+02 -4.1651972774084669e+00 3.4927692122057863e+00 6.1821933922589096e+00 -3.9124566168567618e+00 1.3320805977249645e+01 -3.1879608267461483e+00 -1.9859621664971137e+00 1.0048123924567479e+02 8.5230007181022302e+01 7.7762161098655724e+00 -2.4954656407336486e+00 -1.4849457198734228e+00 -5.5170839191241363e+00 6.9776221003365890e-01 2.4091677999218781e+00 -3.8582265661732507e-01 -4.0045263624584095e+01 -7.6863233147420296e+00 -1.1546660438935305e+01 7.9421545946239513e-01 3.7694578397877660e+02 -3.7899305961271523e+01 -1.3933476067790032e+01 1.6351320921150858e+00 -1.7103991119871482e+00 -2.2538896409305380e+00 -1.0813938986474607e+00 -4.2498470273413524e-01 -1.0996812988146090e+00 2.5580941568805913e+00 1.5638988336275803e+00 -2.1957416331967705e-01 -8.4990435148196752e-01 1.0160610282031968e-01 4.3684134639077730e+00 -6.1061151856439766e+00 
      </Row>
      <Row Index="137">
        -5.7966829314487445e-01 -3.0785428792413043e+00 -9.5565614925324383e-01 -1.0878997848262316e+01 1.7617596229284686e+02 -2.2771859440221505e+00 1.4301541617478115e+00 -2.4680566856160837e+00 -7.1592502972953795e+00 -2.2749550303052546e-01 4.3744836122963981e-02 5.1404631910515519e-01 1.3170109740962630e+00 7.4920882833546165e-01 1.5102079407305951e+00 -4.7606327610433254e+00 -1.5772773284948016e-01 3.6951049809522374e+00 1.3399665900737273e+02 5.5463356340368932e+00 1.5292504295302862e+00 9.3800587526271517e-03 1.0125375586026003e+01 2.6274564715347850e+00 -9.5324180558159832e-02 7.3999776396598804e-01 1.0517281976697518e+01 -3.5497060395910829e-01 -4.8839860534958035e-01 2.7640274434553760e+00 -1.8102727582127400e+00 -1.3768046887211085e+00 -7.6011238074939911e+00 -4.6569654042187381e-01 -8.8577584790882469e-01 4.9292683785322566e-01 9.1749201251275281e-02 -1.2597771896153716e+00 8.5675905848940914e-03 -9.9405866193884362e-01 -1.3001705285199421e+00 1.6349413729761508e-02 1.8636067404061052e-01 -3.9673674077126577e+00 -4.1290691564556425e-01 2.4782746644308418e+00 1.6205037489304914e+01 -1.7542355613389518e+00 -1.7982962422054527e-01 -1.7371975007420417e+00 2.6892093974893925e+00 -2.6633875093463777e-01 3.6848613637868732e-01 4.0145041370739198e-01 -1.2959077367180498e+00 -2.0159888712545060e-01 5.9609435858644122e-01 -1.7419427919442398e+00 7.0103861431118730e-01 8.0534890318253360e+00 3.2090248827065170e+02 3.6757034849000734e+00 -5.1253864475821587e-01 6.5774218021242614e-01 7.6771400154275673e+00 6.2326180262979636e-01 1.2222202303588316e+00 7.9430839313411994e-01 2.5457030201852433e+00 -5.9169564950979936e-01 -3.8388857227446124e+01 8.9369931096419890e+00 1.7297538843038782e+00 -9.1593729169514972e+00 4.5690407275533289e+00 2.1059821024325345e+00 -2.6403777137629918e+00 6.7156228699837062e-01 1.2883098815130279e+02 1.6065042822220121e+01 1.6754731865379654e+01 3.1808822714052143e-01 1.4568331422166466e+01 5.0522482597612907e+01 -5.7907481372185998e-01 -2.6796968494026956e+00 8.5565214172508419e-01 -3.6587477305221910e+01 1.1013939273927781e+02 -2.2353654790290193e+01 -2.1783245252940642e+00 -7.1891068861924126e+00 -1.7898511935571758e+01 -3.8337940831806137e+01 -4.5360843055118831e+00 5.7388172668725650e+00 8.1715581309932929e+01 -3.4696359727956496e+02 -5.9205841912348205e+01 -8.0770845698825404e+00 -4.6006333587381505e+01 -6.6478905807737277e+01 1.4176622307760418e+01 1.0117307303764957e+01 7.7823741182074437e+00 1.9470812539819190e+02 -7.6803413949231867e+01 -1.2607814728288162e+01 -4.1312500888458814e+01 -7.8153767087711913e+01 -4.5009989733094363e+02 1.6697297178109118e+01 -1.5968673218568057e+01 -2.2259849552870193e+01 5.9561078119869933e+01 -6.6830213560622653e+01 1.8498033998850588e+01 5.5630228900112204e+00 -4.4228712034854652e+01 1.3076363939581671e+02 1.0352713590809767e+01 1.3395017180415549e+00 5.8337698034981580e+00 2.4521163194884139e+01 -2.6121545575243545e+01 2.6449938091022887e+01 -3.1056419479874435e+00 1.2195839970083398e+01 -6.5700900839483083e+00 -1.1716834336542092e+00 3.3683043140002402e+00 -7.4624795681681588e-01 8.8864326627362971e+01 1.4583761671892816e+02 -4.6114792116658236e+00 3.8318290020029977e-01 6.3099826822486875e+00 1.0568582936208486e+02 1.5045567827487671e-02 4.0408459925799667e+00 2.6705343537144808e+00 -9.5697929647280034e+01 4.9174213393644550e+01 -4.2840172692272063e+00 -3.4548959456072210e+00 -2.9257018619302926e+00 8.4165603534282809e+00 3.2643266188745201e-01 2.2981471327935830e+00 -1.5873503072804827e+00 -7.3760565112199401e+01 -1.2043098046765408e+00 -6.6131524731763420e+00 3.8640493065984582e-01 -9.5943917008075914e+00 5.1541003771428677e+00 1.2605410673139203e+00 3.5181483315477040e+00 3.0192335803302344e+00 6.5351535783895088e+01 -4.1004259780975190e+01 2.9939759287013203e+01 -3.3032459146704198e+00 3.9244875498881072e+01 2.6211595151417532e+02 1.9857725260256416e+00 -1.1524725458606433e+00 -9.4984812640689142e-02 2.3476201968408395e+02 -6.8253920702400137e+00 -5.0362767487056317e+00 -1.1208120835109097e+00 -3.2683642149364687e+00 9.5846490420931332e+00 3.5829198843738581e+00 -2.3624345389625869e+00 -3.4384930652644456e+00 1.0209306575419760e+01 -3.7410926398213178e+01 2.8901344003795202e+01 2.4260998785925985e+00 1.6263133577570898e+01 -1.1514979504260964e+01 4.0588476154946775e+00 1.5357875866952995e+00 3.8105041288663992e+00 -2.6433148940822042e+02 -1.1216355898673646e+02 -3.2731059396644923e+01 1.3599942048742371e+00 8.0064109096178981e-01 -2.4212849945524795e+00 -2.1360491824782457e-01 -1.5973406407424573e+00 5.9656745109860765e-01 4.1273472368106013e+01 3.2044969237784176e+02 6.9197739614191605e+01 -2.8879681893988533e+01 -6.1709639087931464e+01 -1.1863552831037447e+02 5.0494404030013648e+01 -1.6640035768704546e+01 -3.4056611065636567e+01 4.5037646865630450e+00 5.9004255924310712e+01 -7.5430247260199179e-01 4.4274874296519329e-02 -2.0032924661285620e+00 -5.0275199402339865e+00 1.9521752630013034e-01 -3.0988240342547613e-01 -1.6275631852814740e+00 -6.8216113433739221e+00 6.6133859228566465e+01 
      </Row>
      <Row Index="138">
        1.1063725606096142e+00 1.1397501152198544e+00 2.7049641692790516e-01 4.7595216546051233e-01 -1.7429842515074142e+01 3.5298467819562873e-01 2.1565560026716213e-01 -4.5290584797706401e-01 -1.8717334167159549e+00 -2.1887261686575243e-01 -5.7114964591362316e-01 5.4308321636813872e-01 3.1569508972721394e+00 -2.6614484969900204e-01 7.3341944555592420e-01 1.0676267406543332e+00 -4.0983836591760792e-01 5.3240310208584560e+00 3.0528299098119533e+01 -7.4671743841086169e-01 -4.4143776375516808e-01 -2.1475342398244623e-01 2.3519060771981515e-04 -4.7288253612592257e-02 -8.9526405814373711e-01 -8.4726473444064965e-01 -1.2822617054689545e+00 1.1903514657388445e+00 1.9366002222492540e-01 -9.7982638870706751e-01 5.5027905512371689e-01 8.8272426987566632e-01 2.0999319565995506e+01 9.2699009927297737e-02 4.0799812546490699e-01 -2.8980036605367587e-01 1.6055637694896063e-01 9.6398725230215199e-01 -7.3987280150475954e-03 4.7223747800530269e-01 5.7087963924686846e-02 2.0329242253927848e-02 -2.0381253792454146e-02 -1.5775089476193216e-02 -3.8583410071464641e-01 -5.8824424561985325e+00 -3.1398822902335354e+01 6.6199534734006704e-01 -9.8312179296797808e-03 -4.3315303201609368e-02 -1.5641961213847289e-01 -4.1238738238840655e-01 -6.3030447954898494e-01 1.1771254290709265e-01 1.5662402932669011e+00 3.3775417942350838e-02 -7.4311105272056388e-01 -9.5471660409260295e-01 -9.8206648417711051e-01 9.1973512977525047e+00 -2.3144662523312036e+01 4.4201722342288641e-01 -2.2173797438631435e-01 6.5571406486171213e-02 5.3012270501239733e-01 -1.0839706672775544e+00 -4.5227713694634336e-01 -7.1846366269883433e-01 -4.3120649100204957e+00 5.0175760438489458e-01 3.3331027230618929e+01 -1.8124924102562730e+01 -1.3870462124929968e+00 -1.4634420545323792e+00 7.3351734814423253e-02 -1.6135826750244476e+01 -1.6009868267597436e+00 -1.4321123774455544e+00 2.4739742150299526e+02 -3.3482643914186148e+01 -1.2461443015984287e+01 7.8440136993492215e-01 -1.8228581520395437e-01 -2.3038285544807877e+00 -1.0689600299999739e+01 1.1723824509526906e+00 5.1963469673138363e-02 -1.2596962618871112e+02 -1.8766019337487705e+01 8.3052106778639200e+01 5.8392086134612853e-01 -4.6956834739146558e-01 -1.5893942766034321e+00 1.7241669257569303e+00 2.1786891676207603e+00 -3.1762666144336644e+00 -2.9742793329765277e+01 -6.1366238636640503e+01 1.2379513146110867e+01 -2.3876563312946786e+00 5.4060511455973597e+00 1.0616586439515629e+01 1.9691681821897774e+01 8.1341097250753727e+00 -7.9324734012470559e+00 2.0955671286897268e+02 3.5730475542885642e-01 3.9112560737807975e+01 8.0312806368714682e+00 8.7261967492641901e+01 -4.7629258213742737e+01 9.6899713689233025e+01 2.7960065124985711e+01 3.6969304637681502e+00 1.3109600476407559e+02 -4.5423428366656040e+01 1.4227246036951328e+01 3.3799599563402705e-01 -8.1749744599119367e+00 6.3532200792924733e+00 -1.2751253053345302e-01 1.8862007051573104e-01 7.3286380788917016e-01 8.3168934292976701e+01 -1.0571520252152368e+01 -2.9649457048344630e+00 1.4865003044929472e+00 3.0210653468657256e+00 1.6139074111774718e+00 -1.6513286867080978e-01 4.5432939745225354e-01 1.1908623319587750e+00 -3.1816599296489585e+01 1.3277991357058576e+02 -2.0007066275302918e+00 5.2986272811061930e-01 -2.8019674441431448e+00 1.5045571714381367e-02 1.3085413227072447e+01 5.6486642077584603e-01 -3.9622972588216565e-02 5.8558694411587567e+01 3.9846691142352029e+01 -2.8763318877377060e+00 -1.1041668485630076e+00 -1.3217895462337310e+00 9.2352402689687096e-01 1.0485121084705611e+00 -9.9674963110337711e-01 -5.8814062867250172e-01 -2.9875838283347548e+01 -6.2183697840541527e+01 2.3280435207125265e+00 -7.8455177711463553e-01 1.2170487813755244e+00 1.9036001072786348e+00 -2.7589251961542143e+00 -3.8156739097718623e-01 4.7199966856558184e-01 -9.0618443390558241e+01 1.9858840220696948e+01 -3.5373326288432054e+01 1.9757247355318039e+00 1.6407222694897996e+00 -8.7441908069827150e+00 -7.0448391445458896e+00 -6.2186034013388536e-01 -1.5885698177105709e+00 9.5669680562721268e+01 2.0055306065642981e+01 3.6404334378678413e+00 6.9581789155910445e-01 -7.1207844110665519e-01 -5.5213562022549922e-01 1.8232434458800384e-01 3.9499120115740421e-01 7.5053896036591433e-02 1.5224836160963605e+02 2.3910504817943456e+02 -1.5791159262656493e+01 2.4308783289497340e-01 -1.5372954724862211e+00 8.3360501598565406e-01 -8.0309391128396186e+00 -5.2947518603791988e-02 1.9856007883846503e+00 3.7891600010894052e+01 3.3527692809198925e+01 1.9076599242544034e-01 -1.1052451792258751e+00 -5.4578923784617928e-01 -1.0573953400687515e+00 1.3749637330512314e+00 1.7607563978684944e+00 -1.7284906739332939e-01 1.7478084082002169e+01 -8.1153597993890344e+01 -4.7183819155552158e+01 9.1417517171673399e+00 7.8382974088565788e+01 -5.5042721716992311e+01 7.3818675734448576e+01 1.7692518907692225e+01 1.3913849594908951e+01 -4.0532177307582970e+01 -2.1332141031058789e+01 2.8999355945801559e+00 2.1964515722598321e-01 -9.3053858101056997e-01 -7.5457374825666079e-01 6.6073104098641022e-01 -5.1266543534875453e-01 2.7595643284053040e-01 5.1382465658719518e+01 -6.9973657016353002e+01 
      </Row>
      <Row Index="139">
        1.5514491385663061e+00 -1.6868080017354758e+00 3.9482989117329159e-01 2.4760695477400496e+00 -7.8498162775312522e+01 1.7730864673119431e-01 9.2897730812301971e-01 -5.5638532988136102e+00 -3.2178928606717214e+00 -3.2667757798930969e-01 -9.2763994400523520e-01 7.6934942655123761e-01 8.3551996760890024e-01 -6.0797207555060996e-02 3.3915041436538536e+00 -1.0448190554267445e+00 -1.4595631674901752e+00 -1.8583501729314431e+00 6.2767713371794443e+01 -1.2865378643039347e+00 -2.3040047661946705e-01 -4.1708948296758281e+00 3.9133171959632418e+00 4.1081590342849433e-01 -8.3613595493624171e-01 -8.1847012800610824e-02 -4.0743125624703005e+00 6.1279550240274738e-01 3.7428613728839377e-02 1.3529078292411052e+00 8.1303861659276344e-01 -1.6418341508387879e-01 -8.8889300115370968e+00 -5.3882637991655236e-01 -2.5040784980473546e-02 1.5353155341740214e+00 -2.8062425028017707e-01 8.1236387256739750e-01 -8.2781329645992330e-02 -2.7026065240977969e-02 2.8992432070802487e-01 6.9765620690941416e-02 1.7230155113019113e-01 -1.3853852307570338e+00 -3.5750183893551130e-01 3.4057987270650134e+00 7.8427201372465740e+00 -2.8033574854774890e-01 4.6058920715619850e-01 -3.9370998306120795e+00 2.3356492560695419e-01 2.9056858374126410e-01 -9.4302485173224948e-01 3.0327145774265057e-01 -1.0241886005506533e+00 -6.0522236377804670e-02 -3.7233567874958889e-01 1.0602649047233603e+00 -4.9187222178300610e-01 -1.7098653526923799e+00 -1.2097647024015391e+01 -2.3222320140613761e-01 -4.5012963308907145e-01 2.4532812149968013e+00 2.2622546452245946e+00 -8.3333014599335076e-01 -3.6603069556089324e-01 -5.8260499097435003e-01 -1.8363764298756664e+00 1.5245432316940533e-01 -4.4904661959309365e+01 -3.5864528220346390e+00 -2.3795649604276119e+00 -1.4073685639725007e+00 4.5522192920339721e+00 -7.1947765733499369e-02 -5.5130353302208475e+00 -2.9797044361702785e+00 -4.1508197860159939e+00 -7.8878011129324705e+01 5.2283171991774200e+00 2.0701389218560318e-01 2.1899861861179177e+00 4.4653001125550702e+00 8.8517401754226399e-02 -1.9411143079546100e-01 -1.4706478983693674e+00 -2.2100737857894813e+01 -3.5809633389571488e+01 -1.0242662563264354e+01 2.7875466611414768e-02 -1.2356833934527747e+00 -4.5843104516117270e+00 -6.8264251432871736e+00 6.7324715976184735e-01 -2.6720768600232314e+00 -2.2752981402122145e+01 4.8985312500973436e+01 7.1915987586052363e+00 -1.6524396027440580e+00 2.4656409582462500e+00 -1.3437657774679019e+00 -3.8265536534161987e-01 9.0016243168820704e+00 -1.2454472238950979e+01 1.0488801984779531e+01 3.0863289814400417e+01 2.9974273809115743e+01 -2.0259914397924263e+01 -4.9237812703877808e+01 -7.8767901634945062e+01 2.5324787499283428e+00 -1.1301777519342380e+01 -2.4676219220226603e+01 -4.1681083057024182e+00 4.2898224926921067e+01 1.1217001130596364e+01 7.1223450450790327e-01 -1.0584223371040180e+01 5.9127351318629717e+00 9.8590661011278291e-01 -4.7531036877761162e-01 3.8625166969801628e-01 -5.1958609083149724e+01 -2.7531209090081404e+01 1.6040272302980760e+00 1.2072491063457007e+00 5.4344004200454421e-01 3.1997759273136008e+00 -8.0390926074337421e-01 -2.6932239540604075e-01 1.4051348946191635e+00 -7.1845960702996933e+01 -2.5670519822413954e+01 -4.2384602137328766e+00 3.0277365022926084e+00 5.9534922179870229e+00 4.0408459941026837e+00 5.6486641706424390e-01 9.4499733974774749e+00 5.0283839254112728e+00 -4.2602854165183984e+01 -2.0966630512417343e+01 -1.6077275620628377e+00 -1.1491164365825532e+00 -8.5500609154083413e+00 -7.4913790173322532e+00 3.7383941088806028e-01 3.0653676088299658e-01 -6.9831960300280382e-02 -1.8448203455017726e+01 -2.2911821110053374e+01 -6.9182630152302451e+00 2.7457015063024659e-01 1.0909588448280374e+00 2.4077657488545121e+00 -2.9209073395930893e+00 2.2921575799932492e-01 -1.2612858317404152e-01 7.0449164658592878e+01 -1.1592452920492600e+02 -6.9278084757905489e-01 2.3245770251222191e+00 2.9481745496110225e+01 3.4612430062027698e+01 3.1159809573836643e+00 3.4809255889287964e+00 2.6904876608162098e-02 -4.8414155916104740e+01 1.4512701661935417e+01 8.5488538617631171e-01 -7.2120044248120507e-01 -3.8733229174191131e-01 -5.0377348464807348e-01 1.6428147109373590e+00 -4.0766929131997170e-01 -4.1230285791880850e-01 -9.1662435352382516e+01 -1.1485999299249693e+02 -6.0684387267809745e+00 -1.2903076132774067e+00 -1.4917335489622634e+01 -3.5318669988635496e+00 4.4976160829080696e+00 -1.5302143278519398e-01 4.8591534019056226e-01 -4.7760332045446859e+01 5.6511076565993747e+01 5.1544700869971685e+00 -6.6347022965466729e-01 -3.7608260551476769e+00 -1.0146156077240025e+01 -8.6144409083361762e-01 1.0856216910947505e+00 -9.0751756739352762e-01 -5.6128968412504122e+01 3.5580954731919917e+01 4.3364702734976369e+01 -1.7029025033929479e+01 -3.8229654596020765e+01 -5.8129959888672133e+01 5.2282981303993852e+00 -1.9722456759955580e+01 -9.3875337414636668e+00 1.3391187657997762e+01 -4.2288643930666092e+00 -1.3146083910729351e+00 -2.5896922878981532e-01 -6.3469769273889853e-01 -3.1044253352191142e-01 7.0477946982678008e-01 -1.6524206808353592e+00 -1.0850574702243225e+00 -7.4693831821843393e+00 3.5883690285513276e-01 
      </Row>
      <Row Index="140">
        1.0640207715631407e+00 -1.2614586230103004e+00 2.6325567439796593e-01 -1.4654836471129613e+00 -4.6926381937352119e+01 5.7395009532995966e-01 5.6355299739567055e-01 -3.3128386548316784e+00 -1.3529207427138648e+00 -6.0958476585483501e-01 -2.2551922194272489e-01 5.6572337841728748e-01 6.5597483797892764e-02 -4.0462528335022577e-02 2.2763902675289795e+00 -7.9784944989391438e-01 -1.3905975728664046e+00 -1.1723316239795452e+00 5.8474054784485929e+01 -2.6194711533066721e+00 1.1216935104274617e-01 -2.4237950231283714e+00 2.5996024463614007e+00 3.0213599240253330e-01 -7.5962632993749146e-01 -2.4521857988750728e-01 -3.3518094382359607e+00 5.1686488242042450e-01 9.2654884664074899e-02 1.1118534528850503e+00 6.4719604444241252e-01 3.8521796722950796e-01 -7.6617282239655395e+00 -3.2143720500397421e-01 -1.6957966279864678e-02 9.0337254779581055e-01 -1.7953846075926627e-01 1.1699872685538257e+00 -3.0847416233613201e-02 2.7136890620912602e-01 1.3198145668092565e-01 1.2743949560246326e-02 8.4773218002603290e-02 -6.8642239338858246e-01 -2.2657161830322181e-02 4.1629831583801433e+00 9.4531432798551833e+00 4.0230172099523998e-01 2.2662450295353143e-01 -2.1566626362360477e+00 7.7322590067596586e-01 2.2411939846904222e-01 -4.1253912232714396e-01 3.8564361434260352e-01 7.3245233942749621e-01 2.3004623722262085e-02 -2.2242056748125485e-01 7.1682276479125662e-01 -4.0266956255520547e-01 -1.6964976802585596e+00 -9.3851484382540775e+00 -6.3432096737313481e-01 -2.8759112182222113e-01 1.5542012370957137e+00 1.6505092326186035e+00 -8.5484186833937248e-01 -3.2935716091947564e-02 -3.9584318659906881e-01 -1.2117971010536905e+00 1.1844433859668244e-01 -3.8366782223450315e+01 -1.3181708543069348e+00 -1.5792895915655918e+00 -6.5488838488928991e-01 2.8218261914591380e+00 -1.4186092799593553e-01 -3.0245799418790709e+00 -3.3569723251910393e+00 -7.6770167243087712e+00 -5.9604848913285601e+01 5.3955638984949132e+00 -1.6419522662467245e-01 6.9035411765602817e-01 3.3291606404066556e+00 -5.5562573253999048e-02 -7.7445002276436137e-01 -6.0118354280788544e-02 9.4824756870698366e+00 -4.8408896358746290e+01 -1.0468422956821939e+01 -6.3441872086888867e-02 -9.9050194514167522e-02 -3.4957378984594492e+00 -7.2073901994732612e+00 1.0903510280546524e+00 -2.2821426940271290e+00 8.0274065928006166e+00 4.4656010200946611e+01 -2.4943638923697620e+00 -3.2519592858215276e+00 -4.6092150641246956e+00 -5.4587431919448779e+00 1.6343123179889840e+00 8.4693652150153138e+00 -1.1870081762924087e+01 -7.8307591926551368e+00 -1.1646904839834633e+01 -3.8730588036077620e+00 -6.4099131993205782e+00 -3.5929307654724369e+01 -3.8944783874291119e+01 1.8214033326856530e+01 7.6187948573703981e+00 -1.1705145199490685e+01 2.2475529705809492e+01 1.8120313614234483e+01 8.5116723163605457e+00 -3.2139738001383900e-01 -4.6863823353694443e+00 3.4091556016204154e+00 -1.3169953959921505e+00 -1.0937167052392922e+00 -1.1606493292682729e+00 -5.9206215159702651e+01 3.4051354808542555e+00 2.3375329839898313e+00 5.2412297742238767e-02 -1.5700837339909413e-01 1.9044519834785092e+00 -2.4563197820108584e-01 -4.8758428856106356e-01 5.0031394191351919e-01 -8.4236820232795708e+01 -1.0471990207822400e+02 -3.0829101662547274e+00 1.5521860278753024e+00 4.6058359595301610e+00 2.6705343480264787e+00 -3.9622971285822928e-02 5.0283839220483957e+00 4.2696727064453848e+00 -3.1678907062128246e+01 -4.7202060503897769e+00 -1.4698113921659228e+00 -4.0730673288064956e-01 -5.1995367096555754e+00 -4.2646272340896445e+00 2.9515175296160834e-01 3.3534879794510009e-01 3.5558832242832983e-01 -5.9468252853844206e+00 -8.0724962511485217e+00 -4.9396962281743981e+00 -4.9481413804167818e-02 9.4416243361865781e-01 2.2467938462757502e+00 -2.3210815463075765e+00 -1.2825838471260909e+00 7.4617779329364975e-01 5.3860276675026398e+01 -6.3001698971345604e+01 1.5269217162996256e+00 1.1306975071223153e-01 1.6174233737679280e+01 1.8701788390848833e+01 1.7641209314601607e+00 1.2665292279682174e+00 1.1378018700860215e+00 -3.0433646182644083e+01 -1.0357016724963160e+00 7.2288973642397991e-01 -2.5965313243684662e-01 -6.8365534338170164e-02 -9.2209863295994410e-01 8.1330547078139404e-01 7.4297115237087019e-01 -1.0223220131183761e+00 -5.8459450311658657e+01 -9.6248051710469184e+01 -2.1682890350366790e+00 -1.0191366462452256e+00 -5.9762890509954332e+00 2.5911481343049871e+00 1.1675665545359606e+00 -9.1333917672241338e-01 -5.4325600958775766e-01 -2.5203897282183028e+01 4.6927960417997838e+01 2.0365200002108850e+00 -1.5218323793209887e-01 -1.4197316738787862e+00 -4.9553092984553615e+00 -8.9059424229176898e-02 2.8965875245544148e-01 -1.3683412164402498e-02 -5.9447052003878525e+01 -5.8055488229553561e+01 1.4521202548352321e+01 -2.8376320407827924e+00 -2.5642441002050930e+01 -2.6482493465937321e+01 2.0209947931514595e+01 -1.9127442595628441e+00 2.1635489954761491e+00 9.0151846736415280e+00 -1.9692473706611505e+01 -6.5041542098759542e-01 -3.4241572720304703e-02 -1.4782027229865935e-02 -4.0462749633302764e-02 4.2995125554742009e-01 1.4405321662272286e-01 4.8240318710844576e-01 -1.1016487631320846e+01 -9.1470473188384780e+00 
      </Row>
      <Row Index="141">
        -3.3715291743970056e+01 1.8314270851697074e+00 3.4217219292804657e-01 3.1125548626721138e+02 1.7922453701459686e+04 2.7419381114115367e+01 -5.6100903304773965e+01 4.2659483991275920e+01 3.9267937351160072e+00 -6.4524114429566566e+01 1.6794631200360072e+01 6.5500629178222880e+00 -4.5532911363305175e+01 3.9444113299714019e+00 -3.3924253455865255e+01 -7.8020504639462160e+00 7.9233961582649499e+00 6.9977799835265614e+01 -1.2970138059620513e+04 -2.3731778028366534e+01 1.7922406930465513e+00 2.7256760442986206e+01 -6.4018044347169962e+01 5.2452319703414105e+01 3.6927077076980822e+01 -1.7532156338727873e+01 1.1218568852287717e+02 -3.8112333980557196e+00 1.6176337475317268e+00 9.6836159250233322e-01 -2.2549496015622935e+01 3.2222121379047167e+01 -1.2933813899341330e+03 -1.0670554117442407e+01 -2.9558801624261832e-01 -1.9322283872315893e-01 -3.0716601581367286e+01 4.9585255603479482e+01 -1.5780697658688041e+00 3.4801198179959556e+00 5.7375174216002051e+01 3.1570941772770311e+00 3.7331318052983988e+00 -7.4696722181906807e+00 1.7317508178824937e+01 -5.4922867930287612e+02 7.3473619691102067e+02 3.6047573901367286e+01 3.8666375114171387e+00 4.8087305560475215e+00 -2.1287370129165083e+01 2.1752679891055891e+01 1.9483476574272629e+01 1.1872245994006335e+01 -6.3369585299078608e+01 1.3140537551508032e+01 1.9917542871356495e+01 -3.7716079376896232e+00 3.1805381204336300e+01 -1.8578578101005405e+01 5.3876114478847012e+02 6.9659593015206326e+01 7.2920464676495300e+01 -2.5911859341388435e+01 -1.8302385731206467e+01 7.1367918219311136e+01 1.3791018679276000e+01 7.9814963859735144e-01 9.5294478137595434e+01 2.3838618027114649e+00 -9.1537626484822249e+02 -2.3224348435641514e+02 2.3581128000142144e+01 -9.5303822469839361e+01 -5.0568662501871586e+01 -8.6317849368460884e+01 5.0716376573985798e+01 5.8469496909138229e+01 7.6887292770558735e+04 -1.2473251984336821e+02 2.2656963353353785e+02 -3.8106268229524346e+01 -8.6648783528042259e+01 -1.5600281723355874e+02 -1.2882508962749853e+01 1.9691587003168252e+01 8.5073767641906670e+00 -8.6361224888816476e+04 -5.0868704354763031e+02 -6.0236979847054463e+03 -1.7481862644405503e+01 -1.6335057158781092e+02 1.4803752527847701e+02 1.7699817338835942e+02 -9.7653185285854960e+01 1.1365193857928526e+02 -4.3442097409145836e+03 3.2369450661418286e+03 -6.6222606690810062e+02 8.4119715215017754e+02 7.4458060343086254e+02 9.8180517685893574e+02 -6.8824505923041215e+02 -7.8114253977017961e+02 1.4886888153935154e+03 -1.5256920119983493e+04 -6.7971649647222894e+03 -1.6630697457735718e+04 4.2129976450477416e+03 1.9354426386306513e+03 6.3255403067379284e+03 1.7288253002269794e+03 -1.1936189950136652e+03 3.2262087673345823e+03 2.6454618392573531e+04 1.6584061877619824e+03 -4.9986345489427913e+02 -6.4422427336559153e+01 -6.7125726039556321e+02 -8.2993649119446673e+01 2.1641860893666660e+00 9.9564453506902396e+01 -1.4382016677818870e+01 -1.8436242347629741e+02 1.3431275741118006e+03 -1.0128690406895475e+03 8.3485913184267716e+01 1.8504982618580107e+02 1.0352696082846523e+02 -7.0770631137835153e+01 -2.7759934282316230e+01 4.1445889520360616e+01 -1.1432750842357520e+04 4.4358416321030254e+03 -1.6376324468867388e+03 -2.5698460287951217e+01 9.3583356851391727e+01 -9.5697925862506963e+01 5.8558693997118098e+01 -4.2602851766921454e+01 -3.1678906807865999e+01 1.0737431807614071e+05 -2.3529085167438025e+03 -6.0186217651492916e+02 -6.9289873737289174e+00 5.4968645877670497e+01 6.8957122677634470e+02 2.0126381359295920e+00 -7.7829750237991533e+00 -3.5267688734010335e+01 4.0031713840258308e+03 3.3311435162302805e+03 6.1308314544917084e+02 -1.4815461106623914e+01 3.6416058532800525e+02 1.7959334937733365e+02 -4.8735786700952588e+01 -1.7845630807799688e+02 6.9435998327582624e+01 1.0164490690307692e+04 9.4629299565474503e+02 -7.8046967914258130e+02 -4.2714634579850454e+01 -2.6382220911531476e+02 -4.1889415018539876e+02 -7.7459323628841958e+01 3.1341247887155077e+01 6.0446768319272451e+01 -4.7320361478911109e+04 -9.5957482567359693e+02 1.6269601647181553e+03 1.1380325268804388e+01 -1.5452704245020868e+02 -5.4635134639684111e+01 -9.5712109218875412e+00 3.7324707228319440e+01 -6.6347091572360277e+00 -1.6427780101133976e+04 -3.8582024541473365e+03 -2.5650551005062298e+03 1.2155552658561227e+02 1.3169516216905322e+02 -2.8869645804577885e+02 -3.1389839020822865e+01 1.4523895513249727e+01 6.9776232936800398e+00 1.5711682857967532e+05 1.7791021304577589e+02 -4.4228209639620036e+02 -1.6267281939260101e+01 -5.8776761838525999e+00 -6.1111126753443386e+01 2.9967503887892235e+01 -2.3134514607518213e+00 -4.4619466736658069e+00 4.2313791340589523e+02 1.0172351915516801e+03 -9.5739027366776318e+03 3.2160411301402896e+03 6.7042089967068750e+02 6.2388470161294226e+03 2.1760440801442678e+03 -3.8013329044115972e+02 1.6737466531747141e+03 -1.0656819477037585e+04 -6.4472795898876325e+02 1.1178855789230909e+03 3.2453532167564845e+00 2.5987785033903087e+01 3.7074325413877887e+01 -1.5090931173612830e+01 -2.7907139455455763e+00 5.2947445226309355e+00 1.7241371320600301e+04 -1.6768213638947236e+04 
      </Row>
      <Row Index="142">
        -2.0371188671847449e+00 5.2079290780371593e+01 -4.1146155218480089e+01 -7.7804158390339580e+01 -1.1874377013972553e+03 -4.2312759273411075e+01 -8.3811599307591678e-01 -1.5881358583555993e+01 -1.4511572368022189e+02 1.1835343401891805e+01 1.9729660068544717e+01 -9.7823419288220066e+00 2.8707376175492755e+01 2.9467437330425120e+01 4.6900186523197590e+01 -2.5280923207814340e+01 -2.7185587539119297e+01 -2.2900312739284709e+02 4.1518933145636693e+03 2.0631503052922562e+02 -5.7988745695456601e+00 1.2407784127285595e+01 -4.8050107813933437e+01 -3.2584930270586483e+00 1.5210719852982720e+01 2.4437098884803163e+01 -5.0226939540778403e+01 -6.8549793134176070e+01 1.9965838331718260e+00 4.3074290275508247e+00 -3.1970173380209417e+00 -3.3186542253868538e+01 3.9465709294666885e+02 9.0217653230456563e-01 6.9362201787926097e+00 -4.2432114022149108e+00 1.3511208936082767e+01 -1.4250755284177558e+01 6.8071246637907734e+00 -1.3454244108772969e+01 -9.2062404917633103e+00 -4.4885427444563106e+00 -2.0949517547218420e+01 -5.9517666732426733e-01 -3.9036464140963290e+00 1.8854576828180871e+02 -1.7427694278258350e+03 -1.2814250262991663e+01 -1.9128292574175703e+01 4.3047115867357206e+00 6.9216331291156393e+01 -2.0092926107861388e+01 3.1164968233908553e+01 -8.4799480642892604e+00 -6.4249732952404884e+01 -1.4097346490912656e+01 5.4209239227634285e+00 -6.9159950981104885e+01 -1.0537974468376615e+02 -1.3684335859622297e+02 1.2529242202220485e+03 -4.2462503353898967e+01 -1.0555060043942838e+01 1.6307585689036728e+01 8.1382409276744340e+01 -1.1719778091289051e+01 5.2868679453015179e+00 1.0774187530872950e+01 -2.4114999727446047e+01 -3.1849317521074624e+01 6.8990953475699644e+03 -1.5022744182954011e+02 -4.0012549671250909e+01 -1.2691591166658327e+01 -3.2624127636459889e+01 -2.2811852862647356e+01 -3.2885339622568779e+01 -7.7175870244638901e+01 -9.7599455004709307e+02 -2.8885536338557795e+03 1.0686071207246277e+02 -3.0514364422487823e+01 -1.8699845831753919e+01 -1.6875195509055629e-01 -7.9744563403470238e+01 -1.5822055523272990e+01 -2.4498782464936536e+01 4.4839434644929133e+03 1.0452955849197111e+04 3.3678143347694859e+03 5.5833791414054538e+01 -6.9084103086790037e+01 -3.2294676169353988e+02 -9.8122060127138639e+01 1.7887018379545805e+02 -3.9996653512750447e+02 -4.6358275786835202e+02 1.9668126994815095e+04 -2.9580573654438194e+02 -9.5192600139387423e+01 -1.6862731355656433e+02 4.4634986830672460e+01 4.1390098778526408e+02 1.3002733281272680e+02 3.9552661606678436e+02 -8.7674853382923175e+02 1.6076899666864625e+04 -1.1065453662937007e+03 -1.0389517982088182e+02 3.1130617904037927e+03 8.7999191171456187e+02 1.3899582122263696e+03 5.1443160973482691e+03 4.6679138525443113e+02 2.0991265102889593e+03 -2.6776241669421092e+04 9.9303126356247230e+02 -1.1901518994465647e+01 -3.5584341585671064e+02 7.3536690000041199e+02 -1.4020866522610527e+02 -1.7585984409242877e+02 1.0823939578430625e+01 -1.4271238124095835e+03 -7.5326349906028481e+03 2.7246401754429098e+02 -1.3013491007326365e+00 5.9018459212791640e+01 1.6689557941751445e+01 -6.9896131648747541e+00 4.6345848574440652e+01 8.8855115931424216e+00 -2.2330692491299706e+03 1.7090667249755256e+03 1.0653044460460660e+02 -9.9041463615441181e+00 -1.2522099109497503e+01 4.9174212613317650e+01 3.9846691325357824e+01 -2.0966630381512019e+01 -4.7202057514969074e+00 -2.3529086663388880e+03 2.3294605649465579e+04 6.6524114162544720e+01 -7.9292617311044083e+01 -5.1882678837457206e+01 -1.6820266170805553e+02 -1.1701865195031132e+01 -5.7704181195687831e+01 -4.7972254562170747e+01 -1.0679445113284746e+03 -1.1627910003007972e+04 -1.4823821967153344e+02 -5.0923573413527023e+00 -2.4473802299587987e+01 -6.8329932738852222e+01 -2.9593999762928888e+01 6.9326297881243065e+01 1.0006660166617907e+01 -3.1822081031538546e+03 -2.9463940143232467e+03 -4.5983518650231417e+01 -1.0013649388319139e+02 -1.4789734429179225e+02 -2.9007147665729281e+02 -7.8793031203907049e+01 -5.5105481463655451e+01 -1.7120568256712431e+01 3.3057594008242704e+03 5.6105701356281061e+03 1.3531680932349991e+02 7.1569216014378050e+00 -4.5049273547760095e+01 2.6328632822929649e+01 3.4638411585681752e+01 -4.2758743457420778e+01 1.5227754157173123e+00 6.8858222746585961e+03 -9.6330311562202642e+03 3.3241531341509835e+02 -1.7415878224118842e+01 1.9473550448706374e+02 5.7248586418165360e+01 3.5461129234513919e+01 2.4563604919516877e+01 -3.3981404720176624e+02 -1.0999442104692434e+03 -9.8125742035391741e+03 1.2650735202734359e+02 1.0287185712381461e+02 5.2184679740370484e+01 4.7906055233645020e+01 -6.9142939794954145e+01 -1.0815123317739608e+02 1.3334950803493484e+01 -1.7790580738959834e+03 -1.6924995951713645e+04 -3.6464802035034481e+03 -1.0817708638863824e+02 2.7615527883262839e+03 1.3799308856283005e+03 7.9187446837430161e+02 4.5308272069118320e+03 7.1469388073241726e+02 4.9301454850356095e+01 7.4430236431252206e+03 6.7403929134428324e+00 2.3326034180900024e+01 -1.4823878128814115e+01 -1.8466066299462454e+01 1.6220651570533818e+01 -7.9117545799804248e+00 -4.3379247185410350e+01 -2.8076280576530144e+02 7.6838138679614149e+03 
      </Row>
      <Row Index="143">
        -9.7541084671215295e-01 4.7674550997133451e+00 -2.2463062568709091e+00 5.2544977592726809e+00 1.0576684715328211e+03 6.1148849445738307e-01 8.5386430181154793e-01 5.7984154312904934e-02 -3.4162305371737318e+00 -4.0290322155864473e+00 6.0105331289142150e-01 4.9856257235986590e-01 5.5592642300953798e-01 -2.0014672808239262e+00 3.7268717785619287e-01 -3.1748336417457779e-01 1.4210811269265378e+00 3.3351317923090846e+00 -6.2519385260377658e+02 -6.2435012175667026e-01 2.7129885065934758e+00 8.8477343374395301e-01 3.7128372563688821e+00 3.4889639245402293e+00 -7.7770122198372960e-01 -1.6945063531341873e+00 -1.4568256716814062e+01 6.5163248503572291e-01 2.9782625597661649e-01 2.9382088084537372e-01 -3.0856536968511250e+00 1.5134407512040298e+00 -3.3204264261167737e+01 2.3426115482568406e+00 -2.1641839763529447e-01 3.2952770527032271e-02 4.9461738918029141e-01 2.4693582433823504e+00 -2.2693174661189275e-01 2.6185770693438926e-01 -1.4734396350138468e-01 -2.9531079744166355e-02 -1.5549684638681782e+00 9.9512171297192253e-01 3.4720015435851792e-03 5.0628734385099960e-02 -5.1497134177883299e+02 8.5068470172790143e+00 6.1360980625462247e-01 9.2491994194631388e-02 -2.7714243241327416e+00 -3.0905040809932558e+00 4.8415553758079355e-01 8.0827576267069823e-02 -1.0641829563658121e+00 -9.0933423490333576e-01 2.3017226576897221e-01 -4.6270511526509779e+00 1.3088718037270155e+00 2.4194359513440247e+01 3.5167534250491008e+02 9.4300352545395185e+00 -1.1171821526287617e-01 9.8423368391356902e-02 2.4775051410317435e+00 1.2290983023991155e+00 1.1333820696392847e+00 3.9378089470690725e-01 -6.9267745362963637e+00 1.4310249715292436e+00 -2.1875484971325159e+02 -1.4326486134349139e+02 1.4853441645501064e-01 -2.2644068461927418e+00 1.1968026858228313e+01 2.2723003873877587e+00 -2.0529455848178535e+00 5.5536519350675895e-01 -5.1222925483459221e+02 -6.9377226211116181e+01 3.7172950654300212e+02 -6.5346398974467546e-01 -1.1305727435382096e+01 1.0222844336572052e+01 1.0988226441695389e+01 -2.8163141618423944e+00 1.1739892411379773e+00 -7.7359658393513746e+02 -1.3794788514557786e+02 1.4297116156442644e+02 -2.2661022558514068e+00 1.1770274259973448e+00 6.6734875213348985e+00 3.2023740987390563e+00 -5.1127786600798713e+00 1.0447575376274605e+01 8.2239072924317816e+02 -5.1705405631075280e+02 -1.6809904323406568e+02 -2.1139747942658069e+01 2.2078485475318899e+01 -5.4156315886036737e+00 1.1962805358270202e+01 -8.5395348425698590e+00 1.3365131240447020e+01 6.6533074229297927e+02 -5.7140912943216370e+02 -1.2494233393375132e+03 7.9992814432790581e+01 6.9609709576322382e+02 -1.0285878278637131e+02 7.7341173979058325e+01 3.0109157522619288e+01 4.3559127083861370e+01 -6.1508146770959684e+02 1.8313128247623865e+01 4.3024465097210395e+01 -2.7490309667591428e+00 -5.0971404404785517e+01 5.1487767241649401e+01 -2.2452957256791912e+01 -3.8887268825251700e+00 -5.1280408945519751e-01 7.5547727529407712e+02 1.2352083104343728e+02 -1.1617577116153461e+02 -4.9607918998673100e+00 -1.7303895032564469e+00 -1.5103527552674336e+00 1.2563849402927019e+01 2.2424056121240934e+00 -3.0677078132089148e+00 1.8524223627786596e+03 -2.4843693957522760e+02 -1.0955148313572511e+02 -1.2317285109728178e+00 2.7902628851014697e+00 -4.2840173581503223e+00 -2.8763318383467436e+00 -1.6077276085677337e+00 -1.4698114224177439e+00 -6.0186215574970447e+02 6.6524108820629408e+01 2.9065269303301829e+02 -2.4774372910913618e+00 -5.3182714815307008e+00 4.4802906075693954e+01 5.0470439114967007e+00 -1.1711256838785247e+00 -1.9854558867873919e+00 -1.4927220268575493e+03 2.1394594520782084e+02 -2.2296234689707489e+02 -4.9807698400266549e+00 -1.8891842052697939e+01 1.5679920178326483e+01 7.5656793411256187e+00 -8.3673698646723054e+00 1.0021059380366705e+01 1.4325932391152455e+03 -3.6687527867474273e+01 1.5581823868207448e+02 -6.9948934637681148e-02 -1.1937552707575719e+01 2.3145911884843372e+01 9.7949474409780919e+00 -7.8645463055538087e+00 -1.0757949645436469e+00 -6.1139023803413238e+01 -1.1329483328214701e+02 2.1684930558872929e+02 2.4214445828063429e+00 1.0556725381662773e+01 -5.1737893003246427e+00 -1.3794429119101537e+01 2.3104825238967077e+00 -4.2877969993877736e+00 -1.4258237577235814e+03 -1.2140347169934830e+02 -7.6180444806175956e+01 -2.4343658848800818e+00 -7.1768096098830938e+00 -1.4662903943180140e+01 2.5847534241643153e+01 8.2834464561954206e+00 -3.6581321372547322e+01 -1.9906804807720250e+03 1.6095274052811146e+02 -9.7028327519637969e+00 -1.1160505401424103e+00 4.5424259231267570e+00 -2.0456897738749262e+01 -2.8528613774308269e+00 2.4764001175080885e+00 -8.6856154868286239e-01 3.6185395821423299e+02 2.7300789107140588e+02 -1.2104808046312248e+03 9.4012004555500468e+01 6.0413614794939713e+02 4.3226421601108086e+01 3.1045252841420620e+01 2.3413708605712273e+01 5.3941890857098457e+01 6.3935345916730148e+02 -2.1012083847976072e+02 5.8681033858700422e+00 -5.7125846170026762e-01 1.0161389416990607e-01 -1.8156438751699540e+00 1.4053671419461216e+00 -1.3532805838121504e+00 -1.7195848561386811e+00 -3.1865034999303367e+02 1.1629366012257138e+02 
      </Row>
      <Row Index="144">
        -7.1398663065423285e-01 -2.1054609499326338e+00 3.0862384881550309e-01 9.0726705955703579e+00 -1.6871754997851087e+02 2.9878803084947845e+00 -8.8015259038397731e-01 4.2479861222266357e-01 1.1573085027811761e+01 -4.3715095990093178e-01 -2.2151412974064288e-01 -2.4457666759757546e-01 -4.2710301429048254e+00 -6.3536375436214321e-01 -1.0101727971123631e+00 3.2101748265442964e-01 1.7470003597864725e-01 5.6508523769109686e-01 4.3384154687959324e+01 -5.1848990339390912e+00 5.9368018983621784e-01 7.0553514630392145e-01 -2.9035638074558672e+00 4.7995488596640468e-01 1.5380419112429550e-01 1.8321843429772622e-01 3.7136151613312549e+00 8.7144462647487986e-01 -1.7198837401575462e-02 -3.7198678578620825e-01 -1.9566164054434187e-01 1.4402802619657802e+00 2.7137399218545344e+00 1.0978742986825487e+00 -2.0294489400554561e-02 -2.0217929349023667e-02 2.0021857641063878e-01 1.6510142252172427e-01 -4.9004953007344337e-02 1.1412880356049930e-01 5.8994252087908805e-01 4.2678366127722453e-02 1.3332189014435403e-01 2.9232988130831217e-01 2.6118832430255789e-01 6.9271010392891021e+00 1.1801687640604012e+01 2.5541844692709388e+00 2.5782643363285962e-01 4.7414403146770967e-01 -4.0156186315460554e+00 4.2786603003881429e-02 -4.0431440820339537e-01 6.3933427324544559e-02 -1.5728654221336562e+00 4.1182845491300241e-01 3.5608619501639593e-01 2.1248045709428731e+00 4.7265297182090715e-01 -4.1749647224619624e+00 1.4676105309382777e+01 1.1719560635977453e+00 8.8862250838677781e-01 3.3515008291927162e-02 -8.0589651958969295e+00 5.7069551040969357e-01 -8.5553384921150041e-02 3.8437988970596648e-01 3.8409750561920339e+00 9.0043262077715536e-01 7.9842862136382422e+00 2.7026712306185394e+00 6.8863542938467770e-01 -3.6582059554602608e-01 -1.2973905725691637e+00 2.3815085373611975e+00 1.2526111348176934e+00 1.3367585021192641e+00 5.7601992388119925e+00 3.8020946593376635e+01 -1.8030284094753956e+01 9.0988014120549654e-01 -7.3477069331796230e-01 -3.7928081080120251e+00 1.0418951205939120e+00 7.4650063291457136e-01 9.2396908620511331e-01 -4.8591239058382541e+01 -2.3498999570348936e+01 -5.3737550215651751e+01 -1.8229414910819597e-01 1.6781592914676158e-01 4.6129717917560304e+00 -7.9741922980648106e-01 -1.5069535763919262e+00 2.7819987529479109e+00 -2.7921498977901251e+01 1.7734462218801323e+02 2.7291406990092558e+01 -6.1887887902024090e+00 -7.2995445164913679e+00 -1.0608696123997118e+01 -1.0206840800231480e+00 1.3526456201642471e+01 -1.6387092929538113e+01 1.9427472267483225e+01 2.0293643039454702e+02 2.0027740639758969e+02 -4.7544384638326946e+01 -1.5823292671396990e+02 -8.4348338288537420e+01 1.0737581025840893e+02 1.5958143891938033e+00 -4.4907652321858357e+01 7.6141508225077999e+01 8.9330955985033867e+01 1.0194416671116961e+01 -6.1792126846896824e+00 -1.9494960748802086e+00 -4.4809020346273352e+00 -5.5012148206048277e+00 1.1666636111317907e-01 -3.3532892247954713e+00 8.2016883074687712e+01 2.2847006070381042e+00 -1.5808262773812189e+01 -7.5686724018458851e-01 -2.5673971407881453e+00 -1.5983921035555906e+00 -1.2068570923141353e+00 -7.7754001136089601e-01 -7.7973867456791046e-01 -2.8440099002464791e+01 -1.2512588931191156e+02 -1.1183702523193295e+00 -1.6807162327118885e-01 5.3779005258192303e-01 -3.4548959402754988e+00 -1.1041668588208533e+00 -1.1491164360609651e+00 -4.0730672642893134e-01 -6.9289932801591476e+00 -7.9292616987582150e+01 -2.4774371805458912e+00 6.7168804312102282e+00 9.3046057791544285e+00 1.3154897721141872e+00 -9.0923192266072395e-01 -1.6746336893553175e+00 2.9437267532078701e+00 6.7665151770721650e+00 3.5856010246049991e+01 3.3073684914835155e+00 -1.9170373755380940e-01 -1.0978130869610894e+00 5.0320559491184724e-01 4.4832148120885446e-01 -1.1650538890470317e+00 9.4712035699356711e-02 -6.8301501117272437e+01 -1.2205012478234295e+01 -3.2064005656474620e+01 1.7024902682110707e+00 -6.7333699481069083e+00 -1.3934365820323812e+01 6.0166910821518416e-01 2.2823540768541684e-01 8.2859073434278530e-01 -7.9581152205291460e+01 -1.3429990486896401e+01 1.3843172156863304e+00 7.6947434048674102e-02 1.4119113247516601e+00 6.3136743449295096e-02 -4.8396638368505385e-01 4.9826132708061754e-01 -1.2739429868911134e-02 1.0174304722237872e+02 -1.8107952437618607e+01 -1.1173023229590939e+01 3.4647730191165360e+00 -4.0674086125272879e-01 -4.9868606090872447e+00 5.4192319033864642e+00 6.8034434427064194e-01 4.5684888755069331e+00 3.8550403682456434e+01 3.0251810101304557e+01 9.2913120287573889e+00 -1.8989200969338762e+00 1.4751671641394104e+00 3.3459466159752509e+00 1.4542629043826771e+00 1.1722183165880742e+00 -6.0459733304267349e-02 -1.7329698770689561e+01 -3.9714292148858959e+01 2.3682429012330016e+02 -4.4912112249830066e+01 -1.5027094669029754e+02 -8.3452884235635992e+01 9.8761784456777576e+01 -1.2338059464280066e+01 -3.5240504010001047e+01 1.1847342233941163e+01 1.9023505124139660e+01 -1.2500453786647960e+00 -3.9397800735021349e-01 6.8012264465395367e-01 5.7982374909057488e-01 -2.3604879905120590e-01 -8.5987382296827897e-02 9.0513183829865085e-01 1.6906376476358240e+01 1.4481314299590273e+00 
      </Row>
      <Row Index="145">
        -1.9921362726385752e+00 -7.0126455328619386e-01 5.4157046157282096e-01 3.1337550468360973e+01 -2.6611104611872275e+02 3.9715299395306323e+00 -2.3205370595494124e+00 7.7224543121456755e+00 1.9559084261165765e+01 -7.7575816409756249e-01 -4.7709998297090372e-01 -9.3078435508738622e-01 4.2989959958541526e+00 -1.0835662022902430e+00 -5.1169072156767292e+00 -1.4710822869451565e+00 1.5425707410044538e+00 2.4186722735590820e+01 -7.5521786575158558e+01 -6.3337481652250887e+00 -1.2983862498301368e+00 3.2819129701302536e+00 -1.8205299659198399e+01 7.5248261315616105e-01 1.9264253139452512e+00 -2.6029058036804997e-02 1.7686439306141608e+00 -1.1282869177206565e+00 -6.0448201884829444e-01 -8.9043770630767227e-01 -6.1147225442131514e-01 -2.1627350378663550e+00 2.7450291766174928e+01 1.4764153795599348e+00 -1.1676860879481232e-01 -7.7340616005967178e-01 5.3997641148228581e-01 -9.8934400549664825e-01 -1.3808986056982331e-02 1.2048676958976490e-02 1.8695096199877526e-01 -3.2662734614293254e-02 7.4132115018691103e-02 -3.0974338805420842e-01 2.8363030066954664e-01 -1.6644465189466132e+01 1.1989120482378084e+01 -5.3559758013068581e-01 -7.0933292951210092e-01 2.4410176804045527e+00 -8.6655767495951395e+00 -4.0679524182349391e-01 5.1114746308399628e-02 -2.7532973384633630e-01 -5.4406155536718472e+00 2.4397397756666617e-01 2.9360239827244827e-01 1.2637846200384217e-01 4.3545458129315406e-01 3.6099722537730230e+00 -8.9080963707642695e+01 -2.4972128387741126e+00 1.0971958040948411e+00 -4.6455545895226154e+00 -1.7230244988803726e+01 1.7445425156132162e+00 4.1122942639281324e-01 7.5943150683641658e-01 9.3217335926007827e-01 6.9928835552615243e-01 1.3258211245902544e+01 -9.2806401328067736e+00 5.1374966594691367e+00 -2.0662888453585424e+00 -1.3133093766074921e+00 3.8295473277447165e+00 9.1249120987478243e+00 5.1988297163126784e+00 1.5766739722924149e+02 -1.8998465254623454e+01 -5.9620375101166587e+00 1.2681223406958309e-01 5.8746922099160486e+00 -5.9130443318258585e-01 4.3909371062198872e+00 1.8957786737472175e+00 1.5252800606281589e+00 -1.9082468086222843e+02 3.8426225864689400e+01 -1.4315619192704088e+02 7.2794850760703200e-01 -3.2218572795571188e-01 -3.2624518372996079e+00 -1.2480863714214570e+01 -2.7166209252440066e+00 2.6958810928007169e+00 -8.1418895061700596e+01 -5.0948405109866485e+01 7.8582687440478082e+01 3.2560526087110532e+01 -1.9169377408569918e+02 2.6548893697302880e+01 -2.5107827598135781e+01 -1.7662257356116079e+01 3.2839328996742367e+01 1.2725678431211691e+01 3.3053362143289127e+02 2.6961913343531870e+02 -3.1343288757645375e+01 -2.1152118968831583e+03 -2.4702431143251334e+02 -3.2245128783106303e+01 3.2643076573442734e+01 -1.3593549179924182e+01 5.1796263162451169e+01 3.2895657829272004e+01 1.1893959841944479e+01 -7.6634611813705007e+00 9.5713833468433450e+01 -6.3686950830918143e+01 -3.4298086759475677e+00 2.3933179869343157e+00 -4.9132266730220051e+00 7.8453497841687749e+01 -4.2300770993963624e+01 -2.2774159198365851e+00 -1.7651288178422231e-01 -1.0880252232105249e+01 -7.6772413873295999e+00 -1.7038819965171470e+00 2.6484023869910078e-01 -1.1875431689451597e+00 -3.0619143385482857e+01 3.5553312242550078e+01 3.2801075359587912e+00 -2.1302163841455637e+00 8.2854941442388395e+00 -2.9257018517268421e+00 -1.3217895851070836e+00 -8.5500609299907708e+00 -5.1995367130593388e+00 5.4968634769828441e+01 -5.1882674448019202e+01 -5.3182712867366035e+00 9.3046057593190099e+00 1.0463041548048113e+02 2.4147943879148272e+01 -2.4731581238391698e+00 -4.7185567108222033e+00 2.9905489627925608e+00 7.6490025624339069e+00 -2.6555050081924378e+01 7.2910174787609776e+00 -8.3906222883333759e-01 -1.1765175415266526e+01 9.8551902439299965e-01 2.1306487539186802e+00 1.0762321823808427e+00 1.4038894599108400e+00 -8.5749255157037624e+01 -9.7552221003080376e+01 -1.9371538849113335e+01 4.2182470803314436e+00 -7.7512473638856932e+01 -6.3181506975334969e+00 1.0177365273476866e+00 9.3251313205658004e-01 1.0822459044323374e+00 -1.1692685714713446e+02 1.3716641266366878e+01 2.3227328165640984e+00 8.7589084616064994e-01 3.1679451147161615e+00 8.6433419670447620e-01 -8.6274699444518355e-01 -6.4610890183469971e-01 -5.6460665230640894e-01 1.4643569797456803e+02 7.8869481056026416e+00 -4.8520878092734847e+00 -1.0893936751541728e+00 1.0772545778274673e+02 9.7620377338398256e+00 6.9624751278583279e+00 6.4589145440069977e+00 -1.7411526854771530e+01 1.6286962101937999e+02 -2.3155208857504476e+01 1.5773430181970980e+00 -9.3216267565538224e-01 3.1518183947816595e+01 1.2818505599923512e+01 -2.7214622942273081e-01 -1.3693450194831343e+00 5.3665074335186347e-01 1.2769167747776009e+02 3.0402669156736067e+02 3.3635766327094655e+02 -6.2220883250994035e+01 -1.8751437635137249e+03 -3.2176592575644082e+02 -2.6531258687654429e+00 4.7515113772640184e+01 -3.1288308355586480e+01 -9.8912270100267051e+01 4.5473757626393329e+01 -3.4630987811571146e-02 5.3336866771509506e-01 2.0312792893178448e+00 9.1686504742764185e-01 -4.7399813829917098e-01 5.0630390675895498e-01 8.6111190686648342e-01 6.5216886007719864e+01 -1.8139041087990222e+01 
      </Row>
      <Row Index="146">
        -3.8893453849106727e+00 -3.6347982027302237e+00 -2.0238129903661388e+00 7.5965964199639529e+01 2.3693061721178328e+03 9.7644131013417450e+00 -3.9604862255086744e+00 8.0627494609775709e+00 2.9366970555148555e+00 -9.0651461618179496e-02 2.1820649692263814e+00 2.2044025035989989e-01 1.8937048561684264e+00 -6.5671396945548488e-01 -7.2833205353217636e+00 -9.1352809475370123e-01 3.5733549080259763e+00 3.6377124461935637e+01 -1.5950509840494196e+03 -1.4584401825639134e+01 1.7485529247336160e+00 2.2431280208511928e+00 -2.4770209615810614e+00 -2.4095565684662006e+00 3.6517066216152898e+00 -1.4546615603725286e+00 7.9556540229987149e+00 -2.7777676234235571e-01 -6.0428358126256398e-01 2.8435765682838792e+00 -3.9030159428430977e+00 -1.8473727121963748e+00 -1.2050766750436742e+02 7.1632437174242938e+00 -1.4675868446179265e+00 -6.8436085987571005e-03 5.6414980878219012e-01 -2.6825211469861827e+00 1.1609726624425321e-01 -1.6294045799321033e+00 2.9843221163430371e+00 -5.7222721700433965e-02 -1.7889217476001420e+00 -1.1551277434325584e+00 -5.9359210225198922e-01 -6.6603466915152239e+01 -4.3633682929969166e+02 1.8680897475166432e+01 -9.1194032121313739e-01 1.5874206592751534e+00 -7.2399007245271747e+00 -1.3450652263932508e+00 2.3761711992655674e+00 -2.1621515656451251e-01 -2.8394513874739459e+01 4.5389279799582205e-01 8.6330796010851807e-01 5.9587512010978116e-01 2.5143267842707360e+00 3.8918328575933629e+01 1.5935978561882657e+03 1.4130691941013415e+01 4.3894076816473131e+00 -5.4004243967351471e+00 -4.1779074373365237e+00 1.2850686255898545e+00 1.6260772949361417e+00 8.6370838625620650e-01 1.7547666201742459e+01 1.7240235762983502e-01 -5.2463414004996594e+00 1.0579097854101860e+02 9.7439060097472563e+00 -1.6464626842389407e-01 -2.3850049397769908e+00 5.5582376622751326e+00 5.7779662673752972e+00 7.0382450034068258e+00 1.0814305083937616e+03 1.6019786824220790e+02 -4.7563705104052133e+01 7.3765992944467573e-01 -5.7188772667050216e+00 2.5313306897496659e+01 -2.4615991945155429e+00 -3.0543883741291595e+00 -2.7119115636384716e-01 -1.4060621236421284e+03 -8.0177148783281154e+01 -8.6003040553049686e+02 -3.0768211753915171e+00 9.0257366576128391e+00 -1.1865036241413236e+01 7.9699541295467853e+01 -1.2294288896970032e+01 1.6029415582271444e+01 -1.0376622763054775e+02 9.1310189669989541e+01 -6.9510513652089685e+01 7.1846891527717020e+01 7.6720940845329665e+01 -1.7128592997850717e+02 -4.7428653815018777e+01 -7.6110171713158451e+01 1.6046086000142608e+02 1.0152245090849174e+03 2.0521374703143601e+02 -1.2528875228513079e+03 1.6677394968847392e+02 -1.7757440056555185e+02 -1.8185109684717399e+03 4.7846790039358422e+02 -7.8151038476509569e+01 1.4200637985260994e+02 2.4115939371079003e+02 1.8505185556962601e+02 9.4688351501081343e+01 -2.8130377933640794e+01 -4.6956653970864863e+00 5.7387597455076957e+01 -5.0593808556247168e+00 -3.4602632225788836e+00 -2.0725952112398268e+01 7.4202190543913457e+02 1.8291564004328393e+02 6.6754317813643866e+01 -3.9628354598598161e+00 -1.0651643764700566e+01 -1.1448934305857790e+01 5.3521472754703154e+00 4.9712432837442933e-01 -6.0704406357638439e+00 1.1513509210897100e+03 4.2765617369502070e+02 -2.3852987577717613e+01 -4.2651545404642777e+00 4.1612111240438026e+00 8.4165604235713545e+00 9.2352401181744881e-01 -7.4913789953526395e+00 -4.2646272621709720e+00 6.8957123644130479e+02 -1.6820265780777117e+02 4.4802905492048012e+01 1.3154898363917811e+00 2.4147944014988752e+01 2.9660203268291843e+02 1.7418044216412909e+00 -1.3654394828602516e+00 -1.5568725288109988e+00 -1.7158001338862960e+02 2.4058065369040378e+02 3.4828025307171629e+01 1.0197432186232818e+00 -1.3478663397743730e+01 1.4425937348747539e+01 3.9822770493458961e+00 -2.5704247079929150e+00 8.5784974118025747e-01 -1.3179428196037770e+02 2.2538251490704715e+02 5.0518521954749303e+01 -3.4005458607002916e+00 -3.1328737722751157e+01 -1.4787905878933088e+01 -7.2943018075204691e-01 -4.3377507576820733e+00 3.7736222440174743e+00 2.1757573680335963e+02 -1.1483650441662758e+02 -8.6865461385241360e+00 -1.7680261927886569e+00 6.2011215493021155e+00 -4.8603531820399439e+00 3.0205119191078893e+00 -9.0206797668623295e-01 -7.1432157147754327e-01 -2.6156963093411468e+02 3.2521152285212884e+02 4.3984262418123762e+01 6.4805631332552682e+00 -1.2264682132457892e+01 4.2528185399479980e+01 3.3413364787867707e+01 1.2467431651819403e+01 -3.8349625968124137e+01 4.1498397532764284e+02 -9.2097919753432507e+01 -5.4558829110465012e+01 -5.7377921239933016e-01 -4.4352784648885972e+00 1.9132517913837091e+01 -2.0225216443295722e+00 8.8519622961887023e-01 1.1764568696007700e+00 -2.3490144565381343e+01 8.1063847211682310e+02 -1.3858690083840796e+02 6.4747871905128989e+01 -2.7319291172697558e+02 -1.2830429700088557e+03 4.2567661956707718e+02 -1.0455969042292978e+01 -2.2486665232946336e+01 -2.3909734185820707e+02 -1.1155376093804804e+02 5.9524122876005894e+00 4.1723335466031131e-01 2.3032239743127016e+00 2.5331911119762083e+00 -1.8440637816881260e+00 4.4617678810615757e-01 1.4136732940951333e+00 3.0152986360619718e+02 -4.0693212597614263e+02 
      </Row>
      <Row Index="147">
        1.0098735126641456e-01 4.9898204710141059e-01 -2.2998985569472907e-01 -6.0609959409713383e+00 8.2617183905694390e+01 2.8655975769113153e+00 3.2304142142778325e-01 -1.9994282583487255e-01 -1.3600918489783744e+00 -3.8267320879812050e-01 1.3902321504065895e-02 4.7882010180705237e-01 -4.3742079439100578e-01 -4.6769158199738675e-02 4.8121381279507602e-02 8.2777971808017270e-01 2.1783644000359459e-01 1.8107366394804103e+00 -2.4251119125458672e+01 -3.2824309633669451e+00 2.6022777423258070e-01 -5.7879355667798504e-02 1.0869473721209473e+00 6.4632627036450074e-01 -4.3830083371758644e-01 -3.5674693298290094e-01 -7.5797686540042264e-01 2.7077841994229424e-01 1.2446005384357761e-01 1.7033131677925439e-01 -4.7698928144070685e-01 7.0006205246926356e-02 -2.0643200940271697e+01 5.2911793441315247e-02 1.2288371048862246e-01 1.5034340529957824e-01 -6.6007832457534121e-01 2.7918229482398793e-01 -3.5116397056511595e-02 -1.1474536111261302e-01 -1.0585366594507661e-01 -1.5016584344638151e-03 -1.8460168033352176e-01 1.7688240316201131e-01 1.3375414557467025e-01 2.1493672780874817e+00 -8.0120146155377498e+01 1.1779100320233304e+00 -1.4526524432764276e-01 -1.9206896636534054e-01 3.2180613403094149e-01 -4.1144278812128832e-01 -7.1732703776933943e-02 -5.3953842912901617e-03 -7.7879090524004368e-01 -1.5767237172986126e-01 -2.0152520711334634e-01 -1.8678645582826192e-01 2.1042344891211329e-01 2.9699284933988253e+00 2.4202280076443458e+01 -1.2686251541638400e+00 -3.3607521561310705e-01 1.2082247917745548e-01 9.2530574823205658e-01 -4.1025055270460764e-01 3.1296553425712581e-02 -2.7340515470019078e-01 -8.3410809942478181e-01 2.7667215207374113e-02 1.1548056964579700e+01 -8.5689629298529866e+00 -9.7751091825307967e-01 -1.0970199629084618e+00 -9.2461781310021252e-01 -1.8097266476954417e+00 -7.7391058225194209e-01 -4.9862936967269322e-01 2.0527004830938495e+01 -2.6507532447122884e+01 4.0448033728131350e+00 -6.9863746098503265e-02 -1.6319598574659722e+00 2.3690069011786363e-01 1.2436671386352387e+00 -1.1104693110598436e+00 -4.4446505422693938e-01 -4.5350189782167035e+01 -5.5243981037756384e+00 3.7445857350989229e+01 -7.1024642869655319e-01 -1.1667951533145171e-01 4.6390085398002157e-02 2.9922915886320540e+00 -1.2257873552195682e+00 1.1141041011504162e+00 -2.7486720088126816e+01 -1.3051256258347834e+01 -6.2407898108680229e+00 -7.3041461037864934e+00 2.4700297986618054e+00 1.1587833030091424e+01 -6.2267361641424515e+00 -4.3806057869996913e+00 -6.4615001040715807e+00 9.2618274627469418e+01 -7.8744707456454677e+00 -8.6514097467124657e+01 9.2881140276833918e+00 1.4219504514774997e+02 2.4080904909488396e+01 -1.0266131412144000e+02 -1.2115994240606561e+01 2.1058920012608908e+00 1.9511842818589059e+01 3.6148542652866006e+01 1.9333801828498167e+01 -2.7915467034722030e+00 -1.1148051811037931e+01 3.7627438623455483e+00 -1.6336696574666263e+01 -1.1031512501833305e+00 -1.6752283771089722e+00 -8.6694587252243764e+01 5.2864573096794629e+00 3.2971040972888659e+00 -1.7418473683021829e-01 1.4608050834815458e+00 6.0940455645103597e-01 -1.7321991230376170e+00 1.0484277126682109e+00 -2.2854935622295613e-01 -4.7174966130013672e+01 -4.1855220812965797e+01 -2.3796694424020757e+00 1.8121328092317518e-01 1.0022544010286083e+00 3.2643266460036102e-01 1.0485121152445913e+00 3.7383941420625078e-01 2.9515175452037917e-01 2.0126394984677063e+00 -1.1701865166891139e+01 5.0470438746763193e+00 -9.0923191498928269e-01 -2.4731581026238700e+00 1.7418044422701087e+00 7.4167221185649481e+00 2.7675638589080687e-01 -2.3921333656671528e-01 -8.4913583292313888e+00 -5.7418671468138882e+00 -1.2678065893455823e+00 -1.3842618460597422e-01 -6.8595586864375946e-02 8.8167640070651032e-02 9.2245084356570572e-01 -1.2850453531942110e+00 2.3801084055776567e-01 -1.6208720368958893e+01 1.0853494303632942e+01 -2.5366750945247531e+00 1.9095638229518497e-01 2.7213762913207233e+00 -1.9621199525338398e+00 2.4788170972686530e-01 -4.4568310904472952e-01 1.1610108051045742e-01 -3.4832733311091829e+01 4.1945616566813442e+00 8.8257236597394240e-01 2.0589862519747792e-01 3.5269899159771967e-01 -5.7463012162173754e-01 -1.0660899461358682e+00 7.4318876252059862e-01 4.4255263765302200e-02 5.6927467342029558e-01 4.3944839247339132e+01 -5.8885656614471600e+00 1.3686513036418848e+00 5.3720336927688095e-01 -3.3723725485715050e+00 4.1116173972169108e+00 -2.6254598843260757e-01 -1.1781657386460331e+00 -4.8715829815560184e+01 2.6067344641862292e+01 -2.2553354373367256e+00 -1.1384588930212125e-01 5.9878938167125284e-01 -1.1262157935847199e+00 4.6859423772616537e-01 4.2766618562163217e-01 -1.9462489219136359e-01 -9.7316529924264614e+00 -5.8211135377180653e+01 -9.9847590270467265e+01 1.1980384308372090e+01 1.2740230508770014e+02 2.0563649823742480e+01 -1.1261199745355253e+02 -7.9529108981416288e+00 5.8484675787306042e+00 -4.8131387845837480e+01 -2.0143167274398465e+01 2.3533806581924903e+00 -8.3716998211116334e-02 -6.1106070142963631e-01 -8.5034978319330712e-01 3.0269317496326464e-01 -1.5259730137221084e-01 1.3774206613351225e-01 7.9408435870352623e+00 -2.5206283099150067e+01 
      </Row>
      <Row Index="148">
        -7.8521176419752914e-01 -1.0030574799170893e+00 -3.5417066997080582e-01 -4.3114294332390273e+00 1.2042870972310766e+01 -2.3838608466156277e+00 3.6371244776668021e-01 -5.5057695525584194e-01 -4.5210609506392245e+00 4.6203991140100364e-01 4.6634198856656806e-01 2.0363231510901159e-01 3.1181107937777597e-01 9.1691851770362365e-01 9.0674884580599979e-01 -9.7451462530190724e-01 -6.4793861748796644e-02 -2.9917518461916188e+00 -8.9114325659577844e+01 5.3098958337271540e-01 3.4273342478095614e-01 -5.0434717431600662e-02 3.5073212122015489e+00 -2.7553595503047745e-01 -2.0823460600835730e-01 1.4005576363337724e-01 -7.4643779524024012e-01 -1.6089403404138274e+00 1.1652227630484902e-01 -3.1236186256904830e-01 -3.9946241955074413e-01 -2.9116800888073158e-01 2.0538344697994830e+01 -6.0379418017276620e-01 -3.8772733005330906e-02 -1.9365274822177980e-02 -3.8388802112535814e-02 -2.0239580720132189e-01 7.8585836230868011e-02 -2.2492800692916193e-01 -5.5017456831095046e-01 -6.8551124652514339e-02 2.0410053500379988e-01 -3.6776830217974066e-01 -4.4261120914231356e-01 4.0169090391189002e+00 6.5670292802006060e+01 -1.5218923125691362e+00 -1.7245310752348075e-01 -2.6373194246433229e-01 3.0381091557815072e+00 1.3780853898568601e-01 5.3911701546592683e-01 3.0858751510839610e-02 -3.3168065909308098e-02 -2.6176965054959744e-01 9.7124098438969297e-01 6.6500552589320705e-01 4.5221929071846745e-01 -4.5521789044948378e+00 1.0429046640611887e+01 3.1841912225031876e-01 -3.1865382979364476e-01 2.2440834264042220e-01 3.7331498706876243e+00 -7.3896942447192249e-02 3.9296907304473903e-02 -5.6222316906392678e-02 7.7625228096279386e-01 -1.2023037174864535e+00 8.5266224673250690e+00 8.2447568684068386e+00 6.5258656390198166e-01 8.3892104441383708e-01 1.8921714881926164e+00 3.1200473342367303e+00 -4.7994417978479853e-01 -4.1634948146105555e-01 1.9679537017318580e+00 -1.9201469786181804e+01 3.2641017680175537e+00 4.5726022958650936e-01 1.7697742418432654e+00 -5.6499922247439827e-02 -8.8553731045549000e-01 9.8973465907983238e-01 8.8668740607018837e-01 8.9462520755241712e+00 1.0517954693893989e+02 -6.6287198799126031e+01 -3.5660848065243977e-01 -2.9585750788632126e-01 2.5254755588314559e+00 1.5279974356659967e+00 -5.1545163451955811e-01 1.9662321694225491e+00 8.1296506454667053e+01 6.1576921230437861e+01 -1.6948789046813772e+01 -3.3407746448801845e-01 -6.8993354488580962e+00 -3.0599503385650117e+01 2.1322403585760696e-01 2.6256246015932949e+00 8.1053497543109678e+00 -4.7108884005675918e+01 -6.0332102849221357e+01 6.8865290812762510e+01 -2.2333219608165635e+01 -2.6981821727766278e+01 -5.4404776015924426e+01 -1.0090031510352482e+01 -1.0865082527378807e+02 -8.4010655265959500e-01 -4.0895635948881477e+00 7.1405277374125262e+01 -1.5716185891661553e+01 5.2074267601932416e+00 1.1068020632517346e+00 -1.8853680996340035e+01 7.8616313716314519e+00 -2.8424964367776102e+00 1.8846497720452589e+00 4.7830116511084270e+01 -1.1238602676031405e+01 1.0836828369911018e+00 -5.4147958052319378e-01 3.4751370008052618e-03 1.4182685867888267e+00 -2.6654546689604786e-01 3.1102231994008295e-01 -5.7865618902609162e-02 2.9825701804197706e+01 1.1263065239904722e+02 8.6410525593703369e-01 -4.2046061396833084e-01 -1.1233038238351298e+00 2.2981471309699373e+00 -9.9674962966859937e-01 3.0653676505528871e-01 3.3534880593823707e-01 -7.7829761793936996e+00 -5.7704180905171597e+01 -1.1711256540024806e+00 -1.6746336884975452e+00 -4.7185567672981961e+00 -1.3654396019312571e+00 2.7675639865242374e-01 6.0733056068428795e+00 4.7685461444650912e-03 -3.6898702768786279e+01 8.1956714205037542e+01 -3.0684187094739173e+00 1.6732418576574681e-01 -5.0222609557340547e-01 4.7484392988712898e-01 4.3404616350962932e-01 -6.0918489061604042e-01 2.5005431308592208e-01 1.7638411423500656e+01 -4.6336691064295337e+01 1.2220992923005724e+01 -1.8278119666026198e+00 2.8806062479314960e+00 1.2315379189459236e+01 -2.4165253676093812e-01 1.3613311374991106e+00 3.8325805607973251e-01 2.6237393745044528e+00 -9.4222704328203690e+00 7.1725359073211621e+00 -1.5515939493583972e-01 -3.5767797966877879e-01 9.7618221054835885e-01 3.8618615712119464e-01 -1.5156197879157141e-01 -5.5209832932035585e-01 -6.6413054803109844e+01 -1.2249648998000384e+02 1.2175292577800292e+01 7.8246957215740265e-02 3.0751779664938113e+00 3.0983733282010348e+00 -6.2738458465544511e-01 7.5072995957552835e-01 -9.9550482103396831e-01 2.9884739513312653e+01 -1.2234893715159706e+02 -2.2970922459535359e+00 2.5754633371119340e+00 1.6517232362174354e+00 -3.1654434402382492e+00 -5.4014126474385193e-01 -2.5153256151833538e+00 -4.1280922904007866e-02 -3.0446465053792053e+01 1.1070472443681405e+02 1.2745254681748878e+02 -1.6746243229435272e+01 -2.1065713807704014e+01 -4.3377288841682358e+01 -1.7504263429392495e+00 -1.0904548088014644e+02 -8.0642435809827973e+00 3.9049541253323696e+01 6.0215789497635605e+01 -6.1750331657276281e-01 9.7772092772731867e-01 -3.6950520301207146e-01 3.1687993443343032e-01 9.4684892634870899e-02 8.3102640427422614e-01 -1.8115696392120526e+00 -4.2467527797241864e+00 6.1608611227365188e+01 
      </Row>
      <Row Index="149">
        -2.6026815223642719e-01 -1.3166057000126052e+00 7.9235866824390655e-02 6.5850243680105223e+00 -1.2407845940416331e+02 1.1662608442866720e+00 -4.2162016361979049e-01 -4.5782174869640802e-01 4.1762768579543810e+00 -2.0204710961611705e-01 7.9731610699238953e-02 7.3853047295949992e-02 -1.5887149765201514e+00 -1.9241134574076355e-01 1.1717827787860102e-01 -4.3928989569209165e-01 -3.6780837427642155e-02 -3.9923700086956160e-01 3.2603288178617049e+01 -4.2031695717063347e+00 1.0275860998802777e-01 2.8858366381403899e-01 -1.3034505672407146e+00 4.7552101795744761e-02 -8.6186765356195849e-02 -1.5724043626287809e-01 5.2298343721759011e-01 6.8884477789021670e-01 -2.0171098659467646e-02 -6.3955660398434588e-02 -2.7233636002885575e-01 8.0397490255188586e-01 -5.3584326410475569e-01 1.4128050333680964e-01 -8.7443909474194115e-02 4.6049828795791115e-03 3.2556439550329941e-02 4.2988189319648074e-01 -2.7415670644803214e-02 7.1233638549618394e-02 -3.1916582997695286e-02 3.2843981993069593e-02 5.6221318713571833e-03 1.4989623685046638e-01 1.0235350974242508e-01 2.1786767584618474e+00 1.9199868946338370e+01 6.4196021640683654e-01 -2.3649760493933414e-02 -7.4636388011271038e-02 -1.1406810910790854e+00 1.2273258816203703e-01 3.7811715289373451e-02 9.2920045288973130e-02 -8.4717688934802027e-02 6.8087216423155628e-02 2.4169983716443855e-01 1.2833800453196584e+00 1.0895052695947882e-01 -4.4345721387815900e+00 -2.3943880711149177e+00 -9.7176142115705300e-01 2.4155976961601233e-01 4.4895611752955467e-01 -3.0472716955817747e+00 -7.9665398754000361e-02 1.2638402782851121e-01 -5.6159517657649261e-02 1.3565232723798530e+00 3.2572074996595868e-01 -3.1405521902907935e+01 -1.5140984488303744e+00 -1.4818362207074975e-01 2.2724546464257855e-01 6.7212244877850935e-02 1.1295776322594335e+00 4.6847472092792153e-01 2.1051264300174122e-02 -2.2809213890697947e+01 2.3209395971690405e+01 -3.0254032060181544e+00 2.5940043654245315e-01 1.5054253101243376e-01 -2.0415576923874141e+00 4.3250069000398383e-01 5.8816056234589276e-01 8.1131687773895966e-01 -8.6381315262970020e+00 -6.0411212400723798e+01 -5.9222002190311400e+01 -3.2244079992301866e-01 6.0705248408088508e-01 2.9183344178391959e+00 -1.2331604888416945e+00 -8.1400923166243400e-01 1.5851971319021785e+00 -1.6285208465495430e+01 1.3103368200966219e+02 1.6944481929143080e+01 -4.4516163486474691e-01 -1.2928057549800087e-02 -2.9194819855833778e+00 -4.2496990223496773e+00 4.0779160103397665e+00 -5.0841650799660574e+00 4.0178474011427170e+00 1.7781668098564768e+02 1.2801369573417281e+02 -3.1404946766009530e+01 -8.5171849031961528e+01 -4.7306014509236093e+01 4.2805637487214462e+01 -4.3771439399605327e-01 -2.8321354889863390e+01 3.6349049070223458e+00 4.2382344604623768e+01 5.4342829830983419e+00 -2.9265643886612729e+00 -1.3305003095194934e-01 -7.5790755637309504e+00 -3.2715910151685970e+00 -5.9666713740645660e-01 -3.1253700810268237e+00 4.2228555381794649e+01 2.1950109742454970e+01 -3.7508446182464468e+00 -9.3350197105754007e-01 -1.0900234230512069e+00 -1.9360810271147244e-01 -5.4574371415409928e-01 -6.6588473417026772e-01 -1.6288548649371897e+00 -2.1756045001684925e+01 -4.2268199840953571e+01 -7.4676446145161890e-02 1.1838199421302975e-01 4.2906081089513748e-01 -1.5873502995347053e+00 -5.8814063845520081e-01 -6.9831960484701305e-02 3.5558832412160535e-01 -3.5267692115231057e+01 -4.7972254379822061e+01 -1.9854558472527515e+00 2.9437267552363764e+00 2.9905490007909066e+00 -1.5568725461353097e+00 -2.3921334352584722e-01 4.7685527603498201e-03 2.3153392495112586e+00 -5.7852557098153738e+00 3.4041250563887502e+01 -3.8297067319444977e-01 -9.7059373269875682e-02 -1.8278811457787469e-01 1.3361552365540774e-01 -5.0858135389047376e-01 -6.8105596287937109e-01 -3.2669883694693036e-02 -1.4126851905439253e+01 5.4148254154217739e+00 -8.3913537582511708e+00 2.0616253138572899e-01 -1.3346740533997945e+00 -3.8388027194616825e+00 2.6859035939980558e-01 2.7159495824731650e-02 9.9347333990964160e-01 -3.9660723676100815e+01 -2.2168610634081688e+01 3.9929094606827675e-01 -5.8980003420684435e-03 5.0870649887997388e-01 2.6211840115212226e-01 2.0783667040940657e-01 1.6334136399452248e-01 7.5277286012037758e-02 1.9487156890055303e+01 -8.9803908580367136e+00 -5.5497680612501767e+00 3.9284424886792912e-01 1.1918345849176148e-01 -4.3154256145554371e-01 1.5714902496803766e+00 3.8934128580133309e-01 2.0652348059465631e-01 -3.4930590383749163e+01 3.7297444942196307e+01 6.4175314470903686e+00 -7.7903382123319886e-01 3.5671161700167886e-01 1.8411979294889136e-01 8.5498763093482921e-01 7.2241008381447536e-01 1.5766706093705807e-01 -3.2287829698592759e+01 9.4674131625436416e+01 1.7521859855091580e+02 -3.1718980560153412e+01 -8.3953575742116300e+01 -5.9076084251322627e+01 4.3550507933673828e+01 -4.4575633190701147e+00 -2.6453865467695788e+01 1.0945994000449900e+01 -2.3414345780346707e+01 -8.2977599384767942e-01 -2.9923418372192145e-01 3.1565508886898119e-01 4.5791851601102529e-01 -8.2146379216171628e-02 -1.3539644609296531e-01 7.4050571336061921e-01 2.1044203133751109e+00 -2.6238226505924427e+01 
      </Row>
      <Row Index="150">
        6.3221416127018415e-01 -2.0995110634557932e+00 5.4799363666706995e+00 -1.1498188142012805e+02 8.1792713698065199e+02 1.4581273057034468e+02 -1.4666069937842622e+01 2.9414434425250874e+01 3.1081997554562804e+01 8.1843436790672683e+00 -1.0416618800168521e+01 -2.8846251821916212e+01 -1.5408383633101948e+01 1.7761597996623451e+01 -2.3571347925561895e+01 1.5484050420632684e+01 2.8678227399639582e+01 3.0750838713666599e+02 2.0875977436735411e+02 -1.2698970146892339e+02 -9.9548345756149956e+00 -3.0238524571656100e+00 2.5112774785644376e+01 -2.0573745107935792e+01 1.0774391877913786e+01 1.2495179503821419e+01 1.3372650463181344e+01 -1.1189469295969161e+01 -8.7511098337113253e+00 3.4669993928582699e+00 2.4167986659145527e+01 -2.8474482806741435e+00 -1.5395053166837461e+03 5.8873307592939454e+00 -2.5843624446715694e+00 -2.5246697791617407e+00 -2.3118819998254367e+01 4.1275514132884211e+01 9.0350326547638815e-01 3.5236996030024471e+01 -2.3995477836318969e+01 2.6060730624064377e+00 1.5888437892055663e+01 3.2275553616054822e+00 2.5436534591399322e+00 -3.9549713955724292e+02 3.3509278277292560e+03 -2.1982092608332096e+00 6.8687966539253011e+00 9.0435110562648333e+00 -2.1634994842686638e+01 3.3223516004221338e+01 -7.4702609291170887e+00 -4.8980222894584813e+00 1.5300924601471343e+02 1.3009734509784366e+01 -3.9030988155384327e-01 2.1906573962210132e+01 3.0673019055538589e+01 3.0335235847852346e+02 -9.4444898530113860e+03 -8.9745846994202921e+01 1.3564128018552424e+01 -1.9923520406893942e+01 -1.3568740306802511e+01 1.0899523607411200e+02 -6.5019168898849422e-01 6.0346431937593934e+00 -5.9079905300895916e+00 -1.3222489262048242e+01 2.1270245212920418e+02 1.8164668450229092e+03 2.9164636420133121e+01 8.4828831810009433e+00 -2.6473770057535148e+01 -6.4987618826171456e+01 6.3761823351914359e+01 2.2281207836089536e+01 -9.1159874895379180e+03 6.9421885758434564e+02 -3.1151175263104087e+03 -1.8281094019736969e+01 -9.2321640076115727e+00 -1.1558409442091943e+02 -1.1301650825914294e+01 -1.0609984564315511e+01 -1.1773334718862571e+01 1.8617463544166414e+04 -1.3186234404722927e+02 1.3429009674237604e+03 1.5869581473764434e+01 2.4152190281996354e+01 6.2201319689111187e+00 1.7457589752050268e+02 1.0925085954831872e+01 -2.1453444177115571e+01 5.1715591247227840e+03 3.4881635604625462e+03 1.5980759133768443e+03 2.4428696851021459e+02 2.8168697455863457e+02 6.1016313466087831e+02 -2.9887757019038781e+02 8.8731499103180681e+01 -2.7343916410636029e+02 -2.8918055894418096e+04 -1.3796988203730711e+04 -1.5205137396914142e+03 4.2265194369985511e+03 3.8247841190080635e+03 -9.9425954656801005e+03 -5.2963709476347503e+03 1.8906183217977191e+03 2.9874710912451487e+03 4.1305683953635795e+04 2.2961000835464620e+02 -2.7001490853410069e+03 -1.6487530054185970e+02 1.9656040523070260e+01 -5.5636567926551220e+02 -1.5474371192595100e+01 5.0222836153172835e+01 -6.4864849127014594e+01 -4.6387483426419669e+04 5.1434184234938584e+02 -1.9605778535560239e+02 7.9430715068077973e+00 4.0219769290357362e+01 8.1226902986095411e+01 9.2340149294492221e+01 -6.9975508754594500e+01 3.0846263107375549e+01 -4.0993678936665587e+04 3.6184134425879165e+01 9.4503425948665608e+02 -7.4783548022565762e+00 4.2265823877951334e+01 -7.3760567343473667e+01 -2.9875836688237541e+01 -1.8448204464948176e+01 -5.9468258003736771e+00 4.0031718915320234e+03 -1.0679445241148060e+03 -1.4927220263252675e+03 6.7665127269178384e+00 7.6489953952695942e+00 -1.7158000612034084e+02 -8.4913573147514398e+00 -3.6898704484615244e+01 -5.7852571417640775e+00 4.2871553444792109e+04 1.1284445848301402e+01 1.3263806073862361e+03 -1.2071413732168963e+01 9.8738886783394264e+01 -9.5898164978803834e+01 -3.7923916749124601e+01 -2.3417898665684038e+02 6.1195042112454828e+01 2.2106765018792357e+03 1.0739549827302690e+03 -1.0237867950404761e+03 -1.8946409438641503e+00 8.8344899700314272e+00 -3.6236945553394617e+02 -5.1366343270765810e+01 7.6095740833529362e+01 5.8197258576765307e+00 -2.6330400326117357e+04 1.1604817977710627e+02 -1.3622624182288855e+03 1.7840552662771358e-01 2.8894214108426240e+01 -1.6232447321890504e+01 -1.2901086798248343e+02 2.2622373150238900e+01 -1.4202210796846231e+00 2.6722700452373829e+03 -6.5549125491326304e+03 6.4125731360017380e+02 -6.8033418878372103e+01 7.4226600595036871e+01 2.3288947200084840e+02 -3.4416944950172569e+02 -8.5643612975955676e+01 1.4432759777154467e+02 3.0477607743430621e+04 -1.4025877927367110e+03 1.7065775607485557e+02 -1.8651489424587453e-01 -4.7854806922390708e+01 6.4146151168055439e+01 5.4600340326294827e+01 -3.1667725475031489e+01 6.8487980163990869e+00 2.1286180819015717e+04 -1.1496792682853564e+04 -6.6092850351021498e+03 3.8468642805399513e+03 3.5042461778288125e+03 -1.1724058875273447e+04 -4.9836181562889396e+03 1.6351593522363016e+03 3.1677025575297703e+03 5.5385971250688308e+03 7.5801563626138204e+02 -2.9952965512473583e+02 -3.4079733014477824e+00 2.3481294733417769e+01 3.4140711910139089e+01 -2.9370455422789178e+01 2.6794236878993615e+01 -1.7891944171286013e+01 -3.2731115385883340e+03 3.6959608449372522e+03 
      </Row>
      <Row Index="151">
        2.6496268908256297e+00 -8.2009025027924508e+01 3.0246702247094618e+01 5.6180269288364798e+01 6.4882704531565250e+03 -4.3321834045210380e+01 -5.6438238949394872e+00 5.3229156121620235e+01 6.9801159224090043e+01 3.5133931143643451e+01 2.0328861675955750e+01 -2.1273132917075145e+01 -4.1563096835952820e+01 -1.2944801903200675e+01 -3.0816015854572470e+01 4.0980061228257000e+01 -7.6489172625442734e+00 4.1367923965673253e+02 -1.0215230520550162e+04 -1.6639073809167439e+02 3.5005750375418756e+01 -3.3560928773641479e+00 7.3285101564436900e+01 -3.0988679490166760e+01 -3.1751448163332725e+01 1.8855961408297844e+01 2.6817490361121600e+01 6.9967616243402745e+01 -6.5009686477742434e+00 -8.2095677077522851e+00 -4.6657186461980018e+00 3.7674034990224754e+01 -5.6942908287081809e+02 -1.6340156359011416e+01 -1.5615952808519069e+01 -5.2258480160971885e+00 8.9745740320358891e-01 -3.3939570548802180e+01 -6.1843989370290728e+00 8.8926513556257305e+00 -7.3937356730821193e+00 3.2382450751640590e+00 2.3836822279332409e+01 4.6916963275834860e+00 1.8124005642595876e+01 -6.0861684220726602e+01 3.2065797938902324e+03 5.7801567561539741e+01 1.9706445379336401e+01 2.4968236223519853e+01 2.0694082895753127e+01 3.8410318995528939e+01 -8.7694456149451199e+00 -1.2003045394885817e+01 1.4045838606619509e+02 1.5252822495440824e+01 -1.7106100679332457e+00 8.4335686343780253e+01 3.0672953017392501e+01 1.2073576810460509e+02 -2.0590772907404462e+03 9.4230581404818565e+01 1.1820701909432273e+01 -4.1813261122928793e+01 -1.7940233622116466e+00 6.4662023284055749e+01 -2.6647583884846917e+01 1.3699133628747404e+01 -1.9290077555217067e+01 2.5865287400336229e+01 -1.0442267321951396e+04 2.2401171735701064e+02 2.3938937188265896e+01 5.9472046594688436e+01 1.1779325119356508e+02 6.5605553125416918e+01 2.8137121042492851e+01 3.9059127426843951e+01 4.6238303424413898e+03 6.2106953631824035e+03 7.5322883373682271e+02 4.0603964781844986e+01 4.1883530604885891e+01 -1.0899257633485831e+01 6.6869428457157483e+00 9.3244611849261361e+00 2.8986220080876109e+01 -8.5565293815403711e+03 -1.1771821373326180e+04 -2.8436232581353397e+03 -3.3544187953249143e+01 4.6338586607143952e+01 1.2854854597389294e+02 -5.2081517806492812e+00 -9.5827196420293319e+01 1.4013965950350206e+02 -8.2538186291614329e+02 -2.3901920107588039e+03 -1.1140430314774858e+03 5.8753828710436665e+01 -4.9482460026845729e+01 -9.8792482584863592e+02 -2.7494934997929522e+02 -2.7656230312961588e+02 -5.5937953938168107e+01 2.3882626347263576e+03 -2.7494378436592342e+03 -8.1176483153086301e+03 7.1433858635569050e+02 -1.8445435067568687e+03 -1.3228557125034567e+03 -2.3847323014515248e+02 -7.2234165278968612e+03 -1.3234076596078012e+01 1.2575060402970375e+03 1.2729466558729073e+04 -9.7163443475874374e+02 1.2705556757614833e+02 2.0026704930176493e+02 -8.6856244923345025e+02 1.8317807173520407e+02 1.3307001851158938e+02 7.4152404364269628e+01 3.9530139406395610e+03 9.4192452929308638e+03 3.3273122248786967e+02 -1.0923575014416684e+02 -6.1357974791259039e+01 6.2255467072569445e+01 -1.0735231576414662e+01 -4.2729149789685643e+01 -1.9901818785458744e+01 5.7033542052726261e+02 2.5975132687238511e+03 -3.5053601431307470e+02 1.1844266833639768e+01 -2.5574931356124580e+01 -1.2043093514803331e+00 -6.2183697839718661e+01 -2.2911821269862859e+01 -8.0724966578706017e+00 3.3311438069988508e+03 -1.1627910041038471e+04 2.1394593815883854e+02 3.5856010315700679e+01 -2.6555046368914191e+01 2.4058065986976726e+02 -5.7418668103637174e+00 8.1956714718928225e+01 3.4041250692201629e+01 1.1284403762314469e+01 2.0320498179142975e+04 -2.8488913508900441e+02 2.6634879298851839e+01 -3.1382363967713900e+01 2.1619122652889928e+01 6.8671765431276071e+01 -5.1546026495693710e+01 4.6092437733620146e+00 4.2932541849310510e+03 3.9194042220386909e+03 1.3668714044079534e+03 -2.3455680366370039e+01 8.9649702571252419e+01 2.4085112815082539e+02 -7.8477945924234518e+01 -3.2216199224082175e+01 -1.1831612649839371e+01 -7.3276237691605620e+03 -9.0207305073179305e+03 -3.3359732951415936e+01 -2.3137006617137892e+01 6.6538182573523954e+01 1.1864736312563764e+01 -1.7117711722144122e+01 -9.0993889905339529e+00 -1.4444978997047517e+01 7.1831496212282218e+02 1.1467994937576534e+04 -2.7195874416502193e+01 -2.0619986540840685e+01 4.3375307999958750e+01 4.8865311012723396e+01 -1.0515933862181626e+02 8.2991794314739629e+00 2.0977923039597272e+02 2.5315127835474195e+03 9.4402273196564056e+03 -6.7290712643263396e+02 -5.9815689554236087e+01 1.1617530272196745e+01 -8.8937151964535587e+01 1.6129609578667441e+02 8.2358395671828930e+01 -5.2313917917163053e+00 5.1691179051166400e+03 2.3640614076694215e+04 -4.9294260303307892e+03 7.9544939937748131e+02 -1.6640143731781864e+03 -8.6932829093441342e+02 4.0420688818239250e+02 -6.6567496541840301e+03 -1.6943277836226707e+02 1.2102872195022064e+03 -8.6275092788506845e+03 1.8551129977594002e+01 -5.6736662623326993e+01 9.3105577657560588e+00 -1.1908676227601973e+01 -3.5594221576381415e+01 -1.3701976058908713e+01 4.1472609134070808e+01 1.6033965817507897e+02 -8.7006453976905887e+03 
      </Row>
      <Row Index="152">
        -3.7826403927043657e+00 1.3704059404951749e+00 2.7455586998542003e-01 -1.6825597230769745e+01 7.7532249450041490e+02 2.7334937115070559e+01 -2.9448982528753618e+00 5.8831254615720354e+00 6.0175742798304555e+00 5.7475997458499641e+00 -1.3699265058326091e+00 -3.3446518271426271e+00 -1.1354474732601489e+01 3.1750194874622304e+00 -5.9599218172012343e+00 2.1635517190031237e+00 1.3702337040217571e+00 1.0774330666454262e+01 2.1891659659316065e+02 -1.4267441404279054e+01 4.5026723237603505e-01 4.3814251702632596e+00 4.0120732570468576e+00 -2.7866708138651575e-01 5.0080006503724519e+00 7.0499522524377767e+00 1.9037040365389657e+01 -5.9517116472824654e+00 -7.6336941706506423e-01 -4.0528369529511110e-01 -1.0615842429118914e+00 6.4195946150766758e+00 -9.9194532559186882e+01 6.8684020674924398e+00 -3.4282463222700699e-01 -8.4208866512329905e-01 -1.6223067055790352e+00 -8.6730777831879351e+00 1.0342251831745841e-01 -2.4003816611522595e+00 1.6596575710302659e+00 2.5893399552789020e-02 8.3343037556053901e-01 -1.1839041983289462e+00 6.2737310259115020e-01 -3.5460166524708256e+01 -1.8096249855586848e+02 9.1774277855622586e+00 -1.1317164539215412e+00 3.1649741608604245e+00 -3.7292673165334520e+00 -3.1868925137804638e-01 5.4738818389696497e-01 -3.4493155383458713e+00 -1.5901932626093185e+01 5.6232041220968476e-01 2.1035259073863557e+00 -2.4224354092319800e-01 3.6009063441503031e+00 6.8993225219803662e+00 2.5551566493827704e+02 -7.1695107165316596e+00 3.6411690543920230e+00 -2.4457058668530678e+00 -3.8808087539804319e+00 4.7534836000253549e+00 2.8182264864111124e+00 2.0942189816182122e+00 2.2181991754893545e+01 -3.8857327633133032e+00 3.7136261403832759e+02 1.6656620523356696e+02 9.8045502079163462e+00 -5.5746454826075933e+00 -1.0624670162898838e+01 -7.6761390955907700e+00 1.0389040227824088e+01 9.8199969558028304e+00 3.7862589952694179e+02 7.5679145955133208e+01 -5.9956801579315106e+02 -1.0760781759449261e+00 -8.7997639545346829e+00 -8.9900964513835788e+00 -2.9642568489413179e+00 5.1094811501734938e-01 -5.8045978398371689e-01 4.3381213897651469e+02 3.9232192600715280e+02 2.8449972983421867e+02 -5.6807875240889683e-01 -1.0066304562317470e+01 1.6439199498716931e+01 -1.4529350232309355e+00 -8.9622936929742139e+00 1.2919703974543772e+01 -1.2947728168325252e+03 3.5915889292747187e+02 2.2584460755447344e+02 3.1825515235463726e+01 1.1381776298327622e+01 1.8792974401212444e+02 -1.3100121201827619e+01 -4.6018877028633248e+01 6.6205188857983345e+01 1.9694517632800744e+03 -7.1525269063009819e+02 6.0846438897542430e+02 3.6465555911303881e+02 2.1311214484941729e+02 4.7409922935541908e+02 2.8920736557471935e+02 2.2080283258389665e+02 3.3330871056637420e+02 -3.5392329251793043e+01 2.3124358507341867e+02 -3.5933625071635106e+02 -4.7912664022837610e+01 -5.5346041157696163e+01 9.0942078959033751e+01 -2.8586321675957251e+01 -6.5674220646422015e+00 -2.8681531467455695e+01 1.8740114616664068e+03 -1.8558068294033728e+02 -1.2980899602018326e+02 3.1398565373510579e-01 1.7919475232480181e+01 -1.1727537682756122e+01 8.6260015207883498e+00 -1.7238231917347591e-01 -2.6792977406717720e+00 9.0177727888282971e+02 8.0271121270078766e+01 2.4978135262013939e+02 -4.5910851953541894e+00 4.8966636271434254e+00 -6.6131523489038955e+00 2.3280435510907864e+00 -6.9182629274820613e+00 -4.9396962379043785e+00 6.1308316021895007e+02 -1.4823821220297032e+02 -2.2296234787468711e+02 3.3073687176883229e+00 7.2910176527529984e+00 3.4828024994629232e+01 -1.2678066183825649e+00 -3.0684186833709699e+00 -3.8297054934875518e-01 1.3263805797537207e+03 -2.8488914754795042e+02 6.4990765774382453e+02 8.9490830446455405e-01 4.1937123335119395e+00 -3.1781390150341394e+01 -3.3447712426710723e+00 8.6456732360206132e+00 -1.9213072277085374e+01 -3.7461220081499778e+03 3.2529826559839421e+01 -4.8335747442614229e+02 -1.2702364812890856e+00 -2.0091421536295002e+01 -3.2889780345125473e+01 2.9788293570885571e+00 1.1435451450170007e+01 5.5638897544421866e+00 1.8101470020997203e+03 1.7133151321818877e+02 -5.3109514669079908e+02 -1.3505781502414532e-01 -2.9142210337331562e+00 1.4832377878841726e+01 1.1229764290328205e+01 -6.2795497729839056e+00 1.0549273597630325e+01 2.7298228923041752e+03 -4.5962051685599272e+02 -1.9155400010426092e+01 1.8567267303401465e+01 2.8225103844106343e+01 -1.8226356449567447e+01 -1.4151384658048073e+01 -4.5074494631639404e+00 1.6694044528939685e+01 -3.7308497185714828e+02 -2.5499647044239100e+02 6.7232760533443070e+01 2.7058022814460116e+00 -3.8687915959953898e+00 1.3569708945699404e+01 -2.8541337649057823e+00 -8.3288077936076519e+00 3.7508697142538949e-01 -1.5803294354822719e+02 -1.0037776629752939e+03 2.3361469267454359e+02 2.7621790885623409e+02 1.1890283666664254e+02 3.9568359032114495e+02 2.8813519191191295e+02 2.7277040522376177e+02 2.0082575594719538e+02 -8.9854693945415056e+02 2.5375700949693683e+02 5.6198017263764186e+01 1.1866030447026787e-01 1.9191786012929590e+00 7.4416596698061142e+00 -3.1284953599140266e+00 9.7662328842221768e-01 -6.7282460615388118e-01 7.8936886759789297e+02 -4.8767625636425220e+02 
      </Row>
      <Row Index="153">
        7.5870877007039539e-02 -2.7869434424518857e-01 -9.0441432248365317e-02 2.8064293808199636e+00 1.4764530616304512e+01 -9.8213403501774854e-01 1.6888138667416897e-01 -2.7688613326879441e-02 -4.6092029250879918e-01 1.9731964883152189e+00 3.6732892520648264e-02 -2.4655722810686420e-01 1.7580161130610605e-01 1.3932720281442150e-02 -1.8916845325572851e-01 1.0685892717741652e-01 9.9587148710554629e-02 -1.3907182416296564e+00 -3.7251217379947775e+01 1.1842298228297565e-01 -6.7620725124622361e-02 -1.8485849699517215e-01 3.3871123202994680e-01 -9.4395524295564215e-01 -6.4904610993360201e-02 1.0352527964184990e+00 4.3721146451866844e-01 1.5293772421317886e-01 -8.6286523757639344e-02 1.3995184911543390e-02 -1.2451656044427750e-01 -7.4733631853956695e-01 -4.0329845317378386e+00 -1.6941869252232067e-02 -2.0810804097638069e-01 3.2764422640545021e-02 -6.2557192241108339e-02 -2.1250169624794522e+00 2.8625070916636908e-03 -7.1562568288561668e-01 -3.1205091755523995e-01 -2.3494957994652288e-02 1.1206166298385689e-01 -1.9560700948834153e-01 2.2922917220732586e-02 -6.3040361119243471e-01 3.7296160500456935e+01 -1.5589064846856715e-01 3.2650023264823247e-02 2.1633430737551862e-02 2.5293178198635946e-01 2.0480317078684174e-01 -6.4738532816670427e-02 -5.4862010465954258e-01 -7.3427056318041650e-01 3.5103148519733840e-02 -1.1301151972828771e-02 8.4187454214019297e-02 -1.8473393424194740e-02 -1.2015814967197116e+00 8.5169066569528695e-01 6.0680746907753713e-01 -4.1185142946032371e-02 2.3449265773507477e-02 3.1500177127634643e-01 -4.2357035436160428e-02 -3.2963999467267735e-01 6.2780552636695575e-02 8.8690399768018224e-01 1.2838098740784787e-02 -1.4325601635322357e+01 1.5272293371292186e+01 2.5016633634149010e-01 7.9077426383099692e-01 -2.6347334288118418e-02 1.7429105475932616e+00 -3.2577415873143112e-02 5.8417379196677321e-01 3.9312899410529099e+00 3.2639046271155586e+01 -2.0535829069148690e+00 6.4588804324359506e-01 9.8579311643680967e-01 1.1609975269038841e-02 -4.9361432680551331e-01 1.0569215589912667e-01 -3.5655078251960415e-01 -5.9851223855472199e+01 -1.7787865749887374e+01 -1.0319786550150297e+01 -3.0248473964628519e-01 8.0732307846318818e-01 -3.3596019760939733e-01 8.7462645019478957e-01 -1.9609948485287210e-01 1.2018113300750100e-01 -7.0513471710327181e+01 5.4395763706696393e+01 -4.8291136158646850e+00 2.8108706732057898e+00 1.7867522922264598e+00 -1.0854383696153533e+01 -3.3666682102143142e+00 3.7853091540370847e+00 1.8629410233345109e+00 1.2220776935243748e+01 3.2532156180455615e+01 -1.2085962520062651e+01 -8.4628797449396664e-01 -4.1286569588024804e+01 3.2813811444641885e+01 -2.9847329461986064e+01 -2.3983071231662226e+01 -3.6434418248786038e-01 -8.3448399896187468e+01 4.2585833277515377e+00 -8.9350895754548674e+00 1.3960502223741207e+00 5.2580882920447038e+00 -7.1636024887569407e+00 5.4765100343097037e+00 4.9691249246704311e-01 7.6901376097675911e-01 2.7788999636556582e+01 6.7379719047612525e+00 4.5916236105690587e+00 1.9075606250350652e-01 -8.4506029536851202e-01 2.6472755157555383e-01 -2.6587762298152029e-01 7.1889501436335199e-02 -1.6214790681118957e-01 -3.6999176042726504e+01 -2.6651525388328423e+00 -4.1352641230321296e-01 2.3491057969252621e-01 -9.6999415109856102e-01 3.8640493555749345e-01 -7.8455178095764211e-01 2.7457015169720000e-01 -4.9481414055505102e-02 -1.4815461055018204e+01 -5.0923572413385045e+00 -4.9807698565347209e+00 -1.9170373427551846e-01 -8.3906220840151491e-01 1.0197432153912018e+00 -1.3842618434003384e-01 1.6732419156671929e-01 -9.7059372333388794e-02 -1.2071413788227346e+01 2.6634879067204338e+01 8.9490830137719968e-01 2.1340547663415617e+00 -8.6504113012802009e-01 -2.7761593387103858e+00 7.4137993423756221e-01 4.4372027734922730e+00 -2.3241626117453738e+00 2.6199061354551304e+01 1.1105796581876348e+01 8.7330462641668873e+00 1.5213837939140740e-01 -2.4355005284661502e-02 1.9857689462554617e+00 -4.3278173140169329e-01 5.3390885235439001e-02 -3.8346450430002932e-01 -8.9814007474827918e+01 -1.3405338456300797e+01 -8.2524069157040003e+00 -1.5186655316068594e+00 1.1777602025563283e-01 1.6499088829695552e+00 2.4008029178041710e+00 -2.0413860011461389e+00 1.2796697479462575e+00 -2.3923227732159830e+01 -2.2049814419461654e+01 1.6336504181487669e+01 -3.1665527443036767e-01 -2.7391000644549877e+00 2.8904961204493418e-01 3.6694032922966979e-01 -3.6434225543409582e-02 2.4503249251812571e+00 1.6644859916179570e+01 1.7241699880862143e+01 2.3788188870398699e+00 3.5722228506532616e-02 -4.1902609654425760e-01 -1.0748772199140433e-01 1.9138183488232130e-01 1.8974910953714819e-01 1.4223946224458217e-02 -5.9019542215510228e+01 5.6231641601750425e+01 1.5016829799904485e-02 -3.9765113899829396e-01 -3.7421062890988196e+01 3.7153007989644664e+01 -1.9957261342859752e+01 -2.4185731646024774e+01 -4.6728632636285834e+00 -4.8776396739359143e+01 -1.3888244714216128e+01 -2.5062816995994175e+00 -2.7029497522009649e-01 7.6119091833835029e-02 -7.1416380078996866e-03 -1.7033946437137537e-01 -2.7089150534499584e-01 1.9603431707795949e-01 6.3336256092164707e+00 -2.2532025144035337e+01 
      </Row>
      <Row Index="154">
        1.1720141903180665e+00 3.1314366778365681e+00 -1.5041291517705702e-01 3.6579769158456656e+00 -8.5381802093890542e+01 6.2483081446553879e-01 6.0209101019647981e-01 -1.0961151394072566e+00 -2.1468147250157372e+00 -8.7780225273768320e-01 -7.9145590348175254e-03 4.3883678999762132e-01 4.6748416882552135e-01 4.5342790582803383e-02 1.2903321737791167e+00 2.5021701479811753e-01 4.8498529546668578e-01 -2.9317158218248096e-02 3.6862192970965680e+01 -2.8807280349113285e-02 -6.6453740724733912e-01 -1.0506399657144561e+00 1.1963238317283396e+00 -7.5934354352246913e-01 1.6963848778228563e-01 -1.5384430189940588e+00 -7.3904993728182262e+00 -2.0696976506238585e-01 1.6914722821158534e-01 -8.0081933673838535e-02 2.7343154370066358e-01 1.7061880452909577e+00 -1.2941529510602095e+01 -6.0151036543292236e-01 1.8681793599628449e-01 -2.0421535734801566e-01 -3.1076957218752455e-01 2.3941227168233530e+00 3.8762016885671713e-03 6.6724651007358782e-01 1.0162386361400877e-02 5.1437039908437177e-02 6.3965515804843776e-02 7.6030328370461575e-01 1.5065968765006943e-01 -8.1938246691094605e+00 -6.0228272536858043e+00 6.0457257702857703e-01 3.2060047885695298e-01 2.0527830568511263e-01 3.5436375455070568e-01 4.6881119062777632e-01 1.1448798063935717e-01 4.8971194508152838e-01 6.2291599315250323e+00 -1.6204941992450561e-01 -7.5155966152369613e-01 -2.2663895396407057e+00 1.2972285331968081e-01 -4.4091904490133516e+00 -1.0619235488838058e+02 -1.2637105498045758e+00 -4.6825595627471817e-01 7.8830830985319089e-01 1.1685908219323000e+00 -7.2147222166009817e-01 2.8124172873523023e-01 -7.6833371728597299e-01 -4.3181123858074599e+00 -2.8968825298817924e-01 -2.4541149641745506e+01 -1.4721309170086691e+01 -2.4588146701695135e+00 1.1384976076471958e+00 6.2821728078165506e-01 -5.8035998211534476e+00 -2.2781914236766752e+00 -2.1571991750702724e+00 -4.8189632201698942e+01 -3.0068975195961265e+01 6.7489283336013841e+00 -9.9885604187813293e-01 4.6382399822346088e-01 -5.3189274521923835e-01 -5.2144911287475537e-01 -7.8974106968484326e-01 -3.0803905412905586e-01 -5.9781957198365490e+01 -7.0919457972539476e+01 -7.6893533671604757e+01 6.1703539943776163e-02 5.2627450992387033e+00 -4.4081337648825141e+00 -6.9083065130379993e+00 1.9502898092101737e+00 -1.0925928277435810e+00 2.3877493458899210e+01 -3.1758279235003386e+01 1.7891743975020177e+01 9.7182682769484448e+00 1.6191896777666486e+01 4.0764226541065639e+01 -1.1795813447830700e+01 -9.1891548146102320e+00 1.5881526370248100e+00 -4.2429942708043245e+02 -1.7331064041039008e+02 -1.0193666131492250e+02 1.5511492829195902e+01 -2.7036634093151861e+02 7.6265945894684364e+01 2.1872961835125757e+00 4.1533872887596750e+01 6.6410265947066449e-01 -6.6619210715904728e+01 3.3210864580384765e+01 2.6085973341097997e+01 -6.6734562355461380e-01 6.6092095951858141e+01 -3.7731220606724079e+01 -3.8661315174275890e+00 9.2357660017875709e-02 -7.2223179999872644e-01 -4.4613405626102576e+01 3.0418212641105129e+01 2.1997418583475337e+01 1.3861309199795970e+00 1.0939910912693449e+01 2.1559235574439519e+00 1.2172216983652362e+00 -3.7352024950880480e-01 7.8657477646894969e-01 -1.2544506431483842e+02 -7.0049292420756046e+01 -1.0894008700712590e+01 4.3514290832738139e-01 -3.7980173879462598e+00 -9.5943917047975447e+00 1.2170487808070476e+00 1.0909588402631667e+00 9.4416242949708751e-01 3.6416058570199721e+02 -2.4473802351020595e+01 -1.8891842052617903e+01 -1.0978130921448657e+00 -1.1765175410414372e+01 -1.3478663359120048e+01 -6.8595590586866706e-02 -5.0222609501076076e-01 -1.8278811641418713e-01 9.8738886767163876e+01 -3.1382363860721512e+01 4.1937123824909577e+00 -8.6504112973871083e-01 3.2178256041695022e+01 1.9830639334820717e+00 -1.3771813111510660e+00 -3.2234930042472119e+00 1.2386227843332658e+00 -1.5948591548492914e+01 1.8803248420725595e+01 2.0906030167757763e+01 -6.5000901520950016e-01 1.2530949399001287e+01 -1.9958149926522310e+01 -1.0609843978817253e+00 -4.0454538732747380e-01 -3.2920465417594613e-01 -2.5355868184431313e+02 1.8145629363275475e+00 4.3569411420950246e+00 6.3929419064208848e-01 -1.3838410907180105e+01 -4.2402761900139012e+00 -2.4359099831357049e+00 1.4129797805253812e+00 -2.9542681708000146e-01 -4.2909803772048690e+01 -5.4632548777967600e+01 -3.3941430185290415e+01 -6.3034677894966222e+00 -1.1038751537554162e+01 2.7662242261745291e+00 -7.8611897530675439e+00 -1.7655726044998328e+00 -7.0327099631797125e+00 6.4963420801074255e+02 4.2463941792033438e+01 -1.0039811961011310e+01 1.5587853346316827e-01 -8.9476749831587767e+00 -2.8181658795469104e+00 -4.2966001796679620e-01 -2.9333964742989327e-01 7.3572070084786390e-02 4.5081523582663067e+01 -1.2189288074010199e+02 -2.0379104612220971e+01 8.7309567285836565e+00 -1.9766002705803021e+02 -2.1611306724266250e+01 1.9399550940384231e+01 4.6628210322020166e+01 6.8551824793110079e+00 6.9371407688750878e+01 -3.9265145887117058e+01 6.3692623651791802e+00 3.0831581703255040e-01 -1.1390150314306429e+00 -1.9649491561613956e+00 1.2812098232922953e-01 7.0085489354667807e-01 2.1056638062225375e-01 1.1925664223158492e+00 -3.2257662705211160e+01 
      </Row>
      <Row Index="155">
        6.1082135867387999e-01 -2.7154345549979695e+00 3.2415340397697889e-02 3.6835955919822254e+00 1.5710911363848345e+02 -1.5008733641919729e+00 -3.2600811023038290e-01 -8.8688510459370562e-01 4.1187851963126576e-01 -4.1773879018834439e+00 -6.5895615591089474e-02 2.2701914490560249e+00 -1.9966728798589628e+00 7.5322803795908250e-02 1.0646748793432437e+00 -3.6234852086244445e+00 3.9151607882126882e-01 -1.0191565366946520e+01 -1.1850154697986636e+02 -8.2763651249077697e-01 1.1726791451433840e+00 -1.2308384422981742e+00 2.9324516918465200e+00 2.5960752582797255e+00 -3.4313475280871586e-02 -3.9702489183581591e+00 -6.6317611654473012e+00 -8.1681975679462226e-01 2.6841555091347402e-01 4.2158418253166019e-01 -3.5655992387807700e-01 3.1037421032909833e+00 5.0638088208118347e+01 2.4874264341347541e-01 3.5229448443182321e-02 3.6435915283932729e-01 -1.1065536229702388e-01 4.2506703372508108e+00 1.2141617680211070e-01 1.5089657572868589e+00 1.2940656269466615e+00 1.9658288006956237e-02 8.4369895384099891e-03 -8.2533174342361804e-01 -9.2375110815567041e-02 4.8930745573601371e+00 -6.4693886560603374e+01 1.3056489579811696e+00 2.7893719002546646e-01 -1.2308528852380078e+00 -3.4853444974820569e-01 -6.3220742157076226e-01 -3.0522800410903717e-03 2.7246246941566170e+00 7.1974626908286155e-01 -1.1160612814494830e-01 -3.8734394411934936e-01 2.4722134013171484e+00 6.4895803545952191e-01 2.9709389066503036e+00 1.9555004679924696e+02 3.1676574713133587e+00 7.0690485837753769e-01 -2.9759161272169266e-02 2.9206561351558236e-01 -1.5758602494303848e+00 3.9379148982682977e-01 -4.9091251148094983e-02 -4.4101549938714442e+00 -3.9172347817556430e-01 -3.9553399343185447e+01 -2.2764002623500133e+01 -1.5236216173701600e+00 1.0362744926405867e+00 6.7336183792788233e+00 -4.9864357668476629e+00 -1.2697272963360713e+00 -9.1690772230096385e-01 2.2354083628972694e+02 -1.8980953372587544e+02 3.0739648660656030e+01 -1.9921615256660019e-01 4.0705127035529358e+00 1.2693769973355302e+01 -4.1803700214470041e+00 1.0604280610869474e+00 1.8791616126438149e+00 -2.6906816890825394e+02 -3.5963860763080902e+01 1.5885087111975167e+01 -3.3595312663010846e-01 5.1560085995312122e-01 -2.6756355771656786e+00 -1.5628868587554464e+01 -3.3764932404392467e-01 2.7573162991738851e+00 6.1843841776251793e+01 -1.7950892733120298e+00 1.6578276016605514e+01 -1.2042473538210192e+01 -2.2429438639300216e+01 -3.7380482878218828e+01 7.3052988544194193e+00 -2.0036340099516181e+01 -8.9605646992877279e+00 5.0697373239265744e+01 1.6900613526198345e+02 1.8998702444908190e+01 -3.5904440332918554e+01 -1.3346753013129671e+02 -2.7486721512633784e+02 7.1784253310563003e+01 -4.7714131969354462e+01 -2.3452760620227796e+01 1.1236491969554572e+02 9.0449319360452790e+01 4.3708831643114081e+01 1.0903976475663617e+00 3.7296356325778106e+00 3.7749151724706934e+01 7.2493494034895676e+00 1.0877271052808801e+00 -7.3281488402754391e-03 3.9130957230077911e+01 3.3724957423558408e+01 2.6071390149227227e+00 -2.6259606032105420e-01 -4.4384962123403966e+00 1.1094276837290430e+01 1.8114110372280834e-01 -3.3809858148617500e-01 -1.0878797989887943e+00 1.3461062994365057e+02 -1.2701371709941577e+02 -6.3847621406681185e+01 2.8380624525136788e-01 7.2098385299742063e-01 5.1541003923646258e+00 1.9036001035681949e+00 2.4077657529006800e+00 2.2467938486099293e+00 1.7959334641873374e+02 -6.8329932314500184e+01 1.5679920156557728e+01 5.0320561118373686e-01 9.8551907081787249e-01 1.4425937313344775e+01 8.8167630355997062e-02 4.7484393234684541e-01 1.3361553199282916e-01 -9.5898164601884673e+01 2.1619121716527616e+01 -3.1781390262820423e+01 -2.7761593414560979e+00 1.9830639334718398e+00 6.0289006446350641e+01 1.8950693725904415e+00 -9.9177599539097887e+00 7.3472429426816204e+00 1.7907381269556208e+02 -8.9450053158657283e+01 -2.1599277976984013e+00 -6.3395414821465290e-01 7.5312234974720695e+00 4.4404775705993870e+01 -2.5185699447359582e+00 2.1920784726205689e+00 1.3976881742071257e+00 5.9525549386398069e+01 -5.2221682905719717e+00 3.3234972173474489e+01 1.7498620782539809e+00 -1.8160274569288504e+00 -2.4508247863512452e+01 -4.8420817596838575e+00 6.0142699113384657e+00 -5.8559141473107488e+00 -2.0273956678349896e+02 -1.1346987431351408e+02 -8.2248450669112572e+01 1.6328345104061408e+00 -3.8694768798404766e+00 -7.8285162185993897e+00 7.7657297324185990e+00 4.5149915271094736e+00 -1.2117649202160550e+01 2.0352215046345302e+02 5.1482379023847898e+01 -1.3720518134187841e+01 8.9905730144140961e-01 3.7563597078436715e+00 -1.3221811616385935e+01 -6.8778006292973259e-01 -1.4913503602224392e+00 -9.0795381820882426e-02 -3.9090956918043958e+01 1.4165554116743533e+02 2.9074700969479295e+01 -2.6149663872843632e+01 -9.5666756926556900e+01 -1.1238122499380933e+02 7.4404452026669190e+01 -3.3357169457464423e+01 -2.5605180444103635e+00 5.7847854066543732e+01 -4.3685731145515334e+01 5.6540442336004570e-01 6.0563613412864470e-01 -1.1419258559841294e+00 -2.3268102661150571e+00 5.2044430492667004e-01 9.0787539487408964e-01 -2.2591443937255917e-01 2.0609197795423725e+01 -6.1484666077672649e+01 
      </Row>
      <Row Index="156">
        -7.5668277126243411e-01 -7.8084802214955928e-01 -8.2289729064149064e-01 5.5810245413469488e+00 5.7899479092960263e+01 6.0437837196207651e+00 5.3299790705590766e-02 2.5136088431638335e+00 6.0249930127884177e-01 3.4718684946489984e+00 4.2986796796475546e-01 4.1982040526388209e-01 1.1874156202117625e-01 1.3736568602800610e+00 -2.8881331741618261e+00 1.0081705843637954e+00 2.0341335271704111e+00 1.4571262870793390e+01 1.4758328316361326e+02 -8.2619345876743093e+00 1.3466346048736648e+00 3.4457948866734950e-01 3.6520537617553925e+00 -9.6725755851924156e-01 6.0442970709546229e-01 5.6993726708467296e-01 1.4798639387363153e+00 -1.0592403292026626e+00 8.1680021766270983e-02 -1.4732513164630348e+00 -1.4136631663241994e+00 -1.5145686059618555e+00 1.8909414403176740e+01 3.2262365476912098e+00 5.9923289375340971e-01 -3.8806866074400492e-01 7.3964963514867854e-01 -6.9053673609522628e+00 -6.6159178778513406e-02 -2.4379453185027096e+00 -1.1933449112512093e+00 -1.8969777761889239e-02 3.1057367575072714e-01 -7.8384427545271151e-01 4.7641125680909546e-01 -7.6207307822852215e+00 -1.2695341221177100e+02 -3.4466583350042868e-01 -5.3331958388621903e-01 1.8818514663370625e+00 -7.1641086883720728e-01 -1.6153775047456174e+00 1.0346086984932645e-01 -1.2328507039241501e+00 -9.2159629889772532e-01 5.5909986204892603e-01 1.4825320597767999e-01 1.1498391215761981e+00 2.0273945486917260e+00 3.7305159755209232e+00 5.4216713052718092e+01 -4.8080037399999132e+00 9.4264262537623322e-02 -1.1679677492840628e+00 4.7426289989487636e-01 1.9632059003022493e+00 -9.5046527314011153e-01 1.5294206517393674e+00 -1.1331772396470328e+00 -1.3280172809771922e+00 -2.5901914261179002e+01 -1.2104026001069588e+01 -3.4448234374246378e-02 2.3391197217128763e+00 -2.1111487277418917e+00 -4.5345885853204368e+00 1.0870041855835546e+00 2.0510493337808873e+00 -3.8137361099094903e+01 1.7755232090763195e+02 -1.0992472776335092e+00 1.9369865063909688e+00 2.1028982572489099e+00 -1.9432839992871891e+00 5.8071311847301494e+00 1.2850021330073000e+00 5.0467756112196982e-01 -2.8778401618098997e+01 7.3207263707526920e+01 3.1761243804913022e+00 -1.4351493748876769e+00 1.8434483008874558e-01 1.0048475768664188e+01 5.3465743355539903e+00 -4.5868912980061127e+00 6.5993043159086771e+00 -2.1004964357422989e+02 1.0055644095211676e+02 2.4533010917152097e+01 7.1119573209851286e+00 2.0412560859844497e+01 6.2494075922634295e+01 -1.4783969424447852e+01 -1.5512432634334113e+01 2.4303462310025093e+01 7.9174213819836268e+01 7.2416588526666374e+01 -1.2239523896971974e+02 4.0427274414584005e+01 4.4090946093827881e+01 1.0404526606151538e+02 -8.5984852707451367e+01 -4.3313275456584776e+01 5.0782104456544751e+01 -2.3295733105592456e+02 5.1826149482256724e+01 4.5744045825647561e+01 -1.0879948013469338e+01 8.4615119931588652e+00 -1.6427374367036109e+01 -1.6958764085835252e+01 -1.0278580608887617e+00 -5.4216450841688513e+00 7.8469186789141759e+01 6.3146859835637770e+01 5.7103278698496069e+00 -1.3942236074908037e+00 -1.6264722465227806e+00 -4.8331339423282120e+00 1.4964279528920112e+01 2.7607284968359118e+00 6.8697964280594492e-01 -1.5479032506260273e+02 2.2923103937519446e+02 -8.9751085239811417e+00 -6.1313642690873460e-01 -3.1887703480715999e+00 1.2605410738779597e+00 -2.7589251929614385e+00 -2.9209073377796066e+00 -2.3210815506244753e+00 -4.8735783053662999e+01 -2.9593998801055818e+01 7.5656792432129691e+00 4.4832148543194583e-01 2.1306487166194756e+00 3.9822770233177351e+00 9.2245085368778490e-01 4.3404617653532029e-01 -5.0858135843293706e-01 -3.7923917720369445e+01 6.8671764044835697e+01 -3.3447710776940767e+00 7.4137993243045819e-01 -1.3771813216388296e+00 1.8950693776596665e+00 3.8985531554725242e+01 5.9229399934027498e+00 -1.4858171892691299e+00 -7.0629900399334929e+01 1.3185179723912574e+02 -2.8499159217928536e+01 -2.2187945008095560e+00 -7.0393027884261343e+00 -1.5561049543246497e+01 3.5753194532121491e-01 3.5588820999649196e+00 -3.4310855993389833e-01 -3.3985473294857911e+01 -3.1657508316612393e+01 -1.8555737680529489e+00 2.0962882327358967e-01 -3.9786505241930570e-01 1.7317097939384780e+00 -2.0800254392241428e+01 -2.4454057069205950e+00 6.1471869749774499e-01 2.7060397454504209e+02 1.0211097971168658e+02 2.2279085315632017e+00 1.0612467603984257e+00 -2.9254286815146884e+00 -5.0550930921805168e+00 1.5726176256482844e+00 3.2064277164325072e+00 2.3121760256300519e+00 -1.2878639586056431e+02 -7.1407858107453649e+01 1.1067418742464952e+00 1.3110496713201769e+00 4.9148402680036440e-01 5.8353091514720603e+00 2.6761964566244387e+00 -2.2841264089812383e+00 4.0542699765211054e-01 -1.2240859749443916e+02 1.7570992028427304e+02 -1.1679521971121198e+02 2.3096030346285481e+01 2.9669890471258327e+01 2.0724308112229039e+01 -6.5249014065437763e+01 -2.1987053352577579e+01 1.3696081471539719e+01 -1.9373793503470472e+02 2.6106183048997284e+01 -1.5285518019493498e+00 -1.0555639687558482e+00 1.2525725756876671e-01 -1.7496150957711949e+00 -2.0023321817096034e+00 7.4026560651632467e-01 -6.5688093764997291e-01 1.7160817850993794e+01 9.4855055651484452e+00 
      </Row>
      <Row Index="157">
        7.2343469365443003e-02 -2.1722893579910618e-01 -5.0160537838485908e-01 5.9964914367885740e+00 -1.1406592390115031e+02 -7.2085833463346560e-01 6.6552936605047108e-01 2.5579940356714737e-01 -2.3105008526348740e+00 7.8605161855939087e+00 7.9634682814631930e-02 -1.6506403775808280e+00 2.3166223593732411e+00 3.3463444019966854e-01 -7.8624589081256602e-01 4.2131349412780850e-01 3.4858868985054414e-02 5.3072024883383619e+00 8.3752641149251758e+01 -7.9615275316900380e-02 -7.1431706540487738e-01 2.2177095212883347e-01 -1.7917577482084823e+00 -3.0649990936080513e+00 3.3952913988459166e-01 4.9614486695596653e+00 2.8200071460303775e+00 3.8421105618626683e-01 -6.1630144303848056e-03 -3.1511441101477544e-01 -1.0709878846332259e+00 -2.7913312497352081e+00 2.4505769635761794e+01 7.2964439102505096e-01 1.3368010747040415e-02 -5.5679719675623573e-02 4.8385257950132399e-01 -9.5964201166023493e+00 5.2435552920812256e-02 -3.5163050302226200e+00 -4.7427555872067728e-01 -1.0762004747471110e-01 7.2043572406602863e-02 -1.0246390052001288e+00 -2.0126773991530200e-01 -8.6951181738536434e+00 4.9695113521704940e+01 -2.1128158856059507e+00 -6.8510636692851890e-01 4.5689690974788277e-01 -7.3021768511246421e-02 2.5569198861989051e-01 9.2150347574415203e-02 -2.6369170848797268e+00 -3.7531033420837048e+00 5.4598381154937980e-02 -9.1810991997069991e-02 -9.2957520024940621e-01 -1.7775564395428489e-01 -2.2431755087965541e+00 -3.2287202277180768e+01 -1.8431568061322188e+00 -5.8783849519933540e-01 9.0395216782698018e-02 4.4208811286539174e-01 5.9595005820823665e-01 -5.0121958747677131e-01 8.3429491730190364e-01 2.6619732014630273e+00 -1.9837063404101363e-01 1.2508422001730196e+01 1.4368253433484966e+01 1.3464392599568287e-01 2.4321814022482613e-01 -5.8700983468966115e+00 4.4319512122374789e+00 -1.1867373754001171e+00 2.0544729911092592e+00 -1.6783310857341166e+02 2.1446918178291810e+02 3.0968181264156556e+00 1.5376601810257535e+00 1.6248016031854604e+00 -9.5780464158042378e-01 -3.6613368935886115e-01 1.3012212124724507e+00 -8.8867234156536767e-01 7.3421239067543866e+01 6.5881809279508161e+01 4.1241638698487577e+00 -9.9712968793594048e-01 -1.4585403649202640e+00 -1.7768458993731606e+00 -3.2813069401520609e+00 -2.1938407435485505e+00 2.8795027861744886e+00 6.2666126440979497e+01 6.9936322733444285e+01 2.7801802848904345e+00 1.5524682930288035e+01 1.7928190371455159e+01 5.3718740962980007e+00 -1.3258535681936657e+01 -1.1241047901549955e+01 1.6963140333251751e+01 -6.6339643838737175e+00 7.7527221697033269e+01 3.0236005934026480e+01 6.1007347164746388e+00 -4.8506942360289486e+01 -2.1506197640846892e+01 -1.1981393755129456e+02 -3.3463436981697354e+00 1.7967646826252661e+01 -2.5569362541168721e+02 -8.8381726553852985e+01 -6.6750644622738946e+00 3.2436586307814164e-01 1.0142364588969258e+01 -1.3075271112909601e+01 1.2305569765868388e+01 6.6565747284547605e-01 2.6455206314540547e-01 2.8339904773693524e+02 -4.8694208510749377e+01 3.9051348973416680e+00 9.4052586461736354e-01 4.2580989015277737e-02 2.8017621424524819e+00 -3.1924575649341591e-01 3.9725958230739091e+00 -2.6008397481869849e-01 2.6839126647520516e+02 2.2355031115147972e+02 9.8253285966047770e+00 4.0654547880789421e-01 -5.0405642073403669e+00 3.5181483424701128e+00 -3.8156740145502965e-01 2.2921575929152027e-01 -1.2825838491316797e+00 -1.7845630887287371e+02 6.9326298687470171e+01 -8.3673698838988457e+00 -1.1650538853759873e+00 1.0762321801259986e+00 -2.5704247596753476e+00 -1.2850453526232002e+00 -6.0918486924129489e-01 -6.8105596707183125e-01 -2.3417898635376696e+02 -5.1546027326655576e+01 8.6456732112474128e+00 4.4372027727421077e+00 -3.2234930109889319e+00 -9.9177599629431370e+00 5.9229399946550885e+00 2.3910306765738373e+01 -1.0971735252606219e+01 3.1738452843419509e+00 5.3061497765492277e+01 1.3251083719842427e+01 -4.2182563084458335e-02 -9.6905962790598323e+00 -6.7468596805565539e+00 3.6489173410814857e-01 4.2224326828878134e-01 -5.9139818734819016e-01 1.4646578718769251e+02 -1.3524810184117086e+00 -2.3020286836988589e+01 -3.0078592360418996e+00 -1.7250617315752379e+00 5.2614320065855509e+00 8.7732915449080338e+00 -1.2202122019621111e+01 6.8671758399233509e+00 3.3877402578955298e+01 2.9930724602797909e+01 4.4845851651008616e+01 -9.1314529511330944e-01 -2.0757415457055686e+00 4.2373314499015464e+00 -8.5709880109762082e-01 1.7318995187409190e+00 7.1986120192095342e+00 -2.9911688768201407e+02 -5.5856084100436419e+01 -3.5518473213696780e+00 6.9138277431008532e-02 -7.2918043397919519e-02 4.4025127489585429e+00 7.3961872440816023e-01 6.9687531723767648e-01 -2.4708062763252769e-02 1.0468333260157669e+02 1.6926035399092029e+02 2.1972428465659846e+01 -4.2631543423831930e+00 -5.7746987217351489e+01 -5.7314826161754752e+01 -7.8923344633513850e+01 2.3422530803126236e+01 -1.2584611249656582e+01 3.5103254667370493e+01 5.0929286647119362e+01 -6.7364093509900265e+00 -4.0017715818305533e-01 -3.6763741790642968e-01 -1.2204259836102231e+00 -5.2668376173371279e-01 -1.4909401100387640e+00 1.3171162044034190e-01 -8.4477975232476581e+00 5.2627351856794149e+01 
      </Row>
      <Row Index="158">
        -3.7534576607631820e-03 4.1946326654396771e-01 5.1269605148672071e-02 1.2950872328890455e+00 2.2894979851503876e+01 6.0946547858906097e-01 -4.7000829501044450e-02 1.7874177080762443e-02 -1.0029097821182553e-01 -5.0179777445385438e+00 -7.6842970698843827e-02 1.0018924178467623e+00 -1.5249622070379232e-01 1.0843764134866435e-01 6.2478705815391145e-01 -1.9896356039124559e+00 2.4567528182177512e-01 -2.8681373212224344e+00 -2.8760951677930507e+01 -1.0341728239926491e+00 -1.2773814364090086e-02 -2.2155625673463344e-01 1.6199085322948370e+00 2.5333719506408148e+00 1.4590088198644358e-01 -3.2759229962517082e+00 -3.5138016008531281e+00 -9.1130257006588788e-01 -1.9921446398288545e-01 4.3948195688583525e-01 9.6614254208056671e-01 4.8805200774549462e-01 -4.6179735144410756e+00 2.5406403591228743e-01 -3.4704694424304350e-01 -1.4270065633190221e-01 3.4932070734914333e-02 5.0463419607543054e+00 1.1179642090260344e-02 2.3793541209150115e+00 -8.5075166453499662e-02 5.9389803185205259e-02 1.5534414639888094e-01 1.5540116252169867e-01 -3.1885826075900603e-01 1.1348331469668835e+00 -4.3453338722249789e+01 -1.3695734923169667e-02 4.3789235161725149e-01 -1.7369790229106030e-01 -3.4846566033688431e-01 -7.9359409050292762e-01 1.6017287643838535e-01 1.6957712787862436e+00 2.8885292464792940e+00 -9.8431391143731228e-02 1.4472898147935354e-01 -5.2091508801597186e-01 5.1816436196558158e-01 1.7482984647757078e+00 2.5054288981246600e+01 -4.0614556217324205e-01 -3.3206811837945605e-02 -2.3703913094595896e-01 4.5464086183700569e-01 -2.9950609916535231e-01 8.1915697160101053e-01 -2.6543704544403202e-01 -3.2230714653222474e+00 -3.0696246305829744e-01 -1.4724253219393745e+01 -2.4757981611137378e+01 1.1151200557144005e+00 -1.7770854200073813e+00 3.9011162442379259e+00 -2.8874227939548796e+00 1.3211690504939327e-01 -1.7828101002077603e+00 2.3469725499471394e+02 -1.3241651422248185e+02 2.7508478788607249e+00 -1.0789451431604993e+00 -1.0611169681044714e+00 2.6650583856098820e+00 6.1148819126610832e-01 5.3829065328715009e-02 1.6480335360353608e+00 2.8516093866738629e+01 -9.8754708178432793e-01 4.8562470167144056e+00 1.0126649016419864e+00 2.1254768983673866e-01 -2.1295850464536707e+00 3.9518074149749443e+00 7.0296733472304673e-01 -2.8188885456256232e+00 2.5580282519267030e+01 -2.2753212336335594e+01 3.8298048957686319e+00 -4.4635598030692183e+00 -2.4066793107289683e+00 4.1920324356298444e-01 4.6607441296462895e+00 -2.0836684305502917e-01 -2.4755675171485869e+00 -1.3276550006142259e+02 3.4758613300260322e+01 -1.1184010111241292e+01 -9.0090943077018366e+00 4.6828060985081137e+01 -2.7764982178656439e+01 4.5586376628850431e+01 1.8668531754140481e+01 -9.6102358579618876e+00 1.3602416866539465e+02 -1.2435523502402791e+01 2.5567109210371370e+01 -8.1990896046239881e-01 -1.9696329134966390e+00 -2.9983780908735129e+00 -4.7259996790161267e+00 -6.4633684541868908e-01 -2.4655958467105954e-01 -2.7117048272985539e+02 1.8048481127697642e+01 2.0550622330589931e+01 -1.4034140303885385e+00 5.4509022871502566e-01 1.4627433227598896e+00 1.1954677951158530e+00 -1.3765923035309804e+00 2.2169680237198990e+00 -1.9505862487228342e+02 -6.8781839896312277e+01 -2.9951102079983514e+00 -5.6897526918726493e-01 1.7600843994456881e+00 3.0192335711982423e+00 4.7199967190389458e-01 -1.2612858740294230e-01 7.4617779314948629e-01 6.9435997851519232e+01 1.0006659800859666e+01 1.0021059418467189e+01 9.4712025966782853e-02 1.4038894348861959e+00 8.5784975753847448e-01 2.3801084029196318e-01 2.5005430638323323e-01 -3.2669887611426418e-02 6.1195042887021600e+01 4.6092443656303885e+00 -1.9213072263470394e+01 -2.3241626119993812e+00 1.2386227851940248e+00 7.3472429404222908e+00 -1.4858171834315073e+00 -1.0971735251249422e+01 1.1528385066323846e+01 1.6761738240391969e+02 -4.2706066016645764e+01 -5.4205759640298083e+00 -1.0703695795643049e+00 -2.5060095567018266e+00 1.5928183387932336e+01 4.6768607877337942e-01 -5.7853069888568420e-02 2.4384582250927700e-01 4.5747986963761832e+01 3.4716055079688886e+00 2.0013829854614812e+01 1.6593696380372909e+00 -1.0303310583614689e-01 -4.3910266315487547e+00 -6.4148819230549048e+00 6.0496451593385538e+00 -8.3201547304953056e+00 -8.7071163378461279e+01 2.9331646360472178e+01 -2.0686650250480454e+01 -1.2575573167539700e+00 9.2753993229695197e-01 8.1163731486149970e-02 8.3394243137371227e-01 1.2141279320670282e+00 -7.6501477125966915e+00 2.5451175507210274e+02 -1.2067068193647174e+01 5.6023214756007746e+00 7.3926232255487534e-01 1.5556756260714764e+00 -3.2239119781057965e+00 -8.4574946397719941e-01 -1.6364452811682497e+00 2.4152521661585169e-01 9.9277019306964576e+00 -9.2811429949624539e+01 -1.4815203787564286e+01 -6.4401268180076876e+00 4.7629572547145699e+01 -1.7480842543950274e+01 2.5814956937171530e+01 1.0840960981082123e+01 7.7333365428496865e+00 1.7086242810925114e+01 -1.3685008764352034e+01 2.1115529729772731e-01 -6.2279905695206139e-03 1.5949996419725188e-01 3.0496433259512035e-01 4.5710681902197647e-01 8.1797763484710906e-01 -1.6011746170962624e+00 -2.8120097656018601e+01 1.4325207285769240e+01 
      </Row>
      <Row Index="159">
        1.6780196118497884e+01 -2.3043024985273405e+01 2.6081592265054496e+00 2.8311193270121294e+02 -1.0294000838711218e+03 -6.8484822820671980e+01 -9.4779285529612025e+00 -3.1088933638327717e+01 -1.0272934808922128e+02 -4.4237208758137399e+01 -1.3151419033728814e+01 6.6438492742694734e+01 1.4932047155707278e+02 -3.1081932604551419e+00 7.8312778782237729e+00 -2.9287823920637038e+01 -4.4769404406251851e+00 -1.0808463928871788e+01 -7.0309379189000465e+03 -3.8033755126253709e+01 -1.5604351275674617e+01 -5.4537799620938515e+01 -1.3378958495751431e+02 4.8835031842800163e+01 -2.6987130292632855e+01 -2.6077514625557797e+01 -2.7732102983057121e+02 2.1021074181204426e+01 6.7278663061179032e+00 2.7269528185132003e+01 -4.0265977081617166e-02 -5.9032499916254892e+01 4.8275768185353081e+02 -7.8376695905430552e+01 -2.4507348952420216e+00 2.1827050862358647e+01 -9.6079760109932977e+00 6.0025740050985803e+01 -6.6789411552063029e+00 -9.8785627332579793e+00 -3.3247776635209448e+01 3.1547628638790570e+00 1.5795927959548635e+01 -1.8689705367371062e+01 1.0924179287805600e+01 -7.1645675938619388e+02 1.1032924995436231e+04 -1.0716872856260989e+02 1.1970754965696869e+01 -4.0465224072161618e+01 1.7673514096514737e+01 3.0793872552335159e+01 -1.6578665342038263e+01 2.7077259119395194e+01 3.4917926338266989e+02 5.3023902871430550e-01 1.1054020362466872e+00 1.0276471547967958e-02 4.0971172239448606e+01 4.3970593748947067e+02 -1.4860589617013698e+04 -5.3208724010157624e+01 1.4530917366783683e+01 9.0044514829214108e+00 3.2393469587217396e+01 -3.6750271015278145e+01 -2.3929156038671788e+01 -3.9965071835830486e+01 -1.9989576835174330e+02 4.2019517242399615e+00 -5.1276056783326057e+03 1.9783170338768832e+02 -1.9156452184655848e+01 9.6105319253838388e+00 4.9166121074653347e+01 1.4934443753510823e+02 -4.2094217120533997e+01 -6.7775291795930897e+01 -4.8999656134880206e+03 9.1453995378767650e+02 4.5842993373036152e+03 1.2084647373638902e+01 3.8170891424044385e+01 5.0964443526463583e+00 -1.6268462827786607e+01 -1.2506956531324690e+01 -4.3879907737946908e+01 -2.7862613674939261e+04 -4.6557350891433307e+03 -2.8959371218910383e+03 -2.8138798552222951e+01 8.5479349138518046e+01 4.7178983924098247e+01 -1.9699906668513108e+01 -5.9625127703878348e+01 5.3327992828213716e+01 2.1318625679999532e+04 3.1643847291899874e+03 -1.4731783610087587e+03 6.6189430767219778e+02 8.7015606094004033e+02 -1.1254589938142581e+03 -1.1235880371309895e+03 2.3418283869715941e+02 -1.0636562402288857e+03 -2.9025619222230162e+03 -6.4101005876487870e+03 -9.4416586013183696e+03 4.5810921320885373e+03 6.3989614773659559e+03 -1.0626215582885197e+04 -1.5484098350168089e+04 -1.6027841233374381e+03 2.7113803605264661e+03 2.8939140243364964e+04 1.5274500987161300e+03 -3.8870702295083611e+03 2.8374871145517062e+02 5.6020769867222407e+02 -2.1868911702099722e+03 7.1298175185093748e+02 2.0443277400875172e+02 2.0116325350144467e+02 -4.3114955847861478e+04 2.5239376063777017e+03 4.6958233641099650e+02 5.0643607509573570e+01 -8.4320300758525264e+01 1.6233543915364316e+02 5.5364840307847771e+00 3.6758445178663351e+01 7.8813889014915944e+01 -1.5635305561810965e+03 -9.7711323769844603e+02 -1.9124876296950497e+03 2.2455547221675129e+01 8.0041155734546919e+01 6.5351532551692799e+01 -9.0618441345841347e+01 7.0449163091975521e+01 5.3860276002877470e+01 1.0164491402724409e+04 -3.1822081795551348e+03 1.4325932410278765e+03 -6.8301505032179591e+01 -8.5749264605532517e+01 -1.3179426996286202e+02 -1.6208718688922090e+01 1.7638409221238646e+01 -1.4126854107086729e+01 2.2106765814444516e+03 4.2932543025579944e+03 -3.7461219680412323e+03 2.6199061483400847e+01 -1.5948591432068497e+01 1.7907381245217402e+02 -7.0629898254540421e+01 3.1738448207166670e+00 1.6761738124833357e+02 7.1786866632348858e+04 -1.3951404935108731e+03 4.9233872880573617e+03 5.8439128795577147e+01 -5.5566837528975157e+01 1.1432398291793652e+02 1.4802848596868262e+02 4.5029559663796817e+01 -5.5138005349167088e+01 -2.5962983959683974e+04 -2.6753291823458858e+03 1.9777814533710334e+03 -2.3888649833936825e+01 -1.9418805055851408e+01 -6.3810454657577793e+01 1.6647622385896830e+02 1.2003689162381761e+01 -8.6246717780031418e+01 -8.7787764477070887e+04 -3.4881578727508750e+03 7.4748304211832874e+02 -3.5000854882201418e+02 -1.6962619589033420e+02 5.8052691050779868e+02 -3.1844442178141639e+02 -4.2950491762570266e+01 1.0931981203686803e+02 -1.0112112557640950e+04 3.6889386068892200e+03 -9.9098217495775316e+01 -1.2581325896592716e+01 -7.1268344580166740e+00 -1.2434482482031672e+02 -1.9175838521303376e+01 1.2347338324604834e+01 1.1587034219540328e+01 5.1449188560009934e+03 -6.1767374888767517e+02 -9.6392877288303771e+03 4.5204852098553420e+03 5.9785347176355426e+03 -1.2456123764492497e+04 -1.3265216446285365e+04 -1.4675332533236044e+03 3.9277714830371488e+03 2.3233816042917839e+04 -2.9133411551791969e+03 -6.1157925032797243e+02 5.2508290221048810e+00 3.5014174875045711e+01 -3.6058750780075570e+00 -2.8384489164601518e+01 4.4280998825895722e+01 1.2619154445201275e+00 -8.7017564038163200e+03 5.2198179180919778e+03 
      </Row>
      <Row Index="160">
        2.2792154999962406e+01 -7.4717678492895175e+01 1.0629916952611893e+00 -1.2432480208201741e+02 1.9958594893780100e+03 8.7835773225594039e+01 1.6732883219033283e+01 7.7506856788556888e+01 -2.7622123344313877e+01 3.7352364909221478e+00 7.5586197244424056e+01 -6.3674933382044401e+00 6.6010187362015131e+01 9.9825801858814032e+00 -9.8694934265093252e+01 3.8103399953370172e+01 3.4392641118756728e-01 2.0968589299812447e+02 -3.0628544498989359e+03 -2.7705932370608025e+02 4.2159203532906758e+01 5.2563996564833815e+01 6.2657557185534188e+01 -1.2213072538456800e+01 -2.6711122414931651e+01 1.1887083111550055e+01 1.0054432244010241e+02 8.8564502246647635e+01 -1.1971146373980446e-02 -1.7568253923094744e+01 -3.8839946051101833e+01 1.1339743931603152e+00 2.9281335981322627e+02 4.4828139784165160e+00 2.0285307301014655e+00 -1.4537543147820998e+01 6.9183739109212183e-01 -2.2967417438687107e+01 2.9729246420856725e-02 -2.3536491690189109e+01 4.6544224803692487e+00 1.9451231635167687e+00 -7.9474796589906873e+00 1.4240654175664531e+00 1.3855597668729388e+01 4.4595458247640636e+00 1.5963789069450286e+01 7.1201203413611893e+01 -2.2283164119924550e+01 6.8873334826166683e+01 6.8902974657808045e+00 6.4402329513033294e+00 4.1196895315241918e+01 -1.6754101726475767e+01 -1.0473026298735931e+02 2.1303850359795319e+01 -4.5903090648103557e+01 6.3586379326864972e+01 -1.8683170363538011e+01 7.8760468907115865e+01 -2.2066752685960382e+03 -5.1932138805806289e+00 -1.4809882418883944e+01 -2.9940380840647776e+01 2.9891577816912559e+01 2.6599084696673060e+01 -4.0244377666779002e+01 7.7990513244435533e+00 4.0664096704907934e+01 1.4798961615512965e+01 -3.0185184577784676e+03 -9.1084046740184931e+01 -4.6161078154989355e-01 7.7543952915759291e+01 -2.0619833865610417e+02 -5.9410722061971683e+01 6.2653914441049814e+01 6.4656238467884464e+01 1.2081278481349582e+03 2.2540453683660839e+04 2.8638412852337933e+02 5.7460712933472998e+01 -6.0631486663522082e+01 -7.6122511154448148e+01 -3.2688135830967440e+01 -1.8791978456482163e+01 6.8133313362430670e+00 1.6635594263409730e+03 -7.7530886558765778e+03 1.5183004438683565e+02 -4.4190673249353118e+01 3.0359218353486085e+01 7.5918527458458811e+01 8.5437334879830189e+01 -4.7579599964987921e+01 9.4721677968110143e+01 -1.7408889846295933e+03 4.0844936814064567e+02 -4.6031105200370075e+02 -4.8249031085533545e+01 1.5704143544424733e+02 2.7654631967572823e+02 1.2840384861069015e+02 5.9933654842020246e+01 4.6269938808921103e+02 -1.1181332895109663e+03 1.0228526348254152e+04 -3.7780004253781226e+03 4.4737252390711728e+02 9.3718491270202867e+02 7.4314168622909347e+02 2.6008107209082880e+01 1.1087287270544946e+03 1.7374927628256955e+02 -2.9249933327217586e+03 -2.6953283489163114e+03 -2.4115497432724806e+02 1.1634119282018080e+01 4.7161247938434826e+02 -1.1098752942554468e+03 -7.8085401261241259e+01 7.9200724232760649e+01 1.8559409202279067e+01 1.1213660366530530e+03 9.2199826995651238e+03 2.0844332751660841e+02 -7.3388498344926347e+01 -4.1579479010892101e+01 -1.6473197874157268e+02 1.5593324855345418e+02 -1.3074487208716619e+01 -1.1153759355265824e+02 1.4829814285576576e+03 2.5764833403231314e+04 3.8738367645477410e+01 -1.1477863608363213e+01 -1.6411363532448740e+02 -4.1004259573324816e+01 1.9858839995549715e+01 -1.1592452955357979e+02 -6.3001699567117299e+01 9.4629320528218523e+02 -2.9463940397561528e+03 -3.6687532807001844e+01 -1.2205012721849698e+01 -9.7552216272160877e+01 2.2538252374281001e+02 1.0853493934493599e+01 -4.6336690150685868e+01 5.4148254668536993e+00 1.0739549291691510e+03 3.9194042512027954e+03 3.2529835072811693e+01 1.1105796968781032e+01 1.8803248361073202e+01 -8.9450052769447211e+01 1.3185179888636685e+02 5.3061499054752844e+01 -4.2706066659869080e+01 -1.3951405906351283e+03 2.7233517943378887e+04 3.8654033119452652e+02 -1.3868638925178971e+02 -3.4371583436389483e+02 -5.6014558943343582e+02 -1.3001425062953786e+01 -1.1225714305153815e+02 2.4457053817924134e+01 2.0912437933844849e+03 -5.4805647021709010e+03 -1.0508090978162363e+02 -1.2080133432822208e+01 1.6305941565457033e+01 7.2166874459886458e+01 -3.0664504916795522e+01 -2.5720878856056970e+01 7.2838525653509393e+01 2.9726652707883622e+03 3.7843254045537469e+04 2.9517231805513438e+02 8.3524461430913803e+01 -9.0253774138138397e+01 -1.0298193650122994e+02 -2.6910594884880027e+01 -3.3750352301969059e+01 -1.5453580118379136e+01 2.4404007991121080e+03 1.8463939291830175e+03 -2.3045386481028982e+02 -4.0781432447807219e+01 -1.7344287589534360e+01 2.5437509777999003e+02 6.8807762599011767e+01 1.2572536221546443e+02 1.3850874656502128e+01 3.1336299404753372e+03 1.4572210609329435e+04 -3.8002230584676026e+03 4.3440404867837651e+02 1.0807430541290669e+03 -6.5864923009249469e+02 -5.6737233883959561e+01 1.1995280022071083e+03 -3.5505286139223739e+02 -6.9339283335259825e+02 -6.7631946575235888e+03 2.9178502089823244e+01 -4.9060097671972471e+01 4.8415714177582103e+00 -3.8453065124459954e+01 -3.1789370531449322e+01 2.0082199559784385e+01 9.8477710431368905e+01 8.1390716794512173e+01 -6.6588062872619430e+03 
      </Row>
      <Row Index="161">
        -1.3313401103431488e+00 1.6554471494416021e+01 -4.5845005016277582e+00 -2.5448695739286450e+01 2.1797479091656623e+02 -7.6770758234136849e+01 5.1330121204478019e-01 -3.9242567525121785e+00 -5.4581758031107711e+01 1.1114800920085694e+01 8.8984599440348440e+00 -5.4367331073893865e-01 2.0115190364511648e+01 -6.6873206225845827e-01 7.2615461995301303e+00 -5.5905618105529697e+00 -1.5722926068908691e+00 1.1865275740133438e+02 -2.5591751449213152e+03 7.2829996089596477e+01 -1.1028606368886059e+01 -2.3657693311829808e+00 -2.5892661272138810e+01 -2.1387945861768912e+01 6.3287163617732176e+00 -4.5650469724777167e+00 -3.2235145949098296e+00 5.2501399165612952e+00 -1.2681318706045772e+00 2.7095879976707238e+00 -2.8652473037271875e+00 9.1192169860278227e-02 9.3492110723152564e+01 -2.5364053464110455e+01 -6.5619548517379371e+00 -9.1815366840779689e-01 -1.8575540408547226e+00 -3.6556398333010520e+00 7.1156459697859020e-01 -1.8640711320771075e+00 -1.3278353947627693e+01 -1.2142625807571861e-01 -1.1959880353019514e-01 1.0856885083977659e+00 -2.6428843631177870e+00 -2.3391405503378974e+02 4.2210653478455970e+03 -2.5756929184310906e+01 -6.4884254743589054e-01 5.2960492297904693e-01 1.3783907660835283e+01 3.3883543739364939e+00 9.5614406514338768e+00 9.3664920557127829e-02 6.8341876157307979e+01 -2.2431213356318764e+00 1.7397731431284100e+00 -1.7061628046473487e+01 -5.8937823413924662e+00 1.5088064079410606e+02 -7.4055438112195770e+02 3.5691394236653416e+01 -6.8801731265900870e+00 2.6389151565557079e+00 2.7408776074429184e+01 -9.2349495225757288e+00 4.6446763683455590e+00 -2.5474353424296368e+00 -1.0434722675044839e+01 -1.5102418186976507e-01 -1.0439359954195115e+03 5.9723665252282956e+02 -6.7609298587606759e-01 -1.0697216045282403e+01 4.5767095891600547e+01 3.9531379394257272e+01 -7.0071399334438489e+00 3.8862305324510276e+00 -5.4615119063866896e+03 7.5121547680058279e+02 2.0984916821685911e+03 -1.1492275390673985e+01 -1.1239396676907290e+01 5.0769832556468828e+01 -7.6086035607096392e+00 -8.1359185138130421e+00 -3.4447049907142819e+00 -2.7520599212717862e+03 -1.1463174017652582e+03 -2.0128575901996628e+03 -6.1910238538585527e-01 6.9957793022184944e+00 -5.4354371728191808e+01 -2.1501871513845117e+01 1.2356079855888652e+01 -5.3379915724786287e+00 3.4093442919664267e+03 -1.5960294625016022e+03 -1.6824016025341271e+03 2.3159855695653351e+02 2.0023817099514736e+02 -9.6799669220022054e+02 -2.4544752143651141e+02 -2.6444515976683101e+02 4.8960972492787732e+01 -4.2094460754300999e+03 -1.3998759191723921e+03 -1.4444452463844882e+03 4.8391922733562183e+02 1.2066639423904981e+03 2.8529576509850267e+02 -1.9325435554004300e+03 -2.6345074018080931e+02 3.6909180970764476e+02 -4.6999341755662972e+03 -7.3374651982600381e+02 -1.1777038766455917e+03 1.4510403053334454e+02 1.2974845157918026e+01 -4.0173553083032402e+01 1.7621883686474843e+02 4.5028909057787779e+01 8.0248456310434563e+01 2.9295973409389699e+03 8.3781066508840377e+02 8.2270615618708689e+02 -1.5900478308875410e+01 2.5570331880371668e+00 4.3780060299996819e+01 -2.6055828671670724e+01 -3.8354903854667057e+00 -1.3298668635245438e+01 -2.9929945436141134e+02 -3.7274439720639111e+02 -3.9165501316062978e+02 -2.3300961487695853e+00 -2.9064453787120783e+01 2.9939759106691781e+01 -3.5373326171440226e+01 -6.9278096989559401e-01 1.5269215924644985e+00 -7.8046959531956963e+02 -4.5983531393198064e+01 1.5581823784003427e+02 -3.2064005900453516e+01 -1.9371539430093435e+01 5.0518523444392486e+01 -2.5366749430174877e+00 1.2220992979919467e+01 -8.3913538850080016e+00 -1.0237868024729978e+03 1.3668714184169703e+03 -4.8335747026468744e+02 8.7330463247089085e+00 2.0906030072887006e+01 -2.1599277136538149e+00 -2.8499158880377792e+01 1.3251083788189604e+01 -5.4205761602960791e+00 4.9233872678060579e+03 3.8654033342846742e+02 3.2614636014064381e+03 -2.4156515475500115e+01 -6.2755109684338777e+01 1.1477642301593733e+02 -3.3685958697588092e+01 -2.3050472203410521e+01 5.1609735496986389e+00 -1.2314491848898935e+04 -8.3711981415716218e+02 7.7578730435146099e+01 -7.1812186444080339e+00 -1.4058374319441100e+01 -9.0300324129475484e+00 4.0064410844504380e+01 -4.0973384617297768e+00 2.4443776956578933e-01 -5.2028131630727730e+03 1.3404126666496791e+03 7.7092548636857555e+02 -8.3064383612139451e+01 9.6504371144081233e+01 1.3434989349795944e+02 -1.0705488646312401e+02 -5.1915536526568076e+00 -8.2042959278762169e+00 -9.9249170836956364e+02 4.2899046561113209e+01 -6.7530032795285661e+02 1.3510421313942800e+00 1.6954054276640363e+01 -1.0417490914512200e+01 4.2340841660329716e+00 3.4987669412324891e+00 4.6453897732325800e+00 4.0511041907261242e+03 1.1495428436809584e+03 9.8896636022716939e+02 4.2969757062922224e+02 9.2517466119946403e+02 1.2155422773200480e+03 -1.4007021834752272e+03 4.9831185572857464e+01 3.8374289529097427e+02 2.5247658629500802e+03 -8.6715616565008520e+02 3.2251077011997637e+01 -4.2112547332476424e-01 -1.3964102474958782e+01 -1.8192441928912473e+01 -3.5410572225172601e+00 1.7265083108063664e+00 -4.5117753409690522e+00 -1.1401934851164649e+03 3.0685595054452631e+02 
      </Row>
      <Row Index="162">
        5.1317036393486815e-01 -4.2125269529561749e-01 9.4360601695811397e-01 2.4125141912742265e+00 -1.0411180382289876e+02 6.2473107401582002e+00 -7.1636485273504569e-01 -1.5547629117362209e+00 2.5656140840187831e+00 -3.7388191055214781e-01 -3.0380038396042508e+00 2.8158372447471613e-01 1.0498556323621457e+00 -1.5236565839747724e+00 -6.6733737601617804e-01 7.1031913349813181e-01 2.3010672794515585e-01 -6.4483467827921004e+00 -7.1132277174380306e+01 -1.5060275661935627e+00 -3.5636407246908597e-01 -1.1802622207375046e-02 -2.6172891415378867e+00 3.5323766413998214e-01 -1.1366274488061512e+00 7.9943256654420480e-02 -5.2149204796899085e-01 1.1868381761870106e+00 -2.5882297395236620e-01 -9.3885644491771814e-01 1.2754971210488222e+00 -4.1186302404111075e-01 -6.1450275037568076e+00 5.6566743493156935e-01 3.6073221876575090e-01 6.8383527279148737e-01 -1.5865344066691023e-01 4.8316964289290798e-01 -3.0189453622898998e-01 3.9283279199116450e-02 6.7343580364126865e-01 1.1929564317363472e-01 8.7015250452476423e-01 -1.2257206470431896e+00 1.5579448608115953e-01 2.1346646704972727e-01 -1.1179017929352540e+01 6.6131200100078402e-01 6.8956226718136548e-01 -1.3997449138269573e+00 -3.2386806086912499e+00 4.9475608890175593e-01 -2.8368425656083152e+00 -1.7532730293988696e-01 6.9923164527835979e-02 -2.3025900498211616e-01 -4.2159750596826351e-01 7.2550130984261685e-01 2.6220176127884542e-01 -5.3578613939222919e-02 -3.1994924643088780e+01 2.1719554826827991e+00 8.6922777090999670e-01 8.3189645297535209e-01 -3.0803262411992058e+00 -6.2280488036101422e-02 -1.0864204813820746e+00 -5.7293674040281317e-01 -9.7994731044586914e-01 1.4203619924649182e+00 5.2055437215876850e+01 -4.5785727218081718e-02 1.2091391771809505e+00 1.8391156822531229e-02 1.7107236174468881e+00 -5.7841834638436040e-01 1.5466289836323810e+00 1.8758249299146903e+00 -1.7637048885896320e+01 -8.8775185002845063e+01 -1.0280424227979665e+01 1.9649476020826691e+00 3.1918950505263979e+00 -3.2713726665422200e+00 1.6930370629820501e+00 1.3566296673611162e+00 -9.5952662670396904e-01 -5.2808552977469844e+01 1.7224709222892670e+01 9.4232110623289032e+00 1.3889687939277893e+00 1.1099088025395680e+00 -1.8460134036650029e+00 5.5550521631764038e-01 2.6697680127299872e-01 -1.7068052344392473e+00 -3.2715831394030374e+01 -3.2754590757473579e+01 2.7953723025694671e+01 -1.5441172820011246e+00 -7.4182987875602180e-02 -2.7151122386449060e+00 -9.4704549443805064e-01 3.6644972101377391e+00 -2.7582275617569909e+01 3.0577867034835208e+01 1.6117125226995353e+02 1.6782584813694069e+02 -3.1974319227906033e+01 -7.4408920699386414e+01 -5.5766049855886848e+01 -1.3610259078871792e+01 -3.7966457521850941e+01 -5.0006149390177249e+01 1.2539706952638426e+01 1.6177463909280098e+02 5.7445873793100191e+00 -2.2416436528134063e+00 -1.4715631540370850e+00 1.1961075344884799e+01 -2.8146200890481863e+00 1.2313265206729342e+00 1.7695737097381001e+00 -1.1432662347343467e+01 -4.9493941834332418e+01 -7.6352725201870726e+00 3.9694667828501018e+00 -1.5554378173721943e+00 2.1850026561295977e-01 1.9195771900685088e-01 -8.4926827305592090e-01 2.9179826661809924e+00 -4.6688506665610475e+01 -2.7025919430243596e+02 -2.9045476947244993e+00 1.7839378452386567e+00 3.6118937224926810e+00 -3.3032459046893337e+00 1.9757247271613920e+00 2.3245770299875321e+00 1.1306976044507600e-01 -4.2714640532124122e+01 -1.0013649392200159e+02 -6.9948825591382047e-02 1.7024902722900974e+00 4.2182470779393952e+00 -3.4005459725950118e+00 1.9095637987368264e-01 -1.8278119736265714e+00 2.0616253274686436e-01 -1.8946390590508599e+00 -2.3455680289717293e+01 -1.2702367338470140e+00 1.5213837631657745e-01 -6.5000901187045201e-01 -6.3395415804109234e-01 -2.2187945161175833e+00 -4.2182573079312391e-02 -1.0703695685929473e+00 5.8439132114102904e+01 -1.3868638883139579e+02 -2.4156515289624394e+01 1.3437144614663987e+01 1.0915750401140087e+01 6.8296811088687264e+00 6.0770460030628968e+00 2.9008547158060711e+00 -2.2500727491199974e+00 -9.6120781344444367e+01 4.0161029046189469e+01 -3.4871040609302781e+00 -2.4186445471739271e-01 1.2285661988635184e+00 9.6064178977337633e-01 5.0118716579052958e-01 2.9850936694276786e-01 9.7188287178064781e-01 -6.8192897461401117e+01 -1.1097424931306534e+01 -1.0196037630227238e+01 5.2652402713328916e-01 -6.3151417002241033e+00 -3.3843375245060372e+00 1.5874263796146160e+00 -9.6305551972687156e-02 1.0970621133786565e+01 -5.1771422259977044e+01 7.8892115907492553e+01 1.3328165252728468e+01 -4.2045886142087241e+00 -3.1869940589956514e-01 -4.9649213350967614e+00 -1.1238244691081150e+00 2.3577253731090599e+00 -1.7551029223393542e+00 4.6221329476538813e+00 -1.1429997906397585e+02 1.4371395356041182e+02 -3.0409398919853100e+01 -6.5874842059916546e+01 -3.5683647565739932e+01 -1.7092555270923597e+01 -4.0241448057339035e+01 -2.5744484385510958e+01 2.2078704160175675e+01 3.1445336823816543e+01 -2.2689198204251388e+00 4.2204368839574613e-01 4.9600602454268942e-02 8.1944803352532247e-01 2.4150899677532944e-01 -6.4972750123703449e-01 6.5550658677011597e-02 -2.2854053560549019e+00 3.0195030160857581e+01 
      </Row>
      <Row Index="163">
        4.1529176282553495e+00 -4.5647818501467441e+00 3.3781421126624309e+00 1.1182967834878127e+01 1.0740525204198320e+02 4.8466617520953612e+00 5.5831079318014858e+00 -2.0311941694736980e+01 -1.8176177119769598e+01 -4.1221019656754772e+00 -4.2066142501569637e+00 1.1614981573340089e+00 4.8506633965403978e-01 -1.2336598236719873e+00 1.5058261463376354e+01 4.0536437338017492e+00 -4.1073664369851031e+00 3.0393045769370474e+01 7.0335525931811208e+02 -1.2770052825188678e+01 5.0884577099064572e+00 -8.5280443761740745e+00 4.2773854719665025e+01 6.5647955249603740e+00 -1.2354711244067527e+01 1.7252643186992245e+00 -1.2390413988035903e+01 1.0341573498638178e+01 1.8197923954261483e+00 1.6880804603374315e+00 6.8854000971031937e+00 -1.0341391274063540e+01 -1.3097738190628991e+02 8.3047401256217768e-01 2.2189229819760357e+00 5.1594609216607807e+00 -1.2193311462032170e+00 5.0290803178979333e+00 -3.1928281221360599e-01 1.9168888281828238e+00 4.0210307951925870e+00 1.0952655430655822e-01 -9.4193135690419183e-01 -3.8816016715140904e+00 -1.2758145911362533e+00 1.4112135088902050e+01 -1.7571406550624877e+02 7.0745687055742792e+00 2.9415263668153813e-01 -1.2273987937155141e+01 7.5994437151646537e+00 1.1951679401434472e+00 -6.9822115261374904e+00 1.9448518386834515e+00 4.2059680828392629e+00 -2.4374467538337274e-02 -1.7289526047341219e+00 7.6285016742107743e+00 -2.7642270304763343e+00 7.6040175174097158e-01 2.3988743480078301e+02 1.0847554133066355e+00 -2.8200209729322978e+00 9.0881658777714485e+00 2.1531179279773596e+01 -1.1884849082564561e+00 -6.1014393318798277e+00 5.3897059542960335e-01 -1.4049036282065998e+01 3.0898825521539752e+00 -2.7277207313741769e+02 1.0376081095943618e+01 -2.3977028345214482e+01 5.5216765084610188e+01 6.1487180353274198e+00 -1.6657750372817219e+01 -2.0536166681078075e+01 -1.5501064138615323e+01 -1.9791867990890205e+02 -1.7874335046927388e+02 -1.0541754156580510e+01 3.5257178126403144e+00 1.1139097518094673e+02 -2.0391185435254556e+01 4.5913470209111296e+00 -6.5807565118700309e+00 -7.5673341844294617e+00 -1.6671937884189174e+02 -2.7414979459818915e+02 3.8357503839144556e+01 1.4866624083264162e+00 5.3198945784751437e+01 -2.5685450010300023e+01 -1.8173535593881979e+01 1.3233602076433332e+01 -2.0349199255345248e+01 -2.7835115226501148e+02 -8.8636847078005076e+01 6.7213797552678670e+01 -1.3479370569499217e+01 -4.5716577692289462e+01 7.7740622132751255e+01 1.0193896092292931e+00 4.6886324163449189e+01 -7.4160668772676445e+01 4.3672311310984151e+02 -4.3232018430694444e+02 -3.1231566198149653e+02 -1.3438495062241635e+01 -1.1044387862830756e+03 -9.1007063842740195e+01 1.6657759750988575e+02 -8.2715022593064219e+01 -9.6244304781257568e+01 1.4169710373951330e+02 3.4401885296698248e+02 6.4674593630863001e+01 -6.2059620922731007e+00 -1.8555397260055452e+02 2.6916488653272563e+02 -2.3970217280199112e+01 -5.3604561220434341e+00 1.6415271173805257e+00 -1.8505424203941584e+02 -1.8250539958044101e+00 -6.3024612677675577e+01 1.3438250338396074e-02 -2.1907906854282373e+01 2.3867301865768553e+01 1.9384024756696562e+01 -1.3404298391430984e+00 6.3950250975148748e+00 -5.2080976098131941e+00 -3.0083529500167697e+02 -4.9487892992114325e+01 1.3087608113424809e+01 1.0807693453565963e+02 3.9244875479573238e+01 1.6407222628127442e+00 2.9481745480838264e+01 1.6174233743608589e+01 -2.6382221284474872e+02 -1.4789734490100545e+02 -1.1937552479733768e+01 -6.7333699844850692e+00 -7.7512473618422746e+01 -3.1328737667809946e+01 2.7213762908083368e+00 2.8806062168535016e+00 -1.3346740714342182e+00 8.8344942886997160e+00 8.9649703655488793e+01 -2.0091421571094543e+01 -2.4355009522791793e-02 1.2530949425679410e+01 7.5312234804418949e+00 -7.0393027668008230e+00 -9.6905962861224850e+00 -2.5060095414090409e+00 -5.5566831966003519e+01 -3.4371583301213286e+02 -6.2755109122141221e+01 1.0915750355036746e+01 6.1322857649969535e+02 5.8056739400684364e+01 1.9883546872009418e+01 6.1774270963017415e+00 -8.9180336751580995e+00 4.7647799840788593e+01 -1.1226261502697525e+01 1.1369690032945982e+01 6.3630857431108545e-01 1.6793750634753451e+01 1.1886210723587283e+00 -2.6154446549492434e+00 8.6159352401536644e+00 3.7927388857037236e-01 1.1213388620763726e+02 5.2053246009881150e+02 -6.3665840914415639e+01 -1.0951917813481280e+01 -1.2140667702047949e+02 -1.7965662156806502e+01 1.1403067342345960e+01 -1.1636533430602524e+01 4.6652238765664919e+01 -6.5898304982853483e+02 4.1346331640059361e+02 -1.8322576931607728e+01 -6.7503408685638746e+00 -7.9318508167913706e+01 -3.9820270648501889e+01 4.5939930671413549e+00 1.1574474631501992e+01 -3.7935427734122698e+00 -1.1334850756321248e+02 -9.7642625001692522e+02 -3.4636394269796756e+02 -1.3195337331590334e+01 -9.5299103866404857e+02 1.1676900249564869e+02 1.4331322942645988e+02 -1.3823880129341234e+02 -5.1470906857009851e+01 -1.3321243791053712e+02 -7.0527881421533934e+01 -2.0703356484501860e+00 -4.9226340230632673e+00 -1.2610246937732628e+00 2.6167158430886914e+00 -3.5271396668040644e-01 -5.2909527409975112e+00 -2.6145072393258033e+00 9.9749129560525667e+00 -9.1125332783349720e+01 
      </Row>
      <Row Index="164">
        3.2264231181538352e+00 -1.3157954516184716e+01 -1.5025442351186413e+00 1.6942959933332986e+00 6.0473761518026095e+02 -1.0116135849684085e+00 3.8495619337081415e+00 -1.6403890399742430e+01 -3.8099062000276533e+01 -4.6102001934157428e+00 -6.7555843803063720e+00 3.5651720462475183e+00 1.1657790332610901e+01 2.2226698493272266e+00 1.4577158227321746e+01 -2.3297904051284874e+01 -5.1112944371790832e+00 -6.2189605052930915e+01 -2.2055344103555244e+03 -6.0603652247858975e+00 2.2284841484276505e+00 -9.5181342304253835e+00 5.4051172816891125e+01 3.2207549543099319e+00 -5.0176778019864798e+00 -4.4682895703960313e+00 -1.9794473975726703e+01 -5.0479191782384625e+00 -4.7439725984913323e+00 1.2509733634565094e+01 -3.7511777916813891e+00 3.7596200338543895e+00 -1.5098165457754658e+02 -4.5110354142715412e+00 -8.6066710405422668e+00 3.7651066336656633e+00 -1.7198693617562171e+00 3.8811879704810561e+00 -2.7923048950092522e-01 1.8661414404661869e-01 -6.4677743746220244e+00 8.3185111701018499e-03 4.9159491437301313e+00 -1.0617721638803346e+01 -2.7801155255183616e+00 1.6998511229955284e+01 9.3157369869591378e+00 -1.1135058147970437e+01 1.1539213229003700e+00 -1.1811200843672239e+01 4.3473067112559161e+00 -2.1311532840499070e-01 -5.0102282538573988e+00 3.6088725152274597e+00 -2.4543514360251947e+01 -2.5552032096560726e+00 2.2480621855240139e+00 -3.4081679624116568e+00 2.6640416386738508e+00 1.9781464926259531e+01 1.6250715578824374e+03 3.5536050167457738e+00 1.1555802902356103e+00 3.3963504099096284e+00 3.5835739307138880e+01 -2.9411166338631323e+00 6.7256472904469433e-01 -1.4592709302036653e+00 -5.4461954191075677e+00 -5.0987750914012508e+00 -3.2558517928241258e+02 2.9065021240584244e+01 2.1368994965975801e+01 -1.7920296466204491e+01 1.7581772273538957e+02 1.2545115457574795e+01 -4.8574108329019126e+00 1.2871356771263972e+01 5.2695675167674608e+02 -5.5604744516928849e+02 5.0191151931419199e+01 -1.7744753397974922e-01 2.6825830492268551e+01 3.0174035089085100e+02 1.1223012947962289e+01 -1.5306212913064279e+00 1.3024106309447134e+00 -9.7180223807208677e+01 1.0998375444727435e+02 -3.0713533461620887e+02 -5.3110540201447103e+00 2.9709736927022185e+01 -5.4241405444369164e+01 -1.8394288339684923e+02 -9.3411326913007890e+00 2.1853838538158598e+01 4.0761746483800152e+02 -8.0042253825322018e+02 -2.6280110821764686e+02 -2.1583470456872959e+01 -1.7990061533494094e+02 -6.1564402881182809e+02 3.2304140336198628e+01 6.2996963625335567e+01 5.5827289956133853e+01 1.8334492341301620e+02 1.0656746017925070e+03 1.3565480704463680e+03 -5.5367824140506104e+02 -1.2149288134171488e+03 -3.4319313695223300e+03 8.1463502139125254e+01 -3.5963333116963236e+02 -4.2780437179496130e+02 8.0774424738255902e+02 3.1960764774032128e+02 1.4918153501920392e+02 1.4779677158703477e+01 8.5304086806946088e+01 6.2940477471164684e+02 5.5363060430759518e+01 5.3970194897609556e+00 1.5919449045287989e+01 1.4312295702102710e+02 1.9133297118484097e+02 1.6178897859460267e+02 -1.3386909983295375e+01 5.3853389991054428e+00 -6.6969503569948301e+01 8.2784469187022580e+00 -6.6430605797196085e+00 -8.8108457981432213e+00 2.4132947241757302e+02 1.1726993333384883e+02 1.5887435065883466e+01 5.8377490498982239e+00 9.3129877045136027e+00 2.6211595162312665e+02 -8.7441909500322481e+00 3.4612430077378789e+01 1.8701788455157935e+01 -4.1889420886206699e+02 -2.9007146962476691e+02 2.3145912679436151e+01 -1.3934365804222473e+01 -6.3181503247010369e+00 -1.4787906728323037e+01 -1.9621200252443600e+00 1.2315379315475688e+01 -3.8388027661385120e+00 -3.6236942630121121e+02 2.4085112241814522e+02 -3.2889782444653974e+01 1.9857689040541686e+00 -1.9958149890517234e+01 4.4404775556066170e+01 -1.5561049548971603e+01 -6.7468597217169721e+00 1.5928183496435748e+01 1.1432402698870828e+02 -5.6014559573116367e+02 1.1477642501666378e+02 6.8296810959181720e+00 5.8056739802102300e+01 1.6430689907763644e+03 3.4177812826911492e+01 1.0024448637844241e+01 -1.2240364202794396e+01 7.8510465598303199e+02 -9.6118137936560743e+01 -1.6708764366484502e+01 -7.9285540284490965e+00 4.6329735626683259e+00 3.0225463125316992e+01 8.7100033317363525e+00 2.9758425903362884e+00 -1.7760743882499028e+01 -2.9640932757314840e+02 5.5987355198223304e+02 1.3204604190682028e+02 6.2054469064717122e+00 1.6156730804745393e+01 -1.5128274094543531e+02 5.4712770941513241e+01 2.2757315330428241e+01 1.0758615943197753e+01 -3.7408601993834782e+02 -5.1113573001239638e+02 3.8103074068927526e+01 8.6321321303789738e+00 4.9247930404191095e+01 -1.9675096851960129e+02 -1.7825926858874709e+01 -1.1463069819021253e+01 -9.7331431453476114e-01 -7.8228837892681622e+02 1.3560683072315537e+03 2.0466171794538579e+03 -5.2172844690300383e+02 -9.2784859476607289e+02 -1.2011686913057856e+03 2.3793246816318930e+02 -4.0747480078067133e+02 -4.8102173813081021e+02 3.5490948283577745e+02 1.1994717520373652e+02 -1.0994116591182266e+01 2.5604449707355172e+00 -8.9571328322606192e+00 -2.6428280347816901e+00 4.5171205113337294e+00 1.6935574677702157e+00 -1.2439326588809536e+01 4.8328361223946395e+01 4.9534619047605545e+01 
      </Row>
      <Row Index="165">
        7.1874601759170442e-01 -1.6660642081632204e-01 4.6207801414269056e-02 1.4159809228930271e+01 2.8448785731354064e+01 1.8326247339525153e+01 2.8210842775422407e-04 -1.3752280866594795e+00 -1.5884442990810896e+00 -1.7341178219951652e+00 -2.5511099580540462e+00 5.0394797456836926e-01 2.5015290847361200e+00 1.1591224961353328e+00 -7.0301120111210480e-01 8.6551637164468787e-02 1.0529218974374999e-01 5.4669304847832336e+00 1.4941017343495332e+02 -1.2837227799810087e+01 1.4117690198504995e+00 -1.3386406220114393e+00 8.8223424031407518e+00 2.3130601513895215e+00 -3.5473449548825897e-01 4.1521138057762386e-01 1.9706741738195888e-01 -2.9504222309945085e+00 -5.3101595778994692e-01 4.1882491837458247e-01 -2.9447397919778240e-01 -1.3771256118203610e+00 -4.4285559512397299e+01 2.3215264460179306e+00 -2.5283750462207166e-01 8.0445829979012728e-01 -4.0949476127099160e-01 1.0052983063897427e+00 -3.4685571765078826e-01 -3.1223207737348702e-01 9.8717622609996170e-01 1.7558480522030884e-01 1.2550103478882093e+00 -1.1482249722364770e+00 1.6995167086672325e-01 -6.4678604920426324e+00 -1.4267986923078152e+02 3.1377189145474773e+00 6.2692093053652798e-01 -1.5049734108412451e+00 -2.4889022290133518e+00 1.7637357022803002e-02 -2.0965879893826016e+00 -1.1998872319393161e-01 -7.1383513682103512e+00 4.8877942871055069e-02 -2.4602134663249764e-01 3.4043787570247019e-01 9.5391743117779981e-01 2.3595875974640421e+00 1.8719162294481976e+01 -6.0492623821834961e+00 1.4565699087059780e+00 5.0635511007950385e-01 2.0994946281347318e+00 -1.2826009148140729e+00 -1.3106636624763790e-01 -3.3194863251132745e-01 1.3245442817988646e+00 -1.4872510287964751e+00 -3.3098772987473012e+01 -1.0792453202043788e+01 3.9434017153065333e+00 1.8327050394395883e-01 6.4030976429285147e-01 8.0638971976351854e+00 2.9516061598493470e+00 2.1915765101999471e+00 -1.0870938833507444e+02 8.4557590574704307e+01 -3.8330549285715279e+00 8.9329477629547283e-01 2.6364959313199279e+00 3.4322630076198948e+00 2.3729015159622165e+01 -2.8989104646834463e-01 -6.9455193102030099e-01 1.6867238635158901e+02 2.8644725403501525e+01 -3.0185290606505532e+01 -4.0285772005773934e-01 3.9995524762392307e+00 1.6497756053732644e+00 -1.6470729101499373e+01 -6.5454038531979220e-01 3.0255870262999318e+00 -5.5364842252146445e+01 2.0714990592991455e+02 4.9494728650272009e+01 1.1478750813179701e+01 1.1761550675083839e+01 6.7426212355845706e+01 -4.2048789077880642e+01 -3.4568626316853113e-01 -9.0702256570598578e+00 -1.6041872186745877e+02 -3.0723660071027183e+01 -1.2903063638581239e+02 6.0264411708451185e+01 -1.1739971009994679e+02 6.5377706386425302e+01 -1.8166868337666415e+02 1.9434704406534127e+01 5.4022054517446776e+00 -7.1948635571660816e+01 1.4210375922389591e+02 2.8143609485077832e+01 -2.0998431871097520e+01 9.1143730815720119e+00 -6.0302894071371291e+00 -3.3290042276541577e+01 -1.5198565746023984e+00 -7.3457675664404638e+00 -2.8290820012580662e+02 9.8320376063556978e+00 -7.9574596446809664e+00 2.4659142676862968e+00 -2.5050275217981834e+00 -7.1189217550489801e+00 1.7559373013959799e+01 -1.8211949292034646e+00 2.8595118500816774e+00 1.5823067447687208e+01 9.6838105178802607e+01 -3.4525960757541725e+00 5.7099496615000289e-01 6.4724584589403662e+00 1.9857725149895487e+00 -7.0448391343520314e+00 3.1159809526096014e+00 1.7641209317923874e+00 -7.7459321909052960e+01 -7.8793031309660364e+01 9.7949475204013652e+00 6.0166908416880038e-01 1.0177364274152296e+00 -7.2943017421448531e-01 2.4788172123470531e-01 -2.4165254815554305e-01 2.6859034277774541e-01 -5.1366342290997636e+01 -7.8477945277481922e+01 2.9788294743402730e+00 -4.3278173398737874e-01 -1.0609843997731332e+00 -2.5185699428907355e+00 3.5753194574017755e-01 3.6489171807413845e-01 4.6768608221229890e-01 1.4802848737890963e+02 -1.3001424785607924e+01 -3.3685958488288634e+01 6.0770459914560613e+00 1.9883546848545961e+01 3.4177812556443314e+01 4.1034147364622100e+01 8.4067940192957415e+00 -1.1076318084302201e+00 2.0750485430145750e+02 1.9488482152662982e+01 -1.9314075814151920e+01 -2.1552352162954058e-01 2.6683385343120563e+00 2.2035875952240076e+00 -3.9491017278798779e+00 2.1168804993876815e+00 -1.4360497340556524e+00 -2.0833993877735338e+02 5.9464836048852987e+01 -1.2631503526478355e+01 2.4091073338280733e+00 -1.7307967926245965e+01 -1.5007805444681367e+01 2.3602431100019725e+01 2.7317434189415408e+00 7.6057018768838072e+00 -8.0265152682997979e+01 -2.2708895319803560e+01 2.1967237026821749e+01 8.6452688464834182e-01 1.5503297195828054e+00 -4.4552347441789948e+00 -1.2642933385480660e+01 -4.3442571337831133e+00 -6.0226592756333730e-01 -5.7541676472181280e+01 -2.4539455463617878e+02 -9.1606434720783156e+01 3.2228459222126475e+01 -1.0049655377520594e+02 2.1633838026044032e+01 -1.6027950728426518e+02 1.8182823866870805e+01 1.7744651078935583e+00 2.8646411630779767e+01 4.3677971817702037e+01 -4.3024158636941623e+00 5.2617949641438599e-01 1.0164613368606643e+00 1.6760856350156033e+00 -1.2813447832001224e-01 2.7327222963583644e+00 -1.9743899135852416e+00 -4.0434757722640562e+01 7.9102311098587677e+01 
      </Row>
      <Row Index="166">
        2.5916237394576891e-01 -2.1657403340516268e+00 2.4583344269623808e-01 8.9918994067760423e+00 -4.8933710089985880e+01 6.6762039570690126e+00 -2.0428829283300587e-02 -1.9611626549118810e+00 -1.3648051276801922e+00 -2.7459276082413031e-01 -1.4508927967086334e+00 6.2826099485887887e-01 7.4260035848799077e-01 1.5130727089421980e+00 -3.6908795783496373e-01 -1.7735330634069300e+00 -1.3253300511902921e-01 4.9807379704403729e+00 9.5548021134051851e+01 -6.3749795326854191e+00 -2.5174399923956869e-02 -1.7024009257328245e+00 3.7209297307904858e+00 8.4383171523838030e-01 6.1812707957267499e-01 2.1593834556237113e-01 1.4593738909147191e+00 -3.5567316250295336e+00 -2.8721937260665698e-01 -1.6696338656098675e+00 7.1017553219237683e-01 -1.1646516486252381e+00 -6.4610139392386259e+00 1.4907589851591965e+00 1.0219610503998311e-01 5.4328005539271729e-01 -1.9592761851068019e-01 -7.7183652936157454e-01 -5.3699519458002776e-02 -2.8242719391621751e-01 -4.9521305740768184e-01 4.0480380640984581e-02 1.4634164474608795e+00 -2.3791303900217997e+00 -8.4432919762270586e-01 -7.1693529946226704e+00 1.9650046705434846e+01 -8.9538512536638848e-01 3.9327464988588190e-02 -1.9556814922023307e+00 -1.3334979117342094e+00 -2.0415766558227944e-01 -8.5227339798990387e-01 9.5876540486297124e-02 -1.6116495164745857e+00 1.3908098234843425e-01 5.0382809244588733e-01 2.6130752825415833e+00 4.3339879872835496e-01 2.5048062568320688e+00 1.6707841563061265e+00 -3.2379087038707990e+00 4.0300016734122757e-01 1.0940265993004890e+00 7.4836748700235667e-01 9.4253337788662517e-02 2.9966494501957111e-03 6.0622033098400863e-03 4.4577696395620237e-01 -2.0394569023478595e+00 4.4011664838028537e+00 1.1558613089602758e+01 2.5491437225652227e+00 -1.5990562936306105e+00 2.8248495777861535e+00 1.8367120097791627e+00 2.5134339261021670e+00 1.8091683957899218e+00 -2.3277199506597753e+01 -4.9401731489176143e+01 -1.9624140703323405e+01 1.5873823845598740e+00 4.5350498562540338e+00 -4.2560997512505310e+00 1.5133940367435343e+00 4.5033230594048685e+00 1.2697063582838841e+00 2.3267104999014919e+01 5.4231032692260897e+01 -3.0452616608333642e+01 8.7451816398581517e-01 -1.2949638685783320e+00 3.3206636695920260e+00 1.6440446499480359e+00 5.9209251609113078e-01 3.4953542612245103e-01 -3.5503225243629004e+01 2.0813382111268180e+02 3.2054735787324830e+01 8.9414361167227092e+00 1.5721976489923279e+01 1.5403116360799594e+01 -1.4334348641457723e+01 -9.8373341241996552e+00 5.7053798807039442e+00 -9.7863845051595035e+01 7.8685271968875554e+01 1.1127700695528250e+02 2.5073124551587689e+01 2.6143727849276122e+00 -2.1047446762588038e+00 -1.1181718487599304e+02 -5.7735777692459692e+01 2.5892470357558764e+01 -3.9084976503292182e+01 9.6989389468334423e+01 -1.6115493980651991e+01 -8.4309209617553993e+00 -2.3659160379093009e+00 -7.5303528177150003e+00 1.3080691258927235e+00 -1.0603543073795549e+00 -4.6633872317633855e+00 -1.3417430548251559e+02 -4.4127259080401927e+01 -1.3024354580730687e+01 1.9744067900943993e+00 -2.0734646467190032e-01 -1.4478862124696903e+00 3.0557160212735397e+00 -1.3422479289921707e-01 1.9164039546554354e+00 -1.4643230156507343e+01 1.1268192145196008e+02 1.9331277328958549e+00 3.6027485729472186e-01 2.0135420234412891e+00 -1.1524725382665792e+00 -6.2186033754900905e-01 3.4809255934888785e+00 1.2665292299131008e+00 3.1341248748332873e+01 -5.5105480621592051e+01 -7.8645463388320422e+00 2.2823541192235586e-01 9.3251307582215759e-01 -4.3377508470102839e+00 -4.4568309877647039e-01 1.3613311434375674e+00 2.7159489697345052e-02 7.6095741062035813e+01 -3.2216200402446134e+01 1.1435451516156263e+01 5.3390881261584033e-02 -4.0454539594043126e-01 2.1920784736178121e+00 3.5588820911068311e+00 4.2224325845177679e-01 -5.7853070143394067e-02 4.5029559481385149e+01 -1.1225714445905078e+02 -2.3050472421909035e+01 2.9008547312723261e+00 6.1774271049028471e+00 1.0024448585983009e+01 8.4067940247206892e+00 1.2005367388133077e+01 2.1763358996025488e+00 9.5020001029502055e+00 2.6457378659111782e+01 -7.9258714489392332e+00 -6.9878705964332433e-02 -5.6918469071467825e-01 9.6844581874893265e-01 -1.1072387347564145e+00 4.9907267800817046e-01 -8.2913268106432181e-01 -1.8291500315817393e+02 -1.2140446596537578e+02 -2.9972161764271732e-01 1.9213830367518576e+00 -7.8698029476988722e+00 -6.7984483255170147e+00 2.7977458933409807e+00 4.5654492956921171e+00 6.8109119642705327e+00 8.3803753269020177e+01 -2.1545295940626602e+01 7.7901609538457706e+00 2.5795436648883978e+00 1.5205834674340508e+00 -3.4355263056357614e+00 -4.4620704607925177e+00 -5.1402722332840671e+00 -9.4972285969259218e-01 9.5395258069002011e+00 1.8968483261303760e+01 1.0431614796497661e+02 9.4068305463588668e+00 -4.5133221715227592e+00 -1.7931594699285483e+01 -9.5945288191008785e+01 -4.7831495502890888e+01 1.2263424034732573e+01 -4.0636274562957624e+00 5.0249986920278197e+01 -2.2575173036189495e+00 7.9509217563312973e-01 1.4531648209685066e-01 1.7031720031234627e+00 -2.0756754532309962e-01 8.2091167878977522e-01 -2.1854949027209614e+00 3.9010234069555008e+00 4.0998400534497463e+01 
      </Row>
      <Row Index="167">
        -5.4255899795251272e-01 -1.8885048043191368e+00 -4.2605104908970404e-01 -4.0943178179213646e-01 2.7050044353927092e+01 1.5020725845848704e+00 -6.4739677661535744e-01 -1.0194284650295282e+00 6.5815372112059478e-01 -4.9674487162043268e-01 1.2965810080983842e+00 1.8057906497180731e-01 1.1876746566674150e+00 3.3106215569308761e-02 -4.6149285910093596e-01 -1.1179585019910014e+00 -8.6401924028481858e-01 4.1190573771129380e+00 -6.5041959797267737e+00 -1.7754093371638184e+00 -8.7859339874666986e-02 7.6921063420122504e-01 -1.0358016859366876e+00 3.2860637716534669e-01 1.6775701959440497e+00 -4.0729722651534139e-01 3.6813335324188188e+00 5.6296651936456499e-01 -1.9682101354233694e-01 -5.9393658100700009e-01 -7.6686979900596519e-01 9.5319834421064797e-01 -4.7592763502970001e+00 2.7012889971384890e-01 -2.5995212659731592e-02 -4.7636462789190759e-02 9.5914343739668340e-02 3.0936277355002861e-01 4.3000904670428497e-02 1.3214882934445971e-01 -4.4877708767536717e-01 5.8389879934933386e-02 3.2963531283377989e-01 -1.0802903845207368e+00 -1.1469442602729885e-01 -1.5625427646576782e+00 -8.1251485818981948e+00 1.3357705323982394e+00 -1.3470380504884538e-01 -8.5086681503318573e-01 -9.1012953735122970e-02 -2.0588388192777063e-01 1.5062104465667137e+00 2.0107930655192163e-01 -5.8377705383441025e-01 1.3136395045659788e-01 6.7406365821489023e-01 2.3336053019229155e+00 2.2096459954360625e-01 4.9026531467630718e-01 3.2246473023806629e+01 -1.3042705122189808e+00 2.5792263574856378e-01 1.2875558805470857e+00 -6.5133532893556456e-01 -2.5656696686802194e-01 1.5794662647588364e+00 1.5231593139008126e-01 2.2206550542492032e+00 1.3723331604884503e-01 -5.0475998453238162e+00 5.3513995055822932e+00 1.6551583315833287e+00 -1.4105546256985235e+00 -2.0902409465323899e+00 1.5178218271162862e+00 2.5205283265490888e+00 1.8951253102012888e+00 -7.5246272200442945e+00 4.4828665080715382e+00 8.3539010962977045e-01 -2.7567630560373901e-01 -1.3544938530415607e+00 -4.7518094399345046e+00 7.1821514457572277e-01 2.0347449981251149e+00 3.4542935888662099e+00 -8.7532259105956655e+01 -1.4923150550351238e+01 -1.5047244305654374e+01 -8.2011419917309025e-01 -2.1522786781645831e+00 5.7222611227577111e+00 -3.9518013643567511e+00 -2.0030989874826157e+00 4.7561786713083283e+00 5.4262175865710560e+00 1.1000611535886640e+02 6.7811908554566003e+00 3.3617862833364116e+00 2.7560729281857945e+00 -4.4731671701097326e+00 2.2548789678435703e+00 -5.5175889825893476e+00 2.5597885012832782e+00 3.8649249041595795e+01 -8.6650093116161230e+01 1.4211839439749042e+01 2.4496466705399421e+01 5.1574988068036220e+01 2.4051261526033755e+01 3.4965767551315579e+01 2.9066508885201490e+01 2.6275119105612880e+01 -8.6201395754844725e+00 2.3830235573273775e+01 -3.3445742821330668e+00 -5.1909561571363421e+00 -3.4242018249616422e+00 1.0828591071222855e+01 -6.7943744910672947e+00 -3.4904244622862413e+00 -7.0989344108011299e+00 6.6356950359505390e+01 1.8371934342359509e+01 -4.0224016168610888e+00 -6.5158983667469728e-01 8.7739436979063612e-01 -1.2128733024220715e+00 -6.5925862016572978e-01 9.4937118230020268e-02 -7.3067334797975558e-01 3.5693095463881491e+01 -8.0981472453963818e+01 1.1266756077331479e+00 -8.3746475947528776e-01 1.1458181774995353e+00 -9.4984804584441918e-02 -1.5885698155908656e+00 2.6904878802181287e-02 1.1378018666469805e+00 6.0446769748815768e+01 -1.7120567668289596e+01 -1.0757950309412081e+00 8.2859074407969646e-01 1.0822459098976651e+00 3.7736222478197874e+00 1.1610107885874754e-01 3.8325805773176197e-01 9.9347334487972727e-01 5.8197243654840349e+00 -1.1831613561775612e+01 5.5638898050760872e+00 -3.8346450403440474e-01 -3.2920465919073649e-01 1.3976881766940323e+00 -3.4310856298688641e-01 -5.9139818054223170e-01 2.4384581834274188e-01 -5.5138007805598136e+01 2.4457053382282083e+01 5.1609733172258530e+00 -2.2500727386799078e+00 -8.9180336882718620e+00 -1.2240364092903178e+01 -1.1076318130032625e+00 2.1763359004664196e+00 8.5954755332745343e+00 -9.0532554478909788e+01 -1.1504604326200024e+01 -1.9656143155343671e+00 2.5234319948061312e-01 2.3390043779022562e-01 5.2374421339794708e-01 4.3567548708778503e-01 1.7173040220802660e-01 -9.0310361638857639e-01 2.6026452127357516e+01 -2.8425986190141430e+02 -3.1047856481779945e+00 1.7014980002797842e+00 5.3965391897575046e+00 2.8344710894244400e+00 -3.1499316177719976e+00 2.2585625964988667e+00 4.5062858084725512e+00 3.6259531892043526e+01 -1.3648101604520889e+01 -5.2070100996804740e+00 -1.0877730416991938e+00 1.6519496591002678e+00 3.3907248274848740e+00 8.4063657777915068e-01 6.3264716999938386e-01 -6.9078642535706081e-01 5.2130599443165920e+01 1.4687795043751066e+01 2.5447483330564523e+01 1.6988979286507920e+01 3.9127442472020903e+01 2.8887617426653208e+01 3.3817378618121026e+01 3.4280495984046283e+01 8.5835034569549098e+00 -2.0231805694304967e+01 -8.5841841755128723e-01 1.6240219165468208e+00 1.4107358540812243e-02 2.2750887524643909e-01 9.4794909422503970e-01 -2.1404555920684665e-01 -1.0101810753240539e+00 1.6566534191108815e+00 2.3985247052003967e+01 -2.4064330128041721e+01 
      </Row>
      <Row Index="168">
        1.9764528975234953e+01 -1.3292803676108269e+02 6.7177370746721863e+00 -9.8187426039989805e+02 4.5066427505582687e+03 1.0671253862580579e+02 9.2947820728995794e+00 7.6412535889575338e+01 -1.2601675516041723e+01 -9.5848719895406646e+01 -1.4222942601850491e+01 3.4055674115305919e+01 -4.9731367634565686e+01 2.8990947175788335e+01 -1.9604066334537492e+01 -3.7183947323790562e+01 -1.8959212246001698e+01 -2.9142753945020377e+02 3.6928644028783310e+03 -1.0479016789768230e+02 5.7576513530110788e+01 3.6228549584345558e+01 -6.7346142747253452e+01 9.1954715452837263e+01 -3.8568477823373087e+01 1.3061442678193998e+01 -7.0703830615952029e+01 -4.2731021225038148e+01 9.8687909788386605e+00 3.4683537236385746e+01 2.5941033792208145e+01 2.9955083359789569e+01 7.3077847573891631e+02 4.9743243927700860e+01 1.8365115876447817e+01 -6.4646548733280724e+00 2.1038702499961801e+01 7.6655875018491315e+00 2.2505424241257970e+00 -3.1292186396865418e+00 3.8455235335597536e+01 -6.0522760973212257e+00 -7.6451015080028810e+00 2.2360544985916931e+01 -1.2762588670775585e+00 6.4947384761841386e+02 -1.4684847210033695e+04 5.2296194527116313e-02 -3.1688951141886719e+01 2.4027280456946755e+01 1.0317642855157010e+02 -3.7369147649629042e+01 -1.2008658840702623e+01 2.3983874389356060e+01 -1.1333639619653695e+02 -3.4059118344379158e+00 -1.5250544622203506e+01 9.2710735489959006e+01 4.5350695742119569e+01 -3.5242021605294576e+02 8.5625444130597170e+03 -2.2392329338751944e+02 -2.5403766856743459e+00 -5.3797651425832441e+01 5.4590447576020324e+01 -4.4298475324107926e+01 6.7761385652157102e+00 5.2205633582316295e+00 -5.5054220268661084e+01 -4.1424533231464068e+01 3.7627600957454415e+03 -3.6145846025589126e+03 1.4553755178852043e+01 5.9019512025988661e+01 -1.4732350665633567e+02 -8.1787684689483285e+01 2.0685704032789403e+01 -5.5824901506274273e+01 5.1254989369820920e+04 2.0574478494927753e+03 -9.5488681554486393e+03 3.4323758645312637e+01 6.5471415589301614e+01 2.5335100737120956e+02 -5.9542766489172209e+01 2.0607022241538289e+00 6.5684146059938016e+00 1.6811997936817398e+05 4.8134847317413660e+03 7.2596237601692555e+03 -1.8226847877569980e+00 -3.2800762794649927e+00 -1.2741644627059122e+02 -6.1222080692746317e+01 -4.6892511627687725e+01 4.4117659672948605e+01 -3.6182322022845037e+03 -3.3956047418000526e+02 5.9348166006573301e+03 -9.3753740995605460e+02 -1.1543107138446467e+03 3.6685350616204069e+03 8.1364634375299647e+02 -2.3309743706840918e+03 8.5699664282859703e+02 -5.0524084160465864e+04 2.2727538840247173e+04 2.9006673333922226e+03 -1.8146192938155461e+03 3.0055165226799727e+02 1.4566891520139121e+04 3.3606596822356555e+03 -1.5582663091285935e+03 -1.1563506942892946e+02 -5.7450386622717488e+04 -1.8850859792348601e+03 4.3564307245064992e+03 -3.3116152187983721e+02 5.6930919242894743e+02 7.0162199136739218e+01 -2.9162385535701924e+02 -1.4846711547432278e+02 -2.7345566466850050e+02 -2.0568891159297433e+04 -2.1508519514019135e+03 -2.0906887543073390e+03 -1.1584664005633761e+02 -4.5868893375038169e+01 -7.3631700797866870e+01 1.2486124639961781e+02 8.8765875580376360e+01 -7.7780847397821788e+01 1.1359937240075110e+05 3.9331276861225197e+03 2.6506142867427843e+03 -3.7683468466399120e+01 8.7132283348037163e+00 2.3476201834500534e+02 9.5669680600785796e+01 -4.8414157453914356e+01 -3.0433646887059183e+01 -4.7320361323516350e+04 3.3057593073354801e+03 -6.1139016503002495e+01 -7.9581155581982728e+01 -1.1692686606571078e+02 2.1757574385625776e+02 -3.4832731964699633e+01 2.6237404152824872e+00 -3.9660725804052163e+01 -2.6330400094217388e+04 -7.3276235992896254e+03 1.8101470159860328e+03 -8.9814007319993252e+01 -2.5355868268298218e+02 5.9525548087432981e+01 -3.3985470272746170e+01 1.4646578733255299e+02 4.5747986010279313e+01 -2.5962983645252883e+04 2.0912438552237581e+03 -1.2314491810809006e+04 -9.6120784338114106e+01 4.7647794811200583e+01 7.8510462857387029e+02 2.0750485452516295e+02 9.5020015900581711e+00 -9.0532553612920310e+01 3.0609070088609506e+05 2.2265206027638633e+03 -1.0740595156765776e+03 7.2739423567677250e+01 -9.2740464316739235e+00 -7.2415422022342682e+01 1.4790710193076120e+02 1.3728470581125976e+01 -3.7870509263630538e+01 -1.5639800317846239e+03 1.3766783500205449e+04 -2.4677005876313779e+03 2.8294819246155504e+02 3.4293154290877283e+02 -9.9006092012306908e+01 1.5923897322568519e+02 6.0032948013429404e+01 -1.1799768307467093e+02 4.9786249458374514e+03 -1.6321268138010055e+02 1.3683098855586722e+03 7.8903632377458052e+01 6.6741144256637199e+01 -3.1286451446430874e+00 -6.6399935943132732e+01 -3.7063608851970457e+01 2.4742735283038201e+01 -3.7566043235155754e+04 4.6306413184100820e+03 -5.8623558672779091e+03 -1.6147725682372793e+03 1.3865172534515150e+03 1.1808286505518845e+04 2.1855107826682097e+03 8.5336075359239544e+02 -1.3054286731023062e+03 2.8670353056415042e+03 1.3157114815752861e+03 -1.1098310849441359e+03 7.1645643868760089e+00 -4.6064908999711065e+00 -1.5415083492773192e+01 -1.6955131680714203e+01 2.8900739831214196e+01 -3.8543853701849002e+00 -1.3080689888316145e+04 1.3280186578985620e+04 
      </Row>
      <Row Index="169">
        -1.3175843476034515e+01 5.5288259447925157e+01 -9.1192653910475201e+00 -7.9628244859632105e+01 -2.9180544751878188e+03 7.7157994674837482e+00 -9.2170703540309660e+00 -2.9047895149958549e+01 -2.2682697118846590e+01 -1.1286030807483087e+01 -1.7669023349210875e+01 2.6077328164765277e+00 1.1536447042493819e+01 7.4643081653640362e+00 1.6534902301506918e+01 -5.3389484958925095e+00 1.2750927568995394e+00 -2.0238161749104620e+02 4.4310991697355057e+03 1.4531430226486236e+02 -1.1198452138230095e+01 2.0102071556546264e-01 -4.1585623494692300e+01 2.1339830725310094e+01 2.0692821048236510e+01 -4.5745100032945629e-04 -1.8444228558037139e+01 -5.1177630293704169e+01 2.9480901918832387e+00 6.7416931172883778e+00 1.0571464156343154e+01 -1.6803065602049173e+01 1.8174167244741693e+02 3.9045100387097591e+00 6.9948809122479361e+00 2.4449163897224935e+00 2.6076217223653657e+00 9.2975529540937032e+00 2.2903821591280575e+00 1.8899400016935601e+00 5.5586418786115246e+00 -1.4000945199089472e+00 -8.2462616686366346e+00 2.5501297343616898e+00 -4.6650950625007681e+00 5.3277378204977140e+01 -1.4619733986337196e+03 -3.6024462715465233e+01 -3.1183079555303266e+00 -1.4981266325239631e+01 -1.7237575509748240e+00 -1.1869484800472804e+01 -9.6501403384813944e-01 4.0558065392435765e+00 -2.5063933366400306e+01 -9.1399169207109594e+00 1.0825038346878728e+01 -5.0154908977640844e+01 -3.7004465303125471e+00 -2.9584575173259509e+01 1.4694807863028254e+03 -3.4112596271377271e+01 7.4206979982927805e+00 1.9007687873883413e+01 -2.0901327022049827e+00 -1.5148204430646274e+01 7.9411001462080204e+00 7.2432135754343108e-01 -1.2050256399770660e+01 -1.4452001051080231e+01 8.4411045506654191e+03 -1.0302634332542038e+02 -3.3648552257904214e+00 -3.1981391555076698e+01 -2.2889730608847458e+01 -4.6570000559677283e+01 -2.1745606507583133e+01 -2.1392919241913830e+01 -1.4470182492912281e+03 -7.8968452484966547e+03 -5.1028191756468732e+02 -2.2323867664178920e+01 -2.0765345739593613e+01 9.7908597085042857e+00 6.1034070519326633e+00 -9.8998452778669161e+00 -2.7225185832406197e+01 2.4721117390692234e+03 8.9516353259173338e+03 1.2923829743705719e+03 2.4338626652484152e+01 -2.4510613310982535e+01 -4.2726190701054747e+01 1.0032380321143110e+02 3.3014086524835818e+01 -7.4605557938688548e+01 1.2588487071718555e+02 2.4918550929667981e+03 4.7261539857038588e+02 -7.7201859402490186e+01 -6.5665076875744489e+01 3.3757640194947271e+02 1.3725380838813726e+02 1.8452890361088308e+02 -5.0111277710957296e+01 -1.1011920704354998e+02 -4.4601948297371564e+02 4.6202198697088170e+03 -4.0302741455920454e+02 1.1758916762392651e+03 1.5418016464073880e+03 -4.8750107327752983e+02 2.1207995290991516e+03 1.2872160191785110e+02 4.1352008379925974e+02 -4.9319380749983829e+03 4.8837247922437382e+02 -5.5163599341487561e+01 -1.8814196367192199e+02 6.1203115602332355e+02 -5.9810801838387306e+01 -8.0604690395700118e+01 -2.6952640882465165e+01 -9.4382197439344600e+02 -7.6148138617002405e+03 -2.3966828989051282e+02 5.6729657202593181e+01 2.8512243544973899e+01 -1.4631682337105303e+01 -8.5142226015523192e-01 2.7781184396316803e+01 4.7662671121335805e+01 -6.7973805598879699e+02 -7.0012369780832523e+03 1.7463440275249741e+02 -2.9642786693361245e+00 2.5281470523790631e+01 -6.8253924385935534e+00 2.0055306256583208e+01 1.4512701900575326e+01 -1.0357012149443960e+00 -9.5957500759558752e+02 5.6105701630567783e+03 -1.1329482835665112e+02 -1.3429990442535853e+01 1.3716637307021301e+01 -1.1483651090927015e+02 4.1945617910423607e+00 -9.4222710684846547e+00 -2.2168610760262254e+01 1.1604821879265364e+02 -9.0207305193398497e+03 1.7133150536380708e+02 -1.3405338732072659e+01 1.8145630155631807e+00 -5.2221687745768577e+00 -3.1657509691050564e+01 -1.3524820914605087e+00 3.4716060396439978e+00 -2.6753290964160115e+03 -5.4805646940557053e+03 -8.3711980895104352e+02 4.0161029284554559e+01 -1.1226260304138123e+01 -9.6118144064792432e+01 1.9488482515479518e+01 2.6457377501451901e+01 -1.1504604884213222e+01 2.2265206707629259e+03 6.5567689714049920e+03 7.4986538070661481e+00 1.5509224162451233e+01 -1.7606474916290608e+01 -1.4189872489791014e+01 -4.1571970454851908e+00 9.6654378603215036e+00 -7.5111776851692866e+00 1.7156442448585294e+03 -1.4839637176520599e+04 -4.4672004965614178e+01 1.0452593198352456e+01 1.7892331317067146e+01 2.4528782042776584e+01 -8.6777181545226227e+00 -1.4344442576120535e+01 -7.6583428495925659e+01 -7.4013958459196135e+02 -5.6745083375410177e+03 3.0998547997698188e+02 3.5503373369236215e+01 1.0376030395571433e+01 2.1732813321934373e+01 -7.3695582934306003e+01 -6.8304304864308278e+01 -3.9362109621870331e+00 -2.1576937132868916e+03 -1.5587997448405340e+04 3.2474579436180165e+03 -3.8884479816703589e+02 1.0670922964426572e+03 1.6248347523878283e+03 -8.5561529361980274e+02 1.7902979238568992e+03 2.8056822914103162e+02 -1.1969105044972675e+03 6.9804150709587511e+03 2.6783191505507338e+00 2.8107185863616905e+01 -3.4409025692020236e+00 1.5004150005443080e+01 1.2876884083530058e+01 1.0576576153018777e+01 -4.0981282841559732e+01 1.7236532941957057e+02 6.7577439366984063e+03 
      </Row>
      <Row Index="170">
        2.0643514805776917e+00 -7.7657530632373550e+00 2.1446228809886065e+00 4.9955420060983670e+01 -2.3518993618642526e+02 -1.4504413162434162e+01 3.3811649221353832e+00 -3.4997468723029357e+00 2.4227926689198398e+00 -1.2927483722203670e+01 2.5454265539953695e+00 -1.9103006109416754e+00 7.2649151336433420e+00 -1.1983923027354992e+00 4.0829364694236006e+00 -3.7586594419731796e+00 -2.7025647360742369e+00 -1.7027402292479564e+01 1.5627875070911614e+02 4.9263379107414664e+00 2.9768352576278403e+00 3.6671795542549468e-01 -7.3939961977217195e-01 5.9301077715138035e+00 -4.0890416828584506e+00 -3.7999963660124649e+00 -1.3918329685873232e+01 2.3305719302082935e+00 2.0760827968769036e-01 -3.5885882580021189e+00 3.6559720804088158e+00 -2.9267885189542540e+00 2.2123236895903119e+02 -1.6572129603591037e+00 1.5058814383818060e+00 -3.3852863932523292e-01 6.2675348988437918e-01 8.2208920371994445e+00 1.3130926683305688e-01 5.3009187138300646e+00 4.5634838831451816e+00 1.8753404657986827e-01 -1.0050029667040405e+00 3.0057804758689599e-01 7.3344873779524278e-01 5.5619283084405652e+01 -6.5850289327854125e+02 -2.4618551914793159e+00 8.0288675266393739e-01 -1.5961569476766044e+00 6.9312227005255096e+00 -3.0998667942598388e+00 5.1012243594581008e-01 2.3225917383264694e+00 -4.6008187011648261e+00 -4.9736907648123108e-01 -2.0157607467382057e+00 6.0493923939348235e+00 -3.5722797543213574e+00 -4.0103926291116522e+01 7.0977018257031887e+01 4.9127090066960477e+00 -3.6050784055703389e+00 1.3214991230084756e+00 -7.6125395054157252e-01 8.3181393843485125e+00 -2.3925283687145180e+00 2.7287943508557362e+00 -2.2298250676119778e+01 1.4805337889370023e+00 1.4979652429246926e-01 -1.3469360173451309e+02 -1.1091021209390394e+01 -5.2775633515739173e-01 8.6935856008349219e+00 -5.5743674481906282e+00 -1.2351765098339920e+00 -6.5250099611344474e+00 1.5480608899459694e+03 -1.0218697985400831e+02 4.0221885430208295e+02 5.0449662018546064e+00 9.8069487062748522e+00 -5.6093895273115777e+00 -5.1974668545899476e+00 5.9589297871731901e+00 6.2116315795635551e+00 -8.6121361737516418e+02 -3.5050070720211806e+01 -8.5032393692967617e+02 4.2794066674145421e+00 -1.0186368102872336e+01 -5.6802020540646936e-01 -6.0518838685027433e+01 9.6520227801237173e+00 -1.8381503317799190e+01 1.9660862270621074e+03 3.2428643640076643e+02 -9.6836955949628646e+01 -3.8632939193468516e+01 -2.2081157995840726e+01 6.3765601199151490e+01 5.7978830588362882e+01 8.7851592825210773e+01 -4.1394263947758731e+01 -1.9959607380999332e+03 1.1227957314546320e+03 -9.7810159121062679e+02 -3.5240697837788736e+02 -3.3423223773186862e+02 -1.0439356700966014e+03 2.5176875558781359e+02 -4.5590325615440577e+02 -2.9186834926714181e+02 1.3558916599897930e+03 -2.8218550902397510e+01 5.4729658991991164e+02 2.2074239479605243e+01 7.2298522693454288e+00 -4.2294206056492698e+01 1.1561812019064533e+01 -1.4807161780648954e+00 1.5393854169533290e+01 -5.9378921994016855e+02 -6.2803730719031591e+01 -3.6449636412796099e+02 -7.8343361991252536e+00 -3.8379405795785715e+00 -2.1167614285257628e+00 1.3076902778161639e+00 -5.3347545072714482e+00 -4.4114758847399393e+00 1.1297299505213741e+03 -7.1973784891140804e+02 -2.2651549306439574e+02 4.1962109711141942e+00 -7.3676569563240264e+00 -5.0362768567119929e+00 3.6404334249031081e+00 8.5488534903306945e-01 7.2288977570328861e-01 1.6269601460155027e+03 1.3531680403435530e+02 2.1684930641795290e+02 1.3843170650276111e+00 2.3227325494572142e+00 -8.6865462728064813e+00 8.8257240131110848e-01 7.1725358859138328e+00 3.9929085024493816e-01 -1.3622623932400238e+03 -3.3359724455969626e+01 -5.3109514705206675e+02 -8.2524069336687305e+00 4.3569411904591107e+00 3.3234972092104726e+01 -1.8555736976837522e+00 -2.3020286907623714e+01 2.0013829897366527e+01 1.9777814903443505e+03 -1.0508090618565984e+02 7.7578733529193414e+01 -3.4871041944477521e+00 1.1369690142131276e+01 -1.6708766137375278e+01 -1.9314075693584016e+01 -7.9258714194844231e+00 -1.9656142971182646e+00 -1.0740595056220263e+03 7.4986491004165146e+00 1.0542906255576709e+03 6.0244340512868675e+00 -3.5914893703820781e+00 -9.9438627738363721e+00 -1.9575001714203268e+01 9.7183963398047766e+00 -8.9310665030673704e+00 -3.1963385266234545e+03 -3.0242374125118795e+02 -1.6672255694067098e+02 8.7695917924522604e-01 -9.5146663808300218e+00 -2.5585290621864942e+01 3.2699066961451614e+01 8.9705640289802488e+00 -4.8036567542404839e+01 4.7210998411762430e+03 2.0647290203796001e+02 -1.0564410889015562e+01 3.4181429640483429e-02 6.6244291841339873e+00 -9.1660199896614358e+00 1.0304526108011487e+01 5.3400713761973009e+00 -1.1607550482275428e+00 -3.1275537543577957e+02 2.9990886778558252e+02 -1.4325515775415784e+02 -3.0579670689409363e+02 -2.5927106321792598e+02 -1.1234144364045919e+03 2.1581207448456780e+02 -5.6696984427611187e+02 -1.6111604398629018e+02 2.0346956348157692e+03 -1.2554652273823113e+01 4.8956417907969737e+01 -2.7466411508687543e+00 -2.7403186558324286e+00 -1.4288404593655457e+00 4.5037769030322750e-01 -2.7088454258207548e+00 2.6873902819565956e+00 -3.4205054276616193e+02 3.8129375633633617e+02 
      </Row>
      <Row Index="171">
        -2.2905906797700437e-02 3.1207516020377568e-01 2.2160619398939474e-01 -3.1226134501465594e+00 -1.5963571428197383e+01 2.7726618241811085e-01 -3.6146052938888573e-01 1.7671879994670636e-01 4.9497731401314837e-01 -1.4393408583824194e+00 2.4559091350515150e-02 -5.7199864288790536e-03 1.0241333568356836e-01 8.8389994736043954e-03 1.1594109047020495e-01 -1.7349069901771230e-01 2.7162022112727868e-01 1.5349057295040325e+00 5.5412030090578128e+01 5.0670561285900817e-01 6.9948424806209886e-02 3.8010317466664745e-01 -7.0266029558171628e-01 9.2952409008951520e-01 8.6896582439758951e-02 -6.9080863997260167e-01 -3.1061317188274984e-01 -1.0410613556341897e-01 1.2188454052322228e-01 -5.0237888660099372e-01 5.3392311895742672e-01 4.6085710747942699e-01 1.7159301486044569e+00 1.5478848254111277e-01 4.6091721847488998e-01 -1.1099104313589869e-01 1.0118256414901694e-01 1.2152863774208884e+00 4.4531073365078555e-02 7.6993878499755120e-01 2.2193584595994764e-01 8.0357721496859824e-03 -1.1056355515009031e-01 1.8962499826601231e-01 3.2526894252889349e-02 7.2221479051614779e-01 -3.0126883090210129e+01 -1.0530343045407520e-01 -1.9885877950305542e-01 2.4743056991303547e-01 9.4888240652784006e-03 -3.3737969164107884e-01 5.8738428846077995e-02 3.9754962934030913e-01 1.0573233326749119e+00 -1.5189728957520909e-03 -2.5334523809476650e-02 3.1758502982759396e-02 2.1202204215984466e-01 1.3916328967346772e+00 -6.3298229077149699e+00 -7.2624005401207292e-01 2.6095646704227704e-02 -1.1372479585820550e-03 -2.7888362148799395e-01 5.6020238995984739e-02 1.4810143946388482e-01 1.4948058608062276e-01 -1.1588602691386782e+00 -2.6229246950949081e-02 2.8356936248071065e+01 -8.8909716648089230e+00 -9.6443052116500949e-01 -3.8859941827604416e-01 -4.0688447059608279e-01 -2.0195147890562737e+00 2.5209453525517012e-01 -9.5561012422068781e-01 -9.3806368971127085e-01 -2.7949049910691173e+01 3.1150676490523210e-01 -4.5148051897100583e-01 6.8718119341156125e-02 -1.5866029268845523e+00 3.0873240142085479e-01 2.0486791381667935e-01 4.3766198403067524e-01 4.5829838806063890e+01 2.6221222494154517e+01 1.8303681955221123e+01 6.8094908328725579e-01 -1.0544689798381892e+00 4.1321020993492752e-01 -3.5748617712501307e-01 5.4875055420717200e-01 -1.1619475681782627e+00 4.0146365013367358e+01 -4.3170614215630337e+01 4.5276899938724000e+00 -2.5594224230564757e+00 -2.2830587962678095e+00 1.1512606649385836e+01 3.1878325407596222e+00 -1.2008006446894992e+00 -4.8020002776583881e-01 -1.2611453494442230e+01 -3.3849273441612716e+01 1.0396078046590446e+01 5.2102198392158421e+00 4.3907975638109860e+01 4.3975911158615020e+00 3.8538908391217550e+00 1.5750055686682449e+01 7.2454172198098572e+00 4.5601571718277683e+01 -8.5631017558446842e-01 4.5713229959820865e+00 -1.0972622546771360e+00 -4.6661533196759137e+00 8.2321381826058726e+00 -4.4124444634552908e+00 -5.9600094572467111e-01 -9.5744804657266691e-01 -2.4611333901962098e+01 -1.4630057866236712e+01 -5.3892062787865598e+00 -1.7853735317043351e-01 4.7922759858602149e-01 -3.6246441879774238e-01 8.8272923166741180e-01 -2.6291476417382142e-01 3.6399721019957965e-01 2.4757141964497350e+01 -3.6258167338029693e+01 4.8407372506586910e-01 -1.8721966410512014e-01 4.8691358240407112e-01 -1.1208120898567131e+00 6.9581789641105019e-01 -7.2120044343093781e-01 -2.5965313216339969e-01 1.1380325821560291e+01 7.1569215743115819e+00 2.4214445927841552e+00 7.6947430372970471e-02 8.7589082019144371e-01 -1.7680261912997821e+00 2.0589862704672157e-01 -1.5515940142786722e-01 -5.8980020707597447e-03 1.7840546366869603e-01 -2.3137006492072032e+01 -1.3505778560238468e-01 -1.5186655319338109e+00 6.3929419095882167e-01 1.7498620768752744e+00 2.0962882076675271e-01 -3.0078592385018839e+00 1.6593696375468880e+00 -2.3888649968694153e+01 -1.2080133171264379e+01 -7.1812186215640850e+00 -2.4186445728562569e-01 6.3630856801424329e-01 -7.9285540902646972e+00 -2.1552352444046008e-01 -6.9878710328564964e-02 2.5234320079372452e-01 7.2739423283986298e+01 1.5509223981436207e+01 6.0244340161867740e+00 1.6556137186458062e+00 -2.9210273768109118e-01 -1.1921573939163750e+00 -2.3180311031039658e+00 2.0038341219348639e+00 -1.0422030977256238e+00 3.6737681208586764e+01 1.1203075535803464e+01 -1.0366367241316709e+01 -1.8563913190997738e-01 3.1851064185508449e+00 5.5075819778450352e-01 -1.4850729497202291e+00 -3.4297344864863422e-01 -1.6956989018693918e+00 -5.0770173295072709e+00 -1.1468716562818372e+01 -1.5360674647122323e+00 -2.0490885898484024e-02 2.4694307718712594e-01 1.1570553375104566e+00 2.3696694054154932e-01 -1.6615358778199951e-01 3.2219264515589430e-03 4.0751131645143687e+01 -9.6288095556765811e+01 -1.2194458435709578e+01 4.8149106902808434e+00 4.0761837084971603e+01 -4.5839513500522600e+00 -3.5908154440539866e+00 1.4586482872728460e+01 9.6214973887940083e+00 1.6312140105226717e+01 1.9294800530446597e+01 1.6031068726922006e+00 1.3663653469171777e-01 -3.5867959311742359e-02 5.6723063261944873e-02 -1.4901721696699610e-01 3.1230857930594347e-01 -3.8398365544935587e-02 -4.2893215724935736e+00 2.5032595724758476e+01 
      </Row>
      <Row Index="172">
        -7.0272922298575202e-01 1.0894658031236624e+00 -6.0564510913089009e-02 2.0103894730172556e+00 7.3034647464258683e+01 2.5849352423801748e+00 -3.7361502301605221e-01 4.5011470921121965e-01 2.1605424433878788e+00 -1.6712180638873331e-01 -1.9067726635578497e-01 -3.9550139187352862e-01 1.9125685130958914e-02 -2.9142996961064721e-01 -1.3055853861904581e+00 1.0633509051230696e+00 3.2670900594379759e-01 -1.3985081171032334e+00 -1.1005805373361181e+02 -1.6707904728550176e+00 -2.2484025073151148e-01 3.4345800269529314e-01 9.3464137598042196e-01 2.2560817542272460e-01 2.6598274540126265e-01 3.5398020629301286e-01 5.2379061009303882e+00 3.4213689347930520e-01 -5.8622913333618243e-02 7.3216408509196640e-01 -3.6682241396241011e-01 5.6812860470870419e-02 -2.7772903448841134e+01 4.6810441656263801e-01 -6.8340166443936923e-02 3.5525832326578488e-01 -1.2166211177417807e-01 1.8442494896680950e-01 -1.0986916584082129e-01 8.4586251092731102e-02 -6.2239110942513776e-02 4.3003812463572544e-02 1.3505623443689352e-01 4.9624052499855509e-01 2.4790372139769445e-01 3.3900919909498270e+00 -2.7444775611290275e+01 1.8428580510406114e+00 4.8331651932216779e-01 6.4868977015095197e-02 -1.1053000889693703e+00 3.5583370491296751e-01 -2.5963125427652711e-01 -1.8506560379742454e-01 -2.6058753151626206e+00 1.3677056341504412e-01 4.0853702911386236e-01 -5.4185716685475072e-01 4.1243112676990989e-01 2.9490929023376253e+00 6.1959485728216805e+01 9.3477495602294280e-01 6.4977613686925606e-01 -3.1671003428439715e-01 -1.1491743316467140e+00 7.6515974308405799e-01 1.2536173103667264e-01 2.5528408384388257e-01 2.1562635833707624e+00 3.5246803169691177e-01 6.2531292320290959e+00 4.5408365340163996e+00 1.7000357406582145e+00 5.3524638146926691e+00 -1.0919605375986521e+00 1.6749247290897316e+00 1.6554636555881970e+00 1.8228437924344356e+00 -6.3044819003807788e+00 2.7113796990127724e+01 -5.0594248524035947e+00 -5.0406181236799341e-01 -1.2559771981717631e+00 -2.9716328957410951e+00 2.8001923443148939e+00 -2.1191899417912765e+00 -9.8751556676350427e-01 -3.7548542850612648e+01 -2.9709297309757631e+01 2.3215029617312268e+01 -4.5690495654274654e-01 9.6254465051117464e+00 4.5836286280125593e+00 1.1766782145999638e+01 -1.0126472160462860e+00 2.2452710777167484e+00 -7.6459021508102069e+01 3.5174914054640055e+01 -4.1658575827641471e+00 -5.6632811755515791e+00 2.0790540596339397e+00 -1.8684169115291127e+01 4.0892067485891488e+00 1.4673256238032561e+01 -1.0341470384077763e+01 2.1566570081198643e+02 -4.3102915267687251e+01 2.0004152504462013e+01 -5.2344153908628543e+00 8.4926635992465492e+01 2.2798388529638061e+01 2.3403051278233551e+01 -8.3572554471142091e+00 -1.5492477470484069e+01 7.2223701634977715e+01 6.6540592087433510e+01 -4.5971315926001353e+00 -3.7595356545331287e+00 -1.8906435793802643e+01 1.2445181218687200e+01 -6.4389417596045080e+00 -4.7717976072551682e-01 -1.4685180458944957e+00 -1.9336303475324712e+01 2.3394876210977145e+01 -1.1725245471695416e+01 1.1787830127364805e+00 -1.7216959785670042e+01 1.7996645143704626e-01 2.3136123089665261e-01 -1.1004615464023200e+00 1.0591743221290297e+00 1.3084996374617731e+01 -6.6563767405435158e+01 3.0547548051497131e+00 -2.8208042188649152e-01 8.4699662633820765e+00 -3.2683642109041102e+00 -7.1207844171173917e-01 -3.8733228905869665e-01 -6.8365531424102732e-02 -1.5452704316325662e+02 -4.5049273703223434e+01 1.0556725396056891e+01 1.4119113286580547e+00 3.1679451383801052e+00 6.2011215475301356e+00 3.5269899081555423e-01 -3.5767798536028750e-01 5.0870650292019448e-01 2.8894214037021356e+01 6.6538182718557778e+01 -2.9142210962727404e+00 1.1777602067839094e-01 -1.3838410903521208e+01 -1.8160274540248338e+00 -3.9786505850133658e-01 -1.7250617347450468e+00 -1.0303310259881623e-01 -1.9418804958458168e+01 1.6305941970709682e+01 -1.4058374343076821e+01 1.2285661984901268e+00 1.6793750652778670e+01 4.6329736233296899e+00 2.6683385341912853e+00 -5.6918469742143607e-01 2.3390043448888065e-01 -9.2740462497094995e+00 -1.7606475199023862e+01 -3.5914893298510151e+00 -2.9210273882767490e-01 1.5836527122035193e+01 1.0847297053060174e+00 -4.0029365839053810e-01 8.0926781979544815e-01 1.7500262042199033e-01 6.5329095462125224e+01 1.0605260870446614e+01 6.9474624220027295e+00 4.3639155762622028e+00 -8.7929166603712474e+00 -4.4752202968482635e+00 3.9010945386128029e+00 -6.3344825511933356e-01 8.4676905445630268e+00 -2.9507471078406593e+02 1.8070088776980811e+01 7.6117607677131218e+00 -1.1641863450653016e+00 5.7001941465313450e+00 -6.5233112906371105e-01 -7.3436908146504720e-03 4.5301709635368947e-01 -1.6006601612045301e-01 3.6605046624415991e+01 -3.1730921875589786e+01 4.1039352652100831e+00 -4.7355219808716678e+00 6.4407619627008444e+01 6.7617006569338912e+01 -2.5328303394039153e-01 -2.4106543169097364e+01 -1.5287785849889371e+01 -6.6165350194289204e+01 -7.0760928012336395e+00 -2.6307039085229746e+00 -3.5008439481218545e-01 1.0320148172033445e+00 1.6747034123823816e+00 -3.6595191763174739e-01 4.8609981160089077e-02 2.7687390787156119e-01 1.3471490203046589e+01 -2.3550152367712357e+01 
      </Row>
      <Row Index="173">
        -6.6722594874577168e-01 -2.6282683789037247e+00 -4.3267305820498692e-01 3.4320222753113967e+00 -6.0904531755220802e+01 7.1454985615831079e-01 8.9011792546628499e-02 -5.2232333978990075e-01 -5.1724278549125735e-01 2.2153071678270120e+00 1.5509725041748412e-01 -5.4777213156261428e-01 3.0213603599485026e+00 3.1819506755472282e-01 -1.3373056954464744e+00 6.3223656027854780e-01 -1.3623859649089809e-01 -5.3578705187372577e+00 7.9987849806231111e+01 7.1170669377003293e-01 9.3404985352920011e-01 3.7294220250673060e-01 8.6814907684615927e-01 -6.2217610222735686e-01 -6.5749082519210411e-02 2.0936392099881331e+00 5.0124063438708362e+00 -4.6336909925889369e-01 -1.5514282257607093e-01 -1.5838124606055928e+00 -8.2693741656320530e-01 -1.0997704587156960e+00 8.7373640754077968e+00 -1.8466394502434369e-01 6.3891591820727456e-02 3.3001126449201834e-02 1.8711322025044375e-01 -3.0347425954076166e+00 -8.7652623828218257e-02 -1.7427302249457228e+00 -1.9290191346405123e+00 -2.4852860613897076e-02 6.2815207396933559e-01 -1.5492687375246419e+00 3.8635074947807269e-02 4.2231026738051298e+00 5.8358373703361011e+01 -2.5682866062600329e-01 -4.9973780240918231e-01 -1.3297694516817415e-01 7.4057908737364109e-01 6.2693102523915745e-02 1.8496336353753412e-01 -1.2792794245087795e+00 -3.2026153609474193e+00 -1.3629912334144895e-01 8.9489681303011714e-01 1.6171404061582404e+00 -4.1976272724110331e-01 -6.1021634985511568e+00 -5.8307442949908364e+01 4.5855547897414195e-01 -2.1509486183786874e-01 6.0345745739716095e-01 5.4646001626849872e-01 6.3718977835135904e-01 -2.6471691859428098e-01 3.9853728244631004e-01 2.8706291246779028e+00 -3.7671089222839171e-01 2.8313944397040217e+01 1.3180712206917082e+01 2.1063627820620789e+00 -1.5656205408855612e+00 5.8452944453370606e+00 5.3492918810320447e+00 2.4901300894277991e+00 2.7689083209133027e+00 -3.7291572764752914e+01 1.2819359099957947e+02 -1.8190065597916714e+01 2.3446534614465611e+00 1.9290539585465467e+00 -5.7995147680244372e+00 9.3401810069827818e-01 1.7725452932088932e+00 9.1021373441588327e-01 -1.9843761398463812e+01 1.9969824778292605e+01 -1.5223621365176058e+01 -5.9202008294938846e-01 -2.8130422397312200e+00 1.8477974189822920e+01 3.0352344851907453e-01 -3.1492393434566690e-01 1.7660780120222830e+00 -7.4876842695381583e+01 1.1403605370926797e+02 -8.3158630961932261e+00 4.4109234740233614e+00 -9.3040400305426516e+00 1.6296577070287483e+00 8.6715376941263536e+00 3.4641203420589839e+01 -1.6054567231404224e+00 1.0269020526737211e+02 -6.1632168807839712e+01 -6.9071242381048137e-01 4.3000633374394850e+00 -1.0527414216833625e+02 4.8013563333339320e+01 1.7953111141674313e+01 7.6759787044833327e-01 1.5215681850529563e+00 -8.0801331799604782e+01 -3.5595816426260335e+01 -2.3595277313889994e+01 9.2999518231644829e-01 -6.4569373168293964e+00 4.2824251171807850e+00 -7.7397712110492201e-01 -7.3904892159528934e-01 1.5032129541947135e+00 9.3559920246856564e+01 -4.2760601065638184e+00 -7.4936214715603455e+00 -8.2563936843808883e-01 4.4371602190816475e+00 -2.1634713879919378e+01 -1.4045997412534916e-01 1.0005917580639476e+00 -1.3391498015566752e+00 -1.4461344471022358e+01 -1.5165693393869361e+01 2.8251488830513296e+01 -3.3424782258637209e-01 1.4437503708936532e+00 9.5846490369150388e+00 -5.5213562238210656e-01 -5.0377348594741100e-01 -9.2209863211550569e-01 -5.4635134514181573e+01 2.6328633026368720e+01 -5.1737892728621091e+00 6.3136736878630639e-02 8.6433419943932677e-01 -4.8603531846510748e+00 -5.7463012005867853e-01 9.7618221149332296e-01 2.6211839592682473e-01 -1.6232446859310812e+01 1.1864736313142146e+01 1.4832377894906813e+01 1.6499088821660484e+00 -4.2402761867051595e+00 -2.4508247864982252e+01 1.7317097968056867e+00 5.2614320010872362e+00 -4.3910266283519102e+00 -6.3810453972091636e+01 7.2166874217311261e+01 -9.0300323610821351e+00 9.6064178602981265e-01 1.1886210787301366e+00 3.0225463042935871e+01 2.2035876044830616e+00 9.6844582142400348e-01 5.2374421346369537e-01 -7.2415421833081041e+01 -1.4189872373001890e+01 -9.9438627756128994e+00 -1.1921573921785207e+00 1.0847297030118455e+00 2.3666879622291361e+01 3.5081766305172781e+00 -2.9655731733934569e+00 3.3492665756971900e+00 -1.9618288594019759e+01 2.2616774309882430e+00 3.5634944259209959e+01 1.4109304541259706e+00 5.6752132671778099e-01 -3.0281281843470111e+00 7.6388305401870582e-02 -1.2750096605383172e+00 8.4177811855253495e+00 -1.0639117790356299e+02 -2.7064501237963668e+01 1.4313990573771321e+01 4.1083977373885983e-01 -3.4342646101864318e+00 4.7726638536824595e+00 -3.8080816183310162e-02 -3.4382497767379450e-01 -4.0069317584042707e-01 -9.5149996160809678e+01 -1.3011900461294238e+02 6.2382062809538681e+00 3.5069234063920005e+00 -1.0251860841885940e+02 2.9734326417364286e+01 1.4456010920077397e+01 -2.6608166674671200e+01 -5.0247205246020421e+00 -2.9600901222484936e+01 1.4192691805727183e+01 -1.1657655194765142e+00 -3.7427843052267917e-01 1.7380293140575909e+00 5.6357983231668971e+00 -4.9030390943703361e-01 -4.7308095023056129e-01 -1.4558792286328526e-01 2.1289944428275234e+01 -1.2430669126881135e+01 
      </Row>
      <Row Index="174">
        -2.1330368608917172e-01 -1.5880355968142119e+00 1.7689731665704045e-01 -7.7310565980104684e-01 -2.3970431867308434e+01 -5.4800874221783529e+00 -3.0870226672738532e-01 -1.1720567635570323e+00 -1.0285081921520423e+00 1.6248822687930122e+00 1.6949571650480566e-01 -1.5627194451737125e-01 -3.3600210952238996e-01 -3.8795103102333733e-01 6.7113634713809489e-02 -5.2828210814749710e-01 -1.2457502407411312e+00 -6.7609362513761653e+00 -1.4318089911348125e+02 6.3040923120112371e+00 -1.2775570995488845e+00 -5.9721068438547076e-02 -4.2424781668854230e+00 -8.5672445048455970e-01 1.1513266644622888e-01 2.3707563852909814e+00 3.8831580341518190e+00 6.1181270891032824e-01 2.3699282979132974e-01 1.0637652737262329e+00 -2.2039593707696525e-01 -1.4483294964219340e-01 6.3792257038102207e-01 -2.0894009886014979e+00 -2.9948140222834851e-01 4.7446230119174082e-01 -3.3946484105891628e-01 -1.0945790548020398e+00 9.3016726453650556e-02 -1.8522794580195008e+00 2.5980482593830345e-01 -6.3070776200394030e-02 -3.1699595700809624e-01 -4.5835376244652082e-01 -1.1684685911329140e-01 2.4344161177773458e+00 1.8625838161284582e+02 -1.3343013368638861e+00 -3.4999910869715301e-01 -1.0341173809442381e+00 9.3206910344512206e-01 1.5854712522015137e+00 3.0836229967111295e-01 -2.2752837911057044e-01 -2.1178696151786767e+00 -1.5391059004664365e-01 3.1725936849757730e-01 1.9206490760180728e-01 -1.5138708061391739e+00 -5.0256043477615009e+00 -4.1181565703905108e+00 3.3632228322146882e+00 1.7242421175706113e-01 7.5787640629394293e-01 -3.8428664875163498e-01 -1.4189713390329985e+00 3.9197584811239139e-02 -3.7658615790754446e-01 6.6409298087195197e+00 4.6664477856961861e-01 4.7504596562378651e+01 2.1449762678847662e+01 -8.9068548948689319e-02 -3.4078304421848316e-01 -3.1080699359775963e+00 1.4660720190049013e+01 -1.1513694992841541e+00 4.5072892892544769e-01 1.6096325057046215e+01 5.8236923174408503e+01 2.5523398700396456e+00 -5.6173775523711278e-03 2.4471624409676451e-01 3.5319719380913739e-01 -7.9393382676940867e+00 -1.1661642722550880e-01 -1.5101286154763136e+00 -5.2329029729900867e+01 -2.2498528040343899e+00 -4.3357284247625955e+01 -3.4499420966828676e-02 -1.4518169853065857e+00 -4.0938471450999465e+00 -1.0554531309942687e+00 6.9110802786693659e-01 -1.4794449253604816e+00 1.5073855463613427e+02 7.2413797781899120e+01 -3.2332571230132487e+01 5.2900678374201355e+00 -8.5075125238412923e+00 -7.4029838971806512e+01 2.1019800100077290e-01 4.6851923636615513e+00 -3.1572290427296803e+00 3.4566889841727971e+01 2.7574323059506639e+01 6.5722829176550420e+01 -2.3291132285332935e+01 -6.8471795116005126e+01 -9.8482353165725300e+01 -3.8117682746303402e+01 -2.7528789770075875e+01 -1.9183383385575269e+01 -6.4965887350061166e+01 -6.5077877575628875e+01 -4.6558230254943396e+01 9.1869261843120231e+00 -1.7189898354096158e+00 8.6178117383802810e+00 2.4778761474626450e+01 1.8698150670312605e+00 4.6383663066437757e+00 1.1686797678462153e+02 -5.7856163265716077e+01 1.4784631418841172e+01 2.5924771315970836e+00 -9.2145890156984933e-01 2.8083180082158208e+00 -1.9791680170035896e+01 1.8644386974655305e+00 -1.8659597816049409e+00 3.1789629951426696e+02 -7.7653826631521270e+01 6.4336225607984261e+00 3.6432301938821032e-01 1.0411972438428592e+00 3.5829198887578286e+00 1.8232433881175325e-01 1.6428147138037350e+00 8.1330547534043252e-01 -9.5712133375809572e+00 3.4638411671514405e+01 -1.3794429080629016e+01 -4.8396637922882213e-01 -8.6274698043575881e-01 3.0205118716370976e+00 -1.0660899475393109e+00 3.8618615973460058e-01 2.0783667126179228e-01 -1.2901086711220933e+02 -1.7117711804411329e+01 1.1229764184080977e+01 2.4008029160436744e+00 -2.4359099800500417e+00 -4.8420817637693290e+00 -2.0800254398936438e+01 8.7732915378481025e+00 -6.4148819178508454e+00 1.6647622532546666e+02 -3.0664505099824964e+01 4.0064410883807341e+01 5.0118716804246843e-01 -2.6154446252116941e+00 8.7100033475949203e+00 -3.9491017182989658e+00 -1.1072387386351537e+00 4.3567548170101489e-01 1.4790710276814025e+02 -4.1571969172860008e+00 -1.9575001628837413e+01 -2.3180311012689443e+00 -4.0029365803451356e-01 3.5081766341992306e+00 2.6921103629046417e+01 -4.8957389330928933e+00 4.5985639650295118e+00 -4.7295730921363611e+02 -1.7348212572308125e+02 2.3553162438797756e+01 -7.9177391687222842e-01 3.7519751822999297e+00 7.3062111266641381e+00 -1.2512284677698062e+00 -1.4742742671164550e+00 3.6425979135650728e+00 -1.0097223980248535e+02 1.5257079074035573e-01 -1.2298740961609838e+01 -4.0931864504300641e-01 -4.3433174046128897e-02 7.9350766792664729e-01 3.2224305852537327e-01 1.2077456486835603e+00 1.4574596069105183e-01 1.7153499024600023e+01 4.9025039810139134e+01 1.1403651488322333e+02 -1.6165587947794013e+01 -6.7014885272110178e+01 -1.7121697611918137e+01 -2.0390372007014825e+01 -2.3636567093858456e+01 -1.6916965771033979e+01 1.8807202144876908e+02 2.5153753458186348e+01 -2.5154255820634641e+00 1.0014262117003625e-01 1.3431196749184382e-01 3.1298922446974764e-01 -1.2695825270259053e-01 -9.2961253995397364e-01 1.4235920618157820e+00 -3.4930423051144395e+00 2.5937937365334722e+01 
      </Row>
      <Row Index="175">
        3.6664763289397273e-01 2.1390763514004618e-01 6.1615990566504308e-01 -2.9754436683050471e+00 4.4542121528746748e+01 5.3712183578763106e-01 -4.2168120682937804e-01 -1.4306221587225387e-01 1.2639918004948285e+00 -4.8315864116066631e+00 -1.6653469303630608e-01 1.0152216913814591e+00 -4.3015901708275806e-01 -6.0222246425232967e-02 9.5104476667938087e-02 -3.1345352863610998e-01 1.6443551929322098e-01 -2.5912128395902414e+00 2.5011426749172188e+01 -1.7222881545716717e-01 3.8956716242218370e-01 -1.7649808046696525e-01 9.1654887895507464e-01 2.6997246850646093e+00 -1.4951454571301870e-01 -2.9424144335843749e+00 -1.0598059225494580e+00 -3.9291746872888922e-01 -1.2988456467071785e-01 -3.5885925113930739e-01 1.2761124069590437e+00 9.8340578897563091e-01 -9.4938593105404152e+00 1.0531250892595700e-01 5.0488509098634893e-02 1.4708487447308016e-03 -6.8430071761532929e-02 4.5701941740075789e+00 4.2997222146858860e-03 2.3961959615574830e+00 3.6416126879653632e-01 4.5017992901158710e-02 2.2643061248192176e-01 3.9178082074454323e-01 1.7336014379488063e-01 3.8774464837437108e+00 -3.4527258694849095e+01 1.1128836717624147e+00 3.3643223709385239e-01 -6.4471566650759371e-02 9.7131327889367292e-02 -8.0396646637305658e-01 -2.2038208674790710e-01 1.6378830128586506e+00 1.8180519707026974e+00 5.2803190922440790e-02 -2.3249154118768578e-01 7.1802371778202456e-01 1.5798222997853628e-01 2.6661085372060427e+00 1.2811041808850860e+01 2.0285193066277862e-01 3.3505491020185652e-01 2.3162889743183257e-02 -1.8924219402721931e-01 -1.2274962737039243e+00 2.6977307721953392e-02 -2.1899608256459224e-01 -2.1099437834547778e+00 -5.8102875391022248e-02 1.7473503449633654e+01 -2.3404834200477111e+00 2.0140562623298242e-01 1.7735031738027374e-01 3.5743143807380875e+00 -4.0974722034920319e+00 1.8217878782951267e+00 -1.2148719611693206e+00 5.7675124254536740e+01 -1.2606679167309349e+02 7.0064799358999608e-01 -4.7513776500348559e-01 8.3635591694638833e-01 1.3874413675125652e-01 7.2427346058437081e-01 -6.1430030338111230e-01 5.1004617666610974e-01 -2.6962696276686984e+00 -4.4669576212592347e+01 2.4921213952874496e+01 1.1265273149416781e+00 1.3348506935827977e+00 5.0337741343173548e-01 -1.5912295888858612e+00 2.6610320573043844e+00 -3.2282186595507394e+00 -4.1068160994850587e+01 -1.0380539537509776e+01 4.3070850159493830e+00 -8.2920181168789000e+00 -8.4204698106518805e+00 7.7245993522598013e+00 7.6089136196081881e+00 7.5653568533239373e+00 -9.5036714300422993e+00 3.9786932279471330e+00 1.1241717767466227e+01 -2.0518879568034095e+01 8.3956850945409762e+00 3.0215481168084125e+01 7.1887722801935581e+01 3.5850871636038782e+01 2.9008333687456749e+00 2.0829863420502814e+00 4.2477065620466419e+01 6.1388523824561751e+01 4.2388835121523698e+00 -1.7483531959373311e+00 -1.3475067451843188e+00 1.0393074638094896e+01 -8.6143734660110169e+00 -2.5252420737130077e-01 -1.4228863107620069e+00 -1.3137551283891207e+02 2.2728558417451950e+01 -5.6281738245797897e-01 -6.3071793800077547e-01 -1.0740380587008076e+00 -4.1054419483120057e+00 2.0307131299279177e+00 -3.3338599713534993e+00 4.0213684264600613e-01 -8.7140642687368199e+01 -2.1240584233540574e+02 -9.2107237593371849e+00 -1.2135957484115356e-01 2.9001278902826186e+00 -2.3624345466795376e+00 3.9499120816230970e-01 -4.0766929341693015e-01 7.4297115103191946e-01 3.7324709076130603e+01 -4.2758743959495405e+01 2.3104825144953338e+00 4.9826132229706843e-01 -6.4610890595770343e-01 -9.0206792432519478e-01 7.4318876403907552e-01 -1.5156198833545464e-01 1.6334136465555638e-01 2.2622372606147110e+01 -9.0993884549272934e+00 -6.2795496962771722e+00 -2.0413859997152777e+00 1.4129797821660759e+00 6.0142699190625990e+00 -2.4454057027226845e+00 -1.2202122016788838e+01 6.0496451566990519e+00 1.2003688257887916e+01 -2.5720878247750079e+01 -4.0973384491283014e+00 2.9850936063105887e-01 8.6159352246786227e+00 2.9758425494362655e+00 2.1168804870384008e+00 4.9907267648130471e-01 1.7173040875426793e-01 1.3728470142882543e+01 9.6654372953662460e+00 9.7183962613829635e+00 2.0038341199455623e+00 8.0926781795716352e-01 -2.9655731781091390e+00 -4.8957389360985886e+00 9.0966264815892401e+00 -4.8372009107239613e+00 -4.4590058663009586e+01 6.8797610752705395e+01 -2.1044735279971746e+01 8.3409371973559754e-01 -1.0437612741045541e+00 -4.6297023102527817e+00 4.9525315027096894e-02 -1.1293451510557868e+00 -2.7642815064318178e+00 7.7964725758866365e+01 5.8211601516672090e+01 2.2607334470048954e+00 1.3815782648200070e-01 -1.0098448447854480e-01 -1.1285602560947154e+00 -1.7003965386795699e+00 -7.0979965180309890e-01 1.7317239780979321e-01 -1.1319136362317295e+02 -2.5430162587838666e+02 -4.6039213360541737e+01 1.1862554145562587e+01 3.9654610229295258e+01 8.4571236951980907e+01 1.5105973303790464e+01 -1.1976192042908760e+01 1.7675396791008588e+01 -3.3488132160641754e+01 -3.7521377476246606e+01 1.6372754014436126e+00 1.0941094232724424e-01 2.5957897708277100e-01 6.8781965866725514e-01 9.0167878531647538e-02 1.4258855772871488e+00 4.5150896499973214e-01 -1.1158612932235776e+00 -3.3871404775335684e+01 
      </Row>
      <Row Index="176">
        -2.9437153805642602e-02 2.4634164103405176e-01 -2.3158917978530091e-01 -2.1431676862063398e+00 -1.5172399800165522e+01 -3.6750221511607251e-01 -5.2616756891880279e-02 2.2158464425984992e-01 3.7032432951472494e-01 3.4041778938441682e+00 1.0764194196568355e-01 -6.5572281848281566e-01 -1.9651007398627840e-01 -1.5441287613655466e-01 -7.8236732407776444e-01 1.6671188130434196e+00 2.7398830266717766e-01 1.7929604724219246e+00 1.7672377227562038e+01 7.8749080984794695e-01 5.7104389562597113e-02 4.0517958641118645e-01 -1.9228452285027426e+00 -2.0170767564231440e+00 -3.0832673455634119e-01 2.3536875192492426e+00 2.6566718857562535e+00 9.3686037664409416e-01 2.6744308287773855e-01 -3.8596507513253897e-01 -9.2738207977525988e-01 -2.2555726038162049e-01 1.0205825410217528e+00 -2.9258930688163254e-01 4.2470910082688640e-01 1.1897187126685438e-01 -1.0245960329562109e-01 -2.8201327538353764e+00 -1.8499146010951595e-02 -1.9808095729016104e+00 1.6862158912116598e-01 -5.4234998652915034e-02 -4.7585950046227588e-01 2.4522734744152075e-01 3.5285760224634899e-01 8.6019601036679205e-01 1.5022798187516770e+01 1.4624574125635448e-02 -5.4568027994367263e-01 3.4552192863179343e-01 1.5461657367697423e-01 9.2406697256633930e-01 -1.1596856262215466e-01 -1.2626071443174700e+00 -3.1364671906416390e+00 8.7179733840358820e-02 -3.5231203019791857e-01 -1.0931242604741342e-01 -2.8451788149934742e-01 -1.8640799801963723e+00 -2.7336291297467596e+01 3.1241530559736658e-01 -3.4630079443114692e-02 9.6330202277230992e-02 -7.3047938385671962e-01 6.1697747830311622e-01 -8.4337008263592084e-01 -3.7460253720328573e-02 3.1134902388164072e+00 3.5250777125685429e-01 7.6887026902998628e+00 8.6709689054128845e+00 -1.3677611498516007e+00 1.4757421187053410e+00 -4.2341691399541901e+00 2.7038595902175828e+00 -4.2682074799620928e-01 1.1991774697850544e+00 -1.1792592821136373e+02 1.3126182876470088e+02 -1.0672496968466589e+00 7.4787691448133975e-01 1.5876928161188175e-01 -2.6433266739901455e+00 -1.1459733923087221e+00 -4.7257529202812254e-01 -1.7796177853081370e+00 -4.0931791663142121e+01 -9.1279607162142611e+00 -2.5820643481453374e+00 -8.5304747870038200e-01 8.9024063293612343e-03 2.2498935494251455e+00 -3.8832286783976500e-01 -5.2242816824876015e-01 2.8619268468140127e+00 -6.8372114990086175e+00 -2.2134970670240619e+01 -4.2246165413060623e+00 1.7248559605542213e+00 2.2969522966349487e-01 2.3541262161297336e+00 -2.5114260092169651e+00 2.2911649394402169e+00 1.2132097084850648e+00 9.6432991910648298e+01 -4.7339119749545290e+01 -1.4819757061544806e+01 3.2424690951697057e+00 -2.2679392448581524e+01 2.4998129738717978e+00 -3.1410966840381931e+01 4.5302417404484583e+00 1.1520762583365451e+00 -3.6333155540076177e+01 -1.0046799513080089e+01 -1.2657143189294970e+01 9.4006738567912618e-01 -6.4568537713807928e-01 1.0302675396963039e+00 3.4650551222302060e+00 8.4220129637707331e-01 7.4505045216642007e-01 1.3602445365986205e+02 7.0151217763009299e-01 -1.5007835082400561e+01 1.1809436464340837e+00 -3.7147582926183986e-01 -1.5132766202499148e+00 -1.6674587470100377e+00 1.2310161157428385e+00 -2.8905530587958648e+00 1.3197531926565443e+02 1.1146009125683833e+02 3.4793596372434763e+00 4.1342054570856485e-01 -1.3428336145986606e+00 -3.4384930608187005e+00 7.5053893994827092e-02 -4.1230285601018091e-01 -1.0223220132168920e+00 -6.6347089908490489e+00 1.5227756158084276e+00 -4.2877970159228198e+00 -1.2739424850678138e-02 -5.6460662427531361e-01 -7.1432156424185678e-01 4.4255261503771237e-02 -5.5209832731978370e-01 7.5277289046831619e-02 -1.4202215541326950e+00 -1.4444979269598264e+01 1.0549273580703129e+01 1.2796697484339286e+00 -2.9542681526424985e-01 -5.8559141466895426e+00 6.1471869446313043e-01 6.8671758403220950e+00 -8.3201547297843952e+00 -8.6246718448168394e+01 7.2838525483185094e+01 2.4443768347634887e-01 9.7188287600554824e-01 3.7927389767644115e-01 -1.7760743809891892e+01 -1.4360497311646174e+00 -8.2913268171294341e-01 -9.0310361923698146e-01 -3.7870509659524942e+01 -7.5111775072059572e+00 -8.9310664733681620e+00 -1.0422030985610244e+00 1.7500262087392571e-01 3.3492665784368683e+00 4.5985639672268288e+00 -4.8372009123053576e+00 7.4588498406895098e+00 2.1512008367118597e+01 -5.6157404773709914e+00 1.1065615995615644e+01 1.0172772178297580e+00 1.7621802034716438e-01 -1.0800116959766797e+00 7.2936255945686668e-01 -1.6088866884898767e+00 2.7618611646786673e+00 -1.2823608745528475e+02 2.7949425531596717e+00 -5.7697713050654329e+00 -7.0358540679029247e-01 -1.5473042524391758e+00 3.1581028490566680e+00 9.0070893487887815e-01 1.8460923800082538e+00 1.2893037584248646e-02 5.1184853234834918e+01 1.3903408455061148e+02 -1.1972129447248705e+01 2.4549650242485175e+00 -2.5021841615153676e+01 -1.1512871471359720e+01 -2.1531004295683033e+01 6.7167118759891871e+00 -8.3211890450160730e+00 7.7375175667775693e+00 1.8809594912113938e+00 8.9566300429539192e-01 9.4080155947573019e-02 -3.4520683191339496e-02 -5.5354114321807479e-01 -2.4238885619920714e-01 -6.8049601175714436e-01 1.7407134565685283e+00 1.8704816965415311e+01 -1.5006355626852457e+01 
      </Row>
      <Row Index="177">
        -5.0543915854233319e+00 6.9798167406221182e+01 -1.1633463558335279e+01 -6.0846677901447401e+02 -5.6580278593530529e+03 -9.6389605757061190e+01 1.4308950706146788e+01 3.0576238037706617e+01 1.9225712735610159e+02 1.2106729393160532e+02 2.6937049865518475e+01 -1.3603390150589803e+02 -1.5036321451991535e+02 -2.8415852239855315e+01 2.5687399870793342e+01 9.2658615323355662e+01 4.1547209930613462e+01 4.8221577298041666e+02 7.7976387428175658e+03 6.7462880501896052e+01 1.6648866508450737e+01 4.7034343807102118e+01 1.0696553172050596e+02 -7.4518931625211735e+01 3.1866248134515445e+00 5.1296532579342966e+01 2.6188441872390104e+02 4.4883141674941498e+01 -9.5961814539696206e+00 -4.9802656525462226e+01 1.4090980354268140e+01 4.1778962345997570e+00 2.2114314513014688e+02 1.0439249863951954e+02 5.1667721347766928e+00 -3.5672652148317866e+01 5.4375727896211174e+01 -1.1153155683114142e+02 1.0281808870032364e+01 5.0462715839079692e+01 1.3893744909692032e+01 -6.7148977084341368e+00 -1.9028019550893987e+01 4.2619775346571259e+01 -2.7163227244158406e+01 9.7302075814218551e+02 -1.0578687255763991e+04 5.5151419722682476e+01 -2.9770595748286723e+00 6.6744576010763922e+01 -6.6789052579333429e+01 -3.6192018185337361e+01 9.9168036951246847e+00 -5.0492573815142237e+01 -1.0835846862722246e+02 7.5612265744052820e+00 -1.1485639765526287e+01 -2.5923785688301450e+01 -5.9334951619147432e+01 -1.4007336862115699e+02 1.5602876246500178e+04 1.0297009963688956e+02 -3.0590972966896061e+01 -1.0897675813518731e+01 -7.1241063625001743e+01 9.1093013399376616e+01 5.8439888983403989e+00 7.6634278006603836e+01 7.1948197974568757e+01 4.7427656915485557e+01 4.5101094112228311e+03 -2.3192213883569329e+03 -2.5964973464809539e+01 -8.6060193196462933e+00 1.3452060874828021e+01 -4.2954343325430818e+02 -4.1378069915639003e+01 2.2274618071005307e+01 2.1247462797188200e+04 -1.2506476135957419e+03 -4.2494334036177315e+03 -2.3703571954626000e+01 -2.8219305616366910e+00 2.2099091318901628e+01 1.0324906908382582e+02 -1.7197785014267993e+01 8.2475585722639835e+01 2.4840238146083662e+04 4.5851705719031161e+03 8.3664989208562911e+03 5.2945432704022537e+01 -9.7498680893264918e+01 -2.8121943089749584e+02 3.1093445903435259e+02 1.3953795848312257e+02 -1.5930850806476087e+02 -4.0634073815597862e+04 -8.0954766776598990e+03 5.0160538546204043e+02 -1.1551686159012747e+03 -1.3911746567222654e+03 -3.1546555417319269e+02 1.8156828912901892e+03 2.5868981940939841e+02 9.5921503710082936e+02 -1.2125417886478826e+03 1.0365191154273525e+04 1.6634655522216039e+04 -7.2919743644613773e+03 -6.1828279162513645e+03 1.3964373747010366e+04 1.8530493188424010e+04 1.6193512067525153e+03 -4.4489501421032382e+03 -3.6765772578866803e+04 -6.0711183757951712e+03 6.2707286027871887e+03 -6.9635738241801135e+01 -6.6781921074475395e+02 2.2600408767289914e+03 -9.5907366109801887e+02 -2.0073836966756630e+02 -8.7888920572417419e+01 4.6477141732699471e+04 -1.5359703951963456e+03 2.4517504082210944e+03 -1.1830475496133542e+02 5.4082429285102990e+01 2.8239902502333280e+01 1.7068899546776083e+02 -3.7859376976524914e+01 4.0317822850397462e+00 -5.0475210005161120e+04 4.2463686324549490e+03 1.9618387827411279e+03 -9.3920847383728869e+00 -1.4513943086629297e+02 1.0209310159931192e+01 1.5224835897467528e+02 -9.1662433665695772e+01 -5.8459449365338656e+01 -1.6427781050040270e+04 6.8858223588941037e+03 -1.4258237570406054e+03 1.0174305157085095e+02 1.4643571020368836e+02 -2.6156964538032480e+02 5.6927260776137700e-01 -6.6413052531398108e+01 1.9487159377676562e+01 2.6722700273798546e+03 7.1831483667963766e+02 2.7298228417258942e+03 -2.3923227909972525e+01 -4.2909803621470928e+01 -2.0273956696287496e+02 2.7060397216930278e+02 3.3877403054477156e+01 -8.7071161833017868e+01 -8.7787764367650030e+04 2.9726651876586839e+03 -5.2028131784848520e+03 -6.8192894234896016e+01 1.1213389330472273e+02 -2.9640927900723182e+02 -2.0833993658542204e+02 -1.8291500347874626e+02 2.6026449232735104e+01 -1.5639796000850038e+03 1.7156443283744156e+03 -3.1963384821110521e+03 3.6737681129853740e+01 6.5329095429042354e+01 -1.9618287551988033e+01 -4.7295730776503569e+02 -4.4590059503708403e+01 2.1512007512138325e+01 1.6177722612714535e+05 1.2038969955888762e+04 -9.8913076070063107e+02 2.1898551750044413e+02 3.0804141588843777e+02 -2.9183002536128697e+02 2.0030706726565768e+01 2.3011813380903419e+01 -7.7157948043971203e+00 2.3009163643997836e+04 -4.7444491987298243e+03 -6.8065810922445962e+02 -3.7963881126152046e+01 8.8245721783925546e+01 1.5422376540643381e+02 1.2201848506409442e+02 4.5874111691008920e+01 -6.8274164182948880e+00 4.7214358908338472e+03 7.5730585551162003e+03 1.3170233314410820e+04 -6.4704677625653849e+03 -5.3140737485657446e+03 1.6652480766195171e+04 1.5323478997864710e+04 8.2317121509571234e+02 -5.3675224830037541e+03 -4.6369417984770262e+04 2.6989145410615465e+03 6.4354085803133933e+02 -3.3069079745288036e+01 -5.8725121985071326e+01 -8.8117354465725839e+01 3.9334430334759872e+01 -5.6746199222382529e+01 -4.1793372993633966e+01 9.5825553354900912e+03 -6.2394238778528006e+03 
      </Row>
      <Row Index="178">
        1.1833838048285600e+02 -1.2552527716310033e+02 1.0309811505776815e+02 -7.4125669622560963e+02 -8.1442321216151468e+03 -3.4718670980938896e+01 3.4272837861110020e+01 2.2328042390666860e+02 3.0462697969869623e+00 -4.8890513236595325e+01 1.6276188501405841e+01 6.4155734339765331e+00 2.0879328906718365e+02 -4.9172170311717828e+01 -1.8913328493263180e+01 2.3881003126681389e+02 -1.1923571828428248e+02 2.6207531861212919e+02 -3.5620240206525195e+03 -5.0081660958431530e+02 5.9211609658573252e+01 -4.1169947281379621e+01 2.0534924237015025e+02 1.1754352265577836e+01 -1.4362441461545450e+02 -4.9128895421879861e+01 -8.4485688114626100e+01 2.9868901685286755e+02 2.3490768767060217e+00 -6.2730129206029233e+01 5.7689892840558969e+01 5.7916809856484178e+01 1.5010251044630422e+03 -4.0915197473219905e+01 -2.9390956730620928e+01 -2.8402379680152080e+01 1.9936616309929377e+01 1.9231202252126423e+00 -9.5780244873167248e+00 9.6320591486115745e+00 5.6531622708869691e+01 7.5036636570152950e+00 -1.0745998128450083e+00 1.8374873216787819e+01 -2.5012093933508368e+01 -3.6177147026144667e+01 1.0936799082548096e+03 -7.5106046439300371e+01 -5.9420584943136419e+00 5.3463862178290583e+01 -4.2798165846152187e+00 -2.2605208185598258e-01 -4.3710283075461973e+01 -1.6973868754800264e+01 2.1701068023522384e+02 2.9031867566928554e+01 -1.1628134861967555e+02 1.0308855394120201e+02 -4.0870536085594722e+01 3.2436056648479280e+02 1.3388248892470729e+04 -1.6967682712488113e+01 -2.8916387943118025e+01 -2.0329185630058987e+02 1.2073684884558133e+02 1.5436021565917713e+01 -7.5793037528663518e+01 -3.5720596032610956e+01 -4.3312969544142288e+02 7.7046924444571800e+01 3.4388183252054732e+03 -8.3709759802685585e+02 -8.1338743960321267e+01 7.5680131500004791e+01 2.5528527707181638e+02 -8.2252297451105915e+02 2.8708744312175213e+01 6.8549479063667604e+00 -1.9591168467069510e+03 6.6521691063744642e+04 1.0661866858353023e+03 1.0582931079121022e+02 1.6730308828694979e+02 2.2744005869538523e+02 -9.6957754928604118e+01 -1.1492037207596695e+01 -6.9457286585541169e+00 1.5147776014972478e+04 -1.6197841764986399e+04 -1.8113989273085608e+03 -2.6303605284749665e+00 4.1096961431520867e+01 -4.7520722378609935e+02 6.1983352912738746e+02 -3.0161182933643545e+01 -1.5490658418343597e+02 9.5742440188010223e+03 -6.1019290206598816e+04 -1.0288006442427868e+03 -6.0053017673576971e+02 1.0512834205188483e+02 -2.1162716183269040e+03 3.8445987975475509e+02 -1.3843670324274708e+03 1.2119321010597914e+03 -1.5316373832687270e+04 6.2252518723553687e+04 2.9249412449804891e+04 -8.9518420535636233e+03 5.1314541803809843e+03 1.8982041197266779e+04 -1.7958135386677714e+02 -4.9108051062690374e+03 -6.8433354953284006e+03 3.5147994509283453e+03 1.6564735016438062e+03 9.1054213806794723e+02 4.1555533907348530e+02 -6.4340329120622482e+02 -1.5526508813954933e+02 2.7238648773302066e+02 4.0747195625919858e+02 3.5674825728301369e+02 8.1208538932581432e+03 1.8350937960788142e+04 1.2441354577415623e+03 -2.1946318773460803e+02 -4.6059092974057421e+01 -1.0672810384786135e+02 4.4615485086287663e+02 4.6465361936079262e+01 1.4329093280953657e+01 3.6724570267668460e+03 8.9703404950461438e+04 1.3433424121068674e+02 5.3246166580214151e+01 -2.0635000142799981e+02 -3.7410925378557295e+01 2.3910504460997254e+02 -1.1485999351853400e+02 -9.6248052200646953e+01 -3.8582028215674218e+03 -9.6330313201874960e+03 -1.2140347060724162e+02 -1.8107953288944486e+01 7.8869650050764903e+00 3.2521153585208231e+02 4.3944837942486629e+01 -1.2249648479370239e+02 -8.9803912979873530e+00 -6.5549121808977798e+03 1.1467995168580615e+04 -4.5962053112220019e+02 -2.2049813435167835e+01 -5.4632548376452178e+01 -1.1346987529733451e+02 1.0211098548210157e+02 2.9930727617869593e+01 2.9331645665717133e+01 -3.4881572572374716e+03 3.7843254006763687e+04 1.3404127150502754e+03 -1.1097425775249327e+01 5.2053246663276514e+02 5.5987356745067518e+02 5.9464841713403075e+01 -1.2140445976865431e+02 -2.8425986235079472e+02 1.3766783817914897e+04 -1.4839637228998821e+04 -3.0242372188030276e+02 1.1203075286096691e+01 1.0605259489442687e+01 2.2616792561893817e+00 -1.7348212550586504e+02 6.8797609865027425e+01 -5.6157409854445177e+00 1.2038969176070299e+04 5.7055402222055127e+05 3.9168380969809368e+02 1.7313272312295453e+01 1.0409737488062819e+02 1.8112153000396211e+02 -5.7539430130623077e+02 -4.2732952486212753e+01 1.9140602913166788e+02 3.2835959562800872e+03 7.5460515335304663e+03 -6.7094935247441754e+02 -2.2830974944591799e+02 5.5765258915154845e+01 -1.1462776792510704e+02 6.3959133765310980e+01 2.9881372361014019e+02 8.0094816827167961e+01 3.0313214003685862e+03 -2.7814312714449962e+05 3.1952977036410055e+04 -8.2498594411592294e+03 4.6043794648488984e+03 2.1697968729764929e+04 -4.5789238076705169e+02 -2.8651588050057226e+03 -7.6693677878245699e+03 1.3678491890659323e+04 -1.5915173125118434e+04 -1.2972555930329406e+02 -8.7108568083218415e+01 -8.0106985264255627e+01 -6.1016680454851667e+01 2.8432876048964317e-01 7.3851571193094060e+01 -5.1343426181061659e+01 -1.8138282109117481e+03 -1.4165737132260325e+04 
      </Row>
      <Row Index="179">
        -3.5678134892668183e+00 -4.0284951272803937e-01 -4.2391096548818723e+00 -1.0611004501068783e+02 5.9740977269147515e+02 -1.7936388144688564e+01 2.2521448267258961e+00 6.0421089903172742e-01 -1.8203146780433144e+01 2.0649288892402005e+01 3.1284751358707510e+00 -4.4512637762217651e+00 -1.1171870484526607e+01 3.3328909378487257e+00 -4.6512233869201509e+00 -5.4147361027982015e+00 2.9713540735001516e+00 -3.4354162842955702e+00 -6.1806975758698536e+02 8.5718252946083453e+00 -1.3240445318652405e+00 8.8926507015767520e-01 -2.4401902447559110e+00 -1.5698754497175173e+01 -4.2840549401321937e-01 9.9113709844732512e+00 3.7477785032366228e+01 -6.9050639005596963e+00 -2.7541230012004689e+00 -4.7956412554185590e-02 -1.2209139171999936e+00 -1.5897306219188977e+01 -5.9220560510896576e+01 -2.0292340540009945e-02 -1.1953898930657942e+00 -5.5740382049378923e-01 2.3347055874436364e+00 -1.8169073495215557e+01 1.0370600271331085e+00 -5.3364319550747155e+00 -9.7569610901960004e+00 -1.1463549537003033e+00 6.9533056508055324e-01 -5.0633150087571721e+00 -3.5718047695791029e+00 -1.7104421345997253e+01 1.1101458256682122e+03 -2.9876723111400452e+00 -4.6313078540171091e+00 4.0173065053847949e+00 1.1518747293738073e+01 2.3517721604040212e+00 2.7024600508033121e+00 -4.4837820217345623e+00 -5.2627728120660322e+01 -5.1939283337723197e-01 3.6542125036812010e+00 -6.1937498096941681e+00 -1.4332078566023938e+00 -1.5245364447141128e+01 5.0910682157672272e+02 8.8232081413616044e+00 -4.4647947102912298e+00 2.2865911050888599e+00 1.4488327098938527e+01 -2.1724005557017207e+00 -1.6742918462428626e+00 1.2476709178367003e+00 5.1640499999120721e+01 -5.0367820906380487e+00 1.6867718220736060e+02 8.1182842995695637e+02 1.7778271249561030e+01 -7.6826536883691006e+00 6.4460894451403874e+00 3.0457956941146904e+01 8.3443868089286077e+00 3.9318067845055253e+00 -4.7040374868884719e+03 5.6080733892330909e+02 1.5945697813509105e+02 5.5081586137282983e+00 -8.4113717738091509e-01 3.1335007031229907e+01 -1.6531372279824836e+01 6.9614931819216963e-01 -1.0957991562707292e+00 1.9703399550478352e+03 2.7567240674648201e+02 -4.5206326883652946e+02 -1.9415317019159009e+00 -1.5179339512998808e+00 -2.6117266541219408e+01 4.6789997404033073e+01 6.2325797656276265e+00 -3.8268429551472849e+00 8.1766087095788680e+02 -2.0218309928456256e+02 -6.6038566176162931e+02 4.5833550952178200e+01 6.9652927832319165e+01 -3.7539448710351337e+02 -2.2839509908623882e+01 -1.4767415233742366e+02 1.0377460139074931e+02 -1.5459901920691264e+03 -1.0461260829461366e+02 -3.4238533358636960e+02 1.2777317428992291e+02 1.1348980502592894e+03 4.4574685796372523e+02 -5.2435876217112394e+01 -8.2978462961681117e+01 1.8512057317211946e+02 -1.1599184902790294e+03 -5.7325308568569926e+02 -3.2553491901537200e+02 2.7552195419775320e+01 -9.0534286883208551e+01 6.6838322011683260e+01 6.3920365832191663e+01 -4.8843851458873075e+00 1.1814082842257509e+01 -3.9750420449857484e+02 -7.8229844837333076e+00 1.9019362578171422e+02 -9.2332825162295507e+00 -1.2283663469221210e+01 -1.6759829760964635e+01 6.6762414429072123e+00 1.2246763316827298e+00 -7.2923668250318769e+00 -1.6138874107552692e+02 3.8012363991139864e+02 1.9990560858583922e+02 -5.1902621582721196e+00 -4.1651971766286806e+00 2.8901343958625148e+01 -1.5791159251959016e+01 -6.0684387719188830e+00 -2.1682890905314558e+00 -2.5650550736047880e+03 3.3241530647520267e+02 -7.6180445003348723e+01 -1.1173023335070102e+01 -4.8520882883694867e+00 4.3984262851827225e+01 -5.8885655766148375e+00 1.2175292704682370e+01 -5.5497681251082724e+00 6.4125731121948047e+02 -2.7195864804938537e+01 -1.9155398863789742e+01 1.6336504211981683e+01 -3.3941430266382667e+01 -8.2248450658920774e+01 2.2279086701953474e+00 4.4845851661361621e+01 -2.0686650338578175e+01 7.4748303911447874e+02 2.9517231754452223e+02 7.7092548681340850e+02 -1.0196037681723753e+01 -6.3665841126233317e+01 1.3204604134496185e+02 -1.2631503596280822e+01 -2.9972151287779525e-01 -3.1047856068269652e+00 -2.4677006003530987e+03 -4.4672007284199935e+01 -1.6672255750702607e+02 -1.0366367252267587e+01 6.9474624536806004e+00 3.5634944241921403e+01 2.3553162451109529e+01 -2.1044735287863887e+01 1.1065616032599749e+01 -9.8913075958198169e+02 3.9168379554829062e+02 1.2061122914931802e+03 3.3234696034615190e+01 5.9353110899144667e+01 2.1408270218039661e+01 -5.7668005388204620e+00 -3.1624883270767628e+00 5.2211763817361714e+00 -3.3455663573897200e+03 -6.3616293120998307e+02 -5.3546845539553033e+01 1.3959204737267953e+01 1.1037470490186024e+01 2.4579710900824011e+01 -2.9533261290089285e+00 -9.5966914534710952e+00 2.7174846359283720e+00 6.3585421561915427e+02 3.4117432974158510e+02 1.7264180210669019e+02 8.4468629031740988e+01 8.5149862578531247e+02 9.5169137870090708e+02 1.2123854373584059e+01 9.5195191128611242e+01 7.4048908566324954e+01 4.8485391457614605e+02 8.8168315027151650e+01 -8.7898537422135718e+01 2.8457924948479558e+00 -8.7735367095625350e-01 4.7188542130678002e+00 -2.9147184986644135e+00 4.5332851458910284e+00 -5.9301919267982157e+00 -6.8855686109928752e+02 6.7605816115695620e+02 
      </Row>
      <Row Index="180">
        1.9257522549197703e-01 -2.7856607142284666e+00 3.7955901655596591e-02 -2.7131202208503055e+01 1.6574715390735588e+02 5.7555950641162754e+00 6.1132383249483802e-01 7.7086784612052917e-01 5.7712429038492168e+00 -4.8807963741026017e-01 3.8721130421842309e-01 4.3078163064969033e-03 -5.5939552171111231e+00 5.3293074575993374e-02 -3.6961714531729761e+00 1.1723155884112586e+00 -2.9884316196239524e-01 -2.4411081588596403e+01 2.9577045000959765e+02 -6.8205396361598130e+00 3.8142270851038695e-01 6.4045079701043406e-01 2.7710827232200295e+00 6.8361180080523098e-01 -7.4620039538279581e-01 5.0334812763565395e-01 2.7390981974956048e+01 1.6524200189312932e-01 -7.0905083525886781e-01 -9.1344874726318892e-01 -3.3047225490886944e-01 2.8409644814885269e+00 -4.7752342160929800e+01 2.3909094698050666e+00 3.4155957003513926e-01 -1.1657034938494348e-02 1.5931828756624000e-01 7.4559715189891573e-02 -1.0972606988042699e-02 -7.4116724120611766e-02 3.1567913259153784e+00 -7.8270923928419167e-02 8.9165877596690457e-01 -1.4580242585052190e+00 1.7601259382451673e-01 4.3983830340311215e+01 -2.9050786368622545e+02 6.3511697642789962e+00 1.1793504936568056e-01 5.5532615751639725e-01 -2.9176977876906385e-01 -1.0983369742179616e-01 -8.3150254986748884e-02 -9.6233237185215925e-02 -3.9715775628017980e+01 7.3592691603950011e-01 2.0296640636755114e-01 2.4038304128831669e+00 7.2233238537934952e-01 -1.7801671135459458e+01 2.4664004670288159e+02 2.0475420065503558e+00 6.7332725148780881e-01 2.5294380030929253e-01 -2.5202928334245378e+00 5.2428561825155295e-01 -4.5423819193406967e-01 2.4220839929473748e-01 1.9023407881564260e+01 3.6544996225768678e-01 3.5636018379078109e+01 7.3407589619196045e+00 8.4578023435071188e+00 -5.1570083576694969e+00 -1.1806818454325196e+01 8.9814196307623604e+00 5.4428599148401062e+00 4.2777579942818926e+00 -1.3903557199810916e+02 1.6499831139868388e+02 -5.5796874820772075e+01 2.1675102688460144e+00 -3.6036607921366794e+00 -9.7578952826211207e-01 -4.9595982493944035e-01 1.2090324281192926e+00 9.4194767644067423e-01 2.1455326328873252e+02 4.7768994228476231e+01 1.5714394660220967e+02 -2.5843538588699122e-01 -2.9930023854126748e+00 1.3555284607858322e+00 6.3079069122225793e+00 -1.2248204114291443e+00 4.2716746168324962e+00 1.3473253723283869e+02 1.5469585675495631e+02 -1.0513151431733377e+01 -4.5995720103441201e+01 -1.5246322968704852e+01 1.3936866677556573e+01 4.3119941483378021e+01 -4.6207662689674152e+00 -1.3758299824044599e+01 9.9976880636289252e+01 1.1049308315328318e+02 -2.0555392622173935e+02 -4.9839598477292988e+01 4.1720097087489467e+02 -6.1995574346442112e+01 3.0772947107944282e+02 3.0588159833124271e+00 -4.3209015036419899e+01 1.8307762381735074e+02 6.3224077345851867e+01 8.3419120264011667e+01 -1.0596180068539626e+01 -5.4742851304084638e+01 5.7301078134332379e+01 -1.8905169047975498e+01 -4.5504242330950628e+00 -4.9921105979701199e+00 2.0158178883856817e+02 -1.5442827561479589e+01 -2.1958279975172672e+01 3.5130979690621267e+00 -3.4723931701291804e+00 -1.2887970692452530e+01 -2.2315731088033885e-01 -1.4940397981374374e+00 1.3185164218158150e+00 2.6500523151970037e+02 1.9974675990116179e+02 1.1330473741306349e+01 -9.8669631504102984e-01 3.4927691798755092e+00 2.4260999173376376e+00 2.4308782376638050e-01 -1.2903075937935000e+00 -1.0191366408926199e+00 1.2155552232337141e+02 -1.7415878762501279e+01 -2.4343659413589194e+00 3.4647730603388451e+00 -1.0893935676915589e+00 6.4805631135752719e+00 1.3686512855696265e+00 7.8246972093095390e-02 3.9284428101331414e-01 -6.8033421678149807e+01 -2.0619986132843223e+01 1.8567266879343606e+01 -3.1665526831423918e-01 -6.3034677879118135e+00 1.6328345219644689e+00 1.0612467288801160e+00 -9.1314528289242070e-01 -1.2575573146086194e+00 -3.5000855097080876e+02 8.3524462037444209e+01 -8.3064383812104097e+01 5.2652405688811199e-01 -1.0951917749927901e+01 6.2054475471154547e+00 2.4091073099946456e+00 1.9213830167226806e+00 1.7014979690271019e+00 2.8294819274613405e+02 1.0452592641884621e+01 8.7695958801134566e-01 -1.8563914250731983e-01 4.3639155772952449e+00 1.4109304653788968e+00 -7.9177389251388774e-01 8.3409370280782369e-01 1.0172772209122733e+00 2.1898552147636201e+02 1.7313284727921996e+01 3.3234695914499184e+01 4.4352869953371993e+01 -1.2598370346740126e+01 -5.6605094266752317e+01 4.1915111019019037e+01 4.7771424458549703e+00 1.7644917353487010e+01 7.7614613901126461e+01 -9.9400863688406389e+00 1.6499255914261312e+01 -1.5704956612234078e-01 3.2803168141695380e+00 1.2299297118926830e+01 -7.9718021720134402e-01 1.4575488067943727e+00 -7.2978260628566716e-01 -8.0657151981753486e+01 1.8636044131360541e+02 -2.9965250718865622e+02 -4.4085056428521781e+01 3.7312580763557867e+02 4.9581831459207706e+01 2.0776180106012777e+02 3.1517159730637516e+00 -5.1909608834278835e+01 3.8178943330811762e+01 3.0593153676853969e+01 7.7824956158657699e-02 3.8516744008711612e-01 8.7095222731611588e-01 2.3904319610643512e+00 -9.7441549124372528e-02 -3.7294413787703284e-01 3.6543739683327203e-01 5.3067198882196692e+01 -2.4387736360601895e+01 
      </Row>
      <Row Index="181">
        -5.1636149422829209e+00 1.7305824792026954e+00 9.2815948365054624e-01 -9.8554228854828125e+01 3.4423977021341670e+01 -7.8711239465560823e+00 -3.9915738798102609e+00 7.9732647042785203e+00 8.3437960538741152e+00 -8.1045531779457836e-01 3.4794368755259910e+00 -1.4979102661031902e+00 1.7204239806641226e+00 -3.3703069989350953e-01 -3.1156165327124654e+00 9.6071865643665433e-01 -1.1992799634879248e+00 5.0318806764671081e+01 -1.6670453995771823e+02 4.2011962589464531e+00 9.5799705676853364e-02 8.5786703814528025e+00 -2.4585117554892744e+01 1.4953395476254343e+00 6.5361325115387814e-01 1.6117780599325897e+00 -3.6002201516259902e+00 8.5994262496370055e-01 6.1623228351672310e-01 -1.5224424985990481e-01 -7.0886614438951767e-01 6.0280659977229334e+00 5.2121346955085301e+01 -2.7264263208759587e+00 6.5377235810797174e-01 -1.4928238238724418e+00 5.9544222312786133e-01 2.3627453077887495e-01 3.1730601175041073e-01 4.5540323791229476e-01 -5.2320313270779479e+00 -2.5787446279579918e-01 -1.1133004145946330e+00 1.0491168312667014e+00 6.9426957495517172e-01 1.3491185498567575e+01 1.8933639048095927e+02 -5.3643431687720806e+00 -2.3095681348649180e+00 3.9959955719476170e+00 7.3568246121110690e+00 -3.9954921612637939e-01 3.5699063335353705e+00 -4.4804271964418518e-01 2.4933587709585481e+01 -2.5845883534198766e-01 3.0023664984720995e+00 -1.5071617225551108e+00 -7.1869871878416802e-01 1.7489858640012017e+01 -1.1155701497674818e+02 -7.1678470910125185e+00 5.0387391528483505e-01 -3.7648232553629875e+00 -3.5708318908365442e+00 2.1133047733429038e+00 8.3410193344379202e-01 1.1567076394042317e+00 7.0131633287309114e-01 6.6468799339402551e-01 6.4713516729444564e+01 4.7281731383920146e+01 -1.4916756042047403e+00 -9.2125425202802944e+00 5.8734698277276038e+00 -4.4010778602000755e-02 9.8287486044143577e+00 -7.1125600115312970e-01 1.0481592480350628e+02 -7.2474539263785118e+00 4.2153594376892215e+01 -2.2735597504244183e+00 -8.6841060448987264e+00 1.6830955343060850e+01 -5.2033559255145860e+00 -1.5381839466132448e+00 1.7749801457747996e+00 4.2113432893788558e+02 2.5644698982341470e+02 -5.3057261863894837e+01 2.8300822991126928e-01 -2.6074030797584612e+01 -9.9858023761387216e+00 -4.5750570997503118e+01 -1.6299836529235563e+00 -1.5823135992558335e-01 3.6245092608002051e+02 -5.4582106562100216e+02 -1.0823996553805000e+02 -1.6222851042093005e+01 -4.1390392354401570e+02 -1.2574583065289556e+02 2.7283312274399890e+01 -5.6173622272760902e+01 1.4236995066349110e+01 -2.4819661967417596e+02 2.4491367975232708e+02 2.7088994069742375e+02 8.0052201418248657e+01 -1.8772834963558973e+03 -6.4431964000258404e+01 -1.3742768463930389e+02 -4.1616466143220720e+01 1.3420207812025905e+02 -2.3410229060556594e+02 -3.3214957927006441e+02 -1.1987864977321806e+02 8.4789657036596324e+00 6.7194427351209015e+01 5.0345078023704559e-01 -2.1442828133413343e+00 -2.2032154296008457e+00 -2.9106946806145846e+00 2.4213971293555369e+02 -1.2551828639097948e+02 -1.8340772093682972e+01 -7.4823754745059574e+00 2.7086189436136920e+01 -6.1946425537246341e+00 -5.1912952866741762e+00 6.2799891671177619e+00 -4.3788527738773269e+00 3.4155203939548664e+02 8.3188805696926011e+01 1.2315468581462255e+01 -2.6427719937748710e+00 6.1821934836640366e+00 1.6263133487975210e+01 -1.5372954232192910e+00 -1.4917335532432261e+01 -5.9762890617819524e+00 1.3169517405879742e+02 1.9473550659924149e+02 -7.1768094266317348e+00 -4.0674094672729222e-01 1.0772545741515296e+02 -1.2264682019758766e+01 5.3720341346490841e-01 3.0751779228073524e+00 1.1918339019592850e-01 7.4226604667845095e+01 4.3375307011163386e+01 2.8225104732257023e+01 -2.7391000854034147e+00 -1.1038751540965677e+01 -3.8694769102676219e+00 -2.9254286482852194e+00 -2.0757415899851317e+00 9.2753992746586533e-01 -1.6962619409052422e+02 -9.0253775239867537e+01 9.6504371409859232e+01 -6.3151417641982874e+00 -1.2140667718534132e+02 1.6156729409043692e+01 -1.7307967915676898e+01 -7.8698029518620274e+00 5.3965392466208471e+00 3.4293153775007886e+02 1.7892332387382339e+01 -9.5146670742087736e+00 3.1851064435470846e+00 -8.7929166569524568e+00 5.6752129302458343e-01 3.7519751318365309e+00 -1.0437612403484025e+00 1.7621802259228758e-01 3.0804141090241319e+02 1.0409735111972986e+02 5.9353111055106183e+01 -1.2598370254110206e+01 3.0537075727910997e+02 7.2295135529437971e+01 -5.3552433387604765e+01 -7.6011466106031911e+00 -2.1222233538663275e+01 3.9924689249440934e+02 -2.3240035592026834e+02 -9.0036975404455006e+01 1.1802877561218850e+00 5.3183003386322980e+01 1.7301030853036423e+01 7.8379891550725915e+00 -8.0281911675211859e-01 1.5378583194583371e+00 6.1585607963574876e+02 4.1738613822308525e+02 2.7853061771026660e+02 1.0710064166778693e+02 -1.6016382032554284e+03 -1.0618676123912792e+01 -7.5463979780477118e+01 2.3269898553001241e+01 1.2964573792764813e+02 3.4333345100363658e+01 1.6194486878368161e+02 1.2376684205459229e+01 2.6238110148108262e-01 -6.1146970309595510e+00 -6.5450673924067075e+00 -1.1499746691054327e+00 1.3085321816062390e-01 1.5356049163037824e+00 -6.3355608643730378e+01 2.3631403240900980e+02 
      </Row>
      <Row Index="182">
        -2.4054882016905683e+00 2.5011217975787758e+00 1.7633737379260310e+00 -4.0311819879058021e+01 -4.9100707389004037e+02 -1.1583828203425298e+01 -2.6209476846247668e+00 7.3619022225580011e-01 -1.9895098823312196e+00 1.9060154730410073e+00 1.7463527650949509e+00 -1.0714353047536207e+00 1.5818608070036703e+01 -5.8774242066272697e-01 2.0171700037656706e+00 6.5191095145195277e-01 -2.1599847379413859e+00 9.7950354212348429e+00 -5.6369510416419689e+02 9.3283646839212793e+00 -3.1832945776609307e+00 6.8837697175852419e-02 -1.7894148939302998e+01 -2.3123206524654734e+00 2.0034711378692904e+00 1.3023459734020548e+00 -4.5249751804886728e+01 1.2261497267309238e+00 2.3027342353742313e+00 1.4803367536200085e+00 1.8253336537019038e+00 7.6858134573990355e-01 1.2407422126296615e+02 -4.6447473155367476e+00 9.9693999572130565e-01 -3.5694141346453989e-01 5.8252899385803403e-01 1.1676094175839680e-01 7.9554099341500262e-02 2.8062428902234693e-01 -7.6401958805741970e+00 -1.1754417212601709e-01 8.6073231720925492e-01 1.5201160781216458e+00 5.4304722434332575e-01 -5.3226658138147286e+01 6.1443322308697702e+02 -9.9373747264288426e+00 1.4374468769490534e-01 1.5713862882048488e+00 6.4304866083807894e+00 9.5857315340686000e-01 2.1292448565919084e+00 -8.3602720851899370e-01 8.4408578420128833e+01 -3.2761599025872812e-01 3.2224233300810887e+00 -4.0785608421225987e+00 -7.4708365486566208e-01 8.7801903917693380e+00 -4.0993519999166165e+02 -7.3687093476880507e+00 2.5959480874238494e-01 -6.4629969893748651e-01 2.3833297884699149e+00 -7.4187938779150109e-01 1.3457524277249806e+00 -4.4280560900551791e-01 -3.2249466444543430e+01 5.2380092900114050e-01 6.3664085035074095e+01 3.1833928886650710e+01 -9.4414058283178335e+00 5.1813020769341165e+00 1.2804762693376688e+01 -1.5379553843905796e+01 -5.8226029263747741e+00 -1.1549206905193468e+01 1.1019554175575649e+02 -1.1465392274315582e+02 6.1790109082689014e+01 -2.8551221042178234e+00 4.1331828119991769e+00 -1.6452229462185642e+01 -6.4503268908486575e+00 -1.3999020486016818e+00 1.4046280496624792e+00 2.6802829240308347e+02 6.1783255181171626e+01 -2.6040894709543500e+02 1.0956522501372379e+00 7.5347933591201013e+00 -1.7803096670458714e+01 1.0907527941924307e+01 1.7714029882258107e+00 -8.4541590298681495e+00 4.7303756881405207e+01 -5.3628360871273117e+02 -1.9133313814129451e+01 4.7065768024710671e+01 -6.2449076973537444e+01 -2.4390156313768094e+02 -1.8695638229647670e+01 -5.1708483581575493e+01 -1.6848429595799487e+01 -6.7967161832633064e+02 1.8721573397856298e+02 9.6091851553305833e+02 6.1624332796090812e+01 -7.6113999029529805e+02 -4.1791299005887140e+02 -4.1985213856728365e+02 -8.6500541491529418e+01 8.9779766096846856e+01 -3.1843738179669890e+02 -1.7430528971590331e+02 -1.9050739976491332e+02 2.0537200607081065e+01 9.5843515452737847e+01 -1.5546395498415757e+02 2.3094653190314617e+01 2.5827361886905962e+00 4.1419623041461264e+00 -4.0331505022238707e+02 -7.8123411268767086e+01 3.0102154981515923e+01 1.4794635588833600e+00 -1.0104497079968496e+01 3.7083639440723204e+01 -5.7200421608706620e+00 6.6597797738942219e+00 5.5963470822025911e+00 -3.8405456205884911e+02 -3.1070067209859644e+01 1.1140576068340579e+01 3.6296168467236178e-01 -3.9124565419321016e+00 -1.1514979590938310e+01 8.3360506388612521e-01 -3.5318670447096423e+00 2.5911481274593546e+00 -2.8869644710841021e+02 5.7248587269352356e+01 -1.4662903777823885e+01 -4.9868606966565325e+00 9.7620373744830431e+00 4.2528185422454499e+01 -3.3723724978531209e+00 3.0983732616304174e+00 -4.3154263368776213e-01 2.3288947893657678e+02 4.8865310577269156e+01 -1.8226355466453242e+01 2.8904959778235195e-01 2.7662242188634991e+00 -7.8285162737201972e+00 -5.0550930550480473e+00 4.2373314085836888e+00 8.1163712771520125e-02 5.8052691532009339e+02 -1.0298193614950469e+02 1.3434989379995204e+02 -3.3843375988825901e+00 -1.7965662264301500e+01 -1.5128274245757166e+02 -1.5007805416726171e+01 -6.7984483309882222e+00 2.8344711574443693e+00 -9.9006097322375354e+01 2.4528782428347768e+01 -2.5585291598704316e+01 5.5075822064241109e-01 -4.4752202787508395e+00 -3.0281281935713196e+00 7.3062110750474289e+00 -4.6297022709029676e+00 -1.0800116824188919e+00 -2.9183003348011698e+02 1.8112150407414083e+02 2.1408270296478804e+01 -5.6605094214283774e+01 7.2295135624740396e+01 2.6059883417738251e+02 -1.2445778946413083e+02 -2.2985051701305132e+01 -5.8045680902612844e+00 1.6535481487492461e+02 -6.8140849162227823e+01 -3.5977353117417806e+01 -8.5620137516815475e-01 2.9605176679185661e+00 2.3603866643220613e+01 8.7012277222988814e+00 -2.0739110214538314e+00 2.0697972469145611e+00 3.9313830945194059e+02 3.2953913579778691e+02 1.0691188213355103e+03 7.6919286007181938e+01 -6.6705439343705075e+02 -5.9758123973159445e+02 -2.8899457212515449e+02 -8.6815536402584854e+00 1.2137641647734824e+02 8.2807006982257008e+01 7.1822249771600241e+01 -1.1365309511950940e+01 7.3830876206454832e-01 1.4520347501756223e+00 5.9717826818944246e+00 -1.5508829189893376e+00 2.5686748157181682e+00 2.5862383654621226e+00 -1.6859885216633489e+02 2.2482558065011185e+02 
      </Row>
      <Row Index="183">
        1.3302541050399348e+00 -1.9484476643521860e+00 -1.5796603616207765e+00 4.9423760297454812e+01 3.3372059618235556e+02 9.7528816478889304e+00 2.0840353111661352e+00 -1.2108996867770543e+00 3.6621782870331940e+00 -1.2439466964417059e+00 -1.1664253354700798e+00 1.4955643422420302e+00 -1.1258245478047275e+01 4.1418904894315706e-01 -2.1448178727006972e+00 -1.2451133985185585e+00 1.8911162675053097e+00 -8.4137260929176687e+00 3.2172036734760673e+02 -1.1015368648200047e+01 2.2068733077812461e+00 -2.5720849515916724e+00 1.3906202227071947e+01 3.6032337558777949e-01 -2.0646048168734512e+00 -2.0361099776105904e+00 2.0735420556698216e+01 -1.7012900572714325e+00 -1.1530284231888555e+00 2.2288777923789129e+00 -2.4978943744376472e+00 -3.1811577932229600e+00 -1.0669526566233124e+02 3.5516673148592037e+00 -2.9318928144118861e-01 1.2026099347328869e+00 -7.5270983427843352e-01 1.2207610125553202e-01 2.3972235081816201e-02 -1.5711662165538700e+00 6.0027688180060244e+00 -9.9828771095118521e-02 -1.5437616838671118e+00 -1.0675057267082306e+00 3.9032968016899838e-01 7.2598493997331985e+01 -6.1016964078217859e+02 7.5706155686399814e+00 -7.3428082873210831e-01 -1.7326902694893078e+00 -3.3818618128897819e+00 -3.5099250758800715e-01 -1.4053751572209181e+00 6.2589405083334582e-01 -8.0942057269013404e+01 2.2650695213229929e-01 -1.6704618430072322e+00 1.1135845714442882e+00 1.3245724450188172e+00 -3.3604952375481318e+01 6.4503661902295403e+02 3.5987011272175109e+00 -2.8808019137468688e-01 7.0242551885550431e-01 -1.5970807232426041e+00 -5.5536125606197795e-01 -9.0022746180791446e-01 -5.8781958595939299e-01 3.4825486624923599e+01 -6.2975433807653047e-01 -1.1953593861267717e+02 -2.2516472447675184e+01 8.0869542633344587e+00 -6.9282815892733645e+00 -1.4751191374113887e+01 5.1965859547527273e+01 1.1841581564500112e+00 2.8829695799929365e+00 -3.0498424029917379e+02 1.4620590907449593e+02 -6.7704923917899322e+01 1.1159251869802436e+00 -1.7435876878947418e+00 1.1806608966365133e+01 1.6729134342111781e+01 -2.8237301171852214e+00 -2.6608901474578701e+00 1.4498737448242619e+02 6.0144736134577542e+01 3.3067355298575094e+01 -2.0788335185290521e+00 -3.6806187736540221e+00 4.0211350576283476e+00 4.0576838462433278e+00 -4.6490734918735548e+00 6.6450257665404218e+00 2.3680418842683366e+02 8.5231885627972224e+02 4.8842126813943231e+01 -3.2041188424584085e+01 -5.2883314778447748e+00 4.0138722476966024e+01 -2.9992067240041827e+01 3.7642367780506618e+01 3.3691773300710118e+01 3.5450656543281497e+01 6.0438862594072305e+02 -6.8220870791483469e+02 -2.1511156395411871e+02 -9.9302878979278830e+00 -3.6352024864299557e+02 4.0978879728908299e+02 6.4243616678363750e+01 -2.1049218288416216e+02 3.6152272146203040e+02 1.4194823638692553e+01 2.6211573998110487e+02 -1.6715929830369149e+01 -7.4863005472473134e+01 7.6025738120691315e+01 -2.7496507053376224e+01 -4.4412828605845860e+00 -4.0462783778874458e+00 1.6029632040032496e+02 2.7760436470545244e+01 1.0826055614566812e+01 2.3381703445371027e+00 -3.1869904957552961e+00 -1.9956585812530019e+01 -9.0988594196387051e+00 -1.0738515711220045e+00 -3.1233748142105209e+00 2.9678043774798857e+02 1.3337997855861184e+02 5.8611284920962667e+00 -1.8795877538292197e-01 1.3320805850611492e+01 4.0588476921350036e+00 -8.0309391875712599e+00 4.4976161155462844e+00 1.1675665802802999e+00 -3.1389867888182124e+01 3.5461129832996861e+01 2.5847534502613996e+01 5.4192319581547457e+00 6.9624754097030035e+00 3.3413364536623220e+01 4.1116173347591909e+00 -6.2738451220840752e-01 1.5714902860249422e+00 -3.4416944479574772e+02 -1.0515933844871172e+02 -1.4151386125224718e+01 3.6694032328316112e-01 -7.8611897320490485e+00 7.7657297221931749e+00 1.5726175919966157e+00 -8.5709879251169419e-01 8.3394248560007322e-01 -3.1844440967831207e+02 -2.6910595546887293e+01 -1.0705488558481454e+02 1.5874264187443095e+00 1.1403067508046174e+01 5.4712771884337563e+01 2.3602431166798691e+01 2.7977459041005064e+00 -3.1499316986443455e+00 1.5923898880743661e+02 -8.6777179651723344e+00 3.2699068238335805e+01 -1.4850729481825629e+00 3.9010945063293772e+00 7.6388325364533216e-02 -1.2512284459288843e+00 4.9525306300347960e-02 7.2936252232280552e-01 2.0030694921188569e+01 -5.7539428314668066e+02 -5.7668001665839661e+00 4.1915110804769640e+01 -5.3552433098758506e+01 -1.2445778901122401e+02 1.5638076119899762e+02 1.8523215550227519e+01 -2.5021215374694805e+01 -2.6835084587278971e+01 -1.2226930510546009e+02 4.1594436923908091e+01 2.3857512470849245e+00 -3.9446602233967738e+00 -6.1645021934239432e+00 -9.7504165703705130e+00 5.0087168801798176e-01 -5.3115012654260529e-01 -4.3694208958998854e+02 3.7927596104499844e+02 -5.3421675868815748e+02 -2.2378228164681391e+02 -3.5304425056452672e+01 -1.4992796646957504e+02 3.0103056842227102e+02 7.8588697728035442e+00 -2.2717652026265108e+02 1.4747568408446386e+02 5.5579094873009034e+01 -5.4347445911121319e+00 8.3072672781949386e-01 1.6350212503014236e+00 -1.2697843707937246e+00 2.7423806371925084e+00 -1.0686177010267786e+00 -2.4290760233356306e+00 5.1126726255304476e+01 1.0819126059533686e+00 
      </Row>
      <Row Index="184">
        2.4104410840200219e-01 -2.5711582249588538e+00 -5.4930927345504799e-01 3.2793894718660198e+01 1.3353635743185839e+02 2.2000952690179632e+00 5.7282019747296609e-01 -1.1545462424933595e-01 -1.6877784175007076e+00 3.4470598692109256e-01 -2.0424096970980599e-01 7.1768088285798726e-02 1.5534427324320426e+00 5.7892059031770493e-01 -2.7060363645751551e-01 -1.3188053470168768e+00 -5.0359361147535253e-01 1.8750594019358203e+01 -3.4390847734303293e+01 -5.3984033503564985e+00 2.9144716944452842e-01 4.6129015895854303e-02 3.8404261352811888e+00 -5.8319029886160223e-03 5.5139256562972250e-02 -6.2009784599396767e-02 2.8217340295087894e+00 -1.6265023561932717e+00 -7.9657767972089211e-01 -2.0842796494954641e+00 -5.8644462398043551e-02 -2.2067595677172420e+00 -1.4378403623873282e+01 1.4660815182606415e+00 -7.1981625873326394e-01 -5.1630695465951071e-01 2.5271412273196248e-01 -1.3479031317318413e+00 2.0004065288004469e-02 -2.7301932661326633e-01 -4.1627702527117094e-01 -3.0665991139307236e-02 1.2134627613552276e+00 -1.6040297046436436e+00 -9.6276455249175008e-01 -6.6939167993885746e+00 -8.3123174881352043e+01 6.6397881191016594e-01 -2.8270321396646025e-01 -6.3313768012755034e-01 -1.8022385365652824e+00 -5.0621513461109824e-01 2.2984433973575102e-01 -4.9402333828056810e-02 -1.0754375894908605e+01 -2.6850154828181044e-01 8.7902957475512711e-01 2.3428145772095785e+00 1.3437254443770108e-01 9.3351872215266241e-01 1.9348443864831529e+02 9.0759459773345430e-01 -1.1414251553620547e-01 7.0406623369468679e-02 3.4352876098947194e-01 6.1791914516027013e-01 6.7423182133164383e-01 2.4144242669240157e-01 3.1158397360892813e+00 -9.8309346614510851e-01 -4.8955914941934907e+01 -4.8607084196039949e+00 5.7749358017662153e+00 -2.3676899667239582e+00 4.8133808897761696e+00 4.9094388302788055e+00 4.9848894801811854e+00 3.8681077898407610e+00 5.4592163097328239e+00 2.9538238185535434e+01 -1.7336519989967201e+00 1.6041625015411172e+00 3.4888468595652853e+00 2.6365992347689371e+00 3.9942316388647114e-01 4.9657064012697480e+00 3.4948278904120786e+00 -1.9020169456712665e+01 3.1826094128813452e+01 -1.2077692004737372e+01 6.7921410148418704e-01 -2.5714941001610789e+00 -3.2828456556782193e-01 -3.9794133499414981e+00 -5.0375893786992165e-01 1.7348113520647794e+00 7.7405680636467082e+01 3.1701240218926660e+02 2.4404789325828574e+01 1.6033565803613985e+01 2.9472112607238664e+01 2.2517594475328568e+00 -1.5497662885457615e+01 -4.0950359200307169e+01 3.9798401340361536e+01 -5.1935357415583894e+01 2.5757858153741705e+02 -1.3939393866312841e+02 -3.8920450551220441e+01 -1.4206393721235941e+01 -1.1761524727749362e+02 6.3335811640021177e+01 -2.5418255978884186e+01 -2.5506324355736197e+01 7.4735411803623037e+01 -2.8923682300005002e+01 4.6746881549519344e+01 -3.4087052580238346e+00 -1.5760862934096565e+01 2.6536292949350045e+01 5.2174306005250610e+00 -7.6153537609476851e-01 -1.8738355892247762e+00 7.0541789886786773e+01 1.8061423752749306e+00 9.9115446994321701e+00 -1.8688764849134381e+00 -1.4154137797311250e-01 -2.7506251021019335e+00 1.8320401794659631e+00 7.7926133542685827e-01 -3.2984615751587398e-02 1.0889400578445793e+02 1.0390198623978594e+02 -2.5052664437593251e+00 -1.1850330148060575e+00 -3.1879608501780083e+00 1.5357876333357012e+00 -5.2947551625070588e-02 -1.5302141717928119e-01 -9.1333917542462051e-01 1.4523887888383570e+01 2.4563606019014969e+01 8.2834463933083953e+00 6.8034437760152844e-01 6.4589146209075921e+00 1.2467431507030454e+01 -2.6254600434845798e-01 7.5073001746580204e-01 3.8934129798229478e-01 -8.5643612556947801e+01 8.2991778213858538e+00 -4.5074498332692201e+00 -3.6434226858062857e-02 -1.7655726180354350e+00 4.5149915246846604e+00 3.2064277158688554e+00 1.7318995355258844e+00 1.2141279387125588e+00 -4.2950489987520996e+01 -3.3750355027692763e+01 -5.1915537335825093e+00 -9.6305509683888957e-02 -1.1636533387045844e+01 2.2757315798589957e+01 2.7317434468129633e+00 4.5654493263992340e+00 2.2585625719108009e+00 6.0032951547483890e+01 -1.4344440574133614e+01 8.9705644275880445e+00 -3.4297344659346884e-01 -6.3344825796238524e-01 -1.2750096534036572e+00 -1.4742742447944455e+00 -1.1293451680199238e+00 -1.6088866979254046e+00 2.3011812281594302e+01 -4.2732951983635644e+01 -3.1624883075169805e+00 4.7771423886432425e+00 -7.6011465169379449e+00 -2.2985051520264399e+01 1.8523215559858912e+01 1.6900724759870140e+01 -5.7129500230525814e+00 3.7854376393771489e+01 -6.2355485010180928e+01 -3.4036943523151422e+00 1.9461970271393358e+00 5.0611849817205581e+00 -8.4246028635109909e+00 -1.7970150735185655e+00 -2.1527075539194862e+00 -8.1718085442389921e-01 -7.9791715854253198e+00 9.8519068741063052e+01 -1.0866655142261104e+02 -5.8248701020597963e+01 -4.7796635059248842e+01 -4.6508367381159360e+01 7.6541396242426003e+01 6.7948795755089630e+00 -5.9143049047425137e+01 4.2022617704358709e+01 1.0613605916592473e+01 -1.6021439976746481e+00 3.7103267974801213e-01 -3.1418983570900805e-01 -1.0291440336546547e+00 3.2332578188162087e-01 -6.4585619508705694e-01 -2.2009785555081578e+00 2.1960059527432346e+01 -1.3944086408229211e+01 
      </Row>
      <Row Index="185">
        -6.9575420057231074e-01 1.5734093346975442e-01 1.2532097437339331e+00 -4.5499793352404822e+01 -3.7705504846087433e+02 1.8369270970001132e+01 -1.0027745500555660e+00 -1.7112234808768036e+00 6.8177872412700538e+00 2.9001604500240532e+00 -2.6346730016872542e+00 -2.1433498628332543e+00 -5.4033428837520319e+00 -1.6025194269588494e+00 -2.8032471948935722e-01 4.7061587724902125e+00 -4.4543852511303044e+00 3.7750062878330482e+01 5.1047356119670440e-01 -7.1342519690920625e+00 -2.2177145287588154e+00 3.0899148708077639e+00 9.8185318114060820e+00 -2.2459997125408933e+00 4.1551227637187971e-01 4.5273037508881160e+00 3.7254852943730839e+01 5.9517109837123670e+00 1.0314007225970485e+00 -3.2702150706422799e+00 1.7764724006425432e+00 2.0039511169034085e+00 -5.3149770530829642e+01 3.0733410677706843e+00 9.9326076724557311e-01 -4.5507106766649486e-02 -2.8000236815887547e-01 -1.3498056410646262e+00 -2.8189034854038120e-01 -3.0324559067773205e-01 1.3833047844614157e+00 1.9497368880759813e-01 3.7896076122220066e+00 1.8976164449568671e+00 -1.2877141848045994e+00 -2.5844241891766160e+00 3.9809502987023222e+02 8.2538806027102147e+00 2.0958333763252526e+00 3.0297278755915613e-01 -4.4152774747004759e+00 1.6046665950292556e+00 -4.0835069494318468e+00 -7.4510809932668387e-01 8.7422983401911551e+00 1.6869892622393652e+00 2.8317078004960798e+00 3.9943821250920379e+00 1.2809268325987944e-02 2.9020563037474489e+01 -3.2120038477146227e+02 9.4803112404872003e-01 2.3967955901388827e+00 2.1377618245384431e+00 -1.8112291137408381e+00 -6.9772202050963461e-02 -2.9142415568673918e-01 1.4705331442573382e+00 9.7257191869884210e+00 3.5447296599959266e+00 -1.3333942622598693e+02 3.8912495723076589e+01 9.7167675884274018e-01 6.9770362309357097e+00 6.1358422677369617e+00 -6.8116367848790134e+00 2.3962823650783220e+00 1.3987538322897464e+01 5.9488960163866523e+01 3.0774737043265566e+02 -1.0554763282076465e+01 1.9260941391763033e+00 7.8091547024091597e+00 -1.5764052431801247e+01 1.8412600270984001e+00 5.5109900460296544e+00 2.9244501465819597e+00 -2.9690841496955545e+02 -2.2256306217990323e+02 -6.0124748668965822e+00 -9.1146486938221916e-02 7.8937755168597228e+00 1.2459691999801013e+01 -8.4858306645936992e+00 3.1620705582096758e+00 8.5268206790729728e+00 -2.6523260877939992e+02 -1.2949240235195180e+02 -6.7266494534392223e+00 -1.8748691758899469e+01 7.9457497494817346e+00 -9.6876562288833355e+01 1.7665360905767514e+01 -5.6647602552231824e+00 -1.7490630637221489e+02 3.6160023367495478e+02 -9.6238125875101559e+02 5.8951951350073273e+02 1.4754159976799653e+02 2.5692281309563162e+02 -7.5314450212905967e+01 -3.3723908816609139e+01 -1.3094371691403143e+02 2.0286690935200482e+01 -3.1925231217393593e+02 5.3246607338227932e+02 -1.5288114635488228e+02 -1.9488467837642446e+01 -6.1101700585240906e+00 3.0683277478053363e+01 -3.3128316507184167e+01 -2.5464168142909891e+00 -4.1990927695748876e+00 5.8525886898332828e+01 2.9959868136126715e+01 -3.9990682060793006e+01 1.0386779725911701e+01 -1.0485596229916155e+01 1.5083619973950775e+00 4.4381001384679735e+00 -2.0319579406017017e+00 1.5973470936539641e+01 7.3799596927869061e+01 -2.5802172718885367e+02 -1.7146646210136225e+01 1.4820809078186903e-01 -1.9859621328736523e+00 3.8105041170874756e+00 1.9856008405043326e+00 4.8591532741020060e-01 -5.4325601060275308e-01 6.9776374842631412e+00 -3.3981404734836178e+02 -3.6581321391648089e+01 4.5684888456555921e+00 -1.7411526974721482e+01 -3.8349625903603055e+01 -1.1781656982596473e+00 -9.9550493923161909e-01 2.0652346698877189e-01 1.4432759575575074e+02 2.0977922967459472e+02 1.6694045174261191e+01 2.4503249347240468e+00 -7.0327099569794882e+00 -1.2117649238782633e+01 2.3121759958122112e+00 7.1986120089834200e+00 -7.6501477477881199e+00 1.0931980581823518e+02 -1.5453576239639915e+01 -8.2042965218024619e+00 1.0970621086067130e+01 4.6652238760293756e+01 1.0758615526475296e+01 7.6057018270763450e+00 6.8109118770827557e+00 4.5062858401673509e+00 -1.1799769407601434e+02 -7.6583430001887791e+01 -4.8036568360647607e+01 -1.6956989092385584e+00 8.4676905741806650e+00 8.4177812096361322e+00 3.6425979039181371e+00 -2.7642814975197201e+00 2.7618612083476304e+00 -7.7157874505464861e+00 1.9140601923691383e+02 5.2211759324359264e+00 1.7644917471976907e+01 -2.1222233763355234e+01 -5.8045685461113976e+00 -2.5021215215067826e+01 -5.7129500654205732e+00 1.9114592038348474e+02 -3.2801764926944412e+02 3.1256021197394512e+02 -2.8940907411106309e+01 -1.1262913862025140e+01 1.0111423573301977e+01 1.3105394254272625e+01 7.0730662172522898e+00 4.8396821387798745e+00 -3.7072881818448167e+00 4.3544569637304085e+02 -7.2509991541546242e+02 4.7398188134876938e+02 1.4255529877245550e+02 2.6169963653257810e+02 1.6827951021072067e+01 -4.7622939651243200e+01 -1.1592013363544199e+02 1.1388263138745558e+01 -1.9949325424940616e+02 -2.3268726384730016e+01 -3.2772228995876826e+00 -2.1266246375452624e+00 -2.5652752855566030e+00 6.6964888007113004e+00 -3.8941808545483374e+00 -1.2738561988017452e+00 -8.1085833996678502e-01 2.4097171861988482e+01 -6.3673222993517179e+01 
      </Row>
      <Row Index="186">
        -2.9008542504126808e+01 -4.2057672225596434e+01 1.2747778928802290e+01 6.2994986948440783e+01 6.3963789917967370e+03 -1.3398279053853048e+02 -6.9007473871159618e+01 4.2492941134948524e+01 8.3431971803768192e+01 -8.1272567415419275e+01 1.3515684785166741e+01 -1.7959399621960529e+01 -6.7000879850595084e+01 2.1877636844314836e+01 -5.8147144271888010e+01 9.1809361138361965e+00 4.8487448423620663e+01 1.3821400953871489e+02 -1.4016405426797108e+04 1.4235591438190977e+02 -2.7764501953829040e+01 3.8018274621828070e+00 -1.9098494968849991e+01 7.3599466948177906e+01 4.2779897193171109e+01 -3.2892861196002741e+01 5.0867793539138802e+01 -2.6127212324779748e+01 -1.0548057868188152e+01 -1.7052024497315870e+01 1.5038055519469708e+01 3.5990196328668389e+01 -2.5671420008374844e+02 -4.2909115125886956e+01 -4.1711486530402908e-01 -9.1671403390555497e+00 -2.8888629643894092e+01 5.6328178559931587e+01 2.3691144639675485e+00 4.0257471236073684e+01 6.1073282158446091e+01 4.4985461404670559e+00 2.2913852996341575e+01 -1.6839825954644766e+01 1.9907778121218143e+01 -5.1102070149863721e+01 1.0551625015659214e+04 -9.7072144227860008e+01 3.1162980986461207e+01 1.2687275865227093e+01 1.2682808232659681e+00 1.6076164115588654e-02 1.2468857663995214e+01 8.2218088866910080e+00 -2.0448860213218722e+01 2.7796871068591997e+01 2.4707134400247583e+01 3.0492448919827439e+01 3.0759416459049135e+01 7.6231109240292426e+01 3.2788718011740712e+03 1.1336120248700826e+02 9.2757601116773685e+01 -3.2072900706461553e+01 -3.2506925747978357e+01 1.2911089784517884e+02 -1.0054677901216763e+01 1.6417690413152059e+01 1.5464673638888371e+02 -1.1331548688820931e+01 1.6479410439831263e+03 -6.0123203861114416e+02 5.0731105155194243e+01 -2.5763209784575156e+02 1.2864262775929819e+02 3.6946746638293007e+01 9.3228418989176504e+01 2.1358691659501062e+01 1.7840499173830735e+05 2.7317964718472358e+03 -4.5543592498415528e+03 -1.7859565843298753e+01 -1.4420517273734004e+02 -2.0059202360338531e+02 5.6043576093873526e+01 7.5235210972911318e+01 2.6928653042825488e+01 3.8205203970675007e+04 2.0895279220716620e+03 -7.2855232933064253e+03 3.2470202381931799e+01 -3.6584223650742774e+02 8.8165386699867668e+01 5.9913616653267491e+02 -3.9332953979877324e+01 -6.7560432390455247e+01 -5.8350348958519171e+03 1.0805226991299234e+04 -8.5244335233299353e+02 5.9801972249861331e+02 -4.7600452928505001e+02 -4.3079013861223648e+03 -2.0401167672304200e+02 7.3329173312290322e+01 1.1571696801064913e+03 -2.4713298798542231e+05 1.0152318784662777e+04 -4.6950846176715277e+03 1.9423233646803715e+02 -1.3063758802899611e+03 6.2031316645406405e+03 4.2492648839128960e+03 -4.7983552115000930e+03 3.2495025908825619e+02 -2.6854333235345548e+04 -1.0202747057033066e+03 2.0752733277922089e+03 2.2666859874212048e+02 -1.2138790303069982e+03 -1.1742246152402913e+02 2.4721996118251468e+02 1.8356917963692922e+02 2.1192927582096570e+02 -4.8175465156474616e+04 8.7041628658672562e+02 1.2546630076909787e+03 1.5958202311354097e+02 3.2087328774930211e+02 2.3516251327197961e+02 -1.5567242202103262e+02 -7.2232001270746309e+01 1.6971432986828404e+02 -7.4219961065165931e+04 4.7656084341849928e+03 6.1770658682900103e+02 -1.4679302345211426e+01 1.0048123975748967e+02 -2.6433148750102555e+02 3.7891599551672698e+01 -4.7760330901184261e+01 -2.5203896868608012e+01 1.5711682841354364e+05 -1.0999441194699320e+03 -1.9906804871176428e+03 3.8550406400014353e+01 1.6286962380805926e+02 4.1498396520969982e+02 -4.8715830127785011e+01 2.9884740238374945e+01 -3.4930589172255395e+01 3.0477607614848297e+04 2.5315126233851188e+03 -3.7308498350612354e+02 1.6644859577577108e+01 6.4963420773742837e+02 2.0352215168641123e+02 -1.2878639782280879e+02 -2.9911688812572049e+02 2.5451175581063717e+02 -1.0112112746644299e+04 2.4404006640263251e+03 -9.9249174525393755e+02 -5.1771419385154786e+01 -6.5898304790620750e+02 -3.7408599802732351e+02 -8.0265152853920881e+01 8.3803752769348648e+01 3.6259531076213534e+01 4.9786249356133339e+03 -7.4013947062514490e+02 4.7210998531835066e+03 -5.0770172448624749e+00 -2.9507471041371900e+02 -1.0639117812934273e+02 -1.0097223894440003e+02 7.7964725299283032e+01 -1.2823608781271582e+02 2.3009163934470853e+04 3.2835959390053467e+03 -3.3455663702482270e+03 7.7614614984136665e+01 3.9924689051517635e+02 1.6535481425826583e+02 -2.6835075104772841e+01 3.7854377453475102e+01 -3.2801765149815992e+02 4.9681359993201675e+05 -3.6045987511032727e+03 -8.2129414766229456e+02 4.2999504086269553e+00 3.3195805523704621e+01 -1.6209584339258436e+02 3.1145580929784046e+01 -5.1361996749378932e+01 4.8557413214703047e+00 -1.3681697734566405e+03 5.5880534924515086e+02 2.6719392950927722e+03 -1.4627087820069374e+02 -1.8712344012710964e+03 1.0688244472365634e+04 3.8663369296018009e+03 -4.8404566347151485e+03 6.4072119648830039e+01 -7.0485683483490720e+03 2.0247330602722750e+03 8.2221653740975512e+02 -1.3943443928335910e+01 4.5053530540135228e+01 8.4071995820966549e+01 -8.7410050394927339e+00 1.1308458268804770e+01 -1.3247357868705876e+01 7.4676715031847652e+03 -4.6159541093314583e+03 
      </Row>
      <Row Index="187">
        5.7302945718842238e+01 -3.0740908741056046e+01 3.5221893145484501e+01 7.5018263513105921e+01 2.7439597157420358e+03 -4.5669021332778357e+00 2.9751494917413766e+01 -1.0080309578406741e+00 1.2297529901187045e+02 -2.7663367907702934e+01 -1.6109314479539307e+01 1.4893954106410092e+01 -2.0531502898564213e+01 -4.7160852950921566e+01 9.4032474341456691e+00 2.7100613581344078e+01 -2.8326420594908996e+01 2.5244579925257131e+02 3.9764983377773315e+03 -1.3529332638563574e+02 9.7506694171524941e+00 -3.0894635918036641e+01 -4.7497479298476719e-01 1.5210610393234674e+01 -4.0380089573713121e+01 -2.1024755125745287e+01 1.2236886284867069e+01 7.9788805546369076e+01 1.4139707596623339e+00 -2.9051406407234026e-01 3.7390814695257177e+01 1.5371069295157213e+01 -8.0611990419699578e+02 1.0419285159427091e+01 3.7461722742937127e+00 7.7809341033553210e+00 -1.1015169647685980e+01 3.6787578507163516e+01 -9.1887614348261195e+00 2.6221886858545304e+01 9.6488519946433371e+00 3.4265139983830295e+00 1.0042971753887286e+01 -1.2020268469786970e+00 1.2534206264466775e+01 -1.8722512950783130e+02 -9.6449794761880912e+02 1.1869207462543272e+02 2.0840954474074351e+01 -9.4836499917910260e+00 -2.7360988303139038e+01 7.9612899581037482e+00 -3.8938432071525170e+01 1.0487287952706993e+01 1.3369451435870724e+02 4.0760147732360679e+00 -3.8266566378505786e+01 5.2447577319680931e+01 7.5870776723331801e+00 1.1671777450585796e+02 -4.1548239433437120e+03 4.8453321902347398e+01 -2.1434394331822205e+01 -4.1234009486977357e+00 -6.4669190446857101e+01 -1.8867680486372706e+01 -1.0628273830333839e+01 -1.5734341023721754e+01 -1.0773896694272844e+02 5.6427277100705012e+01 -1.1862491006575117e+04 -1.6352247065649499e+02 -8.4700136138855953e+01 2.8191320519137662e+01 7.4218844872084446e+00 -1.9811919788054001e+02 -7.1698582779838489e+00 -3.3743244590870745e+01 2.4413269119356992e+03 1.8746516428061295e+03 3.2728155404975405e+02 2.7396798317489811e+01 2.4025816406792728e+01 -7.1189194084727205e+01 -1.0438204728470737e+01 -7.6436086964840797e+00 9.8939135652265122e+00 -3.5940697076972574e+03 -1.9879254110140610e+04 1.1459421168876579e+03 -2.0372528419061496e+01 4.2465504451645756e+01 4.2286884139322865e+01 -2.0480995640456877e+02 1.4177586411721180e+01 1.9087460524124410e+01 -2.5878723442801274e+03 -1.2106656245443824e+04 5.7505999864701880e+02 -4.6444830823661050e+01 2.8285584629000732e+02 1.7129487883984311e+03 -6.4968192636089952e+01 -5.3201507212061233e+02 -9.9605930465653682e+02 5.9959590600259835e+03 2.2728745121070606e+03 -9.6290702906621445e+03 1.9579184517888943e+03 -6.0861939140547656e+02 1.4207662959670415e+03 1.0651620107512717e+03 -1.9888484635262939e+03 1.9109942558489274e+02 -1.6700322017662693e+03 1.2306955755414296e+04 -3.1620273920625914e+02 -4.2955803482995236e+01 2.8505789141537389e+02 -3.1064447899368497e+02 -2.3071668057051647e+02 1.4748883096164855e+02 -6.3313586051632683e+01 5.0605050455778837e+01 5.8910620408554096e+03 -4.8212526797596365e+02 -2.3413856123660885e+01 1.0800142907421105e+01 -5.8867776754459555e+01 3.3457242720018257e+01 -4.9107997968549171e+01 -2.7523125998022806e+01 1.9739387395007070e+03 -1.0708326241696312e+04 -3.4624604223686038e+02 5.0625579727126819e+01 8.5230006249024882e+01 -1.1216355806641513e+02 3.3527692712741555e+01 5.6511076115330070e+01 4.6927959335668959e+01 1.7791065074899234e+02 -9.8125742673102068e+03 1.6095272822433617e+02 3.0251810453473070e+01 -2.3155199590080883e+01 -9.2097904210619163e+01 2.6067344082206546e+01 -1.2234893657700354e+02 3.7297445756815250e+01 -1.4025879807309248e+03 9.4402273376089870e+03 -2.5499645308894105e+02 1.7241700570762987e+01 4.2463941643829457e+01 5.1482380384986755e+01 -7.1407855587132872e+01 -5.5856081359637756e+01 -1.2067069516782340e+01 3.6889382719155401e+03 1.8463939560735598e+03 4.2899029127787799e+01 7.8892115462589572e+01 4.1346331287481007e+02 -5.1113571136526298e+02 -2.2708897181455541e+01 -2.1545294152258066e+01 -1.3648100320651793e+01 -1.6321282430796418e+02 -5.6745083599779755e+03 2.0647288953431416e+02 -1.1468717192380836e+01 1.8070088240405312e+01 -2.7064501132932492e+01 1.5257121682043362e-01 5.8211599993053596e+01 2.7949431534575524e+00 -4.7444488355214708e+03 7.5460516395944287e+03 -6.3616293529182440e+02 -9.9400854880563383e+00 -2.3240035795222502e+02 -6.8140853407538089e+01 -1.2226929938048124e+02 -6.2355478771094283e+01 3.1256020499686485e+02 -3.6045985022666873e+03 2.3787333170808852e+04 -2.0911404228373431e+02 -9.6981185141424248e+01 -1.3406097066646907e+02 6.8551792792313790e+01 7.3946513658156618e+01 1.2558159281907865e+02 -1.0115347124548862e+01 3.5790937298908830e+01 2.7534509447651057e+04 -1.1386315418432088e+04 1.9611883345011793e+03 -3.5419847825064790e+02 -8.0136880513795222e+02 1.0876173048738972e+03 -1.3417555280781194e+03 7.8717145226026651e+02 -5.0060624367312994e+02 -1.6093817030675042e+04 1.4900132767690046e+01 -7.9767256431579881e+01 2.1153968677609328e+01 9.6090526757661792e+00 -8.0215327245064145e+00 -4.3876738965293953e+01 1.0843076965116779e+02 -2.4460672979636911e+01 -1.5939433687814011e+04 
      </Row>
      <Row Index="188">
        2.1250428547659732e+00 -6.8326367731166897e+00 -2.3024462308498528e-01 6.0509959280765997e+01 -1.3745427985057595e+03 1.3282087233457718e+01 1.8951663525509304e+00 -2.1166125232718400e+00 9.4123170339513678e+00 -2.0938482307324078e+00 -4.9753312307343265e+00 2.2528153592063020e+00 1.0150757301819596e+01 -7.4681956757634949e-02 1.2704037853636692e+00 -4.3655856904037762e+00 1.3851344240076742e+00 -2.6338510354316350e+02 3.2793807023534282e+02 -2.0130167486513685e+01 -1.9058202023318813e+00 -3.0519952628046547e+00 -5.0886320552659079e+00 -1.2417317343343086e+00 -2.9585109575517947e+00 -5.3186712306098798e+00 -5.1071026848001338e+01 -4.6380399279744751e+00 -1.1324690860809596e+00 5.4716823728790587e-01 4.2259325080806320e-02 3.8699548802742356e-01 2.9456681075065262e+01 2.0731571755419509e-01 5.6222144672537411e-01 4.3637942989303724e-01 -5.3994003341327357e-01 3.5292059973401102e+00 -4.5497846070719561e-01 1.0116690370352277e+00 1.0183564511462464e+00 2.2187695186542999e-01 6.8997714950246092e-01 -1.1728720940492963e+00 3.5283809722520232e-01 8.4481467880777018e+01 -8.4271802027228102e+02 -6.5443900057712483e+00 1.7510899084310125e+00 -2.5753173350075258e+00 -6.6328717119760725e+00 -2.1260423754594031e+00 -3.3930407573471770e+00 4.7066568425538513e-01 -2.4748780930293151e+01 -1.3050886554064212e+00 -7.0683635868632422e-01 4.2140488137602432e+00 5.8870254351447215e-01 -1.1319820029900347e+02 -4.8807190536555754e+02 -1.7244010822167930e+01 3.2970182537323112e-01 6.9326611463816334e-01 -1.1935456970488595e+01 -5.1230958925304293e+00 -2.5700530536569044e-01 -2.5073340964549331e+00 -2.2305100691926015e+01 -1.5009529153188197e+00 3.3191449784682391e+02 -8.3190049281008214e+01 4.5937766931170216e+00 1.2777253747949544e+00 1.0150033139006155e+01 -5.5537191097586174e+00 2.6334291268802641e+00 -2.7659585776329028e+00 -2.9750222233270688e+02 -4.7405428789014320e+02 -4.0279670449860123e+02 1.9276283955317268e+00 -5.5034510661175773e-01 -2.1431736675698630e+01 1.2992259328183707e+01 5.6739001237685684e+00 2.4971452880939893e+00 7.0026845596983185e+02 3.5515907833788970e+02 4.9592538112747525e+02 -2.3294311772360921e-01 1.1016103186840311e+01 1.8993017433502352e+01 2.9205443491990543e+01 -3.5549269703451607e+00 -6.5435974330459743e+00 -9.4792292302027454e+02 8.3355504796061587e+02 4.2333189317151664e+02 -7.3208190394814807e+01 -1.3063095448603917e+01 1.7238024338594806e+02 8.2341088455261541e+01 2.1241135047308745e+02 -3.9331150443207825e+01 7.1949162899738440e+02 1.0087528924213141e+03 1.7732964212072493e+03 -4.5057192022655522e+02 -1.5589985990249011e+02 -9.6298724942568469e+02 2.5088764889022150e+02 1.8668253068572827e+02 -3.5327911595097532e+02 8.2905649780677413e+02 1.6801906747302382e+01 2.0193696761277624e+02 -1.5465815379243605e+01 4.7903198284919199e+01 -1.4480115359740159e+02 -3.0599520449426159e+01 -1.0365432768300600e+01 -7.8167412268552177e+00 -1.1928762332289116e+03 -2.0461688316925392e+02 -1.5172348945459271e+02 1.2233877490898745e+01 -1.0348488030995213e+01 -1.1575753583991371e+01 1.2119060804386152e+01 -4.1790209297493170e+00 4.9324891751894953e+00 -9.4652329677636590e+02 -2.3409440236085629e+01 1.5547919709259281e+02 1.1118163240100358e+00 7.7762158980386857e+00 -3.2731059387408550e+01 1.9076591307498347e-01 5.1544700921998015e+00 2.0365200628939304e+00 -4.4228214488979211e+02 1.2650735471828193e+02 -9.7028318056427452e+00 9.2913120107910210e+00 1.5773432689743458e+00 -5.4558829613546777e+01 -2.2553355089985416e+00 -2.2970922611815183e+00 6.4175314247062829e+00 1.7065777683045599e+02 -6.7290712583440836e+02 6.7232758635476785e+01 2.3788188606769669e+00 -1.0039811893993829e+01 -1.3720518250194345e+01 1.1067418215619682e+00 -3.5518473704312399e+00 5.6023215727945157e+00 -9.9098182965572050e+01 -2.3045386155616870e+02 -6.7530032545682843e+02 1.3328165191715527e+01 -1.8322576631010406e+01 3.8103073709047749e+01 2.1967237217802278e+01 7.7901609132860301e+00 -5.2070101910904043e+00 1.3683099124415976e+03 3.0998547852444608e+02 -1.0564409572223212e+01 -1.5360674352867445e+00 7.6117607170713200e+00 1.4313990628181273e+01 -1.2298740998873853e+01 2.2607335056974449e+00 -5.7697713596641371e+00 -6.8065814852507901e+02 -6.7094933737177007e+02 -5.3546844553343362e+01 1.6499255523061315e+01 -9.0036974591383114e+01 -3.5977352306089870e+01 4.1594436386341840e+01 -3.4036946386437013e+00 -2.8940907385258427e+01 -8.2129417049243898e+02 -2.0911404286829929e+02 5.4234464785360433e+02 2.3765812922322880e+00 -7.3477381180830434e+00 -4.2675989455178865e+01 -9.7947310998813464e+00 -4.1247050486859997e+00 -2.0165650486194124e+00 -3.3873555562683323e+03 -2.2846820944318233e+02 1.1705217346919969e+03 -3.8223929354249412e+02 -4.8638756024467511e+01 -1.3227236421427410e+03 6.6204456664096369e+01 -2.8716050427324689e+01 -2.7138587932170003e+02 -6.5567050652897888e+02 2.3332904981491745e+02 -3.3299287633038091e+01 1.8963917685600791e+00 9.3779270593345956e+00 2.0609175894550063e+01 1.1386292404464449e+00 5.2563748281949074e-01 -2.7798984471487529e+00 3.4474677606017913e+01 1.5200578379442115e+02 
      </Row>
      <Row Index="189">
        -2.4212828137882036e-01 5.8513905144833700e-01 -6.1363740982304549e-01 -1.9817451707956479e-01 5.9760307352969448e+01 -2.0044227511421253e+00 8.7382453002566152e-01 9.3148737165654794e-01 -3.3845294939581692e+00 2.4504888189136331e-01 3.6669672314920243e-01 2.3343911714700738e-01 -4.9404268938141627e-01 1.7141445419459143e+00 5.2543511263577969e-01 -2.0397823630034395e+00 1.9943985118212026e-01 -7.7951743173567252e+00 6.5889493776997369e+01 1.1582249527328141e+00 -4.9877018270381157e-03 -7.3216896186151925e-01 2.7170402682464521e+00 -1.7161003872124070e-01 5.6499771647458896e-01 9.5082362857024094e-03 -6.5164408590581502e-01 -5.5262678684549833e+00 4.9288921220849602e-02 -1.4667117741674929e-01 -2.3889030667288047e-01 -1.1684950260573146e+00 8.8882804936332604e+00 2.2594750216310011e-01 -2.5749913680907000e-01 -1.7754262270403842e-01 -4.7760911099988590e-02 -4.8017879603280145e-01 1.8534419178823036e-01 -1.6749319662727080e-01 -8.9953213909852536e-01 -2.1516036850847953e-01 1.4693998653341289e-01 -2.7709696627825053e-01 -6.5395876765810002e-01 1.8171688072880556e+00 8.8640236210880232e+00 -1.1729872460995665e+00 -6.5981048502289497e-01 5.3062664475823595e-01 2.0760279546139699e+00 -3.6577925477556061e-01 8.4269715545151391e-01 1.1114691721650094e-01 -1.7543963775936504e+00 -6.9256790836367632e-01 5.7616375791189411e-01 -1.0257530968920019e+00 -4.6219785087254550e-01 -5.3885629667566519e+00 3.8249398837494255e+01 -4.0520774976995760e-01 -8.0435730461278787e-01 -7.3692880980807174e-01 3.0204913976693515e+00 -2.4510644128010961e-01 3.2658516865253767e-01 1.2465151405917752e-02 1.0625837626083960e+00 -2.8210265339287326e+00 3.2725071045174730e+01 3.7193685750606562e+00 1.0321155447904764e+00 -8.3519672681075008e-01 1.0103493652569000e+00 2.2907094203631786e+00 3.7757219101259520e-01 -1.2488493887452119e+00 -1.7962057832670098e+01 -6.0746082402028634e+01 -5.0910869646360197e+00 -1.6039366328226867e-01 1.3126092238155707e-01 1.4915935427886780e+00 -8.7256619837101468e-01 2.2621708438087040e-01 -1.6986339533917927e-01 7.7061227167939251e+01 7.9787548772956256e+01 -4.9590505357303982e+00 3.1341274038711148e-01 -3.7994094903609898e-01 -8.2175980730372089e-01 1.5970180601671009e+00 1.9746728378385590e+00 -1.9169155069820754e+00 2.8006725030693360e+01 1.2629359324834860e+02 -1.4409285135633411e+01 1.6501470215596201e+00 -2.5257932183104117e+00 -6.0959631318307501e+00 -9.4491805130484252e-01 -2.1508191814620816e+00 2.1796380415179932e+01 -4.8182964188387132e+01 3.0683916530094628e+01 -7.2563589963749791e+01 4.7618288886187869e+00 -2.0811088568501361e+01 -3.9780646140868214e+01 -1.0100390226481650e+01 -1.3023005058805204e+00 2.5349201978090836e+01 -8.1856287584196252e-01 -1.2651955949698983e+02 -2.9133937233416418e+00 2.0242088909071514e+00 7.5445800299239636e+00 -1.1309995316779684e+01 6.7709849960338140e+00 -1.6141802112308019e+00 3.7997205912352960e-01 -4.0597823331795553e+01 -5.5700812330193912e+01 4.6404950993280636e+00 -1.3485240094671194e+00 -1.7672220341296452e-01 -8.7990015915698550e-01 9.9394647972788874e-01 1.4308317444685543e+00 -1.0831625072647455e+00 -2.6860057097233039e+00 1.3887523684960115e+02 5.5655192183363340e+00 -9.8743792080889337e-01 -2.4954656296482227e+00 1.3599942015102897e+00 -1.1052451771007838e+00 -6.6347022941093492e-01 -1.5218323954852919e-01 -1.6267280620071688e+01 1.0287185740580935e+02 -1.1160505736478399e+00 -1.8989200970900657e+00 -9.3216269949186881e-01 -5.7377921932175013e-01 -1.1384588655974426e-01 2.5754633464929384e+00 -7.7903382418793932e-01 -1.8651518491333263e-01 -5.9815689853514641e+01 2.7058023473350659e+00 3.5722227242955595e-02 1.5587852967644267e-01 8.9905730551811303e-01 1.3110496728439536e+00 6.9138275346623423e-02 7.3926232142839066e-01 -1.2581326447308129e+01 -4.0781433224703733e+01 1.3510420681284359e+00 -4.2045886081329353e+00 -6.7503408810433996e+00 8.6321320936991697e+00 8.6452688307487335e-01 2.5795436720825675e+00 -1.0877730403815988e+00 7.8903631443764198e+01 3.5503373860526153e+01 3.4181420181084832e-02 -2.0490884370941043e-02 -1.1641863446051843e+00 4.1083976989420989e-01 -4.0931864300723575e-01 1.3815782601250870e-01 -7.0358540771984357e-01 -3.7963880634075394e+01 -2.2830975128161160e+02 1.3959204716423130e+01 -1.5704955850908542e-01 1.1802877498359976e+00 -8.5620136714830153e-01 2.3857512342867082e+00 1.9461970271125251e+00 -1.1262913842641993e+01 4.2999511936733015e+00 -9.6981186057866580e+01 2.3765812707301848e+00 7.2984372171154455e+00 1.8981503416578960e+00 -6.1015783542514157e-01 -4.7571131757677279e+00 -7.2244047068170651e+00 4.2776033971898642e-01 -6.5729117495877290e+01 1.6649500666857273e+02 -6.0314616296805610e+01 4.9803646712172061e+00 -1.4295919607243377e+01 -3.7300898166681435e+01 -5.9855176423712777e+00 -3.2773087605308113e+00 1.4943975813242538e+01 2.4623767638663594e+00 2.0291714363074902e+01 -6.0038487902792781e-01 1.4194314688116521e+00 -1.9832039926596301e-01 2.8225456860048759e-01 3.7318880424830425e-01 1.4097160178150787e+00 -1.6840086199842403e+00 -4.1174618698928782e+00 2.2570477488981219e+01 
      </Row>
      <Row Index="190">
        -1.0459164300066934e+00 -8.4894329155429205e-01 -2.0453370323282627e-01 -1.5043676630458549e+01 5.4664416757011622e+00 2.2067216469636506e+00 -1.6646576386982517e+00 2.0856660064566270e+00 2.5257494395009843e+00 1.1591522809683408e-01 3.2045302730949921e-01 -5.6570651007920247e-01 3.0867873484393726e-01 6.7110733371187870e-01 -4.9157091184670776e-01 -1.3759084813843998e+00 -5.8187988314693939e-01 1.4935112449838925e+00 -2.8298366723132131e+02 -4.9780365902861945e-01 3.9942860748798026e-01 2.4076176852756852e+00 1.2652176809323237e+00 2.1790648022442838e-01 1.4959036660706140e+00 1.0476845788674609e+00 -1.0196115944085022e+00 -2.4242077990627635e+00 -3.2031025754757536e-01 -1.0162478103601700e+00 -4.2253044415833330e-01 2.4116875289658992e+00 6.9963779267267228e+00 3.7953058496182734e-01 -4.2363023821723544e-01 -5.6154497506258849e-01 2.2498514217505772e-01 -6.6502569560405522e-01 6.6128603535394959e-02 -3.4327725318541447e-02 -4.6423433197327313e-01 -8.4384332720885080e-02 1.0687795390289594e+00 2.5293253642368541e-01 -6.8076893276000305e-02 6.2049745505914871e+00 3.2435718213440055e+00 -4.9070268187900723e-01 -3.6306385140461828e-01 9.2917864845222198e-01 -7.6875911930407881e-02 -2.5690308071214130e-01 7.2545553169354449e-01 -2.7527476923218241e-01 1.8801337317224807e+00 -8.5287530662755628e-02 1.3960671450472590e+00 2.7870569466239914e-01 -2.2072050223971473e-01 5.6778834187343250e+00 9.8765894205767836e+01 -1.6704132395754367e-01 1.3188834575105179e+00 -1.4785025811399750e+00 1.2744016391276602e-01 7.6562337491113475e-01 6.8758149951535197e-01 5.2942473242309873e-01 -9.5391154640822151e-02 -7.8250781708538819e-01 5.2087420258627162e+01 2.7293990667101298e+00 3.9097184686700230e+00 -1.4706748546073641e+01 9.4367443636576809e+00 1.4544284325313015e+00 5.4033600906613675e+00 3.3857929205423600e+00 7.0237459835034770e+01 3.9988064859358019e-02 1.6303236132674101e+01 4.4896859442668458e-01 -4.3018769097959648e+00 6.7858754029343800e+00 3.5891764733979414e-01 2.4694856194083030e+00 2.4550229245511641e+00 3.0196056155076803e+01 1.1729665989809746e+02 6.0062174092049645e+00 6.6580580050036287e-01 1.4451550571052962e-02 -7.7496576909937183e+00 -1.4075431460910430e+01 5.9371442128536100e-01 3.2752491359883251e-01 1.2507411935365781e+02 8.8680840710944722e+00 -3.7623051433463388e+01 -1.2711489985643965e+01 -1.6499298141585513e+01 -8.2093499010412174e+01 3.7364474483454018e+00 -9.3688810285752862e+00 5.0933873656375903e+00 4.5464031610790698e+00 2.5724260742574734e+02 2.2980578426546481e+02 -4.4283273402316283e+01 5.6406134778423370e+02 -1.6731911675667334e+02 -6.2500628117250301e+01 -3.6045294061077669e+01 -1.4218438093116559e+01 5.0873947802269868e+01 -7.8932642440998194e+01 5.3641445668690722e+00 -2.3381241588531996e+00 -1.9690892411181721e+01 -1.3574247406192921e+01 1.5853744534023235e+00 -1.3311765846674852e+00 -1.8089126734235030e+00 9.7375630402031675e+01 -3.4943566321095204e+01 6.4838370017050693e+00 -1.5565149923911168e+00 -2.4468754804000127e+01 6.6211205915881237e+00 1.3566970039014450e+00 -3.4805615264208178e-01 5.7172760057386895e-01 9.6947560339998745e+01 -9.0970219855898904e+00 -4.4290844424673992e+00 -1.0529694558080775e+00 -1.4849457243061579e+00 8.0064109601676137e-01 -5.4578923736565343e-01 -3.7608260468208634e+00 -1.4197316635108499e+00 -5.8776792233911692e+00 5.2184679878490897e+01 4.5424259642963989e+00 1.4751671716591619e+00 3.1518183926731581e+01 -4.4352785727128321e+00 5.9878938593283237e-01 1.6517232296846061e+00 3.5671161843946564e-01 -4.7854805572471378e+01 1.1617530111988117e+01 -3.8687917535417000e+00 -4.1902609795216605e-01 -8.9476749817977179e+00 3.7563596966733712e+00 4.9148400415386106e-01 -7.2918056499688966e-02 1.5556756298626730e+00 -7.1268321195530007e+00 -1.7344287348553735e+01 1.6954054278737203e+01 -3.1869940082778214e-01 -7.9318508111786514e+01 4.9247930422504851e+01 1.5503297300980137e+00 1.5205834508159981e+00 1.6519496469447645e+00 6.6741143593452762e+01 1.0376030398261719e+01 6.6244292897049490e+00 2.4694307874390908e-01 5.7001941536830145e+00 -3.4342646000691275e+00 -4.3433170108357899e-02 -1.0098447847799186e-01 -1.5473042502498302e+00 8.8245719651447871e+01 5.5765260301503758e+01 1.1037470387275562e+01 3.2803167925330197e+00 5.3183003397133234e+01 2.9605177031636458e+00 -3.9446602409677496e+00 5.0611849322729228e+00 1.0111423634425545e+01 3.3195803524450298e+01 -1.3406097063567358e+02 -7.3477379994201328e+00 1.8981503315105144e+00 7.2580552578787092e+01 -1.3557714078077481e+01 -1.5942707041854192e+00 -4.8448007641627129e+00 3.9768466520392565e-01 1.1360986970992235e+02 8.1285728086674339e+01 2.5497966097475000e+02 -3.3497954994216059e+01 5.2374643719928690e+02 -7.2277521221603621e+01 -4.5227190214093433e+01 -3.0214269411116685e+01 -2.6773321496494503e+01 4.7195665210186462e+01 7.6947728721736880e+01 1.9914696553559987e+00 9.4033175239707134e-01 -3.9587412234092341e+00 -2.2795824758366123e+00 -1.1683540219138244e-01 2.3414379754920205e+00 -1.5044808607855202e+00 -1.0110637921921860e+01 8.7239047525883080e+01 
      </Row>
      <Row Index="191">
        -1.4179458779908309e+00 1.6494203312696492e+00 -1.4296352822490377e-01 -2.7240618811571380e+01 -1.5055004216758090e+02 1.3252403664244672e+00 -1.2902789373300294e+00 6.1075111146659191e+00 9.9521829301312810e+00 7.4722963126858044e-01 2.3425027013902073e+00 -9.5096039719192937e-01 -4.2495288236373483e+00 3.1553361550528353e-01 -6.9532340845973710e+00 2.0230785283695134e+00 1.7936324170825628e+00 1.4346352576200331e+01 7.8815042159905738e+02 7.6808004245794663e+00 2.0786464214825706e-01 2.7446093478040114e+00 -9.8208943775636293e+00 6.9747808153484669e-01 3.8553824692073344e+00 1.8093445553910641e+00 3.1919797662608175e+01 -1.0140129194083198e+00 7.6561619819737103e-01 -5.5615231652095076e-01 -1.1504549223050393e+00 4.2518648614588983e-02 2.6417987182435752e+01 1.2214619594657954e+00 1.6710842614470867e+00 -6.9648724582091504e-01 6.9373304352352605e-01 -2.1730302379817794e+00 1.2074941423848529e-01 -8.9816533915167951e-01 1.0786573637992802e+00 7.2073219740532712e-03 -6.3539294043404126e-01 1.1368071757523239e+00 1.1888992258026221e+00 1.1306917605477736e+01 4.4735483904232183e+00 2.7659432915720199e+00 -4.8806668784710716e-01 4.2551135250054628e+00 -2.7854529865429267e-01 -9.3462664053750366e-02 2.1755016325638747e+00 -7.4929193976637731e-01 -5.2596523258657726e+00 9.1446374649486484e-01 -3.9298821963586628e-01 -1.1512374573463386e+00 8.0429429510687100e-02 -1.1332448048267878e+00 -1.2636100992824822e+02 -6.3519498188324586e-02 2.2433110642418796e-01 -1.8951290368874705e+00 -6.9161028986493847e+00 1.0982769858483896e+00 8.8528550900923331e-01 1.2218527479059071e+00 1.3537282720973854e+01 2.1369453205254985e-01 1.3587106838104091e+02 1.2120799303305219e+01 -7.7004683323546508e-01 -3.1339321680303556e+00 -3.7223622033839376e+01 3.7612089121577768e+00 4.1222612244318428e+00 1.3288856259520192e+00 -2.1472480506035856e+02 2.5156407868468935e+02 -1.5838898763216889e+01 -1.0488004689001906e-01 -1.0855804539986991e+01 -2.3372099819985124e+01 8.2539804272826700e-02 -2.5685019863358383e+00 -6.5950463843773721e-01 1.7261706019146550e+02 5.3805233022389984e+00 4.6234935588567225e+01 -5.2273780321869912e-01 -7.3739108359937058e+00 7.7746406961953518e+00 1.4334570627712313e+01 -5.6738949960300311e-01 1.8863586169128395e+00 1.7452243419704473e+01 -1.3199478109395915e+02 2.9405435250415053e+00 -1.3176157583257723e+01 -2.1982750015067118e+01 8.4738460228608872e+01 2.0240106325132842e+01 8.3973096620963261e+00 -2.4985490963202793e+01 1.7033814233526755e+01 -3.6977868829925967e+02 -2.0289039526313752e+02 1.0257529614900072e+02 -2.6599939762949361e+01 5.5418560759432046e+02 3.0689094534615052e+01 1.2415844429884353e+02 8.4681764201171589e+01 -1.7856802014625237e+02 -5.8225878606550040e+01 -1.6771427480216175e+01 -6.6181575755792679e+00 1.5529506250709687e+01 -7.4580481171004962e+01 -1.7931202401331955e+01 -8.9743608148211429e-01 -4.2696895936996020e+00 4.4781802017447262e+01 -4.2429305853295318e+01 -2.3080619708461882e+01 3.2716447806845004e+00 2.3609051009173072e+00 -1.7065570044770357e+01 -3.4845824655842677e+00 8.7121290200524637e-01 1.0155886639016556e+00 9.3421134122942476e+01 -4.4969951760007859e+01 7.2656511828578516e+00 -2.6498293655668252e+00 -5.5170838746545456e+00 -2.4212850289932248e+00 -1.0573953056396803e+00 -1.0146156090277920e+01 -4.9553093129438075e+00 -6.1111114653301229e+01 4.7906054262089128e+01 -2.0456897814608737e+01 3.3459465950457838e+00 1.2818505510110754e+01 1.9132518141226853e+01 -1.1262157806141602e+00 -3.1654434770508546e+00 1.8411979122624889e-01 6.4146146460993350e+01 -8.8937150554115419e+01 1.3569709418472485e+01 -1.0748771496715626e-01 -2.8181658811446368e+00 -1.3221811600815045e+01 5.8353091568600579e+00 4.4025127527491925e+00 -3.2239119994056127e+00 -1.2434483229139732e+02 2.5437509984018993e+02 -1.0417491112449170e+01 -4.9649213556948482e+00 -3.9820270744126361e+01 -1.9675096871727283e+02 -4.4552347946209494e+00 -3.4355263244598131e+00 3.3907248501469063e+00 -3.1286505577170374e+00 2.1732811722739370e+01 -9.1660203748315325e+00 1.1570553276718254e+00 -6.5233112154328410e-01 4.7726638408977351e+00 7.9350766238647807e-01 -1.1285602575776421e+00 3.1581028648661089e+00 1.5422377301922006e+02 -1.1462776530742104e+02 2.4579710883052940e+01 1.2299297247353685e+01 1.7301030601453022e+01 2.3603866311481454e+01 -6.1645020338421190e+00 -8.4246027807390362e+00 1.3105394126227957e+01 -1.6209583962079594e+02 6.8551797339370751e+01 -4.2675989657158880e+01 -6.1015783419544434e-01 -1.3557714092548736e+01 7.9857668727990642e+01 9.8074057275806581e-01 -6.5407403627470373e-01 1.4474550276510669e+00 3.6976604746371595e+02 -1.5982005574870050e+02 -2.9751456808105661e+02 1.0189488851891608e+02 -2.5267202548272508e+01 2.8931867154191218e+02 -1.1642050868092298e+01 1.1923798044925881e+02 8.7920615363509611e+01 -3.3076211003251956e+01 2.4967268413656889e+00 -1.1978390378395343e-01 -4.5002491733512784e-01 1.4292746634037359e+00 -7.3415540843987337e-01 -1.5799887307516620e+00 1.7028897828691534e+00 3.3759658668057284e+00 -1.6455245194677101e+01 2.4468031172274483e+01 
      </Row>
      <Row Index="192">
        1.2998139314095658e-02 -3.0628131457292440e+00 4.3467648395806080e-01 -3.4401946789002977e+00 -6.6508254602848069e+01 -4.5852805305688609e+00 -1.6879550783247943e-01 1.9993554939591540e-01 3.8615014110485930e+00 9.7964028235886136e-01 1.1538142928274226e+00 -8.7986606981454685e-01 -7.7772134286825434e-01 -1.4338735128905460e+00 8.6524899163354263e-02 2.1886426905129817e+00 -2.7266873245474699e-01 1.0349488867635614e+01 -9.1053561501090371e+01 -4.5413815611442665e+00 4.1776237956956663e-01 8.5964470793440673e-01 -5.1391663530360976e+00 -1.0981731288478258e-01 -2.2227297821895657e+00 1.2888639287885866e+00 3.6985937706347727e-01 5.9131080290565148e+00 1.8327606789408435e-01 -5.1019566543867256e-01 3.1725852070116112e-01 1.2613412829894628e+00 8.2610465368547352e+00 -9.1637940832453424e-01 4.4112945906748813e-01 -1.6362273296246599e-01 2.9203095977847227e-01 -9.3207585816438088e-01 -4.1684515484717188e-02 7.8062688556349347e-02 1.6385613264475296e-02 4.0238953394362786e-02 -2.2433226496037939e-01 7.3606165674632962e-02 4.1023363800142576e-01 -5.1702549078396487e-01 4.2958113555865623e+01 -6.5140885288626471e-01 4.8890767577951522e-02 4.2390167617536889e-01 3.0428199503478659e-01 4.5864866120225578e-01 -1.0360367335015917e-01 -4.0407864110467773e-01 4.9546534585265363e+00 7.5571544878575259e-01 -1.6779299590620855e-01 2.9507068649308543e+00 4.2195851778610205e-01 1.4618149036272143e+00 -9.3017727530906996e+01 -4.6607050093336488e-01 -6.8457247688239242e-02 4.1372457038119315e-02 -2.9236057520260372e+00 1.9234500558558094e+00 -1.1737020862060870e+00 7.7322756050035224e-01 -1.4507060804602538e+00 2.7009085622861502e+00 -8.7400397190166927e+01 -1.7679087708187495e+00 -2.3679619525833173e+00 2.1452808160596533e+00 -8.5310807738392214e-01 -1.6231077255698025e+00 -1.1899034225254330e+00 -6.6362268280449688e-01 2.1365944663778009e+01 9.0016271490180827e+01 7.0526650033020815e+00 5.8372421488814341e-01 2.2872604180056442e+00 -3.8348719240818809e+00 -4.6120138818460390e+00 6.4145052169011230e-01 1.4876558403972153e+00 -2.7107943496384905e+01 -7.6959125498055073e+01 -2.3797468169451406e+01 -4.0795137601609410e-01 -1.5823413153536556e+00 1.0088558983257006e+00 2.1663956769141759e+00 -1.6406059958047767e+00 1.3731608733275136e+00 3.2093470848621337e+01 -1.3617241123327716e+02 -2.8772359044031646e+00 -2.6820326172046904e+00 -2.0973473632424344e-01 -3.9762711305679908e+00 7.6186856998564778e+00 -5.8617542581068172e+00 -5.0909004818230432e+00 2.3112671733966636e+01 -6.7603810642444856e+01 4.2672878976536481e+01 -1.8267733652890211e+01 4.3487523743386191e+01 -5.0611434012947001e+01 4.4728260855289321e+01 -4.5497892564735274e+01 -9.8005917374113665e+00 9.2377104555551796e+01 6.9556434070012628e+01 -8.7266026602454758e+00 6.2486054407861342e+00 -9.7801852610286915e+00 -8.2122517102511932e+00 3.0838565692908979e+00 1.0275433584383951e+00 2.0761475247267178e+00 4.8931196805549916e+01 8.3124996662889316e+01 -8.6257933394449537e+00 -1.6653426486036431e+00 6.0518818747004843e-01 3.7197632814395405e+00 -4.1090769373022624e+00 -1.7543084076314930e-01 -3.6491694335400648e-01 -3.1220403134285334e+01 -3.2028454656439749e+00 -1.9183426875224256e+00 4.4943770232659991e-01 6.9776220196470717e-01 -2.1360491686743899e-01 1.3749637309156739e+00 -8.6144409327323679e-01 -8.9059425363772426e-02 2.9967504295894287e+01 -6.9142939856601515e+01 -2.8528613942194170e+00 1.4542629033985655e+00 -2.7214620683798785e-01 -2.0225216302114859e+00 4.6859423856365368e-01 -5.4014126495704406e-01 8.5498763024586477e-01 5.4600340889542167e+01 1.6129609564481780e+02 -2.8541337303245200e+00 1.9138183595967018e-01 -4.2966001679815236e-01 -6.8778007001787955e-01 2.6761964634139641e+00 7.3961873012415702e-01 -8.4574946793336991e-01 -1.9175838174722230e+01 6.8807762629775198e+01 4.2340841381624159e+00 -1.1238244742488028e+00 4.5939930700905336e+00 -1.7825926855042553e+01 -1.2642933381873597e+01 -4.4620704575113539e+00 8.4063658169574751e-01 -6.6399936576338632e+01 -7.3695582850813025e+01 1.0304526067646975e+01 2.3696694091894743e-01 -7.3436907524637718e-03 -3.8080810743622351e-02 3.2224305821318922e-01 -1.7003965413727888e+00 9.0070893811932251e-01 1.2201848470489585e+02 6.3959133142141695e+01 -2.9533261731995140e+00 -7.9718023561885254e-01 7.8379891814226994e+00 8.7012277470567767e+00 -9.7504165936876745e+00 -1.7970150798263116e+00 7.0730662362440473e+00 3.1145581097389897e+01 7.3946513383758429e+01 -9.7947310940362513e+00 -4.7571131750197964e+00 -1.5942707054908567e+00 9.8074057749180099e-01 1.2771194338840871e+01 7.3407179416595305e+00 -1.0273183887863979e-01 7.0353323110826750e+01 1.7589766809604225e+02 4.8129718686912440e+01 -1.0380718533226180e+01 3.0489713075387499e+01 -7.9126757102025579e+01 4.7173263438240646e+01 -3.4642575888899756e+01 -1.0544173542378758e+01 2.8889181056192683e+00 -3.3218898026818700e+01 1.6006460725013893e+00 -1.2766739545009500e+00 2.3634759648341319e-01 -1.0111773907681787e+00 -1.0911740822128380e+00 -1.2506893848732084e+00 1.9551345004585414e+00 -2.2045296248204007e+00 -2.8203669500019636e+01 
      </Row>
      <Row Index="193">
        8.5410462183138591e-01 -2.6301949794591408e+00 8.7649504707809456e-01 -1.5612356083306622e-01 -3.0793918192535102e+01 -2.0921229836805466e+00 1.6509230187185864e-02 -9.6144374163814206e-01 2.9797925140067889e+00 6.8415267470682828e-03 5.4168401254366305e-01 -4.7273075269345100e-02 6.5048123701856753e-01 -2.0826234015118152e+00 -2.2404425227422564e-01 2.4893800515210174e+00 -6.0286955824068400e-01 7.1050525720426094e+00 -5.8746608575627761e+01 -4.3889799676264332e+00 3.9423527472358799e-01 5.6304970507532537e-01 -3.7705734052759921e+00 -1.9994884922279255e-01 -2.7276839425373467e+00 -1.2463418830091655e-01 7.5395212528957245e-01 7.6407682048981789e+00 2.0708241609476374e-02 -1.8225549327837598e-02 5.1900317231652338e-01 9.6451348874853693e-01 -5.6533002823236984e+00 -8.5060957396304104e-01 3.0892719534044488e-01 2.0636850618134872e-01 4.3655545433182397e-02 5.1149777119342321e-01 -1.5290137693702199e-01 1.2558938920593121e-01 1.0816969501446749e+00 1.5409288786865716e-01 -6.6187675203676477e-01 -8.8770653475108929e-02 6.5507977728800881e-01 2.7352499284768328e-01 -3.4515149784510157e+01 1.0378756470879509e+00 3.3635195067731516e-01 -6.2402398870149511e-01 -7.8957693741868340e-01 4.7269048169127093e-01 -7.1153057161669586e-01 -1.3060405825203825e-01 -1.4064880098735557e+00 8.0161807116861050e-01 -1.1444484380085962e+00 2.8140851074585882e+00 1.4435233073787401e-01 1.9422539484828008e+00 -6.5630679450343450e+01 1.1376684242124013e-01 3.5553721659068671e-02 6.8776063206725713e-01 -2.9292617014234210e+00 -2.1850320184224614e-04 -1.4910234813033167e+00 -3.0628087740439014e-01 4.0563951044973123e-02 3.4678613843441779e+00 -8.6395318071120982e+01 -8.1115344878225670e+00 -1.8903405996965814e+00 2.1015710432177457e+00 -2.9655963180214258e+00 -1.8304412479244974e+00 -1.4316107378281520e+00 -1.2014926328279651e-01 2.0092039156973897e+01 1.2241532860076921e+02 1.0293898997209226e+01 8.3273224043638638e-01 1.3334210143328846e+00 -1.7945399929608357e+00 -1.4406593871042190e+00 -8.7672981666916172e-02 2.3673936103038695e-01 -5.2456625433889712e+01 -1.3685818870157982e+02 1.3186670850425003e+01 -3.6399125221529527e-01 -4.7590311981163325e-01 -7.0065309283867450e-01 -2.3966884054512860e+00 -1.8289769768311224e+00 1.3802998531397341e+00 1.5756311691757674e+01 -2.1740204111438300e+02 1.1788296731315086e+01 -3.1816380379177094e+00 2.7469667265899460e+00 1.9722623322067982e+01 4.7068411811284534e+00 -8.7569458018263902e-01 -1.3972568119299380e+01 8.4761733088355413e+01 -7.7134775579869626e+01 -4.5812638219113751e+01 -1.5156332113735859e+01 2.9526303894044815e+01 2.1290997503270546e+01 5.2855992788965210e+01 5.5348280120895037e+00 -2.9761301601874056e+01 4.5575832794364032e+01 1.1080875806124025e+02 1.5023163407871834e+01 3.2186293150688936e+00 -1.0140005419692670e+01 -1.5153760988887797e+00 -2.2756837569648312e+00 2.1099753249323907e+00 1.6491086307287510e+00 4.6848296011921775e+01 1.1209568313818090e+02 -6.4258194047897632e-01 -9.3759501263633860e-03 1.3933488438897257e+00 2.3431684243105622e-01 -1.7812027105946981e+00 -1.2406558177109126e+00 -1.0281368218192775e+00 9.8255354026605346e+00 5.1307781327004705e+00 -5.1416101536869974e+00 1.4280055619533725e+00 2.4091677790337087e+00 -1.5973406336024709e+00 1.7607563905998092e+00 1.0856216897844817e+00 2.8965875025166254e-01 -2.3134524778661216e+00 -1.0815123367731167e+02 2.4764001134876708e+00 1.1722183190542472e+00 -1.3693449513455107e+00 8.8519628529525107e-01 4.2766617699217591e-01 -2.5153256138455538e+00 7.2241009042515891e-01 -3.1667725613412586e+01 8.2358396140307605e+01 -8.3288078614932601e+00 1.8974911332891864e-01 -2.9333964331362949e-01 -1.4913503620714437e+00 -2.2841264002187245e+00 6.9687533119965650e-01 -1.6364452831407661e+00 1.2347338339550333e+01 1.2572536289459185e+02 3.4987670197479019e+00 2.3577253672462604e+00 1.1574474635532738e+01 -1.1463069681486104e+01 -4.3442571344663605e+00 -5.1402722293948635e+00 6.3264716939932697e-01 -3.7063607735156438e+01 -6.8304305373227180e+01 5.3400714106071518e+00 -1.6615359136431351e-01 4.5301709180580474e-01 -3.4382497250430788e-01 1.2077456499941661e+00 -7.0979965813702073e-01 1.8460923809017942e+00 4.5874111790697498e+01 2.9881372719187914e+02 -9.5966914132068268e+00 1.4575487843576662e+00 -8.0281909961740894e-01 -2.0739110058574681e+00 5.0087170543747561e-01 -2.1527075307421923e+00 4.8396820892856933e+00 -5.1361996905012148e+01 1.2558159318534672e+02 -4.1247050202291575e+00 -7.2244047020228059e+00 -4.8448007709826015e+00 -6.5407406216164077e-01 7.3407179448830675e+00 1.1226035315886042e+01 -7.6378248029560325e-01 3.3902144080100697e+01 1.6172140442465206e+01 -5.9690376306718235e+01 -1.1668623497729438e+01 2.0024406094402366e+01 -7.2076508269073827e+00 4.7442773021738518e+01 1.2433413027133270e+01 -2.0685994630894861e+01 3.3273270622385098e-01 -6.3259759107214883e+01 4.1418651489697655e-01 -1.2816136888238248e+00 2.0280787384068688e-01 -1.1406814406804493e+00 -1.1456291142911468e-02 -2.5701619765898371e+00 3.3279654279455144e+00 1.0505536426368209e+00 -6.1535739755252415e+01 
      </Row>
      <Row Index="194">
        -4.5396644709541634e-02 5.4084484774400643e-01 -1.2657048188059683e-01 -1.1513057814952532e-01 6.5039119620049348e+00 -8.8387648072965852e-01 -7.3107442513151488e-02 4.7084344914313148e-01 -4.8577731588429263e-02 5.3556290837475609e-02 2.6468343794066207e-01 -5.6332890577165173e-02 -2.7441080144464713e-01 2.1401635609751365e-01 -1.5839496121620833e-01 -1.0315442738440650e-01 3.0663267668003513e-01 5.0070158951766786e-01 5.9504097305443224e+00 4.9866115025055402e-01 -3.6260513642991965e-01 3.6194647646072359e-02 -4.1848498030243014e-01 4.5095195680961986e-03 5.0975842261088855e-01 -6.2012412474885537e-03 -6.9856326076346065e-01 -1.2997095148055615e-01 6.2355376454843459e-03 3.5805082980732195e-01 -3.7101017172383699e-01 2.1013050082580875e-01 1.6261088367129091e+00 -7.3909452871725456e-02 -1.4443315789744826e-01 -1.5513149479177057e-01 4.9214886325824381e-02 -5.5799166040222448e-02 4.8088004822742891e-02 -5.3594009236713452e-02 3.3791901281585268e-02 -2.8664513393161312e-02 -2.9999804060519053e-01 4.9460046691668680e-01 1.8829331857938669e-01 -2.2758592690053803e-01 4.8337444249398658e+00 -4.7310481619255262e-01 -1.8712922566940327e-01 4.0388480394218362e-01 3.7950937349649749e-01 -3.0724350601563422e-02 3.4277757960383382e-01 1.5438711478774070e-03 2.0359125885906337e-01 6.2642172508594288e-02 -1.5484029975221109e-01 -6.7998067509527838e-01 2.9460343135151223e-02 5.5567091183317707e-01 5.2139300356289482e+00 -6.3452823178585938e-01 -6.2326329408413761e-02 -3.4698164404108406e-01 2.0601944229971014e-01 1.2404779166933083e-02 1.7174746400064489e-01 6.1703356971740453e-02 1.7804799106068314e-01 -1.8468296035551707e-01 -1.2308363626168131e+01 -3.2602186857447979e-01 -1.9611959724259553e-01 -2.5241755644557884e-01 -2.5304319702705413e-01 -3.5966689132746588e-02 -2.4631776823853030e-01 -5.7265900485020493e-01 -3.1997603666308123e+00 2.8465453290670872e+00 1.8135829874228193e+00 -4.1193187005148230e-01 -4.8254982271802049e-01 1.2769960976772268e+00 -1.2592624972980726e-01 -8.1576224285167331e-01 -2.9242221404750779e-01 2.5021271656168892e+01 -1.7159126800835935e+01 -2.6035615275350992e+00 -2.9547266208333944e-01 6.5279363640694088e-01 2.3961343585182493e-01 4.0197171287621203e-01 -1.2821641836968647e-01 2.8510895498708771e-01 -1.0450316337303320e+00 -2.0436893460053376e+01 -6.6644487001107890e+00 3.3931009035236759e-01 -1.6245722980936117e+00 -2.6075811204768415e+00 -1.0709765696110960e+00 3.1428599318826200e+00 2.9056365159600364e+00 -2.3791238772841012e+01 -6.8620177841541725e+00 -2.0687913232613411e+01 4.7177504939931012e+00 6.2455604406806344e+00 -3.0404971351428571e+00 -1.1775618508325184e+01 1.8448979980316320e+01 6.5054008077368639e+00 -1.7293681350065469e+01 -2.9954368988755569e+01 7.7625352841886297e-01 -2.4105818927657063e-02 1.8346871417334825e+00 -2.0370766025606164e+00 7.8476205842384705e-01 4.1512540027774514e-01 -4.0185858781492201e-01 -1.5670395447267538e+01 9.5420917492143076e+00 4.1066633145472906e+00 -7.3225062298452459e-01 -4.1692780440914134e-01 1.9481956581192872e-01 -4.2268250035544241e-02 -2.5245052104258814e-01 -1.0234454399020159e+00 1.3072862685847326e+00 5.0804214492345906e+01 2.4431101419500578e-01 -1.9937746465514672e-01 -3.8582265564874163e-01 5.9656744540190232e-01 -1.7284906535324218e-01 -9.0751757040961345e-01 -1.3683414393585988e-02 -4.4619455698598358e+00 1.3334950724866076e+01 -8.6856155233593313e-01 -6.0459738576453481e-02 5.3665074317139272e-01 1.1764569065300847e+00 -1.9462489243161940e-01 -4.1280923884164433e-02 1.5766705858262609e-01 6.8487979735061799e+00 -5.2313915919090306e+00 3.7508703051963721e-01 1.4223946965034429e-02 7.3572070872842232e-02 -9.0795381878123749e-02 4.0542700367573747e-01 -2.4708060429188661e-02 2.4152521455650566e-01 1.1587034035207580e+01 1.3850874812693633e+01 4.6453898117101176e+00 -1.7551029273849852e+00 -3.7935427857069079e+00 -9.7331436203512567e-01 -6.0226592809447244e-01 -9.4972285609382845e-01 -6.9078642204238827e-01 2.4742735011438498e+01 -3.9362111021701480e+00 -1.1607550907470312e+00 3.2219260686612849e-03 -1.6006601764999573e-01 -4.0069317647851221e-01 1.4574595880067953e-01 1.7317239787488714e-01 1.2893038094241693e-02 -6.8274164655724690e+00 8.0094816744383238e+01 2.7174846610199879e+00 -7.2978260412586482e-01 1.5378583162018771e+00 2.0697972375161893e+00 -5.3115013625521534e-01 -8.1718084786758693e-01 -3.7072881925744996e+00 4.8557417328524721e+00 -1.0115346792105356e+01 -2.0165651017606478e+00 4.2776034260435547e-01 3.9768466093850563e-01 1.4474550321730195e+00 -1.0273184033215443e-01 -7.6378248196354570e-01 1.3011798145358027e+00 -8.9317715852075708e-01 -1.0182960808313766e+01 -1.1740333220952074e+01 4.5430435027536777e+00 6.5866954292312414e+00 -4.0711506818854026e+00 -9.8862067093563653e+00 1.5407146244511134e+01 6.2327602377852172e+00 -4.5675671253883365e-01 -1.1162848022394700e+01 9.6865011356334407e-02 -2.9797899975494246e-01 1.8361431751140311e-01 -2.4811520655896002e-01 -1.1432378270444077e-01 9.0167699318517069e-01 2.4622825530966708e-01 -6.4081730195969389e+00 -3.5036595885635524e+00 
      </Row>
      <Row Index="195">
        -1.5438846890472007e+01 1.0597782479022999e+02 1.3783236693437630e+01 -5.7239158345850592e+02 6.3096975106771861e+03 1.2050179226675118e+02 -3.6795521307445597e+01 2.6120726411910709e+01 2.0472678939094294e+01 4.2015138654450737e+01 1.7587939602294057e+01 -8.5516174088295429e+01 -1.0565286375160213e+01 8.1158586061729707e+00 -5.3887816226903851e+01 3.6623479649481396e+01 1.7872954743896116e+01 1.8623229697528659e+03 -2.2691114324068767e+03 -1.1510859951637940e+01 -1.9286577956711881e+01 4.0247445575312291e+01 -1.6962327885082573e+01 -1.2859962403652389e+01 4.9239314002393144e+01 9.2773819635940526e+01 3.4458921374420606e+02 3.1242946261243674e+01 7.6168902882345719e+00 -2.6398222398727739e+01 1.2664471575644257e+01 -1.4329786759190029e+00 -1.1277676158541071e+03 6.8637741305635927e+01 9.1872850082295372e+00 -9.7490406533916030e-01 4.3967172218999622e+00 -7.5797301284459650e+01 3.7172020583799394e+00 1.7040305820999095e+01 -1.0244490541466803e+01 -1.6672873137915190e-01 1.5068634102824262e+01 1.9536380750996614e+00 8.9872072078651399e-01 -5.5233517883851164e+02 3.0483724370352284e+03 9.6522918407872567e+01 -9.8891385525398618e+00 3.0745689612363094e+01 -2.4371791018602721e+01 2.5123839189982675e+01 1.8566119188327093e+01 -3.8044324020530610e+01 2.4432247194191586e+02 1.7008494527241353e+01 2.5091345854970086e+00 -6.2389932880133074e+01 2.5748873282675049e+01 8.9283140258826097e+02 -6.5057270607005339e+03 1.8129529853234345e+01 9.2170195111937119e+00 -4.6745688762228497e+00 -8.6063490252938664e+00 1.6772904586611165e+02 -6.5532833114177924e-01 5.2676487127859218e+01 8.8222790375404657e+01 5.5213242561111429e+00 -1.5241727536826074e+03 1.4130873108560936e+03 -9.7587171362762213e+00 -4.9249054512809380e+01 -1.5112001472462725e+02 1.7679687327597094e+01 3.1539397249890669e+01 7.1521816800849138e+01 -2.9983624651393009e+04 6.7791961609657883e+03 2.2041754457829666e+03 -2.5236129359551796e+01 -7.2649876983421564e+01 -6.7512407790723955e+01 6.4411574509240381e+00 -1.8909083086402006e+01 -2.5786316106828224e+01 2.4815075385884847e+02 -1.7542807700523408e+03 9.3226071189859067e+02 3.0292126319598339e+01 -5.7866056438645955e+01 -7.5946262220989411e+01 -1.6966645211654281e+02 4.5676395526620794e+00 7.3499249494945360e+01 3.3035387488406413e+04 -3.2981417765884544e+03 -1.3468937832672964e+03 3.4554623921229461e+02 1.6056766709292333e+02 -5.4000855810502298e+02 -3.6032874496527256e+02 -9.3018401677349198e+02 -1.5638442291151884e+02 -2.0729131022669782e+04 -1.9115889606449273e+04 -1.3004489794940884e+04 5.8821445496974457e+03 4.9395663830334252e+03 -1.1549687708456513e+04 -5.0165053419934775e+03 2.0845124140765738e+03 4.4634707051548785e+03 4.1305035625980643e+04 6.9038931945316835e+02 -3.4561778413268912e+03 -2.4164970059465048e+02 -2.7208022186494782e+02 6.8689971486020499e+02 -1.1014808981507986e+02 9.0334571932133940e+00 -1.3441066015284252e+02 -9.8637986803130480e+03 9.3800171852827771e+02 -1.2493939699418843e+03 -2.2955431565604169e+01 2.7026729778823210e+01 1.7409923532006405e+02 4.3533689437517751e+00 1.6514090872243401e+01 3.7392866233336463e+01 1.5728587409968080e+04 2.0897864697985788e+03 -5.4467364736605305e+02 9.4905297039435084e+00 -4.0045260998289450e+01 4.1273469884981751e+01 1.7478086028460893e+01 -5.6128969606939108e+01 -5.9447052859884963e+01 4.2313862331589917e+02 -1.7790581022490223e+03 3.6185395561979385e+02 -1.7329701475291571e+01 1.2769166896225943e+02 -2.3490133978826634e+01 -9.7316517555991595e+00 -3.0446466716385828e+01 -3.2287831181523870e+01 2.1286180751670036e+04 5.1691179589649691e+03 -1.5803290743107209e+02 -5.9019541998658781e+01 4.5081523369677598e+01 -3.9090957195541705e+01 -1.2240859604462867e+02 1.0468333268362551e+02 9.9277006353239585e+00 5.1449186604830902e+03 3.1336299968951498e+03 4.0511041932284716e+03 4.6221309368106631e+00 -1.1334851342989350e+02 -7.8228840879324707e+02 -5.7541678155674163e+01 9.5395258209578060e+00 5.2130601346606454e+01 -3.7566043572231254e+04 -2.1576937571541057e+03 -3.1275540653406642e+02 4.0751131572002862e+01 3.6605046850505460e+01 -9.5149996723761433e+01 1.7153498236721589e+01 -1.1319136334421239e+02 5.1184853999170514e+01 4.7214360332738142e+03 3.0313209930918529e+03 6.3585421621220303e+02 -8.0657147888946255e+01 6.1585607217578217e+02 3.9313829930229076e+02 -4.3694209310248516e+02 -7.9791708786880919e+00 4.3544569839573364e+02 -1.3681695556523455e+03 3.5791143124224618e+01 -3.3873555793073028e+03 -6.5729117152827484e+01 1.1360986869115732e+02 3.6976605166481568e+02 7.0353322573813784e+01 3.3902144254946279e+01 -8.9317727300567640e-01 8.6603056364960503e+04 -9.0127533250648139e+03 -1.6041650091491538e+04 5.2011013237223970e+03 4.1345265752920241e+03 -1.0865147188281551e+04 -4.2475265143491279e+03 2.9716355889363135e+03 4.0302984155592458e+03 2.9417667877299013e+04 -5.1748530683828903e+01 -1.4959360789697541e+02 -1.6005131012494530e+01 -5.3553207391431556e+01 -1.1630594884559491e+02 -2.3409428008931513e+01 -5.5945622646024731e+00 2.3300586730183568e+00 -4.1870848680657573e+03 4.0511376112507669e+03 
      </Row>
      <Row Index="196">
        1.9889973868802599e+01 -1.1975606584904017e+02 2.2932451964788925e+01 1.2594160987000214e+02 -1.1095091069262126e+04 -3.9344221243136599e+02 7.8946075430218116e+01 1.4753340538055818e+02 -7.4804776623313955e+01 1.0859661415574647e+02 4.5577493849591519e+01 2.5190518474853889e+01 1.2947715034945577e+02 9.8585391250952412e+00 -9.1351110223113210e+01 -1.6210341842492562e+02 1.6253404822578887e+01 -3.5433624727500137e+02 -8.1818014191179536e+03 -2.2695127766296901e+02 -1.4572891212657487e+02 -1.1266042677417090e+01 -2.0014078348881321e+02 -9.8475418343827187e+01 6.1789936217346622e+00 2.5350112405612890e+00 -1.5916248810623074e+01 -5.8646981309655530e+01 -1.3510644033205608e+01 5.6632263620835147e+01 -8.0340721329328517e+01 3.6576295483391732e+00 2.3757621606225730e+03 -5.7426679279275049e+01 -1.0670398369733448e+01 1.1367823433902231e+00 6.8141664091672283e-01 -3.8531365353735964e+01 -7.6674836385118397e+00 -4.8442611456168152e+01 4.0047743790346431e+00 -3.5756100833000346e+00 -4.7013070042339677e+00 -7.3341251911057043e+01 -2.8808495735178440e+01 -1.2047108444676269e+02 1.4335304455009173e+03 -2.7800019290676209e+02 -1.0367291769944131e+01 3.5203512027350371e+01 -4.4202261515383725e+00 5.1649146385978156e+01 3.8873206047828404e+01 -7.0894682702137288e+00 -2.7864711697027087e+02 2.4869336220991727e+00 -4.8514943335158932e+01 4.4128049453000131e+01 8.2446336772263749e+00 -4.1660673363943351e+02 2.7162254456381314e+04 -6.8106786224665825e+01 -7.5643661443998099e+01 -1.1483900037206604e+02 -3.2180922963232661e+01 3.7558044796148806e+01 -5.4177910119057024e+00 -3.2951322728329615e+01 1.1309404362604255e+02 -5.1103218913733599e+00 -4.9514777527229395e+04 -8.5591938716546429e+02 1.3046937610060164e+02 -1.9211697513796389e+02 -2.3441927962610498e+02 5.6289774205892172e+02 9.0907926060276623e-01 8.4400279779307994e+01 3.4734819659306668e+03 2.5153261354460847e+03 1.0974988738185493e+03 -1.6621651712308903e+01 -1.6658847838616930e+02 3.7728333393810317e+02 -6.7731774481209868e+01 8.0922225178080225e+01 -3.2690543594760584e+00 -5.6732755368547514e+03 -3.0480267095683841e+04 -9.7650046482527978e+03 -9.3511327744564369e+01 -7.1436721416815999e+01 -1.9530899397784924e+02 1.0186971983538051e+03 -2.5461361956593524e+02 4.0101352797810421e+02 7.8438448582766578e+03 3.0553215883896337e+03 3.4067059758247342e+02 6.1775048009711327e+01 6.0275134227708622e+02 -4.0826947138119685e+03 -5.2768196112158330e+02 -2.1015207876216168e+03 2.7808910755079187e+03 -2.0293895647174213e+03 1.3675215024399615e+05 4.7492366455979703e+04 -1.5228064918781845e+04 -3.4199991441987804e+03 3.0909193597456353e+04 2.2809426073413051e+03 -1.2819478936294699e+04 -1.0893154030662907e+04 1.0381332726181950e+04 5.3310715357894151e+03 2.3453511038679862e+03 6.6326868913758540e+02 8.5327929547661915e+02 -1.5090773433614650e+03 1.3518122751745468e+03 3.8897205869651771e+02 1.6847841805428106e+02 2.5199735260401852e+04 1.6626118370200973e+04 1.2644701692522503e+03 1.2532069542373988e+02 4.2860884587978944e+01 4.0908307253887324e+02 -3.3904464194548200e+02 -9.7879340641211456e+00 -2.1812871783836908e+02 1.0768122359829489e+04 7.2674210674928909e+04 -5.4525208467908669e+01 1.0539133061635425e+01 -7.6863327365572331e+00 3.2044970372715034e+02 -8.1153604319813894e+01 3.5580957038178894e+01 -5.8055488257987122e+01 1.0172340123807080e+03 -1.6924995874676388e+04 2.7300787029648200e+02 -3.9714283402332853e+01 3.0402672911144327e+02 8.1063846517831553e+02 -5.8211139093182283e+01 1.1070473375280380e+02 9.4674136380250275e+01 -1.1496792726532556e+04 2.3640613831010880e+04 -1.0037777277999558e+03 5.6231642024257326e+01 -1.2189288256480359e+02 1.4165554354793858e+02 1.7570992148122969e+02 1.6926035820051356e+02 -9.2811429228745510e+01 -6.1767375361174345e+02 1.4572210348610301e+04 1.1495427757946309e+03 -1.1429997398502746e+02 -9.7642624102745322e+02 1.3560684341744054e+03 -2.4539455320929483e+02 1.8968487912905402e+01 1.4687791439006105e+01 4.6306418510719668e+03 -1.5587997201487888e+04 2.9990894019557163e+02 -9.6288095851008620e+01 -3.1730922810209449e+01 -1.3011900180554949e+02 4.9025043598412594e+01 -2.5430162957836365e+02 1.3903408376691550e+02 7.5730587902972475e+03 -2.7814312624096998e+05 3.4117430660367245e+02 1.8636043121453312e+02 4.1738616329908837e+02 3.2953916327550542e+02 3.7927597658929881e+02 9.8519073826240458e+01 -7.2509992805175489e+02 5.5880528696975171e+02 2.7534508433558047e+04 -2.2846813057409599e+02 1.6649500802656803e+02 8.1285735147364903e+01 -1.5982007575260650e+02 1.7589767017326085e+02 1.6172136966384642e+01 -1.0182961248938227e+01 -9.0127536665741354e+03 5.0714733230755158e+05 5.8012366464607825e+04 -1.4492800144186433e+04 -3.8473256303020753e+03 3.4762104641213402e+04 3.0855281026816820e+03 -1.0067991462543707e+04 -1.3212556108601188e+04 1.7377646974226460e+04 -2.9021480115950813e+04 -1.7153063118104262e+02 1.5373068410306587e+01 -3.3632345179729327e+01 -2.0373550213153612e+02 2.2369181183788896e+01 -1.8984486642171396e+02 1.1983689683489501e+02 8.6923357877160197e+02 -2.9968556581742079e+04 
      </Row>
      <Row Index="197">
        -3.2081987990716527e+01 -5.6611490843479260e+01 -4.4647656598403046e+01 8.3652611918892944e+01 -6.6967025530139101e+04 -2.3937146370341338e+02 -1.7944602218776708e+01 -2.5098752893930396e+01 1.7973521808502574e+02 6.6126709186752635e+00 -5.0473946641433940e+01 -1.3976764147355425e+00 6.7443420812833210e+01 2.7431940949954985e+00 -1.3535753006457526e+01 1.5251393928303514e+01 3.2414068870413757e+01 -1.2079105565000646e+03 1.2043208245762507e+04 4.4585774964441043e+02 -1.2195056677429784e+02 -1.2681119932917468e+01 -1.3571131269718762e+01 1.6562616251121653e-01 5.1036355857806939e+01 -4.2840668276021461e+00 -1.5230992770079320e+02 -1.2649728024637398e+01 -1.6579880272784067e+00 4.2297582589861122e+01 -6.1401532708484410e+01 8.6749273813838954e+01 3.9719414431763580e+03 -1.5767165793974345e+02 -1.8400284958479460e+00 1.4460801304163397e+01 -2.7396029214432929e+00 2.0922097951454930e+01 -3.2768719791836247e+00 -1.4094890910211404e+01 -5.1455388309150294e+01 5.0027161206593576e+00 1.5263601722923795e+01 1.9348675561795972e+01 -2.7353642666103951e+01 -6.5412229364213999e+01 3.2083207698873233e+04 -3.4084015287366401e+02 2.8258712918159290e+01 -2.8503195796003638e+01 -1.5011230525942028e+02 -3.2838495486272734e+00 -1.7134681397850045e+01 1.2730189940907621e+00 2.8547835355013376e+02 -8.3985319114134711e+00 2.5897098523475620e+01 4.3960089854448142e+01 2.1507363986699602e+01 -4.4861781386161965e+02 4.5458425099855638e+04 7.6291809712644465e+01 -6.2576717562633348e+00 9.5186875432280544e+00 -1.9748323143662992e+02 -2.6567863225907502e+01 3.7847264229326953e+01 -4.9207008183743710e+00 -1.2314377748050902e+01 -1.3348927732536367e+01 9.4675372266430350e+03 5.4440825520882390e+02 5.3541723315723587e+01 -1.4309254890511511e+02 3.9881111792867887e+02 9.2739283007183985e+01 2.2858566138947310e+01 1.0558728447896863e+02 -8.6968104411853710e+02 -3.1084670950092914e+03 1.5227703787482460e+03 -8.4035979440317078e+01 -1.5216621358126577e+02 4.7442924748273799e+02 7.6876298775134273e+01 1.7351037653403182e+01 -1.5369039922063280e+01 1.9425218257494271e+02 7.4917388989144820e+03 -3.9436844130239566e+04 -5.1524948026546241e+01 -1.3463135639976826e+00 2.2938637346288942e+01 1.1377915538920072e+03 -9.3959148826356852e+01 2.0081232629479962e+02 2.0679287402843358e+04 -2.1071810655380497e+04 1.6853565150176873e+03 3.2274855166622115e+02 6.2494141395805491e+02 -1.1542976678182611e+04 -7.7840121586737314e+02 4.8305660159573625e+02 -6.5410368864780321e+02 -1.8417388590788993e+04 8.1198545361514596e+04 1.6310775729902281e+05 -2.7895412931831102e+04 -1.0492444919993461e+04 6.7230902868389938e+04 8.4670854159538867e+03 -8.7681291585464678e+03 -2.0845860993755534e+04 9.8957534854196711e+03 3.9706914185610422e+03 -5.7312421683678403e+03 7.2092894218954268e+02 -7.6131830028392142e+02 3.0567852462852406e+03 7.2506630605843839e+02 1.3877473111824634e+02 5.0314026279539314e+02 3.4964716246011667e+04 -2.7022909836941399e+03 -7.5043529352894984e+02 2.2622314112793831e+02 -8.5014931346173398e+01 1.6236949933189771e+02 -3.0333617147134646e+02 7.8873565313344898e+00 1.2166094368545987e+02 -4.8615387857020833e+03 -2.1348733992271591e+03 -4.1222481411823537e+01 -1.4823915896979571e+01 -1.1546671428604895e+01 6.9197748076403514e+01 -4.7183827311633650e+01 4.3364705799784588e+01 1.4521206210099791e+01 -9.5739058561915299e+03 -3.6464801039473969e+03 -1.2104807741421391e+03 2.3682429684440851e+02 3.3635768168451614e+02 -1.3858695142230135e+02 -9.9847593025351671e+01 1.2745255382147354e+02 1.7521860062201722e+02 -6.6092840983747737e+03 -4.9294261167634977e+03 2.3361455582187045e+02 1.5015621785664734e-02 -2.0379104955354705e+01 2.9074697248986922e+01 -1.1679522329696783e+02 2.1972425528927943e+01 -1.4815198985325651e+01 -9.6392860746569932e+03 -3.8002232405721443e+03 9.8896639768878231e+02 1.4371395823991179e+02 -3.4636391596326575e+02 2.0466172451612074e+03 -9.1606422522163484e+01 1.0431614888289778e+02 2.5447475870194467e+01 -5.8623543752087280e+03 3.2474581052400172e+03 -1.4325504308199743e+02 -1.2194456961526726e+01 4.1039354628301226e+00 6.2382099687529262e+00 1.1403651617577725e+02 -4.6039212016516444e+01 -1.1972132240897963e+01 1.3170231668967288e+04 3.1952977722151336e+04 1.7264181065483717e+02 -2.9965252744615907e+02 2.7853066553178360e+02 1.0691188763022656e+03 -5.3421677482999439e+02 -1.0866656886027195e+02 4.7398190316271666e+02 2.6719381896606392e+03 -1.1386316170990933e+04 1.1705217971137026e+03 -6.0314617714806445e+01 2.5497966463825287e+02 -2.9751457024375122e+02 4.8129720512428321e+01 -5.9690379068516449e+01 -1.1740331911940302e+01 -1.6041649311557878e+04 5.8012362830174075e+04 1.9409774970158143e+05 -2.6782333055567426e+04 -1.1829559387572750e+04 8.0922531456211480e+04 9.0863036619744889e+03 -8.7321227776899286e+03 -1.9999812580515438e+04 1.8169549217873253e+04 8.2065467270417812e+03 -7.9481322138218729e+01 4.7248370903147588e+01 -7.1781176180562511e+01 3.3364323258294007e+01 4.8060306406721338e+00 3.2149987602399051e+01 -8.6693512815429131e+01 1.1442458598278249e+03 6.8082977357005329e+03 
      </Row>
      <Row Index="198">
        -7.4857536381409204e+00 2.9517757768762749e+01 5.7083939118115268e+00 -1.7949603822649260e+02 1.0248430172226890e+04 9.4065235702768462e+01 -7.8067476788116892e+00 1.3715432720959370e+01 -3.6689000255625388e+01 -1.4568290088719849e+00 7.2176735072579703e+00 -2.7886392546416232e+00 -8.5239166654719156e+00 7.3300243117127817e+00 -6.6473019564587048e+00 6.1209015643414659e+00 -2.5877595609927084e-01 3.0441795083871330e+02 -2.0483852324231993e+03 -8.8735962412951267e+01 1.3952724034055052e+01 7.3676442769564385e+00 -1.1243109213577441e+01 8.0303771490735016e+00 7.7309201231127247e+00 7.1870602416781821e+00 1.1987308740172011e+01 -5.1215957250507529e+00 4.8864343822579031e+00 -1.3679843215472829e+00 1.2948870310444249e+00 -6.2084967972768936e+00 -4.2260793611265763e+02 2.8991243924938829e+01 2.1027680638975426e+00 -1.7842125440836298e+00 -3.4921427774531821e+00 -6.0585471217163871e+00 4.5303325102125314e-01 3.5695710188101515e+00 -4.9574860519792310e+00 -2.0672621021230242e-01 3.2594577250863495e+00 2.6553776150658450e+00 4.4143740643296496e+00 -3.9471032739407929e+02 -2.4389128483192917e+02 6.8701133746750656e+01 -1.9437310779067047e+00 1.3447719001176210e+01 1.0987267791820955e+01 -2.1994545063540585e+00 5.4976007538330087e+00 -1.8458169202055927e+00 1.0863426389253982e+02 4.0037941958925494e+00 6.8359903619261218e+00 -1.7772240702612521e+01 1.0393946164649947e+01 3.7905048591000650e+02 -1.1565509680386444e+04 -5.1218131422094608e+01 1.1016291029891704e+01 -2.8087790004858704e+00 2.3661779701820763e+01 6.0054713141503910e+00 8.2175224695481108e-01 4.6001495974931572e+00 -1.2338111171247192e+01 -4.6614240301657901e+00 -1.2681302025852237e+03 3.8759408921053250e+02 -1.2378115887503016e+01 2.8175853700500738e+01 -5.4956369103496399e+01 -1.0215872909599511e+02 -4.8615577985442187e+00 -6.1489181489314078e+00 3.2173317457605663e+03 1.9357587475947730e+02 1.2128791812627969e+02 1.2460970256086057e-01 -1.8387312115390159e+01 -8.7332225141464733e+01 -3.1710859561706002e+00 -1.4474588062839871e+01 -4.5487958943160152e+00 -3.8122784090073255e+03 -1.3622367978785842e+03 3.1232302352612278e+03 -7.3148927221626945e+00 8.0958511688497765e+00 7.1789972918634362e+01 -1.7884669846519733e+02 -5.9551696159558709e+00 3.4476827454231561e+01 -6.4214558736045437e+03 4.5579171243952842e+03 -5.0344759904790772e+02 2.0378879970372247e+02 5.5386102916607570e+01 1.6848634814620793e+03 -7.8469059109110049e+01 -3.6422199093736772e+01 -4.4032621034330083e+02 5.2747808781692729e+03 -1.9460500731407250e+04 -2.3223801401819888e+04 7.3357829774061283e+03 3.9830350611320696e+03 -1.5318288690681296e+04 -3.8015175665969473e+03 1.6115236464675449e+03 5.4419936807728318e+03 -7.1586605141378823e+03 8.0538016875480025e+01 -1.6586142586422247e+03 -1.9955231863190065e+02 2.6027962623921485e+02 -8.4804137906862479e+02 -2.1861259628846005e+02 -2.0348067542920660e+01 -1.3192884964728324e+02 -6.8250389717645303e+03 2.9398522940650582e+02 -2.4773937300797843e+02 -1.7582868429526918e+01 4.6555355266224069e+01 -4.2863643357439969e+00 1.0006942282392311e+02 2.9450762014702718e+00 -1.6740166295618337e+00 2.3782594796459307e+01 -2.6721148132031158e+02 -1.4617412738178518e+02 -7.2481822252756771e+00 7.9421861346008882e-01 -2.8879684154184361e+01 9.1417540058114355e+00 -1.7029025812181487e+01 -2.8376328524433170e+00 3.2160419396886427e+03 -1.0817711029837665e+02 9.4011997641013295e+01 -4.4912114004821383e+01 -6.2220889605672710e+01 6.4747882895881048e+01 1.1980385314671821e+01 -1.6746245350490724e+01 -3.1718981282482474e+01 3.8468640694726491e+03 7.9544942048165103e+02 2.7621794546939782e+02 -3.9765087861523796e-01 8.7309566750336671e+00 -2.6149663104431966e+01 2.3096030995498381e+01 -4.2631540875844109e+00 -6.4401280704458088e+00 4.5204848116791109e+03 4.3440409661614103e+02 4.2969755751056800e+02 -3.0409400069189303e+01 -1.3195343234300708e+01 -5.2172846789826144e+02 3.2228456305778309e+01 9.4068299800656519e+00 1.6988981216159004e+01 -1.6147729745508768e+03 -3.8884483742833254e+02 -3.0579673837623704e+02 4.8149103921752783e+00 -4.7355217271251604e+00 3.5069225656807248e+00 -1.6165588401974219e+01 1.1862554095663356e+01 2.4549658294133110e+00 -6.4704673678187537e+03 -8.2498597155305215e+03 8.4468624481873121e+01 -4.4085050737895472e+01 1.0710062980131624e+02 7.6919271311914144e+01 -2.2378227842420620e+02 -5.8248697899732328e+01 1.4255529599288809e+02 -1.4627060431607947e+02 1.9611885446395027e+03 -3.8223930983380706e+02 4.9803647387761885e+00 -3.3497956059338321e+01 1.0189489039844784e+02 -1.0380719037306335e+01 -1.1668622624422056e+01 4.5430431930562918e+00 5.2011011530627729e+03 -1.4492799343491886e+04 -2.6782333257887163e+04 6.9132887850415009e+03 3.9850340751897165e+03 -1.8085639409294967e+04 -3.5393516603187459e+03 1.6488863788048586e+03 5.5213595038268859e+03 -5.9212646194777917e+03 -1.1802206099791865e+03 8.8961855990649354e+01 -1.1694357655303065e+01 1.0830201845270324e+01 3.7949277775017549e+00 -1.4934334830670366e+01 2.9606756376006729e+00 1.7095505044320817e+01 -6.9345481039499077e+01 -1.0041101235175483e+03 
      </Row>
      <Row Index="199">
        2.7081964588411267e+01 1.2641380697394743e+02 -2.2156429054873570e+01 -1.3522168136490727e+03 7.1038377285430470e+03 4.1128728960414492e+01 -2.9703092356741081e+01 2.8604021368226995e+01 -2.4018217613768093e+02 -1.4123900017518935e+01 8.8408586214412139e+00 -4.1939772424414059e+00 -1.2300243370329372e+02 1.2255664416603567e+01 -5.2333254734192906e+01 1.2229557345439343e+02 4.0507687584344239e+01 2.5130317219125573e+01 6.9483328958665952e+03 2.5112805812232637e+01 -2.2471513900439049e+01 -1.1726402608756139e+01 -8.2186475998022445e+01 4.4315519813369974e+01 9.0796658443522347e+00 1.6824355673697028e+01 2.5219312223545421e+02 2.0639217986366248e+01 -6.3366460892034411e+00 1.2320175395969272e+01 2.2343782153914844e+01 1.3539528175987653e+02 -4.7202563376844773e+02 -1.0141897619784913e+01 4.2600539349787141e+00 -1.2410060011302448e+00 5.8017879736744362e+00 6.3367805365604681e+00 -4.2330429140395154e-01 1.7114037253760557e+01 1.5960450122016482e+01 2.6143463867949492e+00 -4.5074041014813702e+00 1.1071464436457973e+01 5.3554350737267669e+00 -1.2588854054666444e+02 -3.4157398846689503e+03 -7.0257910257643289e+01 -3.0688565132149961e+00 -1.0363922794977043e+01 5.0240532552304785e+01 -1.8149065803351419e+01 1.2683688298821234e+01 -2.0894628904713386e+00 -7.3334089220152237e+01 6.0255724240192592e+00 -2.6836076911666964e+01 -7.9531937629121330e+01 5.3281901248665690e+01 1.0599848232736804e+03 -9.7154394486162346e+01 -1.2016667582147991e+02 1.4320128213498947e+01 -1.7328401851622004e+01 1.2283337768918580e+02 2.2331514570820502e+01 2.3501710969953354e+01 9.8076251806983237e+00 8.7461319946496587e+00 5.5264385121250825e+00 2.8087864536187990e+03 -1.3193739540175557e+02 6.2368049531915332e+01 -1.0690792699185113e+03 -1.1063402061322995e+02 -2.0974909201515584e+02 5.8097160672403191e+01 2.0427068906443907e+01 -5.4955122318086214e+03 -2.7474890705472353e+02 3.6054848617695097e+02 -8.2761142966378145e+01 -8.7600459465586027e+02 1.6383023409929592e+01 -7.0272309503777251e+01 -7.7044902840635132e+01 -5.8586129568040946e+01 1.2127851637614192e+04 3.5698107719076797e+03 8.9270744930432484e+03 9.2400220228780512e+00 -7.7537840496371325e+02 1.7214452490540066e+02 4.8119644100244182e+02 1.6347387891499920e-03 1.2939081268344310e+01 4.5626639907781791e+03 -1.1534901957483780e+04 -2.5530689956980350e+03 -1.3356212176026388e+03 1.1288393972088532e+04 3.5095671793155998e+02 7.0857198186866117e+02 -4.6823919165657520e+02 -6.0043510050535485e+02 -3.6790043794285448e+03 -7.0306892406137731e+03 -4.2028113322736244e+03 3.1901290677305119e+03 1.5795232230629364e+05 -1.5404171983367320e+04 -8.4396623293611428e+03 1.5051972009090875e+00 3.2106937370381729e+03 -9.9479769525094889e+02 -1.8812645454923386e+03 -1.4160098009564681e+03 -3.3234649085798360e+01 -1.0074229482977622e+04 5.5261420810931450e+03 -6.0554492446331778e+01 1.7732221555862338e+01 -2.7260363525950197e+01 -7.8443346217815997e+03 -1.1542068844591849e+03 7.4563423786370549e+01 3.0800047510748609e+01 2.3343572329281596e+02 1.8624371942142307e+02 6.8805838336260422e+01 2.5910164443155395e+01 7.2074786107739669e+01 -1.5622437577284873e+03 -1.5402368981108739e+03 7.5188608115086390e+02 -5.0134187437380064e+01 3.7694578620943867e+02 -6.1709639422901091e+01 7.8382976784221682e+01 -3.8229653454331128e+01 -2.5642440894555392e+01 6.7042164013878210e+02 2.7615525888531120e+03 6.0413613198581152e+02 -1.5027094516838793e+02 -1.8751437649498694e+03 -2.7319290546339471e+02 1.2740230616494773e+02 -2.1065716833742556e+01 -8.3953573594188583e+01 3.5042457142560161e+03 -1.6640142210477497e+03 1.1890285093506100e+02 -3.7421061683420930e+01 -1.9766002725629369e+02 -9.5666754530742764e+01 2.9669887713106164e+01 -5.7746987071190063e+01 4.7629570700486738e+01 5.9785340827123728e+03 1.0807432863385184e+03 9.2517461744838511e+02 -6.5874841328668253e+01 -9.5299103706539245e+02 -9.2784857097518397e+02 -1.0049655977750535e+02 -4.5133254166537426e+00 3.9127442547664941e+01 1.3865166092739673e+03 1.0670921147339977e+03 -2.5927108050973038e+02 4.0761835554562879e+01 6.4407621317150188e+01 -1.0251860794832464e+02 -6.7014883863560499e+01 3.9654609668708417e+01 -2.5021839747490503e+01 -5.3140729353745701e+03 4.6043804262100603e+03 8.5149859539435420e+02 3.7312581493114664e+02 -1.6016382276548247e+03 -6.6705441610865455e+02 -3.5304406949260738e+01 -4.7796630575733090e+01 2.6169963093413469e+02 -1.8712341991138276e+03 -3.5419804043695331e+02 -4.8638737723988015e+01 -1.4295921259863917e+01 5.2374643665108306e+02 -2.5267208311310242e+01 3.0489714160416042e+01 2.0024410016396246e+01 6.5866952068536193e+00 4.1345260130674578e+03 -3.8473235211397014e+03 -1.1829558030146414e+04 3.9850336532124138e+03 1.3602508385064226e+05 -1.0630681921173491e+04 -9.6541165247294539e+03 4.5690105290243082e+02 3.3976017700049879e+03 6.7001607232366805e+03 -5.3355787671724102e+01 1.1797657725693540e+02 -1.5351538141640049e+00 -1.0037251065161513e+02 -9.8107414473311565e+01 -8.5495007207603066e+00 9.5656308865197843e+00 -1.7722204442405200e+01 -3.9512506724276141e+03 3.9899375541692066e+03 
      </Row>
      <Row Index="200">
        6.3504140556732693e+00 8.3176996215831764e+01 -9.3158410951351698e+00 -7.0935448480500418e+02 1.6911447839658094e+03 3.3509040034425858e+01 -4.1641964330530584e+01 3.9450715763332340e+00 -1.8345137019075247e+02 -5.7733136782122489e+00 6.7595674888332837e+00 -4.1308163419023458e+00 -1.4036748304341018e+02 1.4333661761284617e+01 -2.8167333830605742e+01 8.0055531516910946e+01 1.1902501806967393e+01 4.8984913778151895e+02 1.6160109352287796e+04 1.6736988327284587e+02 5.7340920263061591e+01 3.6815773060979325e+01 5.8024274770971012e+01 -8.1469481573406028e+00 1.5110946631933516e+01 -1.2333318743434461e+01 2.0250030824744499e+02 1.0725115145621061e+01 6.2092551267774638e+00 -9.9465554639331231e+00 8.4763391158263346e+00 9.2244777454594441e+01 -4.0396674092911671e+03 1.3047763902127485e+01 -5.4257496257361879e+00 -3.4864580804306797e+00 -8.9936203697304791e+00 -2.5823313231103015e+01 -6.2310179607337091e-02 -1.3224601297942833e+00 -3.9444983969359328e+01 1.6837287381867654e+00 1.0593455563916137e+01 1.7667472748173168e+01 1.0594109182987211e+01 -1.4381687852215236e+02 9.7516075025689424e+03 2.6541300748851046e+02 1.6184090666437356e+01 2.6324051809579146e+01 5.0993673525691733e+01 -1.1316135464313971e+01 9.0657157136252717e+00 -4.5444183253315629e-01 5.6953368391098593e+01 -4.1647079135608820e+00 -4.6660387046756711e+00 -4.4748955805685370e+01 -1.5675032608839956e+00 7.1774927233532799e+02 8.5668354381610610e+04 2.4186365739249788e+02 4.7493048639768773e+01 2.0306276919851197e+01 1.4688367944636661e+02 -1.7266906652140204e+01 1.3123951909733917e+01 1.3117544375984068e+01 9.8658967316613541e+01 -8.8020582702417869e+00 6.5883796106033233e+03 9.3219185837349562e+02 -1.9631461944871837e+01 8.1570786252013932e+01 -8.8319934534511049e+01 -1.1362699059111105e+02 4.5253383999816876e+01 3.0444216197598237e+01 1.3167104324781350e+04 -6.2579760074656997e+02 -2.0286368253870842e+02 -3.0126343559834254e+01 -8.8029630399676535e+01 -2.2022864902126821e+02 3.9924820229086436e+01 -6.5391041149548485e+01 -2.2483192680459773e+01 -1.1392950948169993e+04 3.0365076600031571e+03 1.5632629734887723e+04 7.6498779892586724e+00 5.4669649723383458e+01 6.0935492107890610e+01 -9.6510652583570345e+02 6.8499274989500691e+01 -4.1474700661724228e+01 1.8055043952968404e+04 -2.3756960512316917e+04 -4.9782308966563551e+03 -7.2528857285460731e+01 -4.2741769783495192e+02 3.7938035070656338e+03 6.5433216708723467e+02 5.8888349508761348e+02 9.1204033339025000e+02 -3.2273884259427650e+03 5.0274773568667821e+04 9.1233876841714577e+04 -1.7806729822747071e+04 -1.0207865754855628e+04 4.1125713850524632e+05 2.0196400342433448e+04 -3.3458642450130424e+03 -1.3820830402141435e+04 1.5098013815548162e+04 3.3628035986563527e+03 3.2434904842202741e+01 -1.9690372107076101e+02 -5.5437795655700575e+02 9.4245119428006251e+02 -4.9767039015306563e+02 -6.3780238340290268e+01 -6.4491208083164196e+01 3.7525138783595292e+04 -1.7146079759263739e+03 1.2807046917420994e+03 -1.3259786520069300e+01 4.6454864091618219e+01 -2.7650647191725130e+02 7.9693239938437955e+01 3.7709048352478369e+01 4.9378444261015147e+01 1.9355360060370076e+04 -1.9107962889497110e+04 -6.5161831526702827e+01 -1.8827842399966944e+01 -3.7899310987667377e+01 -1.1863551440082665e+02 -5.5042732101549177e+01 -5.8129953601544997e+01 -2.6482490887491831e+01 6.2388443798876542e+03 1.3799306794947843e+03 4.3226421839579416e+01 -8.3452869474207574e+01 -3.2176590115273757e+02 -1.2830430129820270e+03 2.0563648522741460e+01 -4.3377276564832513e+01 -5.9076075086254505e+01 -1.1724059261012211e+04 -8.6932818900143684e+02 3.9568342767931608e+02 3.7153007970760569e+01 -2.1611310137404871e+01 -1.1238121685693659e+02 2.0724303427921228e+01 -5.7314828049044195e+01 -1.7480837869986374e+01 -1.2456123666566375e+04 -6.5864946314440385e+02 1.2155421988463459e+03 -3.5683635314656641e+01 1.1676902304855548e+02 -1.2011685038713113e+03 2.1633842798032958e+01 -1.7931592432805445e+01 2.8887608413701258e+01 1.1808288029846251e+04 1.6248348261338251e+03 -1.1234142803070936e+03 -4.5839523039981458e+00 6.7617008624911250e+01 2.9734325440607790e+01 -1.7121692950967372e+01 8.4571235375949314e+01 -1.1512874532042133e+01 1.6652481074901836e+04 2.1697971232446569e+04 9.5169135832318079e+02 4.9581832344941873e+01 -1.0618668904951846e+01 -5.9758122276632798e+02 -1.4992792073335136e+02 -4.6508361311959035e+01 1.6827939296807472e+01 1.0688243914738359e+04 -8.0136958622904785e+02 -1.3227235177868497e+03 -3.7300900512716652e+01 -7.2277507554393196e+01 2.8931863970681684e+02 -7.9126752931270858e+01 -7.2076503395458644e+00 -4.0711520187002179e+00 -1.0865148023274756e+04 3.4762106754186068e+04 8.0922538069336457e+04 -1.8085640994145251e+04 -1.0630683608914471e+04 4.0678090473027539e+05 2.0092305711314180e+04 -4.0909286130073228e+03 -1.4860050875665529e+04 1.8681527691116789e+04 3.0277374943553373e+03 2.8990507796934742e+02 -2.0551008913599162e+01 1.7595761345575244e+01 3.3992267360203073e+01 -1.1755681565565013e+01 3.7031523331061663e+01 3.1595321607769620e+00 3.7167531059720568e+03 -3.6501779122383186e+02 
      </Row>
      <Row Index="201">
        6.4278862667066505e-01 -8.5654495863161173e+01 -1.4772686294531013e+01 1.3082813140185317e+02 4.3265845560726884e+03 -5.5899224945718515e+01 2.5845375654442250e+01 -1.6707148827934361e+01 1.3530662341339439e+02 -1.8264688106658241e+01 2.0545624133753222e+01 1.3781105138549492e+01 -1.6744479858090563e+02 -2.4404395363633771e+01 2.1191331179493318e+01 -3.1828682829494937e+01 -3.3795622539324540e+01 -3.0208967181765183e+02 -1.8628253358689253e+03 3.9671166845328571e+01 1.5250254221916066e+01 6.7706901987160393e+00 1.3475345740538137e+02 -1.5671642272482131e+01 -8.2996379407420591e+00 -3.0040223076546226e+01 1.6952164427730168e+02 2.0565552945694208e+01 -4.7701737620627682e-02 -5.4008170470897312e+00 -3.5712111483303943e+01 6.8411739523115102e+01 -4.9453276499169442e+02 4.3298975269205357e+01 -3.6007105257613148e+00 -2.7003957357655963e+00 2.0148001749768810e+01 3.6449856162021376e+01 2.1436283487176979e+00 7.8307582457944704e+00 9.7879063012806000e+00 -3.6679166025118377e+00 -9.8595222352691962e+00 -9.0863479772324354e+00 -1.4176736366113801e+01 5.5632297354695038e+02 -2.0042827599141801e+03 2.6516855588650105e+02 1.3844649005395695e+00 -2.6755871727573322e+00 -5.6213143214677075e+00 -1.4355732717897325e+01 1.3841812606290032e+01 9.2109575122291858e+00 -2.9982358834331535e+02 -9.2993590135835689e+00 6.8886011969556193e+00 6.4221045530604442e+01 -3.9328966985456645e+01 -6.1768114556879664e+02 1.3595057347946742e+04 2.8241516376678089e+02 -1.9852840755990883e+01 1.2678677470953915e+01 -4.5033423120429234e+01 -2.1648406874271728e+01 1.0180633530589219e+01 -7.2654623037440160e+00 3.0582462470128439e+02 1.7405430255673934e+01 -1.5751927286402206e+03 3.2365242877443779e+02 2.9327499060092684e+01 5.5789853455207776e+00 1.2352241591710481e+01 3.6463752082029714e+01 -2.2769271553872102e+01 1.0613271747314457e-01 4.7707698535018135e+03 -3.1243767333231517e+01 -1.0441596233916935e+03 4.5055081494535784e+01 1.8358321752777556e+01 1.0355338129651500e+01 -1.2493327565435720e+02 1.9247766131277558e+01 4.9873027939824112e+01 -4.2110502232584404e+03 -2.6452307955358410e+03 -3.3848210422322009e+03 -2.6526062503219919e+01 -3.6101847677913611e+01 1.0682123377753896e+01 -2.2417953789480430e+02 -1.0659677929261406e+01 4.9031899263980634e+01 4.6959791780931409e+03 3.1803444714200305e+03 -1.5431972193483671e+02 -1.9894203308502938e+02 -5.6453877798491521e+02 -1.2223760753692573e+03 9.8454316822903729e+02 4.5309517764978033e+01 1.5919354568094082e+02 6.2392974056550884e+03 4.0748911736593236e+03 3.9706827204803849e+03 -3.5994561559063991e+03 -1.0046644427815323e+04 1.6774307008980628e+04 2.1875034081482459e+04 1.3898890188942557e+03 -3.1469780401881790e+03 9.5673198015462840e+03 1.1801592171010270e+01 1.8158642608815571e+03 -5.5741653259407371e+01 -3.7390714483021293e+02 1.1798724176559940e+03 -3.9663298828073698e+02 -1.4974768478222188e+02 -5.6679512629606847e+01 1.8409465280854609e+04 1.0411989816934220e+03 -2.6148315192642622e+02 -7.3714734905226010e+01 -1.5849680123908911e+01 -5.9783214849201613e+01 -8.1786685528617454e+01 9.1263721423327979e+00 -5.5407132173354967e+01 5.4156763130746549e+03 -2.9083745086772979e+03 5.0976551061601640e+01 -1.8783058973974107e+00 -1.3933478316394030e+01 5.0494406097903266e+01 7.3818673952901008e+01 5.2282987765765938e+00 2.0209948063089797e+01 2.1760435877231648e+03 7.9187444781797240e+02 3.1045253329706611e+01 9.8761786397446230e+01 -2.6531195903662592e+00 4.2567661552790378e+02 -1.1261199860836859e+02 -1.7504242288529781e+00 4.3550509263447339e+01 -4.9836181791408453e+03 4.0420689894603856e+02 2.8813516503380379e+02 -1.9957261191872362e+01 1.9399550668342272e+01 7.4404452150265570e+01 -6.5249014056446413e+01 -7.8923343734255070e+01 2.5814957441989463e+01 -1.3265216382921906e+04 -5.6737262050097343e+01 -1.4007021833721374e+03 -1.7092553780795242e+01 1.4331323208830145e+02 2.3793249758196180e+02 -1.6027950641792359e+02 -9.5945287399576500e+01 3.3817377286187366e+01 2.1855111016863957e+03 -8.5561528446315788e+02 2.1581209856642818e+02 -3.5908156633429371e+00 -2.5328319040272618e-01 1.4456011280592065e+01 -2.0390371283951481e+01 1.5105972578035221e+01 -2.1531004765817556e+01 1.5323478986646514e+04 -4.5789190406881971e+02 1.2123859109924524e+01 2.0776179884899699e+02 -7.5463977250561584e+01 -2.8899456693536195e+02 3.0103057310576878e+02 7.6541398074184585e+01 -4.7622941994775772e+01 3.8663368101813362e+03 1.0876171527367551e+03 6.6204472820798401e+01 -5.9855176618061705e+00 -4.5227188509976259e+01 -1.1642056202712411e+01 4.7173264214317896e+01 4.7442772805601976e+01 -9.8862068410899155e+00 -4.2475265884436667e+03 3.0855283097452120e+03 9.0863046686965899e+03 -3.5393518951860920e+03 -9.6541169254718116e+03 2.0092305694401279e+04 2.0244998845880131e+04 1.1178329470477961e+03 -3.3420072143720640e+03 2.9101249744932284e+03 -1.6617916856111842e+03 8.6135105867633456e+01 6.7304087301745312e+00 -4.0945024178935796e+00 1.7618050170060542e+01 2.6061673994621060e+01 -3.1136427800131969e+01 1.5756216557660082e+01 3.2316994345403036e+03 -4.8316809608885324e+03 
      </Row>
      <Row Index="202">
        -9.2590420815365349e-01 5.5412395483904106e+01 -1.0382611866893285e+01 8.5480016297952716e+01 1.6744290548621211e+03 5.6237450169204038e+01 4.9817868567222945e+00 -4.2615207224799860e+00 -1.1249369084428508e+01 -1.0735666882388223e+01 7.7996074482824582e+00 9.5806707015466941e-01 -9.9408491612539365e+00 -4.4627435857159456e+00 1.0435784576506649e+01 -3.2775365479218181e+01 -1.0444178915834527e+01 2.8745937725466320e+01 4.9843915567996555e+03 -6.1123777681602576e+00 -1.8805412457447915e+01 1.6695043217255574e+01 -3.3881401115006980e+01 -2.1047846523959493e+00 1.9852815263246725e+01 -1.1482432744383402e+01 2.1800279933892853e+01 4.7410309020119996e+00 1.3860494008400224e+00 9.2216667804427743e+00 -2.2584592348632043e+01 -2.1368877374130079e+01 -9.1653587137555405e+02 1.7032370861200562e+01 9.9198640600985755e-01 -4.7225752768302982e+00 6.2669264307260164e-03 2.4180258263612394e+01 1.6495188929287821e+00 1.0176663126761767e+00 -4.9295304070228667e+00 -1.1248427447320140e+00 -1.6895310419166094e+01 1.0000320964258435e+01 3.6248167082505915e+00 -3.2976516497908233e+02 -2.7556807187639106e+03 4.4091278145066610e+01 -1.2988919701662468e+01 4.6614728168658530e+00 -2.8114462995321304e+01 -1.0845599488685941e+01 1.7613120639505521e+01 1.6445646045762317e+00 -6.0819125335146055e+01 -3.7656954241569895e+00 -7.6899316639337911e-01 -5.3043799660559500e+01 -2.3814614925092599e+01 -1.7204993311248700e+02 -1.5629761600699712e+03 -7.1185609716278819e+01 -1.0319797424631915e+01 1.1507903754726765e+01 -1.0675222168821321e+01 -2.1104923982978484e+01 2.4212142507810793e+01 -5.1511994773624110e+00 5.6940344605446057e+01 4.3015516447794653e+00 7.4664959976425780e+02 -2.5763873122929238e+02 -2.7232937057566708e+00 -2.0930563018870089e+01 -9.4164605148112969e+01 -4.0658080130381109e+01 -1.0350487735798914e+01 -1.6141892411542887e+01 -4.7193035580150317e+03 -4.7011554356801526e+02 7.9271715279861382e+01 -3.7623188168581137e+01 -5.1712247665136601e+01 -1.5345578084295994e+01 2.0646015501819875e+01 -1.6778186395688991e+01 6.7519907191035990e+00 2.5046087828556483e+03 2.5745819620860857e+00 1.9644102378496791e+02 -1.1728454184240029e+01 1.1846284445713934e+01 -3.8837113638672889e+01 -7.3766156663089220e+00 -2.9474208279876484e+00 -1.6619874815496949e+01 -1.9211304009310807e+03 -3.9862240653289955e+03 7.1460888739562324e+02 4.2796991174862615e+02 7.4701911943274342e+02 2.1080592155728273e+03 -4.0767070883035058e+02 -1.1107765936768840e+03 5.8865189136061531e+02 4.1780273451330140e+02 -1.1584652245483940e+04 -8.6149696474717093e+03 2.2999226913886773e+03 1.2840153962040977e+03 -2.2134342194079154e+03 1.0880606589804563e+03 7.0687855101124551e+03 1.7366317930152754e+03 -2.4768175546008642e+03 -5.7302240024098091e+03 4.9151335582484353e+02 -2.0563604663240537e+02 -3.2448969596553070e+01 4.3860637778628620e+02 -3.6354634410974063e+02 -8.0557348730459964e+01 -1.5021200263973856e+02 -2.1057868497829477e+03 -9.9799857959159999e+02 2.8223348385184363e+02 4.6988170976923698e+00 3.4806780788181641e+01 -2.2145388598088232e+01 3.9213602287245294e+01 3.7564233547512629e+00 -2.9083113948930276e+01 8.9066482844363054e+02 1.7970666969541799e+03 1.6647370344135334e+02 -1.6147670494494651e+01 1.6351322846576295e+00 -1.6640035818814795e+01 1.7692519042571234e+01 -1.9722456961648106e+01 -1.9127447676383067e+00 -3.8013318196842738e+02 4.5308272244084437e+03 2.3413705840972398e+01 -1.2338059524516670e+01 4.7515113813504286e+01 -1.0455965019727955e+01 -7.9529114199815467e+00 -1.0904548065180259e+02 -4.4575631773918332e+00 1.6351592379489448e+03 -6.6567496609937825e+03 2.7277040939593280e+02 -2.4185731441653431e+01 4.6628210071754438e+01 -3.3357169592909486e+01 -2.1987052999282895e+01 2.3422531742036348e+01 1.0840960537193197e+01 -1.4675334102472989e+03 1.1995280110813837e+03 4.9831185240720515e+01 -4.0241447990584703e+01 -1.3823880369653398e+02 -4.0747479701594057e+02 1.8182823242667610e+01 -4.7831495216916835e+01 3.4280496018321060e+01 8.5336075948575308e+02 1.7902979236539686e+03 -5.6696984654560765e+02 1.4586482624528912e+01 -2.4106543246505680e+01 -2.6608166744839764e+01 -2.3636566786656658e+01 -1.1976192563977335e+01 6.7167120107714737e+00 8.2317138195966254e+02 -2.8651586222533706e+03 9.5195197468332481e+01 3.1517176480117364e+00 2.3269894300139640e+01 -8.6815581244768509e+00 7.8588736421195335e+00 6.7948822476672710e+00 -1.1592013823512116e+02 -4.8404565751140444e+03 -1.3417555565803486e+03 -2.8716051264840644e+01 -3.2773084613408230e+00 -3.0214269032194807e+01 1.1923797879222616e+02 -3.4642576054881829e+01 1.2433413003317852e+01 1.5407146045427680e+01 2.9716354721137031e+03 -1.0067991034891227e+04 -8.7321222799357784e+03 1.6488862503815030e+03 4.5690106354968157e+02 -4.0909276530021989e+03 1.1178330739800149e+03 7.9678341319736974e+03 1.0936627018693891e+03 -5.4827330496872310e+02 3.7250363081237060e+02 2.6141546768851356e+01 6.3551457402154483e+00 3.5688050928159782e+00 -5.2535720963157075e+00 9.5698781699509965e+00 -4.3774585840216957e+00 2.0123818311006289e+01 -3.4683006003290501e+01 4.4863274904420530e+02 
      </Row>
      <Row Index="203">
        -6.2829289108928776e+00 1.9313605261895248e+01 1.1273228117693520e+01 -2.0367820864859004e+02 6.1744687977354806e+03 4.4136838587890324e+01 -6.2388870812636128e+00 6.2227165936077000e+00 -2.1713826264442957e+01 -7.0767828594329316e+00 5.7884856273712018e+00 -2.3764982744310430e+00 1.9333689785204342e+00 8.4186477017336578e+00 5.4777879017274245e-01 6.5841088890334731e-01 -8.0197134784611990e-02 1.5952652766188839e+02 -4.2673334027747114e+02 -4.3409589501844124e+01 9.4622365043687466e+00 1.7727454944999161e+00 -3.5872598805955214e+01 1.2540022411768120e+01 5.0499620148230804e+00 2.5162096040728557e+00 -2.3264533883005697e+01 -1.2733427356291600e+01 4.3736630346581364e+00 -2.9141046781735440e+00 1.5943603294962429e+01 -1.3796397557848650e+00 1.3783678164228877e+02 1.8509184384255235e+01 3.7999212518917318e+00 -7.6747618550791685e-01 -2.4520863413514462e+00 -2.5759563638583174e+00 1.4037131477553260e+00 6.5695877518228443e+00 -4.5644536241800324e+00 -5.3332902958961625e-01 2.4847912725550998e+00 -9.4706490771886820e-01 2.0582687803413933e+00 -2.6697204217016770e+02 6.8738392295006054e+02 3.3241071416412893e+01 -1.6991626105941009e+00 9.3726451927855123e+00 1.4123487406141777e+01 -5.0545025835037478e+00 5.9439114063147525e+00 3.5477439028879232e-01 1.1353264031790241e+02 1.9577684255234828e+00 6.7378775894374172e+00 -1.2195917800675403e+01 -3.7455572708042268e+00 3.4980261644626580e+02 -1.0012340251450558e+04 -4.6342033649075248e+01 6.2563035156686766e+00 3.7741469525221660e-01 7.6830107097571272e+00 4.8731163554186772e+00 -1.5899959242849815e+00 4.4962473179122640e+00 -3.9061580140717069e+01 -7.7010210344736265e+00 -6.6677848317936878e+01 3.3027799831427717e+02 -1.8514699635220389e+01 1.3202603490635738e+01 -4.2867294947482151e+01 -1.0394846047438796e+02 -9.8695782792382722e+00 -2.7959904946717156e+01 2.5401693733213979e+03 -6.3044059130508094e+02 1.6846312883859537e+02 8.2057130062730010e-01 -1.3679516353940016e+01 -7.0812747422940447e+01 -1.6930506383754164e+01 -8.7331075784326089e+00 -3.8520130702227213e+00 -1.9448071199094557e+03 1.5555306446584291e+02 3.1846258392154041e+03 1.6266414938289095e+01 -1.3174055385325204e+01 4.7189434334537168e+00 -1.5907393344642696e+02 2.8471137908886178e+01 -4.9083393695928194e+01 -4.4823371674764712e+03 3.6514731396494035e+03 -5.3006422394611945e+02 6.6077544145587865e+01 -1.7393368711067535e+02 1.0728421260678740e+03 9.2841445424588926e+01 2.6385976822321646e+02 -6.0301741758940216e+02 3.4744906869735132e+03 -1.5211216897808421e+04 -1.6274907178342788e+04 5.7273166331018037e+03 3.1859924032816625e+03 -1.2667143369810612e+04 -3.4770034885257610e+03 1.3828646941181214e+03 4.4242160855527209e+03 -5.5506998531215650e+03 -8.3873221630777164e+02 -1.5443361475519014e+03 -1.1604618996611367e+02 2.2531869020169324e+02 -7.9643865841124375e+02 -1.1443602063434240e+02 -2.0081993740272353e+01 -8.5347523936742178e+01 -5.8398332007381687e+03 -6.1669644921889994e+02 -2.6419346862615930e+02 -1.2783339785876603e+01 4.4743442050817976e+01 2.2880825148218378e+00 7.3319406603643756e+01 2.4995571886584145e+00 6.9815527921279852e-01 -7.0794652134051285e+02 -6.4503614163150360e+02 -1.3066180584217591e+02 -2.5706755229265514e+00 -1.7103964206621640e+00 -3.4056613232143718e+01 1.3913851593402342e+01 -9.3875344290543694e+00 2.1635484130608340e+00 1.6737473036285155e+03 7.1469385542301097e+02 5.3941886628916109e+01 -3.5240505647801754e+01 -3.1288314590638038e+01 -2.2486656679345288e+01 5.8484684913537421e+00 -8.0642455888535416e+00 -2.6453866185830321e+01 3.1677024065985606e+03 -1.6943274842611936e+02 2.0082578597513930e+02 -4.6728630898255261e+00 6.8551825068279868e+00 -2.5605175283562858e+00 1.3696081900618452e+01 -1.2584611274738943e+01 7.7333355690075791e+00 3.9277711890956562e+03 -3.5505280958529693e+02 3.8374288778974369e+02 -2.5744485512960068e+01 -5.1470911497599900e+01 -4.8102175924369294e+02 1.7744627682999976e+00 1.2263423358867954e+01 8.5835050693215749e+00 -1.3054289975964966e+03 2.8056818598040991e+02 -1.6111607053408807e+02 9.6214971824301401e+00 -1.5287785611784784e+01 -5.0247212577069149e+00 -1.6916966288290723e+01 1.7675396928634449e+01 -8.3211883896777294e+00 -5.3675222000875947e+03 -7.6693680174197571e+03 7.4048905814810496e+01 -5.1909604135479078e+01 1.2964572832915474e+02 1.2137640455751352e+02 -2.2717651870654561e+02 -5.9143047052130441e+01 1.1388261869911389e+01 6.4072323584359367e+01 7.8717165885880240e+02 -2.7138589473606407e+02 1.4943975783930625e+01 -2.6773322604359237e+01 8.7920617725374086e+01 -1.0544173926281474e+01 -2.0685993777589644e+01 6.2327600430768371e+00 4.0302983083142899e+03 -1.3212555523227757e+04 -1.9999812906537820e+04 5.5213595427764121e+03 3.3976021672743409e+03 -1.4860049664462362e+04 -3.3420070317818081e+03 1.0936628163462631e+03 4.9299052236080370e+03 -4.5402268348520156e+03 -1.7242743471412666e+01 7.3829250215355984e+01 -6.6457828281927505e+00 9.3800727753041642e+00 2.0772352348819538e+00 -9.6481555387790507e+00 5.7658162974580591e+00 9.5896707055235311e+00 -3.6113091062866908e+02 4.3268632778346119e+02 
      </Row>
      <Row Index="204">
        1.1834501084088743e+01 2.5073611276948213e+00 1.4335844661458395e+01 -1.9099552208624664e+02 -1.1908832594674372e+04 -5.4404100240748448e+01 1.4119999590348925e+01 2.9333140404828555e+00 -2.5491276118182213e+01 -2.2349389108286289e+01 -1.3514245868627540e+01 8.2716276294877389e+00 -1.6525388703217686e+01 6.7425347708488292e+00 -6.6258303830218210e+00 1.9460656205656051e+01 -1.3455168289074209e+01 -7.3911932688788511e+00 7.8180620945668779e+03 1.8140700960261074e+02 -2.4114586644227984e+01 -8.5497913515798700e+00 5.0765079733922448e+01 1.3575861293948037e+01 -6.7744245515996226e-01 1.7041310918492854e+01 2.1741412238581688e+01 -7.0676107728118041e+00 -9.8904495546048565e-01 1.2920891369169112e+01 -1.3830339181457020e+01 6.1404526786471251e+01 1.2733956299060228e+03 -2.8232336119644970e+00 3.4578212058386271e-01 3.3870354516666339e+00 1.9258869410483385e+01 2.5814703966153729e+01 -8.5417605697034560e-01 -5.7326052920382153e+00 6.5790513044485124e+00 -6.9674539361608367e-01 -4.9912219391590043e+00 -2.1828837785578799e+00 -4.9335039113066159e-01 3.0062137731898110e+02 1.8351587037769641e+03 -4.0205067766171851e+01 1.4658688560048176e+00 -9.9428967857857060e+00 4.0855064024873172e+01 -3.3792141429256617e-01 -2.4373646906219477e+00 -8.8333235444736147e-01 -8.2311974109907169e+01 -9.0315868196690872e+00 -1.1898285481710218e+01 -1.4361485628957780e+01 -3.7509228083423295e+01 -2.2127058164202026e+02 1.1621485492729931e+04 3.2201085112655278e+01 -2.0239899249428163e+01 -1.0971791135459966e+01 2.5048251061802148e+01 -8.7659627735342838e-01 1.1283675682997439e+01 -7.9058426629599126e+00 6.6973387828968043e+01 -1.7457818969940831e+01 -8.4457332952920115e+02 4.9602940611075974e+02 2.5425676238611899e+01 -1.3753383669262985e+02 3.5161688604101073e+01 2.1566808896327348e+02 -1.8468056238053805e+00 -3.5789089554914426e+00 -3.4533645060238836e+04 4.2302155638488912e+03 1.8166792632448778e+03 -1.7589938142198207e+00 -1.1125635173081537e+02 1.5657380488247145e+02 -3.0114978476969554e+01 -1.3939600947812778e+01 -3.1901278560039941e+01 3.9124651353169698e+04 -8.2880800659942906e+01 -3.2818372303048382e+03 1.9044326797188774e+01 -1.4547157348301334e+02 -2.9741947529169920e+01 -2.8514493305042788e+02 8.0632872922709566e+00 1.2446762104924659e+01 -3.5651691225282382e+05 -6.1786321983840025e+03 -1.2078884582357423e+03 -2.2728625563750819e+02 7.5039837396586154e+02 -1.7637891016541034e+03 -1.9753390468857106e+01 -4.4412172856194468e+02 2.7771593470942804e+02 -1.9342273182853940e+04 1.9727299502540864e+04 1.3390297083197802e+04 -6.2018265301354641e+03 8.4874469693902065e+03 1.5269253108009972e+04 2.5097914694816864e+03 -1.0116230468257927e+03 -4.5741810652155200e+03 2.5522785101320990e+05 -1.8168313370284886e+02 1.5597078559299116e+03 1.0236912499767342e+02 -1.0337909421929508e+03 1.8584152767174305e+03 3.1974875550860543e+02 -2.6652231152281274e+01 9.6968727564294568e+01 -4.6191510355187114e+04 -9.8568869822192937e+00 -1.0280429992220597e+03 2.3580712305179645e+00 6.9090134457917884e+01 -8.1928231316305755e+00 -1.0722757205726157e+02 5.0904935606471554e+01 -2.3433582798634234e-01 1.4500225704619195e+04 1.8324830820131756e+03 -1.5451101768581429e+02 2.0506727928291184e+00 -2.2538918458812987e+00 4.5037632230087183e+00 -4.0532177632132516e+01 1.3391186246636607e+01 9.0151848193314095e+00 -1.0656819708870491e+04 4.9301349337794818e+01 6.3935347540350631e+02 1.1847338609825158e+01 -9.8912276340590324e+01 -2.3909733981604222e+02 -4.8131386912114976e+01 3.9049541493052061e+01 1.0945991586279433e+01 5.5385976149281487e+03 1.2102874234697083e+03 -8.9854694013297558e+02 -4.8776396790938065e+01 6.9371407905302476e+01 5.7847851719707251e+01 -1.9373793265154200e+02 3.5103253470406798e+01 1.7086242958348976e+01 2.3233816735474393e+04 -6.9339270969456993e+02 2.5247659190548584e+03 2.2078700602457502e+01 -1.3321243696955207e+02 3.5490944935311563e+02 2.8646414376686153e+01 -4.0636263916385360e+00 -2.0231805369905487e+01 2.8670355095989071e+03 -1.1969106112774462e+03 2.0346956315716379e+03 1.6312140649297135e+01 -6.6165350596857024e+01 -2.9600900509482017e+01 1.8807201974788040e+02 -3.3488130550724918e+01 7.7375173817381437e+00 -4.6369418840065598e+04 1.3678491616295301e+04 4.8485392822060385e+02 3.8178937939431407e+01 3.4333359544747509e+01 8.2807021413718758e+01 1.4747566004443433e+02 4.2022609873935068e+01 -1.9949323817577593e+02 -7.0485685017708611e+03 -5.0060602426202968e+02 -6.5567053380433936e+02 2.4623775491190827e+00 4.7195663732272806e+01 -3.3076202711316000e+01 2.8889185944281053e+00 3.3273145911607571e-01 -4.5675588961603353e-01 2.9417668479339220e+04 1.7377645621881649e+04 1.8169546841805859e+04 -5.9212639769003854e+03 6.7001611043434823e+03 1.8681524733728067e+04 2.9101244730967946e+03 -5.4827329237697563e+02 -4.5402263035672258e+03 6.3410176987953985e+05 5.0141051068957495e+02 -1.4882598939152001e+02 1.2256610607808398e+01 -3.0993100346206006e+01 -2.2595256860529844e+01 -6.9158429015631100e+00 3.0214292004447998e+00 1.3373136025300482e+01 -1.1386297308578960e+04 1.1732150261336084e+04 
      </Row>
      <Row Index="205">
        -4.0382544106077376e+01 2.3445302463493135e+01 2.9771513746873097e+00 -1.0788022769789677e+02 -4.7074838927699020e+03 4.0337000151567281e+01 -3.9232058384664015e+01 -2.0578376007948464e+01 3.0618246314697899e+00 1.1927012682344639e+01 -1.3586544640864304e+01 -1.6079390832687750e+01 1.2098409471946070e+00 2.2142601396020531e+01 4.5721664272405178e+00 2.2141401399065217e+01 1.0819602214323822e+00 -1.0281010956465616e+02 3.1045032509986777e+03 1.2794084741309052e+02 1.4269289013393063e+01 1.7007124435424316e+01 -1.1650461158767030e+01 1.1501029923736496e+01 1.6461295700208211e+01 3.1824246138898161e+01 2.1481112751382170e+01 -3.9210444466361423e+01 4.3788197787634999e+00 -1.9468017767212586e+00 1.0873692160417704e+01 5.1525402693659998e+00 3.3436771931473049e+02 2.6576979192032013e-01 9.5703359745311900e+00 2.7869265372410155e+00 8.0450688420278311e+00 -2.9924453957379683e+01 3.7656653752678722e+00 -1.4281384242794957e+01 1.0029476380812412e+01 -3.4192636897444117e-01 -3.6814072598417624e+00 1.9758898941436200e+00 4.8256389842099452e+00 2.2005369401897769e+02 -4.7252561746483843e+02 -7.7642993586050579e+01 -5.4331743272632593e-01 -9.7572319229948334e+00 7.8645170301651888e+00 7.3872959118375547e-02 -2.3897044534142253e-01 -7.3045848723716063e+00 -4.9886294311989332e+01 1.5614845710316558e+00 3.1711662728306237e+01 -2.8228587361340033e+01 7.7283807993444498e+00 -5.9919852556675323e+01 2.8003930339002982e+03 -5.8962755931839922e+01 3.9743237344936915e+01 1.4745194920957147e+01 -2.6100200090768340e+00 2.0424250543875132e+01 -4.5633915734786914e+00 1.8631550110641911e+01 4.9712291708350676e+01 -2.0834687014058098e+01 1.2453985480309173e+04 -8.4557774214008532e+00 2.3236960740023804e+01 -2.3156813071342185e+01 -2.8111199427337851e+01 1.2317423533412148e+02 -1.3735771747869876e+01 5.8510273361173404e-01 -2.3360581671863329e+03 -3.7936852153308573e+03 -6.5314873651525704e+02 -1.3804612636761931e+01 -4.5930496071523521e+00 3.3832629817421548e+01 2.7442586953213322e+01 7.8867502258244713e+00 -2.0835700373459076e+01 3.5635273184278049e+03 1.8603038428933593e+04 2.5677113734080922e+02 4.0784949852977263e+01 -5.9612574059864528e+01 -2.7037196635057626e+01 2.7950120206869542e+00 -1.8597085566107467e+01 -7.0116948575842116e+01 1.5770070335227065e+03 8.4922295003561885e+03 2.7758952119672904e+02 -9.9860742136444259e+01 -3.8945331155693566e+02 -5.0691301348972047e+02 1.0531076670042603e+02 5.1939885264601321e+02 9.2060427680562952e+01 -3.8325478156073950e+03 -4.9024788996241696e+03 8.4192015307813126e+03 -1.1956676435562861e+03 6.1607432094033356e+01 2.0181411687500076e+03 -1.5898222831188177e+03 9.5094969720578456e+02 -4.2629623641417957e+01 1.7716035984815098e+03 -6.8942861823496314e+03 5.6719819066987839e+02 -7.9399238179128318e+01 -4.4621311574499123e+02 7.3100833355938266e+02 3.9819781415237230e+01 -1.2562612567405267e+02 -1.0253826486750768e+00 -1.3701854588198476e+03 -9.6382769057357218e+03 -1.6513385035260580e+02 6.1630583376447248e+01 1.4779774058610201e+01 -9.2527905872702831e+00 -5.1076072623487562e+01 4.7594628438634572e+01 8.8014120788636319e+01 -1.0732484705424868e+03 1.0702573086966877e+03 2.5528092292658403e+02 -1.0900438343128258e+01 -1.0813924437316018e+00 5.9004254790663254e+01 -2.1332140552913188e+01 -4.2288639280168354e+00 -1.9692472539119876e+01 -6.4472834694758058e+02 7.4430236940863542e+03 -2.1012082561268471e+02 1.9023504711578767e+01 4.5473746666568331e+01 -1.1155377686943393e+02 -2.0143166441819631e+01 6.0215788139646975e+01 -2.3414346546587694e+01 7.5801580173056573e+02 -8.6275092899088631e+03 2.5375699396315031e+02 -1.3888245434562350e+01 -3.9265145685989410e+01 -4.3685732366400771e+01 2.6106180116814357e+01 5.0929283626636789e+01 -1.3685007459667759e+01 -2.9133408597270027e+03 -6.7631946578237694e+03 -8.6715615061589051e+02 3.1445337151681997e+01 -7.0527878121793037e+01 1.1994715403614100e+02 4.3677973139911046e+01 5.0249984447627867e+01 -8.5841952104237862e-01 1.3157115900818026e+03 6.9804150749787223e+03 -1.2554643338720780e+01 1.9294801124993910e+01 -7.0760920805332717e+00 1.4192691515025217e+01 2.5153752899932442e+01 -3.7521375827865086e+01 1.8809590276805466e+00 2.6989142289180309e+03 -1.5915173236836912e+04 8.8168317339383066e+01 3.0593153975119339e+01 1.6194486847240478e+02 7.1822251409663295e+01 5.5579090314917266e+01 1.0613599561293992e+01 -2.3268718853395001e+01 2.0247328049100195e+03 -1.6093816961942241e+04 2.3332904898934066e+02 2.0291713173009157e+01 7.6947728586994344e+01 2.4967319913266692e+00 -3.3218898227700265e+01 -6.3259758195708855e+01 -1.1162847656898521e+01 -5.1748341539874673e+01 -2.9021480981874400e+04 8.2065459083770984e+03 -1.1802203989855916e+03 -5.3355258104507811e+01 3.0277368090233867e+03 -1.6617918028047661e+03 3.7250362844066831e+02 -1.7242542303484182e+01 5.0141068350987916e+02 1.6807028282772280e+04 -1.9997172151566161e+01 4.8467640347487759e+01 -8.7144349785153281e+00 5.2437600216489955e+00 -1.9516795945901322e-01 1.8197498296815866e+01 -7.2998596251825802e+01 -6.4387557027306684e+01 1.6756387752522445e+04 
      </Row>
      <Row Index="206">
        -7.2524615175533214e-01 2.0381435093584628e+00 4.1388917383528678e-02 -5.8125413747529819e-01 3.0507608472628544e+02 8.5734899935125242e-01 -3.3997829241519639e-01 3.8804199094452940e-01 -1.5630206606881529e+00 -2.1052411364583605e+00 7.1815479721346520e-01 -4.8410305110598983e-01 -8.5630759130708611e-01 -9.1015158271981367e-02 6.7723697061035182e-01 2.6051877827927683e-01 -4.1418333254500794e-01 4.0032546939773965e+00 -3.9500007915867172e+01 2.4021737233992440e+00 1.2389266976266811e-01 1.2950569281476665e+00 -1.2609972856274894e+00 7.7978077343385621e-01 8.0655028564802933e-01 -3.6868866495188968e-01 2.4830037896786052e+00 1.9835348533628405e-01 1.5068835764998312e-01 9.8163748215370106e-02 -5.4209405476134975e-01 2.4460982853429414e+00 -7.5824821240944402e+00 -6.1596348344458818e-01 -6.1995578207074686e-03 -2.6739151026845320e-01 -9.5531481231910220e-01 2.4557154752769392e+00 -1.5152616771729299e-02 4.9540940668749300e-01 1.5207748593161341e+00 7.5884304158115867e-02 -5.1700098516606374e-01 6.8374300719199255e-01 3.6451949045044785e-01 -1.4218955798031857e+01 3.9079447964967358e+01 1.6243223366973893e+00 -1.0271209469323139e-01 3.7983924687154058e-01 1.8501611261271478e-02 -1.2067010425439761e-01 8.3907837558555198e-01 4.7791664692649505e-02 6.0645655937696574e-01 -1.3595779931666563e-01 1.7311978041956166e-01 -1.5199685203237436e+00 -8.3287210046074733e-01 1.0840454418103718e+01 2.4355493495182600e+01 1.9642681077189224e+00 4.0085022638803025e-01 -1.4167753681402573e-01 2.7655302911811930e-01 1.3832794042497234e+00 9.1214870092493894e-01 1.6434708149061805e-01 -4.4771731705279194e-01 1.7335709021339807e-01 4.1807793356665570e+00 -6.8831863496759524e+01 -1.7888318981159190e+00 -2.5804450639752758e+00 -2.4691449792953790e-01 -8.5907420645967250e+00 -1.8589506746071649e-01 5.2096269856551558e-01 1.2494975406110898e+03 -3.3458955735880409e+01 9.4729497857021670e+01 -1.8315414018994218e+00 -3.9081545290982831e+00 1.9000349602538336e-01 -3.3441015136480701e-01 -8.4565984559091589e-01 3.6746508275800949e-01 -1.7315208837472019e+03 -2.0601795329632296e+01 -1.1670145318808954e+02 2.6290636323662486e-01 -4.1418265247970680e+00 -3.1333249630732496e-01 -1.1321031595458734e+01 4.4260918306688879e-02 9.2319529487854268e-02 -2.5117804567742132e+02 -1.6912221340183987e+02 -1.2262520155618495e+02 9.5881711407032206e+00 1.9359398268519499e+00 3.9011602297874333e+01 1.5604232135010534e+00 8.9198263223491203e+00 8.0029960421868118e-01 1.3237544694504431e+03 -4.5985729321304962e+02 -3.1497429181069037e+02 1.0375061348939208e+02 1.4376172002826638e+02 2.8469750131183173e+02 8.7919128428766044e+01 4.0395960773842262e+01 7.2810128004997324e+01 -2.0056202364979981e+01 -8.1775694262065599e+00 -3.6685861992178616e+01 -4.4588521237488399e-01 -2.3659875816972999e+01 3.0239289866074259e+01 -1.2574864951985802e+01 1.0483750966759970e+00 5.9944202104976796e-01 1.3324344631531349e+03 1.0413355017815775e+01 -2.6039269260236324e+01 -5.1953454981595582e-01 6.2865976145185414e+00 6.5690102524439453e-01 1.3747260818922769e+00 -8.8971441724137890e-01 -1.3702998808806512e+00 -6.3686813101958251e-01 -3.3666020483575267e+01 -2.4594754460310014e+01 -3.2898234132322202e-01 -4.2498466259758061e-01 -7.5430243411938136e-01 2.8999356105433662e+00 -1.3146083499496513e+00 -6.5041541589117813e-01 1.1178855836511357e+03 6.7403942527089384e+00 5.8681030129846476e+00 -1.2500452814611371e+00 -3.4630838526027219e-02 5.9524122153907228e+00 2.3533806394746080e+00 -6.1750332729735646e-01 -8.2977592883800355e-01 -2.9952966608164570e+02 1.8551126431511875e+01 5.6198017160560994e+01 -2.5062816962951686e+00 6.3692623647148139e+00 5.6540448724990711e-01 -1.5285518719338143e+00 -6.7364093435696262e+00 2.1115530150645156e-01 -6.1157926570418931e+02 2.9178500273166719e+01 3.2251075488729839e+01 -2.2689197259363425e+00 -2.0703355988077874e+00 -1.0994115672461703e+01 -4.3024159225519725e+00 -2.2575173379836855e+00 1.6240219002782226e+00 -1.1098310899658445e+03 2.6783207028747711e+00 4.8956418071700682e+01 1.6031068565769289e+00 -2.6307038917361751e+00 -1.1657655290337061e+00 -2.5154255476771823e+00 1.6372753749626696e+00 8.9566300625225637e-01 6.4354087785152660e+02 -1.2972554810081510e+02 -8.7898537945830867e+01 7.7825071464927009e-02 1.2376683850879999e+01 -1.1365309846077366e+01 -5.4347440262280315e+00 -1.6021438343031433e+00 -3.2772232083352071e+00 8.2221654149304413e+02 1.4900129398272838e+01 -3.3299286859455606e+01 -6.0038490864036476e-01 1.9914696876899143e+00 -1.1978411923610111e-01 1.6006460689409323e+00 4.1418655738613808e-01 9.6864992586347398e-02 -1.4959362223334028e+02 -1.7153059931087341e+02 -7.9481266987948857e+01 8.8961841037434795e+01 1.1797656675943290e+02 2.8990513768267743e+02 8.6135117400233014e+01 2.6141545688534165e+01 7.3829237773427778e+01 -1.4882598814534049e+02 -1.9997169978265617e+01 6.6122199196180276e+01 -5.4754342935143541e-01 -1.4813027490544641e+00 -9.4648772352149990e-01 -3.1405656429489426e-01 -6.1593551632645926e-01 4.5045104254359103e-01 3.4857724919406877e+02 -3.0263055916589690e+02 
      </Row>
      <Row Index="207">
        -7.7939611585327473e-02 3.6628594190581509e-01 -2.4039511678196135e-01 -5.4162075721535530e-01 -1.0577115173592915e+01 -5.8174743770457749e-01 -1.9017850522857316e-02 2.2747077502552671e-02 -4.5111428851746638e-01 8.3054253834002223e-02 -1.2549401808407357e-01 2.5631687814332693e-01 1.3712617414967099e-03 1.2903394125715509e-01 2.7436673645193821e-01 -5.9911966419186058e-01 -8.5776916864119812e-03 -4.6185088811351989e+00 -4.7646105444392106e+01 1.4313715824596294e+00 -2.7514853949857532e-01 -5.5507400435429344e-02 -1.6296745844349418e+00 -3.5690377984484911e-01 1.2150699654152319e-01 -1.6312832804416288e-01 1.0334668683015025e-02 -1.2472420577391974e+00 2.5164045669249901e-02 -1.3954534078428082e-01 -1.3500454340372769e-01 9.6086088160348027e-02 2.4363740730391328e+00 -2.2830771820438933e-01 5.1739223783826560e-03 -3.9434781173579125e-02 -5.2336988566608511e-02 3.1521710164253891e-01 2.2983124846609471e-02 -3.8260927209587514e-02 -9.2652587219305360e-02 -5.1449046229463669e-02 9.5215767640805637e-02 -7.6861551648818249e-02 -2.8327134473528304e-01 -3.6041859866747927e-01 8.2723646172202336e+00 -6.3972682564869032e-01 -1.0091506682111984e-01 -9.4077283853977178e-03 3.0747313905246543e-02 4.7671923864125443e-02 5.3896777266839113e-02 6.0594478198170432e-02 -7.4202116360140735e-01 -1.4517274352921627e-01 1.3852443329547226e-01 -4.8279120465598169e-01 -4.0595558769965123e-02 -1.9449331655763444e+00 2.5502222537884336e+00 3.9319783775020367e-01 -3.9392910639058698e-02 -6.6610357285164401e-02 -1.7747412217264902e-01 -3.9666237969889151e-01 1.9482368985925222e-01 -3.4655271181971514e-01 7.7015507224865587e-01 -5.1830021425576334e-01 2.7045538415819465e+01 -9.4369150176950711e-01 1.1147055248792019e+00 -1.1188312585459244e+00 -5.7825798575208864e-01 1.1332122032568037e+00 2.1697611154610863e-01 -2.5909609230183195e-01 -2.4673351089803418e+01 -4.7400989271175376e+01 -1.3958355572364098e+00 -4.3182772130435865e-01 -5.5311858426330218e-01 1.1337788830451245e-01 -2.5271611449940679e-01 2.9928532567850041e-01 1.0690840504768806e-01 8.3901307344240195e+00 7.6926312147970293e+01 -5.6701355353699228e+00 2.3213248088451743e-01 9.6120017142204972e-02 -1.1128834715750759e+00 7.3732740873717795e-01 4.9048708202837765e-01 1.2472124742483426e-01 2.7930458737832851e+01 -1.8552966868385283e+01 -1.8474570140633659e+00 1.1539174516141988e+00 9.4468456238732301e-01 -7.5938637891478820e+00 -8.2324217289482249e-02 -1.0377255471472961e+00 6.6202721437939669e+00 -2.1330588217921104e+01 -3.4430390916471936e+01 4.0168686877946016e+01 -1.2230176707383730e+01 -8.7467118426706492e-01 -3.0465451441784182e+01 5.8695499935464852e+00 6.4126766683266219e+00 -2.3526161954873377e+00 9.7150122756734163e+00 -2.3391540137063885e+01 -3.6699742977793903e-01 1.8958991489457553e+00 1.9353189503729027e+00 -2.6298714025957182e-01 2.6149689082747223e+00 -8.2908740411998849e-01 7.0844897609425850e-01 -1.5000065388130679e+01 -3.1348564090218133e+01 3.3778245582038835e+00 1.0865404605684559e+00 -3.8336176258962951e-01 7.6490768495294503e-01 -1.0003257979250009e+00 1.0553966429835437e-01 1.8313027507200275e-01 -7.8806560363464087e+00 8.0177177246014139e+01 1.9673747128042578e+00 -5.9390706659417658e-01 -1.0996812992290188e+00 4.4274876347799363e-02 2.1964515469730372e-01 -2.5896922572927394e-01 -3.4241569104375591e-02 3.2453510561799703e+00 2.3326034491945848e+01 -5.7125843260701004e-01 -3.9397800370105096e-01 5.3336865045207560e-01 4.1723329037631629e-01 -8.3716998716028002e-02 9.7772093059459264e-01 -2.9923418392234602e-01 -3.4079728014203283e+00 -5.6736662869593147e+01 1.1866020915385889e-01 -2.7029497748503184e-01 3.0831581631514382e-01 6.0563612996088523e-01 -1.0555639782720938e+00 -4.0017716524334412e-01 -6.2279856449922733e-03 5.2508300405970658e+00 -4.9060097958048118e+01 -4.2112544272276864e-01 4.2204369402765352e-01 -4.9226340074346240e+00 2.5604449705519983e+00 5.2617950299107008e-01 7.9509217152329015e-01 1.4107351935372492e-02 7.1645651597564211e+00 2.8107186108768474e+01 -2.7466410704680584e+00 1.3663653665290454e-01 -3.5008439311468464e-01 -3.7427842978513581e-01 1.0014262233450211e-01 1.0941094530462969e-01 9.4080153315575288e-02 -3.3069080701190614e+01 -8.7108567859331174e+01 2.8457925049253845e+00 3.8516743348011950e-01 2.6238111427733202e-01 7.3830878854840876e-01 8.3072671797013697e-01 3.7103266189441692e-01 -2.1266246174252661e+00 -1.3943444848828664e+01 -7.9767257023273487e+01 1.8963918076892696e+00 1.4194314656143519e+00 9.4033175737877173e-01 -4.5002491276406431e-01 -1.2766739544568964e+00 -1.2816136889397960e+00 -2.9797899922543536e-01 -1.6005130608020409e+01 1.5373065188548097e+01 4.7248371029546547e+01 -1.1694357519284932e+01 -1.5351531718233673e+00 -2.0551011151121401e+01 6.7304082579530462e+00 6.3551454001013319e+00 -6.6457825543222881e+00 1.2256612135946739e+01 4.8467641114088551e+01 -5.4754345708905461e-01 1.9564710490327286e+00 -7.3175343798404402e-02 2.1835538712130287e-01 5.3837325167059991e-01 1.0520987494221110e+00 -4.7389160365281668e-01 2.7645611480351562e-01 4.6630812131188769e+01 
      </Row>
      <Row Index="208">
        -2.1550801465212333e-01 -3.4647935096707982e-01 -6.1922353800946794e-02 7.4916880835943118e+00 -1.9796526485865229e+00 5.1305639567871841e-01 -8.9843067412125777e-02 4.2938396979429339e-01 1.2423365842088359e+00 -1.6813891518549440e-01 -1.3358739762001193e-02 3.1948802563755763e-02 9.3672100988552387e-02 -5.6092056852579113e-02 -6.4604719962083657e-01 2.3012789588899984e-01 3.3179629774735986e-01 -2.6453424194496336e+00 1.1861094382750480e+01 -1.3538871982658307e+00 2.0155445590711629e-01 9.9238337560567033e-02 -9.4246556001463411e-01 6.2462278621868705e-02 -2.4087232962747329e-01 -1.0696665426984708e-01 -4.7152195023629417e-01 1.5516279955356982e-01 -4.6748729123599730e-02 -1.2102604621730961e-03 -1.5153861281087178e-01 -7.9404532996630905e-01 -4.6333145326866543e-01 1.4936482872548229e-01 2.0201795222774876e-02 -2.0265850235006155e-02 4.5791681315360933e-02 1.2759764903213422e-01 -3.0442727244734957e-02 -7.3455236082866637e-03 -2.7462824119766083e-03 5.0518031914882355e-03 1.5228739445817929e-02 -2.1910876583758920e-01 1.6698696936773061e-01 -2.1670872568209916e+00 1.5149385220796461e+00 4.3532694925666249e-02 2.8362441055646670e-02 2.8287859126035997e-01 -4.4311789856520623e-01 7.6724885786642716e-02 -9.7128136981708940e-02 4.0197876871609139e-02 -3.3292214122488417e-01 1.4195247124474175e-01 1.1079813823055540e-01 2.1806918483044235e-01 4.6959248982464175e-01 -2.5703796076053038e+00 -4.9663821568369713e+01 -5.3793179827024218e-01 2.0313081050928306e-01 -6.6705565269072675e-02 -1.1100778233780493e+00 -1.0837665845175870e-04 -9.5057315952052440e-02 1.6243917832859722e-02 -3.5123071778331294e-02 1.6096154900540960e-01 -2.8937190228475629e-01 -1.5084377012917543e+00 8.9759471032185478e-01 1.7618184499064569e+00 -1.3111478558079739e+00 1.6584054142121403e+00 5.5320689018483182e-01 -6.5177025001480482e-02 3.9195984725387802e+01 -5.0733216166540274e-01 -1.1863809937886799e+01 8.6895379015430319e-03 7.5862348164366722e-01 -3.0464819861757633e+00 1.0302202497190613e+00 -8.4818497069051091e-02 2.5796701938893341e-01 -2.2600765554509962e+01 -1.4599646599878838e+01 3.3363648733146647e+00 -3.0546321077911298e-01 1.1569134603251880e+00 3.6733208755917417e+00 7.0992867005196327e+00 -9.0177844784222583e-01 1.3930681157363414e+00 -5.3704763450322048e+01 5.7439222215905403e+01 1.4270510521735417e+01 4.5425552105912228e+00 2.0990636076943723e+00 2.1548292361187244e+01 -3.1749324532997871e+00 2.6065928958855520e+00 -6.0050815833352844e-01 -4.1570913586458573e+00 -5.3028169284757681e+01 -5.6790667524874976e+01 1.5540565327777493e+01 -1.0836765692795004e+02 5.9907649975382469e+01 1.4453671390231193e+00 5.2398183312837237e+00 7.5277967000299135e+00 7.5813207387932380e-01 2.2145869947906920e+01 -2.7884296249143290e+00 -8.3759587862878759e-01 8.8264557490492166e+00 -1.4093967572944955e+01 -4.5245820447683283e-01 3.1730868778967602e-01 -3.5158890227762951e-01 -7.2327377193376378e+01 8.2630644840121477e+00 -1.5476020601696518e+00 3.1788275217598361e-01 -2.6364795842391686e-01 -2.1190251645285567e+00 -4.2398092038743584e-01 -1.0524236505743145e-01 -2.0752866407377724e-01 -5.1696575016723500e+01 -2.6230125585921712e+01 5.3971029686628924e+00 -4.9005175383802024e-01 2.5580941619095725e+00 -2.0032924663967151e+00 -9.3053858021329461e-01 -6.3469769347412619e-01 -1.4782029192932866e-02 2.5987785853474406e+01 -1.4823878025015233e+01 1.0161387907623975e-01 6.8012264434533076e-01 2.0312792864255016e+00 2.3032239866496695e+00 -6.1106070149908476e-01 -3.6950520209132875e-01 3.1565508864101055e-01 2.3481294301135677e+01 9.3105576092323190e+00 1.9191786415087790e+00 7.6119091442369058e-02 -1.1390150325454442e+00 -1.1419258522926157e+00 1.2525725990946235e-01 -3.6763741640786174e-01 1.5949996383191056e-01 3.5014174144194840e+01 4.8415712090572924e+00 -1.3964102505772075e+01 4.9600604405295456e-02 -1.2610247060084134e+00 -8.9571328345037955e+00 1.0164613346263227e+00 1.4531648505018513e-01 2.2750887784748564e-01 -4.6064909574317880e+00 -3.4409024343972305e+00 -2.7403186819788061e+00 -3.5867959314828779e-02 1.0320148164735485e+00 1.7380293108422507e+00 1.3431196730182116e-01 2.5957897585458145e-01 -3.4520683856007928e-02 -5.8725121257906721e+01 -8.0106986025125536e+01 -8.7735365952437405e-01 8.7095223761409679e-01 -6.1146970424571236e+00 1.4520347349652241e+00 1.6350212619626632e+00 -3.1418982482557195e-01 -2.5652752936005134e+00 4.5053531039538825e+01 2.1153968489113140e+01 9.3779270428606196e+00 -1.9832039840697924e-01 -3.9587412210984212e+00 1.4292746597224735e+00 2.3634759544970052e-01 2.0280787294612201e-01 1.8361431586788157e-01 -5.3553207790970191e+01 -3.3632343632228242e+01 -7.1781174787330201e+01 1.0830201476793981e+01 -1.0037251031753772e+02 1.7595765141584675e+01 -4.0945019221564571e+00 3.5688051893224744e+00 9.3800724376384146e+00 -3.0993100743842618e+01 -8.7144347660005703e+00 -1.4813027376320367e+00 -7.3175341979222708e-02 2.2977276314200461e+00 1.9298141602619348e+00 -1.4298956964467147e-01 3.5034471805983447e-01 6.5497062144154938e-01 6.0086198995846747e+00 -1.5459375055933657e+01 
      </Row>
      <Row Index="209">
        -3.4890400785130427e-01 -8.1478719766412411e-01 7.4831592435293359e-02 4.2727128006760609e+00 -2.7565019906496786e+01 1.0405102653703886e+00 -2.6778096518683725e-01 -5.9473345336812500e-01 5.7728393146270918e-01 -3.5468009252743515e-01 -2.0321394511137036e-01 -8.0475974530475725e-02 1.0521674021561367e+00 7.0621071944887467e-02 -1.1678682578455657e-01 -3.9078626922818316e-01 -2.1803447842137302e-01 -1.1300236192626585e+01 -2.5261679442883178e-01 5.3585444882868316e-01 -1.7884040970485149e-01 8.2157013257478234e-02 2.2410626943241585e-01 -3.0419842640389660e-01 3.3379334894052137e-01 -1.7498283074203869e-01 -9.8813600904256305e-01 -7.5970045741616010e-01 -1.4977042972944332e-01 -8.7148803483313486e-01 2.6170721748553127e-01 -1.2008378045115364e-01 -2.3651617197972712e+00 3.2587723978284799e-02 -4.7675643936855749e-02 -1.9195820688963039e-01 -1.5206390490519084e-02 5.8351736508005292e-01 -2.7641686534660259e-02 2.6415360462582327e-01 -1.0267509170067513e-01 1.0528216473084884e-02 4.6395153443193848e-01 -2.3846079386866847e-01 2.4337648192712891e-02 1.0165880191342467e+00 1.9603659506521559e+01 3.5108769841615484e-01 1.3373566731898556e-01 -4.4504064648100794e-01 -1.4773172586618832e-01 -6.4722067868736577e-03 1.4599532966653277e-02 2.0147678682985060e-02 -9.9740150650552550e-01 -1.2288749753042849e-01 7.0513700026034032e-01 8.3223295844398315e-01 2.8092526921242644e-01 -5.2769798950074005e+00 -3.1455554335904026e+01 -1.0158774169737528e-01 3.1859741375884809e-01 3.5722769146799260e-01 -3.5532996212505008e-01 -3.0443959030898793e-01 3.8327821573161391e-01 -1.1890442419164504e-01 -5.5915474542307742e-01 -3.1606588929198576e-01 2.4095364986511868e+01 2.9119823643668639e+00 1.8517562700221146e+00 1.0893028386062724e+00 5.4948469798388260e+00 6.8315885610051197e-01 1.9882622480727181e+00 8.9041625691994597e-01 3.4830435641762847e+01 -4.8221026978743154e+01 -1.8617434157889704e+01 3.6016868097574917e-01 2.3152054448641195e+00 -7.7744082591391361e+00 8.3770294139521440e-01 1.9585771696505998e+00 1.4067985806518695e+00 -7.8499187806110058e+00 -8.0275838064233085e-01 -1.2403812771276478e+01 2.4458366258565095e-01 1.2051638351737122e+00 9.3465579358377511e+00 5.7255532688442070e+00 3.3253909562443373e-01 1.8388362808911751e-01 -3.8366617016708346e+01 7.8299492619229170e+01 9.1483523766517578e+00 2.3055845847597713e+00 -3.9496618406987167e+00 5.3502723146887181e+00 5.4985048335095925e+00 1.2184839915709301e+01 -7.0589075458224260e+00 -1.2357159777538186e+01 -4.9948193767865703e+01 3.3130767648378708e+01 7.7689199634138610e+00 -1.0643505900523090e+02 5.1196662602206317e+01 3.1734243525537394e+01 5.4586502515599058e+00 6.3330923729185873e-01 2.2974280088188380e+01 3.5365729737365839e+01 -1.0087363802124287e+01 -1.5160872121337250e+00 -3.7645721630457274e-01 -5.0546111374537350e-01 -2.4238716276143490e+00 -8.2323690165069419e-01 -1.0333647612579688e+00 -5.5697497785224186e+01 -1.5342976305702905e+01 -4.2823806043328432e+00 5.5420558176801216e-01 -1.3213278278044527e+00 -5.3310653007416118e+00 6.2551292415313497e-01 -7.8217906890238753e-01 8.1164102919200021e-01 -6.0205353511925750e+01 -1.2937778881208504e+02 1.1929637850012085e+01 -6.2177742329824059e-01 1.5638988345755536e+00 -5.0275199392916079e+00 -7.5457374872440397e-01 -3.1044253319294057e-01 -4.0462749313913138e-02 3.7074325215506860e+01 -1.8466066057000035e+01 -1.8156438695742736e+00 5.7982374986045349e-01 9.1686504834507332e-01 2.5331911016247375e+00 -8.5034978383138338e-01 3.1687993283773619e-01 4.5791851565127528e-01 3.4140711854862275e+01 -1.1908676481858322e+01 7.4416596685543936e+00 -7.1416388691045718e-03 -1.9649491556582461e+00 -2.3268102663760146e+00 -1.7496150971284088e+00 -1.2204259846747267e+00 3.0496433409545087e-01 -3.6058752078679390e+00 -3.8453065278183431e+01 -1.8192441946737972e+01 8.1944803533974486e-01 2.6167158448450039e+00 -2.6428280425295725e+00 1.6760856379744631e+00 1.7031720024953207e+00 9.4794909411516848e-01 -1.5415083147679297e+01 1.5004150158178163e+01 -1.4288404589971151e+00 5.6723063870772750e-02 1.6747034120071760e+00 5.6357983224305030e+00 3.1298922382246985e-01 6.8781965929442324e-01 -5.5354114425340217e-01 -8.8117354362172591e+01 -6.1016681260946996e+01 4.7188542240663764e+00 2.3904319654664925e+00 -6.5450673895032878e+00 5.9717826720891196e+00 -1.2697843603907302e+00 -1.0291440323423298e+00 6.6964887943276770e+00 8.4071995817871510e+01 9.6090524457476931e+00 2.0609175895711815e+01 2.8225456853980724e-01 -2.2795824768953707e+00 -7.3415540570813675e-01 -1.0111773929613150e+00 -1.1406814410651940e+00 -2.4811520695549660e-01 -1.1630594890109387e+02 -2.0373550233310530e+02 3.3364323328539001e+01 3.7949277015388923e+00 -9.8107414665244619e+01 3.3992269296268191e+01 1.7618050392738517e+01 -5.2535719795855362e+00 2.0772351839464993e+00 -2.2595256859289563e+01 5.2437603053555470e+00 -9.4648772521047264e-01 2.1835538779252772e-01 1.9298141604834438e+00 6.9179287834597059e+00 -1.5697265660912496e-01 5.0782897605002653e-01 -4.3162840222584009e-01 1.5364945947783859e+01 -1.6183708328805718e+01 
      </Row>
      <Row Index="210">
        1.7323485064580174e-01 9.4806229611941184e-02 -9.3730007456706232e-02 5.5673351714598596e-01 -2.3293545263208884e+01 -9.9745165076359998e-01 3.4931301184380237e-01 -4.1567289045941846e-01 -5.3509118871138828e-01 -1.6185068983140619e-01 -1.5246424819730675e-01 3.9345417406069272e-01 -2.2884798512705462e-01 -9.0600562568126417e-02 5.8709615790803937e-01 -3.3215462697209741e-01 -3.7729929896737957e-01 -2.0143623999342708e+00 -2.8111143981109308e+00 1.0870417630047178e+00 1.0130974640246926e-01 -2.9368218019322001e-01 4.0241697290264322e-01 8.9301305826599453e-02 -1.7990604020620693e-01 -4.2512138791579090e-01 -1.1300950495003121e+00 -2.2386198869164664e-01 -2.1271755828352390e-02 2.4804595670462959e-01 -7.9831365246821662e-02 -7.7454426368355200e-02 5.3626264603189000e+00 -3.0662468697867373e-01 -1.5122173713180365e-01 5.8757625889316767e-02 -1.0676992795327056e-01 5.4184271207255552e-01 -9.9765383138654684e-03 9.0270347053431010e-02 1.3138019137305434e-01 -1.4813313501488568e-02 -1.1002669656789399e-01 -8.7115047714831917e-03 -1.6009842075781400e-01 1.6671379313948904e+00 -8.5795245029683276e+00 -4.1609952162695540e-01 7.8463447774836048e-02 -3.1374704679920029e-01 4.8843684996391357e-02 -6.9059509001336422e-02 -6.8812262168702301e-02 1.5251462901711699e-01 -6.3130375786828097e-01 -1.1444740796411715e-01 -1.0447285037400211e-01 -2.7444282202078130e-01 -2.1178970169125844e-01 -1.6414616028892866e+00 -2.0775341306261907e-01 6.6091376397948665e-01 -2.5617558799447582e-01 1.2615910102546773e-01 3.0978136033243753e-01 -5.5083265695653660e-01 1.2816714686030459e-01 -4.6257011406172888e-01 -9.2183175570911047e-02 1.2372840824371005e-02 -3.4705691220478343e+00 -4.8389394894907820e+00 2.5549032295652835e-01 -7.7001169115450807e-01 3.1318823234950344e-01 4.1324054191842663e-01 -6.6314356577024958e-01 -4.9066721593352031e-01 6.9472793249238407e+00 -5.4940204660066328e+01 -1.6694347565525334e+00 -9.4432155413791685e-02 -6.4777552284115814e-01 1.0441271538153956e+00 -5.6583040609600133e-01 1.0804463819812815e-02 3.4526046280499822e-02 -1.9455423708257058e+00 8.9282709482160953e+00 1.3382677990118424e+01 -1.2385381642196908e-02 -2.2062346847830572e-01 -1.0865472072253604e+00 -1.9271074313496528e-01 2.3850305548646988e-01 -4.6542606947585191e-02 1.2797512639469346e+01 -2.4171781039010469e+01 3.4186512206835573e+00 -1.4862965645210946e+00 -6.4598560395628191e-01 -7.2799636440149040e-01 1.3792859638358719e+00 -1.0938118874798750e-01 2.8075302365979893e-01 1.0045284726507987e+01 4.6580223860392202e+01 1.5305405097321284e+01 -1.8478734898890522e+01 -9.5444123038194171e+00 -1.1338623951379617e+01 2.8580389501857798e+01 1.0224649309782913e+01 -1.4142310979097543e+01 6.0220591167767452e+00 -2.3860120679799810e+01 8.9451553696080452e+00 2.0677568054473499e+00 -1.0046830301792511e+00 -3.4670795456795744e+00 2.9293844403795921e+00 2.0873403368353149e-01 1.3230597773004236e+00 2.0453581586190467e+01 -1.1890824588675059e+01 3.0843569830586830e+00 -1.1690503441711825e-01 7.8040417128875106e-01 4.9596261920521911e-01 -1.7899316624468860e+00 -1.8797635451019867e-02 -3.3052721289073039e-01 -3.6815322057664048e+01 2.1053996657959360e+01 1.3018440782787231e+00 5.0726356181587912e-02 -2.1957417313199556e-01 1.9521753249100016e-01 6.6073103533225996e-01 7.0477947254900508e-01 4.2995125743644780e-01 -1.5090933523964281e+01 1.6220651610174968e+01 1.4053671536860293e+00 -2.3604879192305167e-01 -4.7399811250193125e-01 -1.8440638067695119e+00 3.0269316910931465e-01 9.4684896635329918e-02 -8.2146374309415737e-02 -2.9370455300030585e+01 -3.5594221648596800e+01 -3.1284954750022962e+00 -1.7033946465397060e-01 1.2812098336860345e-01 5.2044430406016318e-01 -2.0023321854153844e+00 -5.2668375959118352e-01 4.5710682238215261e-01 -2.8384488625326412e+01 -3.1789370525407264e+01 -3.5410571848480004e+00 2.4150900105030138e-01 -3.5271395312384612e-01 4.5171206008399167e+00 -1.2813447503967090e-01 -2.0756754569631486e-01 -2.1404556474933889e-01 -1.6955130343545875e+01 1.2876884095088371e+01 4.5037778091065661e-01 -1.4901721727851391e-01 -3.6595191907541391e-01 -4.9030390772863086e-01 -1.2695825039577002e-01 9.0167876839699068e-02 -2.4238885839151636e-01 3.9334429953099971e+01 2.8433091135636346e-01 -2.9147184685610057e+00 -9.7441561734052440e-02 -1.1499746523593046e+00 -1.5508828897197873e+00 2.7423806466037473e+00 3.2332578381620070e-01 -3.8941808656620935e+00 -8.7410058623338038e+00 -8.0215331660720040e+00 1.1386292987562001e+00 3.7318880376598562e-01 -1.1683539972437984e-01 -1.5799887444280003e+00 -1.0911740798851781e+00 -1.1456290902679411e-02 -1.1432378209617688e-01 -2.3409428012905209e+01 2.2369180952704571e+01 4.8060336142302873e+00 -1.4934335495490085e+01 -8.5495024277412881e+00 -1.1755682756585836e+01 2.6061673984480386e+01 9.5698778871831003e+00 -9.6481560095651382e+00 -6.9158408353762368e+00 -1.9516765463674357e-01 -3.1405661242247446e-01 5.3837325266343683e-01 -1.4298957105781618e-01 -1.5697265710533559e-01 1.0679644475202568e+00 -1.5416771287484599e-01 -2.2225028585717155e-01 5.7520778680171842e+00 -6.2377680168942984e+00 
      </Row>
      <Row Index="211">
        3.8158457234519272e-02 3.8255806558312599e-01 -1.6058349103862213e-01 -8.8107942176338838e-01 -4.0492235636442047e+00 1.1610040024275943e+00 -1.6544006192428462e-01 4.6292471013188852e-01 1.3148041792096521e-01 -1.6066808467074534e-01 2.7543759382613775e-02 1.2429401085928049e-02 -1.7044517011181881e-01 4.0220797759625521e-01 -3.7024143364139661e-01 1.2313068588693099e-01 2.8263785681150466e-01 5.1483350108526338e-02 -3.6855010131124800e+01 -1.6753767908111499e+00 3.8813439766989255e-01 1.0976195017345586e-01 -9.1631743218702955e-01 -3.0920976038423476e-02 -4.3218261605701080e-02 6.3515463202428180e-02 -8.6540068492757882e-01 -1.1991698099834069e+00 5.8180318485344884e-02 -1.3012519575902104e-01 -9.3658873703226675e-02 2.4169727935753826e-01 1.2056252815887092e-01 3.0694595776980194e-02 -1.6734371655751090e-02 -1.5032242977572352e-01 1.9964814950405696e-02 1.5762748113349767e-01 2.1859757289711013e-02 6.4488336876589614e-02 -9.0122875167011784e-02 -5.2857388875661604e-02 2.0344427746174176e-01 2.6585510907749210e-01 6.6285552893539545e-02 -1.6757444510024015e+00 1.4902191640104220e+01 -1.8482963724859047e-01 -1.5047710957152205e-01 6.0348344596247472e-01 2.9613285151493418e-01 -2.8708494956413588e-02 -1.2660745985465655e-02 4.2856829419548159e-02 1.1926194816315387e+00 5.1084688116263544e-02 -1.0837474150023985e-01 -4.2080297961463486e-01 2.2706459665968026e-01 1.0033083907626974e+00 -1.3072369515159153e+01 -8.7033636557919003e-01 2.4228307427744689e-01 -2.8453435586690379e-01 1.0620734966477130e-01 -8.9968398625233315e-02 -1.1119216787511700e-01 4.9083470261896522e-02 -6.0354112588978381e-01 -5.9184190010317195e-01 3.1794291691926901e+01 5.5456244728404158e-02 7.0006135330430175e-01 -5.3767601539641419e-01 3.5558085733259759e-01 -5.2250615972899084e-01 9.8298845834210880e-01 -6.8403811964355277e-01 -3.1580873309187382e+01 -2.1295035314542105e+01 1.3666013148434786e+00 -2.0663805066601171e-01 -3.6076307456664836e-01 1.1236765926032604e+00 1.1668365300708388e+00 -5.6383738945949524e-01 1.7820327555801674e-01 5.4624703035437051e+01 3.3455314508066067e+01 -1.5607196913352482e+01 4.6365991572515308e-02 1.4454960558438170e+00 -1.3753613576315438e-01 -9.3875977279380329e-01 9.2433520649127132e-01 -3.6351001388265936e-01 2.3388581984829671e+01 -7.0031607202877808e+00 -6.8309313475501767e+00 1.0881651350331414e+00 1.1500889699617787e+00 -1.5424248247301620e-01 -4.3610459367149446e+00 1.7181941338128590e+00 4.2948303823073548e+00 -7.6356574584755208e+01 -3.5049804885427740e+01 1.5324753058016768e+01 4.0853068481161596e+00 7.6872183874790316e+00 4.1785479475760638e+01 -3.7732408440265587e+01 -1.2828826282731156e+00 7.6850765879317517e+00 -1.4713625369854981e+01 8.8935048097645009e+00 -4.8930892689422762e+00 -3.3119342056876444e-01 5.6344544016319560e+00 -6.3632822518825041e+00 -4.1504149901365039e-01 -9.9987035466625684e-02 -1.6347211491785174e-01 -6.7972684352396755e+01 6.5613936631107208e+00 2.5994799229060845e+00 2.9233823490472849e-02 -1.6644023549399662e+00 -1.2763503005054027e+00 2.2951972155722160e+00 -4.4290429840934475e-01 4.0067215773990661e-01 -2.5521430430920191e+01 -4.4485595614116619e+01 2.5043913010952679e-01 -7.4228562167030976e-01 -8.4990434436633677e-01 -3.0988241111981552e-01 -5.1266543214870808e-01 -1.6524206829780468e+00 1.4405321685175743e-01 -2.7907131781676071e+00 -7.9117545638118827e+00 -1.3532805667027787e+00 -8.5987389978096074e-02 5.0630387500996221e-01 4.4617678490936896e-01 -1.5259729651938869e-01 8.3102640228519453e-01 -1.3539645228544828e-01 2.6794237412309485e+01 -1.3701975918387689e+01 9.7662334409278628e-01 -2.7089150643438753e-01 7.0085489324219452e-01 9.0787539342852597e-01 7.4026560796692920e-01 -1.4909401156429685e+00 8.1797763490824593e-01 4.4280999470867755e+01 2.0082199495164787e+01 1.7265083653649071e+00 -6.4972750507352472e-01 -5.2909527470428657e+00 1.6935573518760521e+00 2.7327222996872962e+00 8.2091167972860291e-01 -1.0101810728270308e+00 2.8900739369964413e+01 1.0576576151581321e+01 -2.7088454687434478e+00 3.1230858101518510e-01 4.8609981720915130e-02 -4.7308095226458136e-01 -9.2961254298986162e-01 1.4258855815372002e+00 -6.8049601205812316e-01 -5.6746200205489913e+01 7.3851569275498946e+01 4.5332851518219286e+00 -3.7294413544929367e-01 1.3085322432334578e-01 2.5686748202811032e+00 -1.0686177373994639e+00 -6.4585620896692941e-01 -1.2738561697459807e+00 1.1308458371164473e+01 -4.3876738611998007e+01 5.2563741428002686e-01 1.4097160177766135e+00 2.3414379731487998e+00 1.7028898040100842e+00 -1.2506893867030158e+00 -2.5701619782744638e+00 9.0167699348040031e-01 -5.5945615143027680e+00 -1.8984486880958121e+02 3.2149983198423456e+01 2.9606768218891046e+00 9.5656328509007835e+00 3.7031521226874318e+01 -3.1136428370419871e+01 -4.3774584412005257e+00 5.7658172906188634e+00 3.0214281572865502e+00 1.8197498205515593e+01 -6.1593549025584715e-01 1.0520987472201000e+00 3.5034471929594257e-01 5.0782897620144141e-01 -1.5416771509093596e-01 3.4752350613268774e+00 -6.0657435325867937e-01 -1.4817379545396525e+01 3.3203959628397399e+01 
      </Row>
      <Row Index="212">
        4.5348650658399414e-01 -9.2341647020116113e-01 6.4459797680044773e-01 -3.1299918448451081e+00 9.5363846008740438e-01 5.3340159448046798e-01 -2.2118964790381312e-01 6.5619689263667880e-01 2.4563735234646700e+00 -3.7262156773791566e-01 6.3281437838779642e-01 2.1934648017965941e-01 2.5676003967373617e-01 -5.1723631154854699e-01 -1.0885101447380734e+00 4.1821975139274770e-01 -4.7770306511552008e-01 8.3595959094736827e-02 4.9469443395645612e+01 -2.4332920932911151e+00 1.0464974236905888e-01 6.5361301185033649e-01 -1.8797959767052266e+00 1.1971100460964124e-01 -5.2969075442803160e-01 4.1869107332765054e-02 7.2238438716283326e-01 2.1708590969545156e+00 8.7504358708088148e-03 5.1236047604504620e-02 -4.3805500486655546e-03 7.5480293125121989e-01 -9.1322991557394744e+00 1.5473527773796647e-01 9.4685258825030871e-02 -1.9983850557224514e-02 4.4571648686826393e-03 3.3527257493900997e-01 -7.4523748813657420e-02 1.0740082708094789e-02 3.0640527608019852e-01 2.4035559602294310e-02 -3.3293223913383585e-01 1.6432923583406023e-01 9.2991592442464821e-01 3.2928792144391537e+00 -2.9857654281168834e+01 1.4870707269720782e+00 -1.2165302945215473e-01 5.5037645113024780e-01 1.6708960224372049e-01 3.3368774728531614e-01 4.4840720018014590e-02 -2.7498521629411243e-02 5.3354609044959034e-02 2.8137785754352862e-01 -7.6838837429205764e-01 1.0542231357714869e+00 -2.3286441908092570e-01 -3.2933978208558301e-01 -2.7433013576950543e+01 -8.2202107456217410e-01 5.9040751004186376e-02 -1.6258061152392855e-01 -1.4881178503782913e+00 -3.4134427639751674e-01 -8.1383448755336973e-01 -1.5717101204873529e-01 7.4522708454617970e-01 8.7558625349539665e-01 -3.7875472385253033e+01 -2.2099127800143776e+00 -5.8098171548139521e-01 1.2022933277999073e+00 -3.3444308888879277e+00 -7.3102357119320516e-01 8.2144830373308286e-01 -8.5158279315848162e-01 -8.8816198277236253e+00 3.7987541787805014e+01 -1.1671920359531214e+00 4.4444820583309053e-01 -1.7327952437756267e-01 -9.5602612343645887e-01 -1.3284551594693710e+00 -6.0619912235921092e-01 -5.8994614720134564e-02 -1.4510038760561656e+01 -1.3197516831583289e+02 1.4183590848065933e+01 -2.9670918753338960e-01 1.1595362097869994e+00 1.2047828839386057e+00 -4.1680419787990566e+00 -1.0744276169935736e+00 9.5499685814340540e-01 2.7475787793800009e+01 -4.7744242751016827e+01 3.7786767346906345e+00 -3.6480520715531566e+00 -7.9576128093359557e+00 9.4607883094629983e+00 5.8676521794393892e+00 7.6504491202543283e+00 -1.2189446114428758e+01 4.4916994503096248e+01 -9.4046650710140000e+01 -7.8776121123918983e+01 1.6503988010321692e+01 -2.6243896162522688e+01 1.9434068937158258e+01 1.8977466154354317e+01 2.5252869360661915e+01 1.5499165506675761e+00 4.7264973743026530e+01 5.2123916568429593e+01 1.0236392507786604e+01 -2.4383653546646231e+00 6.0139199582795300e+00 1.6762334108988419e+00 -3.5662506596358980e+00 1.7595747724739219e-01 -2.9642623544088682e+00 -1.0468211718034581e-02 8.0259525148740067e+01 -3.9242632492523626e+00 -7.2529299723383123e-01 -1.0809877428032451e+00 -2.0139381095947897e+00 -5.8365473601350004e-01 -4.9419526363643307e-01 -2.7727981303862421e+00 3.0411987845534895e+01 -3.5765514349868681e+01 -1.6417866642631225e+00 4.8933915165609720e-01 1.0160609991697811e-01 -1.6275631906162289e+00 2.7595643718802876e-01 -1.0850574760379494e+00 4.8240318113691405e-01 5.2947472646283131e+00 -4.3379247613545431e+01 -1.7195848847004527e+00 9.0513183180926515e-01 8.6111193998021918e-01 1.4136734077533220e+00 1.3774206275968481e-01 -1.8115696474467704e+00 7.4050571485990702e-01 -1.7891945037135883e+01 4.1472609563251353e+01 -6.7282448607602419e-01 1.9603432037448787e-01 2.1056638400750671e-01 -2.2591443498072294e-01 -6.5688092418902500e-01 1.3171163303163347e-01 -1.6011746229176040e+00 1.2619138543814188e+00 9.8477711198025645e+01 -4.5117753263757550e+00 6.5550647350395508e-02 -2.6145072701140180e+00 -1.2439326583428283e+01 -1.9743899234843667e+00 -2.1854948984476295e+00 1.6566534285624925e+00 -3.8543859042997610e+00 -4.0981283410012111e+01 2.6873901703129377e+00 -3.8398369092764284e-02 2.7687390356913966e-01 -1.4558792435468604e-01 1.4235920586029351e+00 4.5150896036901855e-01 1.7407134594615812e+00 -4.1793371547377319e+01 -5.1343424673617392e+01 -5.9301918923536050e+00 3.6543740795696117e-01 1.5356048847124839e+00 2.5862383129334603e+00 -2.4290759959849026e+00 -2.2009785185289865e+00 -8.1085839924933856e-01 -1.3247356832065838e+01 1.0843077082108357e+02 -2.7798985119488862e+00 -1.6840086137381860e+00 -1.5044808713598741e+00 3.3759658565062978e+00 1.9551344995425097e+00 3.3279654298669392e+00 2.4622825534918036e-01 2.3300580388749950e+00 1.1983690251456117e+02 -8.6693512431657268e+01 1.7095504587251661e+01 -1.7722205743051745e+01 3.1595372357380427e+00 1.5756217705068440e+01 2.0123819058302214e+01 9.5896700482546002e+00 1.3373134209065938e+01 -7.2998597873239234e+01 4.5045107254731487e-01 -4.7389160391406904e-01 6.5497062452597277e-01 -4.3162840181688011e-01 -2.2225028371854805e-01 -6.0657435654164260e-01 5.4970406417412505e+00 2.7379374578469431e+00 -7.0971695520824241e+01 
      </Row>
      <Row Index="213">
        -1.3362097131405903e+01 -8.4740272300150536e+00 -3.0675238515332239e+00 2.7974443257306120e+02 4.8279642870313255e+03 1.8468929510696171e+01 -1.0064328525291330e+01 4.4380990934428155e+00 1.7224123822458751e+01 -2.3352770550216633e+00 3.0987295329407516e+00 1.7173629388134941e+00 -1.4205131279288253e+01 -1.5249602182011124e+00 -4.7993544711953291e+00 -8.7433247401904737e+00 -1.4824879221414449e+00 -1.3592015833390178e+01 -3.7811020907486090e+03 -1.4417077744026756e+01 6.9080395002270052e+00 1.2701519147088760e+01 1.2136376539968524e+01 -1.7461344873099733e+00 1.1313556801669165e+01 -6.0280593083798522e+00 6.4975304331426742e+01 -4.0260001838510107e+00 9.8805956550677365e-02 -4.5703202931472333e+00 -1.4050870010857579e+01 -3.5549637426447589e+00 -2.2507834108083625e+02 1.0932552937352284e+01 -8.9592793428073492e-01 -1.0425460827354982e+00 -7.7621786675354087e+00 -4.3638653180896654e+00 -2.2026028986510937e-01 -7.8387746887719914e+00 1.2459594882850070e+01 2.8954149565663556e-02 -1.0034686415197029e+00 -3.9350290201182361e+00 -6.6500392827401811e-01 -1.4920894727820996e+02 -8.6688943831699726e+02 3.7126419324882590e+01 -2.8021296932765836e+00 2.2440640393688227e+00 -2.0951019502971121e+01 -7.0144400884413471e-01 4.8895977805990363e+00 2.6734834161459275e-01 -8.2660078762259218e+01 6.8804577868147021e-01 8.4763752840547113e+00 6.6420345414626354e+00 -7.4201952006806096e+00 -1.0041839576648636e+02 2.7496269581225934e+03 4.5040676441824871e+01 1.4727404792881998e+01 -1.9310115461166788e-01 -1.8810439757350196e+01 -1.3164084359586923e+00 6.8320467272042666e+00 2.5065845428116518e-01 5.7373642379930061e+01 1.5627180620519781e+00 3.1898918990817037e+02 -3.6079832536270078e+02 6.6458887256558867e+00 2.0797775131679373e+01 -7.0862472548033111e+00 -6.5589292243666932e+01 8.2143602887086331e+00 2.9747028197802877e+01 1.9806627089555201e+04 -9.9914326431912195e+02 -4.6329507157663465e+02 -2.0642809797424206e+00 8.7857961443514796e+00 -3.0176327041874174e+01 -2.0382699096051510e+01 1.5521273356632719e+01 1.3616292421385992e+01 -3.2901831494102487e+04 -4.7178039672842715e+01 -1.6181402928507596e+03 -7.2631009975621623e+00 1.2250296626436921e+01 5.3989319414361489e+01 3.9555336748540412e+01 -1.7546795373133293e+01 3.2030537622944422e+01 -1.2936801186516881e+04 1.5514835792213707e+03 2.3326653130244813e+02 2.9430220113089797e+02 1.7976617456568238e+02 3.0892959213003724e+02 -1.3308459018030771e+02 -6.8086940011950190e+01 4.7855757519361919e+02 2.5796320028193702e+04 -5.0578910058116526e+02 -1.0500545434333908e+03 2.9301286143665504e+02 -3.9262841248503164e+03 3.4619222953236458e+03 3.2749874087461358e+03 -8.5641481799675944e+01 2.0783667195545570e+02 3.5034101115944795e+03 4.1858251691757869e+02 1.8977667788945837e+02 -5.6911283237721889e+01 3.8618833485757932e+01 1.9301692576341338e+01 -8.2418330021644124e+01 -4.1960566174959695e+00 -3.2084577078017901e+01 1.2934761862687999e+04 2.9485221045906655e+01 -3.3161229689547326e+01 1.3861970805618586e+01 -1.2214867067232262e+01 -1.6482051316174875e+01 -2.7736110812824336e+01 -6.7412000049316703e+00 -1.2920618517857065e+01 -2.6515219713529805e+03 1.1505473552361655e+03 -1.9192434944145498e+02 -5.9373040973595153e+00 4.3684130509573151e+00 -6.8216091425565537e+00 5.1382464900667401e+01 -7.4693819255398921e+00 -1.1016487338976106e+01 1.7241371112263179e+04 -2.8076273279299494e+02 -3.1865035749855451e+02 1.6906379596172201e+01 6.5216893040866125e+01 3.0152985693891242e+02 7.9408425827859901e+00 -4.2467518596628224e+00 2.1044220878311535e+00 -3.2731117277245503e+03 1.6033952304738341e+02 7.8936885140778031e+02 6.3336255532467476e+00 1.1925663340371102e+00 2.0609198856283911e+01 1.7160816034798700e+01 -8.4477970808586633e+00 -2.8120097155766416e+01 -8.7017566401450895e+03 8.1390618061181158e+01 -1.1401935186951305e+03 -2.2854023999657329e+00 9.9749161366562475e+00 4.8328393199946731e+01 -4.0434757797591374e+01 3.9010230845724436e+00 2.3985245932615726e+01 -1.3080689839268744e+04 1.7236541579465847e+02 -3.4205052668871940e+02 -4.2893217955828504e+00 1.3471490435025771e+01 2.1289944610354723e+01 -3.4930410975248378e+00 -1.1158621713941557e+00 1.8704816704427913e+01 9.5825556799364276e+03 -1.8138279370968230e+03 -6.8855687062293873e+02 5.3067199512242254e+01 -6.3355611503531691e+01 -1.6859885417274199e+02 5.1126739211005770e+01 2.1960062590880760e+01 2.4097165389951556e+01 7.4676715052092422e+03 -2.4460913139861077e+01 3.4474703315994702e+01 -4.1174624796140051e+00 -1.0110636482437258e+01 -1.6455251235005562e+01 -2.2045296949363546e+00 1.0505539898756524e+00 -6.4081734396604588e+00 -4.1870851560523733e+03 8.6923397427319287e+02 1.1442473647943116e+03 -6.9345863051622132e+01 -3.9512511454888154e+03 3.7167540536795859e+03 3.2316996229895080e+03 -3.4683080112332377e+01 -3.6113121047369862e+02 -1.1386297030648297e+04 -6.4387343746846454e+01 3.4857724302913527e+02 2.7645712239609566e-01 6.0086194722510982e+00 1.5364946030398642e+01 5.7520788037008970e+00 -1.4817379627213086e+01 2.7379361200291896e+00 8.6613531387809253e+03 -8.3836915636790891e+03 
      </Row>
      <Row Index="214">
        -2.7176387225561484e+01 3.4145426177943591e+01 6.3658926572134078e+00 -3.8611393183557084e+02 -9.2058300017224392e+03 2.2791145762894303e+01 -2.9406107716968108e+01 -2.2917660080095629e+01 -1.3572828690001188e+01 1.1769341238709103e+01 -1.5242611875667080e+01 -1.7857992878211007e+01 1.3701337268001225e+01 2.3308519337393339e+01 8.2373582662403351e+00 3.2401101801246114e+01 2.6905243669170886e+00 -7.6424545896414202e+01 6.8854307456053793e+03 1.4198276497538063e+02 8.1861917086753238e+00 5.7293037967237410e+00 -2.6414124568059378e+01 1.4803450872066605e+01 5.4025563474988303e+00 3.7311467687068216e+01 -4.1129041778476676e+01 -3.3171066178380897e+01 4.5138338629112695e+00 3.7755738443520386e+00 2.3683453112056668e+01 1.0973765982635086e+01 5.5059475855954224e+02 -1.1148352961574346e+01 1.0490837038843893e+01 3.6502768792670395e+00 1.4889426114852540e+01 -2.3323525974316908e+01 3.9020119219285334e+00 -6.1999082008187543e+00 -6.0751763639564160e-01 -2.6920546864118933e-01 -3.7572880902971519e+00 6.9876267318031751e+00 6.9448221590537287e+00 3.5454373605822911e+02 3.9403452391755127e+02 -1.1225908243113918e+02 2.1199125204420852e+00 -1.0178268071969796e+01 2.8573880773054952e+01 8.0213595796249137e-01 -4.2466818987749093e+00 -7.4707286309774190e+00 3.5072772277868353e+01 1.1946280744296018e+00 2.2075999858948762e+01 -3.6645235711102941e+01 1.4451572556634346e+01 5.4678293310324079e+01 3.4851527288090438e+01 -1.0276467590841582e+02 2.5359512321643706e+01 1.4043604406560689e+01 1.5061703553777079e+01 2.3077468639140079e+01 -1.1615415827607954e+01 1.8575952054337904e+01 -8.6032505784714886e+00 -2.1455282413107099e+01 1.2100305567889242e+04 2.7432957206156425e+02 1.3408733474650035e+01 -4.5182299525593407e+01 -2.8765445612836629e+01 1.7952726343714312e+02 -2.2852682703989558e+01 -3.0140265819978595e+01 -2.0872114201627905e+04 -2.7788346850395028e+03 -8.7256229582591914e+01 -1.3440641128036077e+01 -1.9716981478966773e+01 7.0081737088970840e+01 4.7626755388417223e+01 -1.1578961114563754e+01 -3.5782941717191761e+01 3.4707045122507028e+04 1.8490176321164705e+04 1.7866189386325423e+03 4.7340495554127017e+01 -7.4517242888319743e+01 -8.5033258874826060e+01 -5.0251564532654811e+01 -3.0734165213190465e+00 -1.0036360662997521e+02 1.4261781311784405e+04 6.7113395809211652e+03 -7.2692578920861706e+01 -3.8560624787728921e+02 -5.6613247180647159e+02 -7.5084658107324140e+02 2.3356321673004277e+02 5.9426411111427251e+02 -3.8907739501162985e+02 -2.8296362144447397e+04 -4.8906933602913341e+03 8.9995546557528432e+03 -1.3680157102243097e+03 4.0935190919374472e+03 -1.0885425678642641e+03 -4.8084951955457800e+03 1.0887662882627276e+03 -1.7515955355323513e+02 -1.7707652503082063e+03 -7.2806897950132043e+03 3.5849531443219166e+02 -2.3848599540658086e+01 -4.8952852334745694e+02 7.2799760639594388e+02 1.0874013941370140e+02 -1.1779675574309749e+02 3.1274992652958645e+01 -1.2986231338289566e+04 -9.5509219826543704e+03 -1.5617970885313116e+02 4.6153436160127612e+01 3.2255873796995729e+01 7.7589513675411581e+00 -2.2509576852346072e+01 5.3469806915664776e+01 9.7027809181668090e+01 1.5925395758021623e+03 -1.5783288555580657e+02 4.1291641503717983e+02 -4.8996911609924609e+00 -6.1061132780596381e+00 6.6133855927851982e+01 -6.9973655760652036e+01 3.5883614676095021e-01 -9.1470464457154321e+00 -1.6768213810634334e+04 7.6838138466693927e+03 1.1629368007136509e+02 1.4481279896568822e+00 -1.8139058890286833e+01 -4.0693213518604171e+02 -2.5206281284234137e+01 6.1608608935823895e+01 -2.6238228979036649e+01 3.6959611875549890e+03 -8.7006452766234288e+03 -4.8767625567503273e+02 -2.2532025801743885e+01 -3.2257662414456718e+01 -6.1484668285120279e+01 9.4855043963943899e+00 5.2627348415468987e+01 1.4325208088082036e+01 5.2198184326961637e+03 -6.6588061900842004e+03 3.0685599763994105e+02 3.0195027618272434e+01 -9.1125332651281497e+01 4.9534566849470139e+01 7.9102312424132833e+01 4.0998398359954081e+01 -2.4064330117083955e+01 1.3280186632734258e+04 6.7577438553650863e+03 3.8129374924441800e+02 2.5032596522521089e+01 -2.3550151868024841e+01 -1.2430669611727353e+01 2.5937935631623986e+01 -3.3871402281411520e+01 -1.5006355825367791e+01 -6.2394245129507035e+03 -1.4165737505345372e+04 6.7605817249679239e+02 -2.4387736566525067e+01 2.3631403457699344e+02 2.2482558392590727e+02 1.0818956757793785e+00 -1.3944095620567989e+01 -6.3673209348980436e+01 -4.6159543612375746e+03 -1.5939433381242678e+04 1.5200575795909390e+02 2.2570476885844982e+01 8.7239045977272326e+01 2.4468042130334652e+01 -2.8203669633017853e+01 -6.1535739148318498e+01 -3.5036588231159840e+00 4.0511380732506514e+03 -2.9968557804595268e+04 6.8082954690250335e+03 -1.0041095461395120e+03 3.9899385449010879e+03 -3.6501935969680198e+02 -4.8316812538345321e+03 4.4863282027699927e+02 4.3268681551657073e+02 1.1732150155667332e+04 1.6756387539942531e+04 -3.0263055514179763e+02 4.6630810385628138e+01 -1.5459374849656797e+01 -1.6183708692900836e+01 -6.2377692068776014e+00 3.3203959771853988e+01 -7.0971692594495835e+01 -8.3836917692138159e+03 2.4759278161085575e+04 
      </Row>
    </InverseHessian>
  </Weights>
</MethodSetup>
